#version: 0.2 - Trained by `huggingface/tokenizers`
ï ¼
ä ¸
ã Ģ
ï¼ Į
ä º
ç ļ
çļ Ħ
ãĢ Ĥ
å ı
å ħ
æ ľ
ä »
å ¹
å ¤
å ľ
å Ĳ
å Ī
å Ľ
å ®
ä ½
ç Ķ
æ ĺ
å į
å¹ ´
æ Ĺ
æ ĸ
è ¿
ä ¹
å °
ãĢ ģ
ç »
ä¸ Ģ
åľ ¨
ä¸ º
å Ń
å Ĭ
æ Ī
ä ¼
å ¸
æĺ ¯
å Į
ä¸ Ń
åĽ ½
è ¯
å Ĩ
äº º
è ®
æ Ŀ
å º
å ·
é ĩ
å ¼
ï¼ Ī
ï¼ ī
å ¾
äº İ
ç §
ç ī
å¤ §
è ¡
ç º
æľ ī
å ±
æ ī
å ĩ
æ Ķ
é Ģ
æ Ń
é ĥ
å Ĵ
è Ģ
æ ķ
æ °
é Ļ
åĴ Į
å İ
å ¯
å ½
è µ
ç Ľ
ä» ¥
æ ĭ
ç İ
2 0
æľ Ī
è ĩ
å ¥
æĹ ¥
æ ³
åĲ İ
æ ł
é ĺ
è ¾
æ µ
äº Ĩ
1 9
åŃ ¦
â Ģ
æ ²
æĹ ¶
ä¸ ª
å ĳ
æ Ģ
è §
ä¼ ļ
è ´
ç «
åľ °
æĪ Ĳ
é ķ
Ċ Ċ
é Ĺ
å Ł
åħ ¬
è ½
ä¸ Ĭ
é Ŀ
ä¸ į
ç Ĳ
åĩ º
å ī
è¡ Į
æ ´
ä» ĸ
æ ¯
éĥ ¨
æĸ ¯
æ ŀ
æ ¸
æ Ĭ
ä¹ ĭ
ä¸ İ
åĮ º
ç ¬
åĲ į
æ Ľ
åı ĳ
åħ ¶
ä¸ »
ç Ń
æ İ
ä½ ľ
é ģ
ç ½
çĶ Ł
å° Ķ
åĪ Ĩ
è ĥ
ä ¿
æĸ ¹
è ¢
è ¥
ä¸ ĭ
è¥ ¿
çĶ ¨
åĪ °
å §
ç¬ ¬
å ¿
ãĢ ĭ
ãĢ Ĭ
ä½ į
èĢ Į
å® ¶
æ ±
åĨ Ľ
çĶ ±
åı Ĭ
éĩ Į
ç ¾
å »
é ¢
è ·
æ ¬
è¢ «
å¹ ¶
æľ ¬
æ° ĳ
æ³ ķ
é ¦
åį Ĺ
æ Į
é Ľ
è ĭ
è¿ Ļ
å¸ Ĥ
æĿ ¥
éķ ¿
Â ·
ä ¾
åĲ Į
åı ¯
å¤ ļ
æĶ ¿
å¯ ¹
åŃ Ĳ
ç ±
å ĵ
èĩ ª
ï¼ ļ
ä» »
ç ľ
åĬ ¨
é ©
è ģ
å¼ Ģ
çī ¹
æĸ ĩ
åĮ Ĺ
é «
20 1
å Ŀ
é« ĺ
åĬ ł
ä¸ ľ
å¾ ·
ãĢ Į
ãĢ į
æľ Ģ
æµ ·
æĸ °
åħ ĭ
åı °
å £
åĳ ĺ
20 0
ä¹ Ł
åī į
ä» £
¦ ģ
çŃ ī
åĪ ©
äº ļ
å¹ ³
è ī
æī Ģ
ä¸Ģ ä¸ª
ä¸ ī
éĿ ¢
ç» ı
åº ¦
éģ ĵ
çĶ µ
åĽ ł
çİ °
æŃ ¤
è İ
æ Ļ
è Ī
å¾ Ĺ
å» º
ç¾ İ
è¿ Ľ
çī ©
å ²
ç ¤
è¿ ĩ
è ¦ģ
âĢ ľ
âĢ Ŀ
æľ º
ç Ł
å ¦
éĹ ´
åĨ ħ
æķ Ļ
ç ¥
å± ±
ç ķ
èĩ ³
äº ĭ
ç ©
ï¼ī ï¼Į
å° ı
ç« ĭ
è· ¯
æĭ ī
åı £
è½ ¦
å½ ĵ
åħ ¥
æĪ ĺ
ä½ ĵ
èĥ ½
ç ®
å° Ĩ
é ¡
ä¸ ĸ
äº Į
è °
è Ĳ
çĲ Ĩ
é ļ
å· ¥
è Ĭ
è¡ ¨
åĲ Ī
é© ¬
å¤ ĸ
å¤ ©
å· ŀ
é £
è¯ ¥
å® ļ
è ¶
åį ģ
çĲ ĥ
æľ Ł
ç§ į
ä½ Ĩ
æ ı
é ĵ
åĮ ĸ
èµ Ľ
ä¸ ļ
ä½ ¿
ç§ ĳ
åĪ ¶
æ Ħ
ç ³
æ¬ ¡
åħ ¨
ç Ļ
å¸ ĥ
ç§ °
æĢ §
åľ º
éĢ ļ
éĺ Ł
æĢ »
æ ¹
è Ĥ
æ ĥ
èĢ ħ
çº ¿
æ į
ä¸Ń åĽ½
åħ ±
è® ¾
åİ ¿
é Ł
ç Ī
å¼ ı
æķ °
éĩ į
éĥ ½
0 0
ç³ »
æ ģ
ä¸ ¤
ç½ Ĺ
é Ĥ
åĬ Ľ
ç ¦
æ Ł
å® ī
å£ «
æ ¡
ç ¨
ç ł
ç Ĥ
æ ¼
èģ Ķ
æ¯ Ķ
çİ ĭ
çĽ ¸
åİ Ł
åŁ º
åŁ İ
éĻ ¢
ç« Ļ
è¾ ¾
ï¼ Ľ
çľ ģ
å± ŀ
æĺ İ
é »
è¿ Ĳ
çĽ ®
ç ¼
æ° ´
åı ¸
å ģ
æŃ £
éĩ ĳ
æ² »
ç± ³
èĭ ±
å ¢
è ĳ
æł ¼
å° ¼
éķ ĩ
åı ·
ç» Ł
åį İ
åº ľ
åħ °
çº ¦
åħ ³
ç» Ħ
ç Ħ
ä» ¬
åĽ Ľ
å ¡
ç ģ
å¦ Ĥ
æĪ ĸ
åĪ Ĺ
åħ ĥ
å· ´
éĢ ī
è® ¡
è į
æ¸ ¯
èµ ·
1 0
æĺ Ł
å½ ±
è¯ Ń
ä» İ
äº §
å ŀ
é¦ ĸ
å¸ ¸
å¥ ³
æı Ĳ
äºº åı£
éĺ ¿
å Ģ
æĶ ¹
å Ķ
æ¼ Ķ
æŀ Ĺ
éĩ ı
æ ®
å¿ ĥ
çĦ ¶
åĲ ĳ
1 8
å° ±
é ħ
é Ķ
å§ ĭ
æİ ¥
ä¹ Ĳ
è® ®
è £
ä½į äºİ
é ľ
å® ŀ
æĹ ł
çķ Į
åı Ĥ
ä¹ ¦
åĬ ¡
åħ¬ éĩĮ
æ ¶
ç¾İ åĽ½
çº §
æĽ ¾
æĦ ı
e r
åĪ Ļ
1 2
ä¹ ī
å¹ ¿
ç® ¡
é ²
æ ·
åį ķ
è¯ ´
æ² ³
åį ¡
ç ĥ
æī ĭ
åı Ĺ
æ Ĵ
å§ Ķ
ç¨ ĭ
å ¨
å½ ¢
a n
èī ²
è§ Ĩ
ä¿ Ŀ
ç ´
äº ¤
æĮ ĩ
éĹ ¨
åĮ ħ
åĽ ¢
ç» ´
ç» ĵ
æµ ģ
æ £
æ¹ ¾
åŀ ĭ
å· ²
é Ĵ
å¤ Ħ
éŁ ³
ä¼ ł
è º
äº Ľ
é¦ Ļ
çĽ ´
å ł
ç± »
åħ ļ
å¤ ª
éĽ Ĩ
èİ ·
åı ²
åı ĺ
èº «
ä¸ ĩ
å ĭ
19 9
å¤ «
çĤ ¹
ç ĭ
æ ¢
ï¼ī ãĢĤ
åº Ķ
é ¾
åŃ Ĺ
äº Ķ
å¯ ¼
æ º
è® ¤
å² Ľ
åĵ ģ
å¤§ åŃ¦
åı¯ ä»¥
o r
æł ¡
ç© º
æľ Ŀ
1 1
è Ļ
é¢ Ĩ
åĽ ŀ
i n
æĽ ´
è Į
æ± Ł
è¿ ĺ
å± ķ
åı ¤
ç¤ ¾
ç ı
ç§ ¯
éĵ ģ
ç¤ º
åħ¬ åı¸
å¼ ł
è Ĵ
o n
æ »
å¸ Ī
æĮ ģ
æĹ¥ æľ¬
å¹³ æĸ¹
åĲ Ħ
åľ° åĮº
åĽ ¾
çļĦ ä¸Ģä¸ª
æ´ ²
å¸ ¦
å¥ ¥
èĳ Ĺ
å® ĺ
åı ª
æĶ¿ åºľ
åı į
ĊĊ ĊĊ
åĪ «
é ª
åĳ ½
ä½¿ çĶ¨
ä¸ ĵ
çº ª
é£ İ
æĪĲ ä¸º
å ķ
æ¸ ¸
ç Ŀ
äº ¬
åı ĸ
æ´ »
è Ħ
èµ Ħ
æį ®
ç ²
é¦Ļ æ¸¯
éĢ ł
åħ ī
å¼Ģ å§ĭ
æĬ ¥
ä¸ ¾
åĩ »
ä¿ ¡
å° ĳ
æľ ¯
çŁ ³
æĶ ¯
æĹ ı
åİ Ĩ
ç¥ ŀ
è¿ ĳ
æĽ ²
æĻ ®
æ² ¡
ç ¡
æ¸ ħ
å± Ģ
çº ³
æĿ ĳ
åĽ½ å®¶
æł ĩ
è§ £
è½ ¬
å® ĥ
åī §
åı Ī
æĥ ħ
éĻ ħ
éĿ ŀ
èĬ Ĥ
é¾ Ļ
æ¯ ı
åı° æ¹¾
çļĦ ä¸Ģ
è® º
å Ļ
èĭ ı
çł Ķ
ç ¿
ç¬¬ ä¸Ģ
è® °
æ³ ¢
æĿ ĥ
ä» ¶
æĿ ¡
å ĸ
1 5
è§ Ĵ
æ° Ķ
ç Ĭ
æĶ ¾
åĨ ³
åħ¶ ä¸Ń
ä¹ ¡
ä»¥ åıĬ
è¾ ĸ
çī ĩ
å¹³æĸ¹ åħ¬éĩĮ
æŃ ¦
è ±
å¤ ´
åį ³
å¯ Ĩ
çī Ī
ä¼ Ĭ
ç ĵ
è¿ ŀ
åķ Ĩ
å¥ ¹
ï¼Ī ï¼ī
æ ¨
æĿ İ
åħ Ī
æĭ ¬
åĳ ¨
æ ĳ
èģ Į
æĶ ¶
è¿Ľ è¡Į
a r
çŁ ¥
åº §
åĻ ¨
å¾ Ģ
ç ĸ
åİ »
çĻ ½
ç¦ »
æľ ª
19 8
åĪ Ľ
å¼ º
æŀ ľ
ä¸» è¦ģ
åĮħ æĭ¬
ä¸ĸ çķĮ
æł ¹
æŃ Į
åĨ į
1 6
åĪ Ŀ
éĿ¢ ç§¯
ç¦ ı
e n
äºº æ°ĳ
è¶ ³
éĻ Ĩ
åĬ ŀ
ç© ¶
åħ Ń
1 7
ç Ĺ
æ²¡ æľī
ä¸ Ķ
ä» Ĭ
ä»ĸ ä»¬
æ´ ¾
åľ £
äº ²
æ± ī
åħ µ
å¤ į
å¼ ķ
æĺ¯ ä¸Ģ
éĺ ³
è° ĥ
å± ħ
éĥ¨ åĪĨ
äº ¦
å® Į
æī ĵ
çłĶ ç©¶
åĪ Ĵ
åŁ Ł
å¸ Ŀ
è§ Ĥ
è£ ħ
è Ĺ
è® ¸
Ġ (
ç ĳ
å¡ Ķ
å® Ĺ
åŃ £
l a
è´ ¨
ç½ ĳ
æ ļ
éĻ ¤
æĴ Ń
è ı
äº ī
ç¼ ĸ
é¢ ĺ
å¨ ģ
éļ ı
ç» Ń
æ® µ
å¾ Ī
èĬ ±
æľ į
è¾ ĥ
å¥ ĸ
ä» ¤
æ ¥
åħ «
èĤ ²
ç» Ļ
æŀ Ħ
è ¨
éĢ Ł
è¨ Ģ
çĶ± äºİ
åį ı
åĽ Ń
çĪ ±
è®¤ ä¸º
è§ ģ
å§Ķ åĳĺ
æĪ ı
åľ Ł
å Ħ
åĬ Ł
åı ¦
ä¿ ®
æŃ »
é» Ħ
ç½ ®
ç¬¬ äºĮ
å¸ Į
èĲ ¨
1 4
æĭ ħ
éĹ ®
çĪ ¶
åŃ ĺ
å¥ ½
å ĥ
å® ¢
æİ ¨
èĲ ¥
3 0
è§ Ħ
æŁ ¥
ç» Ī
è¶ ħ
æ¬ §
å® £
çİ ĩ
åħ¶ ä»ĸ
ç Į
éĽ ·
æ´ Ľ
æł ·
é¡ ¹
èİ· å¾Ĺ
å½ ķ
çĶ »
æĪ ĳ
åĲ ī
ä¾ Ľ
æĬ ¤
ä¹ĭ åĲİ
åĽł ä¸º
åħ ·
æĬ ķ
åĵ Ī
ä¹ Ŀ
æº Ĳ
åį «
çı Ń
è¡ Ĺ
åĩ Ĩ
é¦ Ĩ
åį ļ
é ±
çĵ ¦
åĽł æŃ¤
éĿ Ĵ
ä»£ è¡¨
åħ ´
ä¼ ¦
é± ¼
æ¯ į
æ± Ĥ
1 3
åĽ½ éĻħ
a l
è´ Ł
çĻ ¾
æ¹ ĸ
çİ ¯
åį °
çĶµ å½±
çĶ °
è¾ ¹
çĶ ·
æµ İ
ä¼ ¯
é ¥
è´ £
è¯ ķ
ä¾ ĭ
æ¡ Ī
è ħ
éĻ Ī
æĶ »
æķ ħ
å· ±
çģ «
ç ª
éĤ £
åĭ Ĵ
èĲ ½
æ² Ļ
åĬ ©
ä¼ Ĺ
å¤ ĩ
åĦ ¿
èĩ ´
çļ ĩ
ä» ½
èĪ ª
å½ĵ æĹ¶
æŀ ģ
çĥ Ń
èİ ±
è¯ º
19 4
æĹ ©
æĬ Ģ
é º
æĶ¿ æ²»
æķ ´
èī º
19 7
é² ģ
å·¥ ä½ľ
å® ¹
ç³» ç»Ł
åĿ ĩ
è¿Ĳ åĬ¨
å¢ ŀ
åī ¯
å¿ Ĺ
æ¨ ¡
åį ĩ
ä¸Ń åįİ
åĲĮ æĹ¶
åį Ĭ
çĻ »
ç¾ ¤
çĶµ è§Ĩ
çº ¢
ä¸Ń å¿ĥ
å± Ĥ
ä¸ ĥ
a t
e s
åĽ ´
ä½ľ ä¸º
é£ ŀ
å· Ŀ
è¶ Ĭ
åł Ĥ
ä¹ĭ ä¸Ģ
èĩª å·±
ç» §
å¤ ±
æī ĺ
ç ħ
ä¸Ń çļĦ
åı Į
åĳ Ĭ
æĺ ĵ
åĨ Ļ
é£ Ł
ç ¢
ä»ĸ çļĦ
æ° ı
19 5
è¯ Ħ
å¢ ĥ
æ· ±
èĭ± åĽ½
çĭ ¬
åıĳ å±ķ
å® ¤
é» ĳ
å° Ħ
æİ Ĵ
å¡ ŀ
éľ Ģ
è¯ ģ
éĻ Ĳ
æĭħ ä»»
ĊĊ Ċ
åı¯ èĥ½
çŃ ĳ
æĹ¶ éĹ´
é ¸
i c
å£ °
çĶ ²
æĪĲ ç«ĭ
å±ŀ äºİ
åŃ¦ éĻ¢
åĥ ı
è± ¡
ç» ĩ
ä¸į åĲĮ
å¤ ®
èĢ ģ
2 5
çľ Ł
åį ł
åĵ į
åĮ »
ä½ ķ
è´ ¹
æī į
éĩ ĩ
19 6
æ ½
æĿ Ģ
ä» į
è® ©
ï¼Ī ï¼īï¼Į
ï¼ī ãĢģ
Ġ S
æľ ¨
ç§° ä¸º
é Ń
æ Ĥ
ä¾ ¿
æ£ ®
æ´ ĭ
æŃ ¥
å¸ Ń
çĽ Ł
å¥ ĩ
è®¾ è®¡
åıĳ çİ°
çī Ļ
æ ¤
èĪ °
èĢ ĥ
æĥ ³
ãĢį ï¼Į
æĸ ½
ä¸Ń å¤®
æ¥ ¼
æĦ Ł
éħ į
éĢļ è¿ĩ
æ ħ
æ³ķ åĽ½
éĺ ²
è¿Ļ ä¸ª
åĵ ¥
ä½ İ
å² ģ
æ¸¸ æĪı
å ĺ
è¡Į æĶ¿
æ ¾
åĪ ĺ
é¡ ¿
ä½ ı
ä¹ Į
âĢ Ķ
æķ Ī
æ¡ ¥
æŃ ¢
è´ Ŀ
å± Ĭ
çķ Ļ
å§ Ĩ
å¾ ĭ
èĮ ĥ
åĩ ł
æĬ Ĭ
ç¤¾ ä¼ļ
åĨ ľ
åį ĥ
éĵģ è·¯
åº ķ
è Ń
çĹ ħ
âĢĿ ãĢĤ
åŁ ĥ
æ³ °
æĽ ¼
æĸ Ļ
ä½ Ľ
i s
f or
åĨ ł
è¾ ĳ
è¿Ļ äºĽ
å»º çŃĳ
éĵ ¶
å ³
æģ ©
åıĤ åĬł
çĬ ¶
èŃ ¦
éŁ³ ä¹Ĳ
æ ¦
äº ĳ
éĻ į
èĴ Ļ
åº ĵ
è¯ Ŀ
çľ ĭ
æĻ ¯
å® ģ
èĥ ľ
è¿ ª
æģ ¯
ä» ħ
æµ ĭ
ä¿ Ħ
åĶ ±
è¡¨ ç¤º
è´Ł è´£
å¯ Ł
ç§ »
ç´ ł
ç¥ ĸ
åħ± åĴĮ
æī ¹
çĿ Ģ
Ġ C
è´ ¥
éĿ ©
åĩº çİ°
æĺ ¾
å¹´ çļĦ
æĸĩ åĮĸ
åº ·
l e
åİĨ åı²
å§Ķåĳĺ ä¼ļ
ç»Ħ ç»ĩ
å¿ µ
ç® Ĺ
2 1
å¹´ ä»£
æ¶ Ī
m u
æī ¿
å¹ ²
ç´ ¢
æ¸ ©
å¸Ĥ éķĩ
åįķ ä½į
ä¸ĸ çºª
å ©
æİ Ī
æİ §
è¯ į
åħ ¸
èĹ ı
ãĢį ãĢĤ
ä¸Ĭ çļĦ
2 4
åĲİ æĿ¥
ç¥ ¨
è¿ ľ
i t
åŃ¦ æł¡
å ´
å¼ ¹
è½ ½
éŁ ©
ä¸» ä¹ī
æĢ Ŀ
è½¦ ç«Ļ
æł¹ æį®
h e
ä¹ ł
æĪ ·
ç»ı æµİ
ç®¡ çĲĨ
åģ ļ
åı ĭ
å® Ī
ç¡ ®
æīĢ æľī
ä½ Ļ
é ½
å½± åĵį
æľĢ åĲİ
æľŁ éĹ´
æĢ ģ
ç² ¾
æ» ¡
çĳ ŀ
æŃ£ å¼ı
åı ¶
æıĲ ä¾Ľ
âĢĿ ï¼Į
è®¡ åĪĴ
å® «
ä¹Ł æĺ¯
çĿ £
éĻ Ħ
æľ Ľ
åĪ© äºļ
ä¾ Ŀ
åıĳ çĶŁ
è Ľ
ä» ·
19 3
2 3
æ³ ¨
é¢ Ħ
åĮĹ äº¬
ä¸ĭ è¾ĸ
å¾ ģ
å·² ç»ı
200 9
çħ §
æĪ ¿
ä½ľ åĵģ
è¿ °
é ¹
è®¸ å¤ļ
å¤ ı
æĭ Ķ
å¾· åĽ½
æ Ĳ
åħ±åĴĮ åĽ½
å¤§ çļĦ
æ¯ Ľ
æĹ¶ æľŁ
ç« ł
è¯ ·
ä¸Ģ äºĽ
æ ĵ
åŁİ å¸Ĥ
ä¹ĭ éĹ´
æĬ Ĺ
æī §
èį ī
mu la
00 0
åį ´
åİ ĭ
èĻ ½
for mula
201 0
ãĢĭ ï¼Į
2 8
ç® Ģ
æ´» åĬ¨
éĢ Ģ
åħ¨ åĽ½
åģ ľ
ç¬¬ ä¸ī
å° ģ
å¯ Į
é ³
æ° ¸
æ¾ ³
èĪ ¬
ä»¥ ä¸ĭ
çĽ® åīį
å· ¦
r o
ä¸ ¹
è¶³ çĲĥ
Ġ M
æķĻ èĤ²
201 1
åĢ ¼
2 6
äºº çļĦ
åĶ Ĳ
ä¸ ģ
çī Į
åł ¡
éĹ® é¢ĺ
ä¸ ½
æĸ Ĺ
éª Į
ç Ĩ
å¿ «
æĭ ¿
åĬ ¿
åĢ Ļ
åĿ ¦
e l
5 0
å® Ŀ
ä¾ §
èĪ ¹
ã ģ
çł ´
2 7
éļ Ĩ
åº Ħ
è¡Į æĺŁ
ä½Ĩ æĺ¯
æ¢ ħ
éĤ ¦
è¿Ľ åħ¥
æ¯Ķ èµĽ
æľį åĬ¡
å¯ º
éļ ¾
ä¸Ĭ æµ·
æ¤ į
æ°ĳ åĽ½
åĲ «
åº Ĩ
éĥ ¡
èİ «
å°¼ äºļ
r e
æĸ Ń
åİ Ĥ
è¯ Ĩ
ä¼ ¼
ç» Ĩ
çª ģ
çļ ®
åĲį ä¸º
çĽ ĳ
å¿ ħ
2 2
éĹ »
åĨ µ
ãĢģ ãĢĬ
ç¤ ¼
æĪĲ åĳĺ
éĩį è¦ģ
å° ļ
æĹ ħ
èĴ Ĥ
å¯Ĩ åº¦
ä¸¤ ä¸ª
èµ °
a m
åĪĨ å¸ĥ
æĭ ¥
çĶŁ æ´»
ä¹ ħ
é ¼
åĺ ī
è¯ »
s t
æĪĺ äºī
å² ¸
ç» Ŀ
åĪ ĩ
åº Ĺ
201 2
å» ¶
å·¥ ç¨ĭ
åı ³
ä¸º äºĨ
äºº çī©
æľ Ĺ
æľĢ ç»Ī
éº ¦
æ¯ ķ
Ġ A
ã ĥ
201 3
è ĵ
åħ³ ç³»
åİ ħ
æĸ¹ éĿ¢
æį ¢
æŀ ¶
éĩ İ
è½ ®
æĿ °
å¼ Ł
æł ¸
åıĳ è¡Į
åĶ ®
èĬĤ çĽ®
æĺ ¥
ä¸ ´
åĪ° äºĨ
æĹ §
äº ¡
ä¼ ĺ
ç½Ĺ æĸ¯
æĿ ¾
o l
èģĶ åĲĪ
åŃ¦ çĶŁ
i l
ä¸ ¥
å½ Ĵ
2 9
æ² ¹
åĨ³ å®ļ
å¹¶ ä¸Ķ
åĪ¶ ä½ľ
ç ¯
èī ¾
æĶ¯ æĮģ
å¼ Ĺ
æĬĢ æľ¯
åĪ ¤
æŀ ª
ä½ ³
200 8
201 6
æĿ ¨
å¼ Ĥ
æµ· æĭĶ
éĽ Ħ
201 4
z h
èĻ½ çĦ¶
i on
åŃ¦ åĲį
o u
éģ Ĺ
åĪĨ åĪ«
ç« ¯
åŃ¦ å®¶
çŁ Ń
åŃ Ļ
ä¸¾ è¡Į
çł ģ
åĲ ´
ä¼ ¤
åĬł åħ¥
èĤ ¡
çģ µ
èĢ ¶
ä¸Ģ èĪ¬
äººåı£ å¯Ĩåº¦
ãĢĭ ãĢģãĢĬ
200 1
201 5
éģ Ń
åıĤ ä¸İ
å¤§ éĻĨ
ç» ĥ
åĨł åĨĽ
çŃ ĸ
éľĢ è¦ģ
åį° åº¦
ç³» åĪĹ
æ¬§ æ´²
åľ° æĸ¹
éĢ Ĳ
ä¿Ŀ æĬ¤
èµ «
åĮĹ éĥ¨
è½ »
è ŀ
äºĭ ä»¶
åº ı
Ġ B
å¸ ķ
Ġ P
é¡ º
ï¼Ī ï¼Į
å½ ¹
çļĦ äºº
è· Ŀ
ä¸ĵ è¾ĳ
æĹ Ĺ
æĳ ©
å»º ç«ĭ
é¡ »
èı ²
ï¼ļ ï¼ī
åĲĮ å¹´
æĺ¯ åľ¨
æĭ¥ æľī
ç± į
å°ı è¡ĮæĺŁ
æł ĳ
éħ Ĵ
éĢ ģ
a c
åįĹ éĥ¨
èĭ ¥
å® ĭ
æĻ ļ
é«ĺ åº¦
ä¹ ĺ
éĽ ħ
Ġ t
éĶ Ģ
200 7
æľĢ é«ĺ
4 0
ä¼ļ è®®
æľ «
æļ ´
æĿ Ĥ
æĿ Ł
å¾ ®
ä¾ĭ å¦Ĥ
éĺ µ
ä» Ģ
çİ Ľ
éĴ Ł
- {
} -
e t
æ³ ½
ç»Ħ æĪĲ
ä¸» æķĻ
æĳ Ħ
ä½įäºİ è¯¥
æĺ¯ ä¸Ģä¸ª
è¾ ĵ
è¯ Ĺ
ç§ Ģ
æĪĲ åĬŁ
èĥ ¡
èģĶ èµĽ
æĢ» éĿ¢ç§¯
å®Į æĪĲ
åĨ ²
é½ Ĳ
åį ¢
è¯ ĳ
èī ¯
åħ ¼
å°± æĺ¯
å Ĥ
åĽ½ æ°ĳ
çĭ¬ ç«ĭ
äº ¿
ã Ĥ
æĸ¯ çī¹
èĩª çĶ±
ç £
å®£ å¸ĥ
Ġ T
éĺ ¶
æīĢ ä»¥
æĸ¹ å¼ı
è¡ Ģ
ç½ ²
å ª
200 6
åº Ń
çķ ¥
æ² ĥ
æľī ä¸Ģ
æ¬ ¾
èį ¯
å° ¾
é¢ ĳ
èį £
å¯¹ äºİ
åıĹ åĪ°
åĸ Ħ
çĲĥ éĺŁ
ç®¡ è¾ĸ
ä¸ °
é© »
éĢļ å¸¸
çĽ ĸ
é¥ °
åŃĺ åľ¨
æ´ ¥
åĬ ³
çĶ ļ
æ ¿
è¦ģ æ±Ĥ
æķ £
è´ µ
åĲ ¯
å¼Ģ åıĳ
åħ į
å© ļ
äººæ°ĳ åħ±åĴĮåĽ½
201 7
äº§ çĶŁ
æĭ į
å° ½
æĢ» ç»Ł
å³ °
çļĦ å¤§
å· ®
çº ½
èīº æľ¯
åĩº çīĪ
åģ ĩ
äºĨ ä¸Ģ
é¡ ¶
æ¯ķ ä¸ļ
çĶŁ äº§
çŃ ¾
é² ľ
åĸ ľ
äºĮ åįģ
äº Ī
åĪĹ è½¦
éĽĨ åĽ¢
èĩ £
æĿ ľ
è¿ ģ
æĿ ¿
åĩ ı
æĻ ĭ
6 0
åı¦ å¤ĸ
æľ ±
çļĦ æĺ¯
çļĦä¸Ģä¸ª å¸Ĥéķĩ
è¿Ļ ç§į
ç ĩ
æĿ¥ èĩª
ä¸į è¿ĩ
çī¹ åĪ«
è¿ ½
è ľ
åħ ¹
è° ·
å½¢ æĪĲ
çĪ¶ äº²
æĿ ¯
è´ ¢
o m
æĥħ åĨµ
a s
çĦ¶ èĢĮ
çĥ Ī
in g
è´ Ń
éĩĩ çĶ¨
æĹ¶ çļĦ
æıĲ åĩº
æĹ¶ ä»£
åīį å¾Ģ
åıĺ åĮĸ
ä» ģ
åħ »
ç§ ĺ
èĥ Į
200 5
æ¤į çī©
å® ³
çİ° åľ¨
åĩ ¯
çĪ Ĩ
å® ¾
ä¸Ńåįİ äººæ°ĳåħ±åĴĮåĽ½
Ġ Ċ
ãĢĭ ãĢĤ
èĪ ŀ
ä¸Ń åħ±
æ² ¿
çĽ Ľ
ï¼ į
c h
Ġ L
è¿Ļ ä¸Ģ
ãĢĭ ï¼Ī
æ¸ Ĳ
å¤ º
ä¼ ģ
å½ĵ åľ°
æ¢ ģ
å» ·
éĻ ©
äº Ĵ
éĩ Ĭ
é» İ
éŁ ¦
ä»ĸ åľ¨
éħ ¸
è® Ń
çİ ī
çĶŁ äºİ
å¾Ĺ åĪ°
3 1
çĶ¨ äºİ
è® ¯
æķ ĳ
çī Ľ
èĪª ç©º
å¹´ äººåı£
ç½Ĺ é©¬
æı ´
åħ· æľī
è´ §
ç½ ª
æİ§ åĪ¶
åª Ĵ
å¯¼ èĩ´
æ°ĳ ä¸»
è½ ¨
åĲĪ ä½ľ
ä¸Ģ ç§į
åľ Ĩ
æĺ Į
æ£ Ģ
æľº åľº
åıª æľī
è½ ¯
200 0
åĲį çļĦ
å¤ Ł
å° º
è° ¢
è Ķ
å¥³ æĢ§
è¯Ń è¨Ģ
éĻ¤ äºĨ
ä» ĭ
è¡ ¥
å± ĭ
åĬ¨ çī©
éĢ ı
éĢł æĪĲ
åĲ Ľ
åĿ Ģ
å® ¡
éĢī ä¸¾
ä¿Ħ ç½Ĺæĸ¯
æĺ ł
ç»ĵ æĿŁ
æº ª
åĿ ¡
å¸ ģ
8 0
åº Ļ
åıĸ å¾Ĺ
ä» ª
æµ· åĨĽ
è¥¿ çıŃ
è¥¿ äºļ
è¥¿çıŃ çīĻ
éĿ© åĳ½
æľī éĻĲ
ç§ĳ åŃ¦
æĿ¥ çļĦ
æĹł æ³ķ
o f
è ĸ
æī ©
æĮ ¥
ä½įäºİè¯¥ åĽ½
è® ²
Ġ R
ä¸» å¸Ń
201 8
èį ·
ï¼ļ âĢľ
èģĶ çĽŁ
ç»ı è¿ĩ
æĻ º
æĿ Ĳ
æŃ¤ å¤ĸ
è¶ħ è¿ĩ
e d
æİ¥ åıĹ
ç»§ ç»Ń
è® ¿
æĮ ī
± ä¹Ĳ
ä¸Ģ çĽ´
ãĢĤ âĢĿ
å· ¨
è¿Ľ å£«
å¾ Ĵ
äº¤ éĢļ
ä»» ä½ķ
ä¼ł ç»Ł
é¢ Ĺ
an d
éĢ Ĥ
äºº åĳĺ
æĸ° éĹ»
æķħ äºĭ
u s
ä¹ Ķ
éŁ© åĽ½
åı° åĮĹ
å¤§ åĪ©
å¦Ĥ æŀľ
æķ ¦
éļ ¶
è§Ĵ èī²
Ġ G
æĺ¯ çĶ±
éĥ İ
èĩªå·± çļĦ
19 0
æķ Į
1 00
ç« ¥
ä¸Ńåįİ æ°ĳåĽ½
çİ ©
æĭ ľ
çĽ Ĭ
éĥ ĳ
é¢Ĩ å¯¼
å¸Ŀ åĽ½
åĨ °
å· ¡
i d
é¦ĸ æ¬¡
æ· ·
å¾ Ħ
å¢ŀ åĬł
è¾ Ĩ
åįģ äºĮ
èĵ Ŀ
æİ ¢
å® ½
ç¿ °
ĊĊĊĊ ĊĊĊĊ
æŁ Ĳ
å»º äºİ
éĢ Ķ
éĥ¨ éĺŁ
å¹¶ åľ¨
u n
éĿŀ å¸¸
å·¥ ä¸ļ
Ġ D
è¯ ¸
Ġ H
ç»ĵ æŀĦ
ç»ĵ æŀľ
ç ¦ģ
çĽ¸ åħ³
éĻĦ è¿ĳ
en t
å¤ ľ
ç© Ĩ
è® ¨
æĹ ĭ
åĪĨå¸ĥ äºİ
æŃĮ æĽ²
o w
é¡¹ çĽ®
è§ ī
éľ į
æľº æŀĦ
æĽ ¿
åĪ »
çľ ¼
çĮ ®
é¢ Ŀ
ä¹Ł æľī
æµ·æĭĶ é«ĺåº¦
æłĩ åĩĨ
éĶ ¦
éĥ½ æĺ¯
åĪ º
7 0
ä¹ĭ åīį
æ® ¿
çļ Ĩ
åĨĽ äºĭ
èµ µ
æı ı
è· Ł
åĲ ¸
åŁ ¹
å¹¶ ä¸į
åħ¬ åĽŃ
å² ©
éģ ĩ
åħ± äº§
åĪ Ĭ
åĢ Ł
å¸ ®
åħ¬ è·¯
è¿ĺ æľī
ç¬ ¦
ä¸ŃåĽ½ å¤§éĻĨ
200 4
3 5
ä¹ ±
ä½ ł
åĨħ çļĦ
æī ¾
ä½ ©
æĴ ¤
a d
ç« ŀ
èģ ļ
æ¬ ¢
åį Ī
Ġ F
ä¸ª äºº
çĤ ®
çīĪ æľ¬
è¡Ĺ éģĵ
çĪ µ
ä¸Ń åŃ¦
èĦ ĳ
çĥŃ å¸¦
åħ ħ
ç¾ ½
å°ı è¯´
èĩª æ²»
è¿ĩ ç¨ĭ
å® ĩ
ç§ ģ
ä¼ ĳ
èĢ ³
å±ħ æ°ĳ
éŃ Ķ
æĪĳ ä»¬
åĽ º
å¥ ī
éĤ »
çİ° ä»£
i g
æĢ» äººåı£
æł¼ åħ°
è¢ Ń
å¹ ķ
åıĳ è¡¨
è¡Į åĬ¨
æ´ ª
åĶ ¯
åĪĨ ä¸º
æ¼ «
è´Łè´£ ç®¡è¾ĸ
éĺ¿ å°Ķ
è¿ Ķ
è®¾ æľī
9 0
æ¯ Ĵ
åĿ ĳ
æĪ Ī
åĨħ å®¹
éª ¨
éĽ ¨
è Ŀ
u r
åĩº çļĦ
æ¼Ķ åĳĺ
åĲ ¦
éĢ ĥ
å°Ĩ åĨĽ
éĩį æĸ°
åĿ Ĳ
æĸ¹ æ³ķ
çĶµ åŃĲ
åº Ł
èĮ ¨
çĶļ èĩ³
æģ Ĵ
éĽ ª
æĵ į
éĿ ł
æľī åħ³
å¿ ł
æ¿ Ģ
åį ·
ç« ¹
ç» ľ
å¤§ éĩı
æĶ¹ ä¸º
åı ¬
èµ ŀ
æĭ ©
æ°ĳ æĹı
èĭı èģĶ
ä¹ İ
çĽ´ æİ¥
èµ ¤
ä¸º ä¸»
åĮº åŁŁ
æĸ° çļĦ
æł ĸ
ç¼ º
ç© ¿
éĴ ±
ä¸ Ŀ
æį ķ
å «
éľ ĩ
çºª å¿µ
æľĿ é²ľ
è·Ŀ ç¦»
æĢ Ģ
çĽ ĺ
èĮĥ åĽ´
éľ ²
å¾ ¡
åĲİ çļĦ
æ± ĩ
çĸ Ĺ
ç» ¿
åıį å¯¹
å® ª
ä¹ Ī
å®Į åħ¨
åĪ ĳ
4 5
çģ Ń
å¹³ åĿĩ
å¹´ èĩ³
åı¦ ä¸Ģ
åĨĽ éĺŁ
å¤Ħ çĲĨ
çĬ ¯
ä¸ľ åĮĹ
å¤ª éĺ³
åĲį ç§°
èĤ ¯
å¿ħ é¡»
çľģ çļĦä¸Ģä¸ªå¸Ĥéķĩ
ä¹¦ è®°
å¨ ľ
æķĻ æİĪ
æľĢ ä½³
éķ ľ
éª ĳ
å° ¤
è´ ¡
è¯ ī
åħ Ħ
çĶŁ çī©
åŃ¦ ä¹ł
å¾ Ĳ
Ġ of
è¯ ¾
ç¬¬ åĽĽ
å¦ »
äºİ æĺ¯
ä½į ç½®
ç¿ »
çİ¯ å¢ĥ
é¡ ¾
è°ĥ æŁ¥
åĪ ļ
äºļ æ´²
çº ²
è¿ «
å§ ĵ
åĲ ¬
åĮº çļĦ
æį Ł
çĲĨ è®º
å»º è®¾
æĪĺ æĸĹ
æĬ µ
åĿ ļ
å¾ ħ
è ķ
å¹¿ ä¸ľ
ä¸Ģ èµ·
é³ į
æĸĩ åŃ¦
çĶ ³
æĢ§ çļĦ
é Ĩ
åıį åºĶ
å¸Ĥ åľº
ç¾İ åħĥ
ä¸» ä»»
æ¡ ĳ
éĻ µ
4 8
æ¯ ģ
å¤ļ æķ°
æŁ ı
éĵ¶ è¡Į
Ġ I
ä¸ĭè¾ĸ çļĦä¸Ģä¸ª
åįı ä¼ļ
200 3
æ³ķ éĻ¢
ä¼ģ ä¸ļ
æµ Ļ
åħĭ æĸ¯
èĢĮ ä¸Ķ
è® ¢
å¤ª å¹³
åĮħ åĲ«
ç§ ĭ
èĥ ŀ
ï¼ļ ãĢĮ
åĪ© çĶ¨
h an
ä¸ĭ çļĦ
ä¸į èĥ½
å½¢ å¼ı
æĺ¾ ç¤º
Ġ W
éĢī æĭ©
åĳ ¼
æĦ ¿
ä¾ µ
æĶ¿æ²» äººçī©
çĤ ¸
è° ĭ
åŃ ©
åĪĽ ä½ľ
å¹´ éĹ´
åªĴ ä½ĵ
æ± ½
è ª
çĽ´ åĪ°
æ¨ ª
åĪ¶ éĢł
èĦ ī
åħ± åĲĮ
æ³ Ľ
å®ī åħ¨
ç¯ ĩ
åħ± æľī
è° Ī
è¥¿ éĥ¨
æī İ
æĶ» åĩ»
ä¸¾ åĬŀ
æ½ ®
çĽ¸ å½ĵ
é¸ Ł
æĥ ł
æģ ¶
æĮĩ æĮ¥
èĩª çĦ¶
çļĦ åľ°
èĳ £
ç» ©
éŃ ı
æľīéĻĲ åħ¬åı¸
æ³ ī
çĶ ĺ
æĽ¾ ç»ı
ä½ĵ èĤ²
åŁº æľ¬
o d
åŃ Ķ
è¿Ļ æĺ¯
èŀ į
ä¸ī å¹´
è§£ æĶ¾
åĨ³ èµĽ
èµĽ äºĭ
o t
å®ŀ éĻħ
å°ı æĹ¶
å¾Ī å¤ļ
è¡Į ä¸º
èģĶ éĤ¦
èĥ½ å¤Ł
ä¹ °
ç» į
æĦı å¤§åĪ©
èħ Ĭ
åģ ı
æĪ ´
è®¾ ç«ĭ
è¾ Ľ
è®® ä¼ļ
èĪ į
åħĭ åħ°
è Ĩ
æī§ è¡Į
è®¡ ç®Ĺ
æľº è½¦
i r
èĥ½ åĬĽ
äºº ç±»
åıĳ å¸ĥ
200 2
ãĢį ï¼Ī
éĺ¿ æĭī
éģ ¿
èĬ ¬
é» ĺ
ç¼ ©
åŁº ç¡
å®ĥ ä»¬
åĬ¨ çĶ»
ç±» ä¼¼
åįģ ä¸Ģ
æĢ ¥
å¥ ı
åħ³ äºİ
Ġ E
èĦ ±
âĢĶ âĢĶ
çŃī åľ°
åģ ¥
ä½ Ĳ
æĺ¯ä¸Ģ ç§į
èĴĻ åı¤
éļı åĲİ
3 6
çĸ ĳ
åŁºç¡ Ģ
å¤§ ä¼ļ
ä½¿ å¾Ĺ
åĬŁ èĥ½
èģĮ ä¸ļ
ä¸į æĺ¯
åĬ ª
è¾¾ åĪ°
i v
å¥ Ĺ
å¹¿ å·ŀ
ä¸įåĲĮ çļĦ
åĨį æ¬¡
Ġ d
å°Ķ æĸ¯
åį ±
è¯ ¯
æ¦ Ĥ
ç¿ ¼
èĤ ī
æĹ¥ åľ¨
è¡¨ çİ°
åĳ Ī
å¢ ¨
éĥ¨ éķ¿
è¡ £
åħ±äº§ åħļ
æĸĩ çī©
å¢ ĵ
èİ ī
å¸Į æľĽ
æĹ¶ åĢĻ
çº§ è¡ĮæĶ¿
æ¦ ľ
åĿ Ĺ
å®ļ çļĦ
åĩº èº«
éĴ Ī
æİ¨ åĩº
è¿Ļ æł·
3 8
è·¯ çº¿
è®® åĳĺ
åħ¬ å¼Ģ
âĢ ¦
çļĦ ä¸»
æ³ķ å¾ĭ
ä¹¡ éķĩ
å® ľ
ç´ §
äº ķ
ä¸Ģ æ¬¡
b r
ä½ľ çĶ¨
åĿ ı
o s
å¥³ åŃĲ
å·´ å£«
äººåı£ ä¸º
æ® ĸ
è£ ģ
åı «
ç§ ¦
åĨ ·
è¿ İ
æķ° æį®
èĭ± æĸĩ
ç©º éĹ´
æī ¬
è¿ĲåĬ¨ åĳĺ
å¯ »
Ġ "
èµ ĸ
3 7
æ¯ «
ä¸ī ä¸ª
i a
ä¸ľ åįĹ
ä¸ĭè¾ĸ ä»¥ä¸ĭ
åįķ æĽ²
æĺ¯ æ³ķåĽ½
æŁ ĵ
i m
æ¼Ķ åĩº
ç¦» å¼Ģ
èĻ İ
éļ Ķ
åľ Ī
ç¼ ĺ
çı ł
åĲĦ ç§į
æĶ¿ çŃĸ
ç»Ł æ²»
æ¶ ī
æĸ¹ åĲĳ
è¿ ·
æµĻ æ±Ł
æį ·
åķĨ ä¸ļ
åĽ½ çİĭ
åĽ¢ ä½ĵ
è¿ ¹
çºª å½ķ
å» ī
ä¸ľ äº¬
æ¸ ¡
éĺ »
çº¦ ç¿°
éĺ ´
æĭį æĳĦ
åĵ ²
å±± ä¸ľ
ä¸Ģ æł·
) ï¼Į
å¹¿ æĴŃ
å½ ©
äº ®
è ¸
èµĦ æĸĻ
ä¸ĵ ä¸ļ
ä»į çĦ¶
åī ĳ
ä¾ ¯
æŀ Ĳ
éĶ ¡
æ± ł
ä» Ļ
è´ ¸
ä» ĺ
åĶ¯ ä¸Ģ
èĳ ¡
èĻ «
æģ Ĳ
å¼ ĥ
å®ĺ æĸ¹
è¾ ħ
åį ĸ
æ° §
Ġt he
æĺ¯ ä¸ĭè¾ĸçļĦä¸Ģä¸ª
åĩ ½
åŁº çĿ£
3 4
æļ Ĺ
ï¼Į ãĢĬ
åŁİ éķĩ
at ion
æ¯ı å¹³æĸ¹åħ¬éĩĮ
æĭ Ľ
ç¾¤ å²Ľ
çĶ· æĢ§
äº§ åĵģ
è¥¿ åĮĹ
å®ŀ éªĮ
åĽĽ å·Ŀ
åĳ ³
åĦ¿ åŃĲ
åĩ ¤
ãĢ Ģ
ç» ķ
çļĦ çī¹
åĮ» éĻ¢
æĪĸ èĢħ
æ¨¡ å¼ı
ä¸» æĮģ
çĽ¸ åĲĮ
çĲ ´
éĥ¨ ä»½
a g
è¥¿ åįĹ
å¹¶ äºİ
åĬł æĭ¿
t er
ä¸¥ éĩį
åľ° çļĦ
ä¹Į åħĭåħ°
ä¹ĭéĹ´ çļĦ
æĹ© æľŁ
ç¬¬ä¸Ģ æ¬¡
éĢĲ æ¸Ĳ
é£ŀ æľº
å¤© ä¸»æķĻ
åĮ ¹
å¯ ¿
å° Ĭ
ä»» åĬ¡
æ» ¨
ä¸ĭè¾ĸä»¥ä¸ĭ åľ°åĮº
éĶ Ļ
æ¢ ¦
åħ¨ çĲĥ
å®Ĺ æķĻ
åľ¨ æŃ¤
æ´ ŀ
æĸ¯ åĿ¦
ãĢį ãĢģ
ç» ĺ
ä¿ Ĺ
è§Ħ æ¨¡
éĴ ¢
éº »
¤ Ĳ
æľĢ å¤§
çĹ ĩ
çº½ çº¦
è¢« ç§°ä¸º
7 5
ä¼ į
å¦ ¹
äº «
èĦ ļ
æĺ¯ ä¸ŃåĽ½
ç ¹
å¸Į èħĬ
ç¡ ¬
èµ ¢
æłĸ æģ¯
åħ¶ åĲİ
ç Ĵ
ä¸ĭ çļĦä¸Ģä¸ª
é«ĺ éĢŁ
éģĵ è·¯
ç®Ģ ç§°
ãĢĤ ãĢį
åįļ çī©
æ¸ħ æľĿ
é¢ ģ
å¹´ åľ¨
çº§è¡ĮæĶ¿ åįķä½į
è± ª
åİŁ åĽł
å¥¹ çļĦ
æĭī æĸ¯
3 9
çĳ Ł
ä»¥ æĿ¥
å±ŀ çļĦ
çĶ º
ç¬ Ķ
ä¹¡éķĩ çº§è¡ĮæĶ¿åįķä½į
u m
è¾ Ĳ
åĢ Ĵ
18 9
ç§ Ł
éĿĴ å¹´
èĭ± è¯Ń
å´ ĩ
ç» ª
é©¬ æĿ¥
åĨ ¬
çŃī äºº
ä¸į ä¹ħ
åĩ» è´¥
è¿ŀ æİ¥
æĺİ æľĿ
åľ° çĲĥ
ç¹ ģ
æĪ ª
å½ĵ éĢī
åħ¨ éĥ¨
è¶Ĭ åįĹ
ç» ¼
æľĢ åĪĿ
æŃĮ æīĭ
æ¶ ²
é© ±
Ġ N
çŁ ¿
å¾ ½
èª ī
æĽ ¹
åįļ å£«
ä»ĸä»¬ çļĦ
å®¶ åºŃ
æĺ¯ä¸ĭè¾ĸçļĦä¸Ģä¸ª ä¹¡éķĩçº§è¡ĮæĶ¿åįķä½į
å¥ Ī
è½¨ éģĵ
éĿ Ļ
éĢ Ĭ
åįĹ äº¬
å¤§ éĥ¨åĪĨ
æ¥ ļ
åºĶ çĶ¨
6 5
ç¨ ³
éĵ ľ
åĨ Ī
åĪĻ æĺ¯
äººåı£å¯Ĩåº¦ æ¯ıå¹³æĸ¹åħ¬éĩĮ
t e
å®ļ ä¹ī
æĺ Ĥ
å¯¼ æ¼Ķ
æĬ¥ åĳĬ
çī© çĲĨ
åıĳ åĬ¨
199 9
åı· çº¿
åĬłæĭ¿ å¤§
3 2
å¦ ĩ
éĢ Ŀ
çĬ ¹
æĴŃ åĩº
ç»Ĩ èĥŀ
éĺ ģ
åĲĪ å¹¶
æĺ Ń
ä¸ľ éĥ¨
åĲ ķ
æĮĩ åĩº
äºĭ åĬ¡
åĪĹ è¡¨
çĲĥ åĳĺ
èĽ ĭ
æİ Į
åħ¬ åħ±
æŁ ±
æ¯Ķ è¾ĥ
ç½ĳ ç»ľ
æĬķ èµĦ
ç¥ĸ çĪ¶
é½ ¿
ä¼ °
å¤© æ´¥
199 0
a y
è ļ
ä¼ Ĳ
ä¹ Ļ
æ¼Ķ åĶ±
å¢ Ļ
Ġ c
æ¯į äº²
è¾ ŀ
å¹´ åĲİ
æµ ¦
è®Ń ç»ĥ
æķ´ ä¸ª
5 5
åİ» ä¸ĸ
é£İ æł¼
äºº å£«
èĲ Ħ
åı¸ ä»¤
æĮģ ç»Ń
ä¸į ä¼ļ
èĳ¡ èĲĦ
çļĦ æĸ°
è¾ ½
éĹ Ń
éĥ Ń
ç¾İ æ´²
è½ ´
æ½ ľ
åĽ¾ ç¤º
æĮ ¯
æ· ¡
èĢħ çļĦ
è®° è½½
å² Ń
æŃ» äº¡
è£ Ĥ
ä¹ ĥ
çº ¸
è¯¥ å¸Ĥéķĩ
éĢŁ åº¦
åĪ¶ åº¦
åĲį åŃĹ
å¹ ¼
æ¡ £
éĤ Ģ
å¼ ±
ä¸Ń æĸĩ
åĪĨ éĴŁ
åĮĸ åŃ¦
å¹´ æĹ¶çļĦ
å®ĥ çļĦ
å¹¿ åľº
æļ Ĥ
æıı è¿°
åħ¬ å°º
çĽ Ĳ
å¤§ æĪĺ
å¤Ħ äºİ
çĽ® æłĩ
æĭ Ł
åħ¬ å¸ĥ
éĽ ¶
199 8
ä¼¦ æķ¦
åĨ Į
4 7
èµ ı
å¤ļ çļĦ
é¼ ĵ
è£ Ķ
éĢı è¿ĩ
åĽĽ å¹´
æĭ Ĵ
æ¼« çĶ»
è§Ħ å®ļ
éĻ ¶
3 3
äººåı£ åıĺåĮĸ
e m
è· ¨
åįļçī© é¦Ĩ
åħĪ åĲİ
äººåı£åıĺåĮĸ åĽ¾ç¤º
èĳĹ åĲį
æµ ª
åĩº çĶŁ
æ» ĳ
è§ ¦
% ï¼Į
èİ İ
éĩĮ æĸ¯
e c
æģ ¢
Ġ K
æĺ Ĩ
æĽ¾ ä»»
ç»ı å¸¸
æľĢ æĹ©
ç² ī
å°½ ç®¡
ç§ĳ æĬĢ
å¹ ¸
å¼Ģ æĶ¾
çĶµè§Ĩ åı°
è¿ŀ ç»Ń
èĹ ¤
èµĽ åŃ£
æ²³ åįĹ
ä¸į å°ĳ
éĻ ·
åĽ °
èı ľ
æĹ ģ
çļĦ ç¬¬
åī Ĥ
ï¼Į âĢľ
è®¾ ç½®
ä¼ Ł
ç¦ı å»º
çģ ¾
åģ ¶
Ġ s
4 6
èı Į
æľī çļĦ
è§ Ī
æĿĤ å¿Ĺ
åŃ¦ èĢħ
å¹´ åº¦
èĶ ¡
æĤ £
æĶ¹ åıĺ
åĳ½ åĲį
çĪĨ åıĳ
çİ© å®¶
çĦ¶ åĲİ
å¹´ èµ·
åľŁ åľ°
å¤ªå¹³ æ´ĭ
æĶ¹ éĿ©
å¸® åĬ©
æ¾³ éĹ¨
ç»ı èĲ¥
éļ ľ
ä¸¤ äºº
å¤§ çº¦
æĪĺ å½¹
åĬŀ åħ¬
ãĢįãĢģ ãĢĮ
o p
æľĢ å¤§çļĦ
é¢ ľ
t h
åĽ½ çļĦ
199 7
æķĻ åłĤ
å¹´æĹ¶çļĦ äººåı£ä¸º
åĲĮ æł·
ä½ľ å®¶
æģ¢ å¤į
çī §
ä½Ĩ åľ¨
ä¿ ±ä¹Ĳ
ä»¥ ä¸Ĭ
æķĻ åĮº
æ® ĭ
æ¶ ħ
é© ¶
çļĦ ä¸»è¦ģ
å½ ¼
æĪĲ ç»©
å¼ķ èµ·
å¤ĸ äº¤
ä¿±ä¹Ĳ éĥ¨
r a
ç½ĳ ç«Ļ
å±ŀ ä¸ĭçļĦä¸Ģä¸ª
ç³ ĸ
Ġ -
éĻĨ åĨĽ
% ãĢĤ
åħĥ å¹´
å®¶ æĹı
çº ¯
æ² Ī
å® ¿
Ġ O
å¤© æĸĩ
è¿ĺ æĺ¯
åĪĨ åŃĲ
å£ ģ
åĬł ä¸Ĭ
ä¸Ń éĥ¨
çī© ç§į
4 9
5 00
ä¸ ĺ
æŃ¤ åĲİ
çİ° æĹ¶
ç¨ İ
ï¼Īï¼Į ï¼īï¼Į
é£ŀ è¡Į
ä¸ī åįģ
ç¥ Ń
èĴ ĭ
è´¸ æĺĵ
éĤ ®
çĶ· åŃĲ
çĭ ±
æ±½ è½¦
ä¼ ´
åĭ ĩ
æľĪ åı°
çĶŁ éķ¿
æ¯Ķ äºļ
åı¯ è¾¾
ï¼ ģ
åįĹ æŀģ
åıĸ ä»£
åľ° ä¸ĭ
æ¯ı å¹´
èµ¢ å¾Ĺ
èĢĮ åľ¨
å½ĵ ä¸Ń
éļ Ĳ
å±ħ ä½ı
æŁ ¯
åı ¥
äº ¨
ä¿¡ æģ¯
æ± Ĺ
ç§ĳ çļĦ
çļĩ å¸Ŀ
åŀĭ çļĦ
ç«ĭ æ³ķ
ä» Ķ
æķ ı
åİ ¦
ä»¥ åĲİ
ä¼ļ çļĦ
198 0
æ¡ ĥ
çĨ Ļ
é¾ Ħ
è¡ ¡
çģ ¯
è¡¨ æ¼Ķ
éĶ ®
æĲ Ń
èĩ³ ä»Ĭ
ä¸ļ åĬ¡
ç¬¬ äºĶ
äºº ä»¬
è´Ŀ å°Ķ
éģ į
éĿ¢ çļĦ
æ® Ĭ
åħ ģ
æ± ¤
çĩ ĥ
éĥ¨ éĹ¨
çı į
ç¬¬äºĮ æ¬¡
è§£æĶ¾ åĨĽ
ä½ĵ çļĦ
çŃ Ķ
çĸ Ĩ
å»º è®®
æŃ¦ åĻ¨
æµģ åŁŁ
åŁ Ķ
å°Ĩ åħ¶
æĿ¡ ä»¶
æ² ī
u l
åĽŀ åĪ°
éĩįè¦ģ çļĦ
èĩª åĬ¨
ä¿ ĥ
åįı åĬ©
o g
åŃ Ł
æģ ĭ
Â ł
å® ħ
çļĦä¸Ģ ç§į
åĩł ä¹İ
é¢Ĩ åŁŁ
ä¹ĭ å¤ĸ
åħ¬ åĪĨ
å·¦ åı³
å°Ķ å¾·
åĪĨ æŀĲ
åĬł åĿ¡
èį· åħ°
å»º éĢł
å¤ļ æ¬¡
çĬ¶ æĢģ
Ġ J
å§ĭ å»ºäºİ
æĺ¯ æĮĩ
åİŁ æľ¬
çĽ¸ å¯¹
è¶ħ çº§
6 4
çĥ §
ä¸Ģ åĲį
èĮ ¶
å¥ ´
éĺ¶ æ®µ
èº« ä»½
å¹ ħ
åı¯ä»¥ æĮĩ
æĭ Ĩ
åĩº çĶŁäºİ
âĢĿ ï¼Ī
è¿ Ī
åĩº ä»»
è§Ħ åĪĴ
ä¾ į
éģŃ åĪ°
èĭ± æł¼åħ°
ç´ «
éķ¿ çļĦ
åĩº äºĨ
è®¾ å¤ĩ
åĨħ éĥ¨
) ãĢĤ
çº ¬
åĶ± çīĩ
è®¾ æĸ½
åıĪ ç§°
éĶ¦ æłĩ
çļĦä¸Ģ éĥ¨åĪĨ
èĻ ļ
o c
è¿Ĳ è¾ĵ
äºĶ å¹´
åİ ļ
è¿ĩ åİ»
æ¹ĸ åįĹ
æĸ¯ ç§ĳ
ç¤¾ åĮº
ç£ ģ
åħĦ å¼Ł
6 8
18 8
æ£ Ĵ
æ±Ł èĭı
èİ ²
åĽ¾ ä¹¦
ï¼ Ł
æĬ ĺ
çģ °
å¹ »
å®ĺ åĳĺ
çĥ Ł
èĳ ¬
è· ĳ
æĸ° åĬłåĿ¡
å¡ ĺ
å¹¿ æ³Ľ
åŃ¦ ä½į
æ ©
4 4
åĿ Ľ
åħ´ å»º
æ¢ °
æµģ è¡Į
ä½ľ æĪĺ
ä¹Ĳ åĽ¢
åľ¨ è¿Ļ
èµ ´
åŃ Ŀ
ç»§ æī¿
èī ĺ
æĿ¡ çº¦
ä¸ĩ äºº
åľ°åĮº çļĦ
åı Ļ
ç»Ł ä¸Ģ
éĤ ĵ
ä»» åĳ½
æķ ¬
199 6
" ï¼ī
æľī äºĽ
å¥¥ è¿Ĳ
æ² Ł
éĶ ĭ
ç¬¬ åįģ
ç¢ ĳ
å·´ è¥¿
åįģ åĪĨ
æĺŁ æľŁ
ä¸ŃåĽ½ äººæ°ĳ
è´ ¤
åıĳ å°Ħ
åĽ½ åĨħ
äºĮ å¹´
çĶµ èĦĳ
er s
é ¬
çĶµè§Ĩ åī§
é ¤Ĳ
æī¹ è¯Ħ
çĶ¨ æĿ¥
åľ° éĵģ
ç¯ ®
éĻ ķ
åĩ½ æķ°
åĤ ¨
ç¥ ¥
ä¼ļ åľ¨
ä½Ľ æķĻ
ä¸» è§Ĵ
æħ Ī
å¤ļ ä¸ª
æĻ ¶
ä¸į æĸŃ
c e
å¥½ çļĦ
ãĢĤ ãĢĬ
è¿Ľ æĶ»
ä¿Ŀ æĮģ
èŃ¦ å¯Ł
æ¦Ĥ å¿µ
é£İ æļ´
æĺ¯ ä½įäºİ
æķ° éĩı
è¾ ī
7 8
ä¼Ĭ æĸ¯
æ¯« ç±³
è¿Ĳ è¡Į
å±ķ å¼Ģ
æīĢ åľ¨
éģ £
èĲ §
çŃ ¹
æŁ ´
åĭ ĭ
æĭĴ ç»Ŀ
æ£ ĭ
çº µ
5 8
ç® Ń
èĪ° éĺŁ
æİĴ åĲį
æĮ ĳ
äºĳ åįĹ
åĩĨ å¤ĩ
åĢ į
é ŀ
åĨľ ä¸ļ
è° ±
åĮº è´Łè´£ç®¡è¾ĸ
åįł é¢Ĩ
èĳ Ľ
å§ Ĳ
è¢« è®¤ä¸º
199 5
Ġ p
a p
èŀ º
æĴ ŀ
r i
ä¸Ģ ä½į
7 6
é¢ĳ éģĵ
åı Ľ
é¦ĸ éĥ½
åŃĲ çļĦ
æ³¢ åħ°
å³ ¡
æģĴ æĺŁ
èĻ ĳ
å®£ ä¼ł
å¹¶ æ²¡æľī
æ¯ı ä¸ª
åĨ ¯
çļĦ åīį
åŁº åľ°
å½± çīĩ
199 4
æħ ¢
çº¿ è·¯
æĸĩçī© ä¿ĿæĬ¤
è ¦
ç»Ħ åĲĪ
çĨ Ł
åĽ½æ°ĳ åħļ
è§£ åĨ³
å¢ĥ åĨħ
åľ¨ ç¾İåĽ½
è´ ¾
è½¦ è¾Ĩ
a v
æŁ ³
åĩı å°ĳ
ç²¾ ç¥ŀ
çº¿ çļĦ
è®° å½ķ
å° ĸ
æĥħåĨµ ä¸ĭ
éĽ ķ
åĽ½ ç«ĭ
èĭ ¦
æĹ¥ åĨĽ
ãĢ ı
ãĢ İ
è¯Ħ è®º
æĺ¯ ç¾İåĽ½
èµĦ æºĲ
åĴĮ å¹³
æľº ä¼ļ
ä¸Ģ æŃ¥
å¨ ±ä¹Ĳ
æĻ® éĢļ
å·ŀ å¸Ĥ
éģ Ĥ
äºĨ ä¸Ģä¸ª
èī ĩ
åıª æĺ¯
ä¼ ı
åĪ Ģ
åĪĿ æľŁ
éĻĲ åĪ¶
éĥ½ æľī
åĬĽ éĩı
ä» ĵ
å¦ ®
å±± èĦī
ç¨ĭ åºı
å®ŀ çİ°
in d
èĳ£ äºĭ
å¥¥ æĸ¯
âĢ ĵ
ä» °
ç©º åĨĽ
ç ŀ
æĢĿ æĥ³
éķ¿ æľŁ
æĸĩçī©ä¿ĿæĬ¤ åįķä½į
æ §
è· ³
çĩ ķ
äº¤ æĺĵ
åĮ Ī
åħĥ ç´ł
åĦ¿ ç«¥
Ġ V
ãĢ ī
é© ¾
ar d
çº ¹
æĪĸ æĺ¯
ãĢ Ī
ç¾½ æ¯Ľ
åıĪ åĲį
æĺ¯ ä¹Įåħĭåħ°
åĩ ¡
å¨ģ å»ī
å·´ é»İ
çĶ¨ çļĦ
A T
æ¡ Ĥ
3 00
çł´ åĿı
åĬĽ çļĦ
å§Ķ ä¼ļ
è¿ Ŀ
åıĮ æĸ¹
å¤§ å¤ļæķ°
å¥³ åĦ¿
çĸ ¾
æľ ĭ
199 3
ç»Ł è®¡
ĊĊĊĊ Ċ
åħ¬ åħĥ
è¥¿ çľģ
éĿŀ æ´²
ï ½
199 2
èĳĹ åĲįçļĦ
7 7
æĴ Ĵ
é©¬æĿ¥ è¥¿äºļ
ä¼ ¸
çĵ ľ
9 9
ç¬¬ ä¸Ģä¸ª
åŁº äºİ
l i
åįĬ å²Ľ
æŀ ļ
æĹł çº¿
å¹³ åı°
o v
ä¸Ģ å¹´
è®° èĢħ
ä¸ª æľĪ
çĮ İ
é¥° æ¼Ķ
åŁº éĩĳ
è´ º
æĹ¥ èĩ³
è¡ Ķ
å¡ŀ å°Ķ
çļĦ å°ı
äº¤ æµģ
æķĻ ä¼ļ
ä¸į æĺİ
è§Ĩ ä¸º
é«ĺ çº§
è¦ Ĩ
åĲ ĥ
5 6
è´ ¯
ç»¼ åĲĪ
åĮĸ çļĦ
è¿ ħ
éĶ¦æłĩ èµĽ
ç¼ ĵ
4 2
æİ¥ è¿ĳ
âĢĿ ãĢģ
çļĦ æĹ¶åĢĻ
å½ Ń
åĪĨ ç±»
åıĬ åħ¶
è° ĵ
åĽ½ ä¼ļ
å¤§ æ¥¼
æ½ ĺ
èĩªæ²» åĮº
æĹ¥ èµ·
éĩĳ å±ŀ
å¤§ åŀĭ
èµĦ æł¼
è¯ ¦
æħ ķ
u t
åħ ½
æĽ¾ åľ¨
ä½ĵ éķ¿
ç¨ĭ åº¦
æĪĲ çļĦ
æĸ¯ åŁº
åįı è®®
æĺ¯ä¹Įåħĭåħ° çļĦ
å¹´ å¼Ģå§ĭ
ï¼Į ãĢĮ
çĶ¨ æĪ·
çļĦ å½±åĵį
åºĶ è¯¥
I S
æ®ĸ æ°ĳ
æĭī åħĭ
è´¨ éĩı
çĲ ³
æľº åħ³
åĽł èĢĮ
åıĤ èµĽ
å¹´ è½»
å¹´ è¢«
199 1
ç»´ å°Ķ
Ġ m
å¸Ĥ çļĦ
å¿ Ĩ
çŁ¥ éģĵ
Ġ b
é³į é±¼
å°ĳ å¹´
æĢ» éĥ¨
è¿ĲåĬ¨ ä¼ļ
éĥ½ ä¼ļ
æĿ¥ è¯´
ç§» åĬ¨
ç² Ĵ
ç§ĺ ä¹¦
èī² çļĦ
è§£ éĩĬ
åĭ ¤
T he
çĬ¹ å¤ª
åİ¿ äºº
é¬ ¼
æ³ Ĭ
å¦Ĥ ä¸ĭ
ç»´ æĮģ
å¸¸ è§ģ
åĲĮ æĦı
åħī ç»ª
åıĺ æĪĲ
è§Ĥ ä¼Ĺ
èµ· æĿ¥
éĩĮ çļĦ
æĺ¯ åĲ¦
äºĮ ä¸ĸ
èĦ Ĥ
çī ł
çī© è´¨
ï¼ļ ï¼īï¼Į
å±ŀä¸ĭçļĦä¸Ģä¸ª ç§į
éĿ ĸ
è¶ £
çİĭ æľĿ
äº§ ä¸ļ
å°ļ æľª
195 0
åĽ½ åĬ¡
éļı èĳĹ
ä½¿çĶ¨ çļĦ
ä¸Ģ å¸¦
çķ ª
åįģ åħŃ
çĮ ª
ä¸ŃåĽ½ åħ±äº§åħļ
ä»· åĢ¼
ä¸į åı¯
è¥¿ èĹı
èİ·å¾Ĺ äºĨ
çĽ® çļĦ
u b
æµ· åŁŁ
6 6
æĸĩ ä»¶
ç±³ çļĦ
è¾Ĳ é³įé±¼
çĨ Ĭ
æ¾³ å¤§
è¾Ĳé³įé±¼ çº²
æĶ¯ æı´
a b
åĴ ¸
= "
å°ı åŃ¦
æµ· å²¸
æĸ¹ æ¡Ī
æĬķ åħ¥
æľī æĹ¶
ç½ ķ
ä»İ äºĭ
ç´ ¯
a k
å¥¥ æŀĹ
é¹ ¿
æ¶ ¯
åĪ° è¾¾
æĿĳ èĲ½
æĶ¹ ç¼ĸ
æĹħ æ¸¸
æ°§ åĮĸ
è¯ģ æĺİ
5 9
è¯ ļ
èĳ¡èĲĦ çīĻ
éĶĢ åĶ®
æŃ¤ æĹ¶
æİ ī
æĢ» çĲĨ
æ²» çĸĹ
è¥¿ æĸ¹
å¿« éĢŁ
çİ° è±¡
ç»ĵ åĲĪ
æľī æķĪ
èĬ ³
å®ŀ æĸ½
èĽ ĩ
è ©
éĽĨ ä¸Ń
å± ¿
ä½ĵ ç³»
èĤ ĥ
è¿Ķ åĽŀ
ä¸Ń å±±
æĴŃ æĶ¾
197 0
ç¡® å®ļ
å± ¯
å¦» åŃĲ
ç»´ äºļ
æĹ º
i e
194 9
Ġ U
è¯¥å¸Ĥéķĩ æĢ»éĿ¢ç§¯
æ¯ķä¸ļ äºİ
å¤ı åŃ£
åĲĦ åľ°
æĺ¯ ä»¥
å·ŀ çļĦ
çļĦä¸Ģ åº§
ç§ Ĵ
ä¸º è¾Ĳé³įé±¼çº²
n d
è¿Ľ ä¸ĢæŃ¥
æĵ İ
Ġ and
è© ¹
é¥ ®
çº ·
èĥ ¶
æĻ® æŁ¥
èµ ł
é«ĺ çŃī
çļĩ å®¶
æĥ Ĭ
æ²³ åĮĹ
éģĹ åĿĢ
æĸ¯ çļĦ
æĲ ľ
æĢ ª
5 7
åĢ ¾
æ¢ ¯
åħ¬ ä¸»
æ¾³å¤§ åĪ©äºļ
äºº åľ¨
6 9
éĤĢ è¯·
ç¨ĭ å¼ı
å Ĺ
ç¦ Ħ
å½ĵæĹ¶ çļĦ
ç¡ ķ
èĥľ åĪ©
çĶµ åı°
ä¸¤ ç§į
å£ ³
åľ° ä½į
çłĶç©¶ æīĢ
æĮ Ĥ
ä¸º ä¸Ģ
ç¾ Ĭ
4 3
çİ Ħ
han s
ä¿Ŀ çķĻ
åĪĽ ç«ĭ
ç ĺ
å¾· éĩĮ
ä¹Ķ æ²»
åĪĽ åĬŀ
ç±» åŀĭ
é¡ µ
ä¸ľ è¥¿
åĽ¾ä¹¦ é¦Ĩ
æµ ®
ä¿ Ĭ
æĭ ĵ
åıª èĥ½
S A
æĿ ī
ä¸į åĨį
æĿ¥ æºĲ
å°ı ç»Ħ
ä» ²
è®¨ è®º
æŃ£ åľ¨
å°ĳ æķ°
æĬ ļ
åįģ åħ«
æĻ ¨
èĬ Ŀ
ä¸Ģ ä¸ĸ
ä¹ ³
æī¹ åĩĨ
åį¡ å°Ķ
é«ĺ çļĦ
å¤§ èĩ£
æĿĲ æĸĻ
ç¬¬ åħŃ
198 8
æĵį ä½ľ
åįĹ åĮĹ
198 9
é ī
å¨ģ å°Ķ
C h
å± ı
é«ĺ ä¸Ń
æĬ¥ éģĵ
è¯¾ ç¨ĭ
âĢĿãĢģ âĢľ
åīį çļĦ
8 8
ĠS t
é©¬ åħĭ
ä¹ ¾
å¼ķ æĵİ
æķĪ åĬĽ
éĩį åºĨ
å¦Ĥ æŃ¤
æł¸ å¿ĥ
æĺ¯ æĹ¥æľ¬
7 9
å¹¿ åĳĬ
äºº å·¥
éĩį å»º
ä½ĵéķ¿ åı¯è¾¾
éĵģ éģĵ
çİĭ åĽ½
çļĦ æĦı
è ¹
is t
Ġ ãĢĤ
åħ¬ æ°ĳ
ï½ ŀ
é¼ ł
çĽ´ èĩ³
é«ĺ éĽĦ
ä¸´ æĹ¶
å°¤ åħ¶
è¯ ŀ
éļı çĿĢ
æī¿ è®¤
å² ³
4 1
åĩ Ń
çĹ Ľ
N A
èħ ¹
æĪĲç«ĭ äºİ
æľª èĥ½
è®® éĻ¢
æķ° åŃ¦
æĬķ ç¥¨
æľº æ¢°
ç¼ ħ
éĩį çĤ¹
éĶ ģ
å®¢ è¿Ĳ
åģľ æŃ¢
å®ª æ³ķ
çĮ «
æĺİ æĺ¾
åį ĵ
ç¼ĸ åı·
æ³ ¥
æı Ĵ
å¥¥æŀĹ åĮ¹
ç»ĵ å©ļ
éĺŁ çļĦ
æĶ¶ å½ķ
èĹ ©
çĶŁ æ¶¯
194 5
æĢ» çĿ£
åĿ İ
æĺ¯ä¸Ģ ä½į
æħ §
éĴĪ å¯¹
åħ¶ å®ĥ
åĨį åº¦
åĩ Į
ç¾½æ¯Ľ çĲĥ
æ³¨ æĦı
Ġ formula
åŃĹ æ¯į
196 0
å¼ ĺ
äºĭ ä¸ļ
æĻ ĵ
éī ´
çķ Ķ
éĺ¿æĭī ä¼¯
è¢ ģ
I I
åħ¶ä¸Ń çĶ·æĢ§
åĳ½ ä»¤
B A
çĶµ åĬĽ
Ġ w
è± Ĩ
n e
ä¸ĸçķĮ å¤§æĪĺ
ä¼¯ çī¹
åħģ è®¸
å¾· è¯Ń
ä¸» é¢ĺ
æıĲ é«ĺ
è¯´ æ³ķ
æµĭ è¯ķ
æľĭ åıĭ
åİ Ħ
æłĸæģ¯ åľ¨
ä¸ĭ åįĪ
åį« æĺŁ
çŃī çŃī
è¿ĩç¨ĭ ä¸Ń
è¿Ľè¡Į äºĨ
; }-
æĹ¥ çļĦ
åľ° éľĩ
5 1
å¤ĸ çļĦ
å¤± åİ»
è¯ķ åĽ¾
æľª æĿ¥
éĢĿ ä¸ĸ
è®¿ éĹ®
æĿ Ń
å´ İ
S t
éļ §
çļĦ é¦ĸ
å¡ ĳ
æĶ¶ åħ¥
ä¸» æ¼Ķ
çĶŁ åĳ½
çļĦ çłĶç©¶
æĺ¯ä¸Ģ é¢Ĺ
éĢī æīĭ
äº¦ æľī
çĤ İ
æĹ ¦
in e
ç¬ ĳ
åı° ä¸Ń
èĤ¡ ä»½
åĬ ±
æ¬ ²
ä¸Ĭ æĺł
æĸ ĳ
ç§ĳçļĦ åħ¶ä¸Ń
çĶ ¸
è·¯ æĺĵ
æ¾³ æ´²
åľ¨ ä¸ŃåĽ½
åį ¿
u d
åĸ Ģ
é¸ ¡
å¤± è´¥
æ°ĳ ä¼Ĺ
æĪĲä¸º äºĨ
æł¡ éķ¿
è°ĥ æķ´
æĪ Ĵ
çļĦ æĸ¹å¼ı
çľĭ åĪ°
å® ı
èĢĥ èĻĳ
6 7
æĸĩ ç«ł
ä¸į å¾Ĺ
ä¿¡ åı·
å»º æĪĲ
åİĨåı² ä¸Ĭ
åĪĹ ä¸º
ä»ĸ æĺ¯
è· ĥ
è¡¨ è¾¾
ä¹ ı
æĴ °
è½ °
åı°åĮĹ å¸Ĥ
æŃ¦ è£ħ
åľ° åĪ©
5 2
èĭ Ĺ
å¤« åį¡
æŁĲ äºĽ
æķ° åŃĹ
5 4
åĲĪ çī©
t w
åľ ³
åĨ² çªģ
æ¹ĸ åĮĹ
èĳĹ ä½ľ
o b
å°Ĩ ä¼ļ
198 5
æĶ¿ æĿĥ
æĸĩ åŃĹ
çĲĥ åľº
å¥¥æŀĹåĮ¹ åħĭ
çĳŀ åħ¸
çĭ ®
6 2
å°± è¯»
çī µ
äºī è®®
ç§» æ°ĳ
åįģ å¹´
çļĦ åİŁ
ä¹Ŀ é¾Ļ
ç¿» è¯ĳ
èģĶåĲĪ åĽ½
è§Ĥ å¯Ł
æº ¶
ä¸ľ æĸ¹
æī °
ä¼Ĭæĸ¯ åħ°
çŃī ä¸º
äº Ń
åŁºçĿ£ æķĻ
çİ »
ä» ¿
äºĭ å®ŀ
ç½ ļ
Ġ in
æ´ Ĺ
èµ Ĳ
äºº æķ°
åĮ» åŃ¦
å¯ Ħ
è¡ĮæĶ¿ åĮº
å¤§ éģĵ
éĺ ®
an g
å¢¨ è¥¿
çĽ Ĺ
ä¹Ł åľ¨
åı¤ ä»£
å°¼ æĸ¯
è¥¿ æ´ĭ
åĽ½ éĺ²
å¾Ĺ ä»¥
å® Ļ
å° ī
è´ ŀ
åıĸ æ¶Ī
å¯¹ æīĭ
ç¨³ å®ļ
198 6
åįĥ ç±³
ä¸ŃåĽ½äººæ°ĳ è§£æĶ¾åĨĽ
å½ »
è¿Ļ æ¬¡
æĻ® éģį
ç¥ Ŀ
5 3
ä¸ §
åĽĽ ä¸ª
åĲĮ ä¸Ģ
åı¯èĥ½ æĺ¯
é Ħ
åĿ Ĭ
å¤º å¾Ĺ
åĬ¨ åĬĽ
éģ¿ åħį
èĪ Ĵ
å¥¥ åľ°åĪ©
æıĲ åįĩ
é² ¤
ç½ĳ è·¯
æ°´ åŁŁ
åı Ķ
å· §
å¾ ª
éļ§ éģĵ
es s
ä¹Ł ä¼ļ
çĦ ¦
ä¸Ģ åº¦
ç±³ å°Ķ
åĵĪ å°Ķ
éļ¶ å±ŀäºİ
å¸Ĥ åĮº
è¢ ĸ
æľ¬ èº«
éĻ ¨
åŃ¦ æľ¯
æ¬¢ è¿İ
çĽ¸ ä¼¼
æĪĺ åĲİ
è¿Ľå£« åĩºèº«
åıĳ åĶ®
å®¹ æĺĵ
çŁ¥ åĲį
æ£® æŀĹ
ä¸Ģ åĲĮ
åĪĽ éĢł
è½¯ ä»¶
åĩº æĿ¥
åĲį åįķ
æ³ ³
å¸Ĥ éķ¿
çī¹ æ®Ĭ
198 7
. .
9 8
ç®Ģ åįķ
çļĦ ç¬¬ä¸Ģ
æĤ ¬
ä¹Ł è¢«
ãĢĭ ï¼Īï¼ī
çļĦ æµ·
198 4
es t
åĥ §
è¡¨ éĿ¢
ç® ±
èĥ ģ
æī ®
å¢¨è¥¿ åĵ¥
ä»Ģ ä¹Ī
i k
èĽĭ çĻ½
ä»İ èĢĮ
å£« åħµ
ç¼ĸ è¾ĳ
çĶ³ è¯·
ä¹¾ éļĨ
å¼ķ åıĳ
èı² å¾ĭ
éħĴ åºĹ
åĽ½åĬ¡ éĻ¢
å·¥ åİĤ
çŁ¥ è¯Ĩ
èı²å¾ĭ å®¾
å¦ ĥ
4 00
æĺ¯ä¹Įåħĭåħ°çļĦ æĿĳèĲ½
èĮ Ĥ
åĲ ¨
éĥ Ĭ
h k
H D
è´¢ æĶ¿
è¯ ¢
å°Ķ åħ°
ä¹ĭ ä¸ĭ
èĢĮ æĺ¯
å£ ®
æĹ ¢
åĩº åı£
ä¼ł è¯´
éĩĳ èŀį
å¼ ¥
æ¹ ¿
åĨĽ çļĦ
å§Ĩ æĸ¯
åįĹ æĸ¹
c t
å¹¶ éĿŀ
èº« ä½ĵ
æĶ¿ åħļ
7 2
éĺ ħ
èĢ Ģ
ç² ¤
çļĩ åĲİ
çĸ ı
æ°ĳ éĹ´
è¡ °
æĺ¯ä¸Ģ åĲį
ä¹ĭ ä¸Ń
æ°Ķ è±¡
æ¶Ī æģ¯
éľ ¸
ä¹ĺ å®¢
ä¸ĥ å¹´
äºº å¤§
å°ı çļĦ
æ± ¡
ç¢ ³
å² Ĺ
al l
æŀ ¢
å´ Ķ
åħ¨ éķ¿
ä¸į è¶³
çĲĥ ä¼ļ
ä»£ çłģ
æĸ¯ åħĭ
ä¾ ¦
äººæ°ĳ æĶ¿åºľ
æľī äºº
å®ī è£ħ
éĢī åĮº
å®ī å¾½
ç¿ ģ
çĽ ¾
åĸľ æ¬¢
æĳ ĩ
å¥ ĳ
åŃ© åŃĲ
ar t
ä¸ ²
6 1
è Ł
å±Ĭ åħ¨åĽ½
å½ °
å¹¶ æľª
Ġ ï¼Į
åı° åįĹ
ä¸Ńåħ± ä¸Ńå¤®
ow s
åıĳçİ° äºĨ
æ°´ å¹³
è¿ħ éĢŁ
å®ŀéĻħ ä¸Ĭ
åıĳ çĶµ
è£ħ ç½®
ç»Ļ äºĪ
æŀ Ŀ
æĶ¾ å¼ĥ
èģĮ åĬ¡
198 2
ä¼ Ļ
o k
åı° é£İ
åħĪ çĶŁ
èµĦ è®¯
å¹´ çĶ±
éĢ ¢
çİ° åľº
åİ ĺ
åı¬ å¼Ģ
Ã ©
æ» ļ
æıĲ åĲį
ĵ é£İ
æį Ĳ
å¤į æĿĤ
é©¬ å°Ķ
æĭī ä¸ģ
åŁĥ åıĬ
æµ ĵ
éĴ ¦
åħ¬åı¸ çļĦ
ä¼° è®¡
æķĻ åŃ¦
198 3
åº Ĭ
ç»ı åİĨ
é£ ĵé£İ
è¿Ĳ èĲ¥
èĥĮ æĻ¯
æĹħ å®¢
æķĻ ç»ĥ
æ° ¢
æ·¡ æ°´
å¹¿ è¥¿
å¼º çĥĪ
åħ³ æ³¨
é«ĺéĢŁ åħ¬è·¯
æľī ä¸Ģä¸ª
æ¨¡ åŀĭ
ä¸» å¼ł
æ ĩ
åĮĪ çīĻ
6 3
åī ©
èĥ½ éĩı
ä¹Ŀ å¹´
ä¿¡ ä»°
è ²
u p
æŃ §
ä»¥ åīį
ç«ŀ äºī
Ġ f
çł ²
å®ŀ è¡Į
el l
äºļ åİĨ
åĮĪçīĻ åĪ©
åĸ ·
æĭ ³
æİ ª
å®ī æİĴ
åĭ ĥ
ä¸Ģ å®ļ
ä¹Ł åı¯ä»¥
æķĻ å¸Ī
çļĦ é«ĺ
çĳŀ å£«
ç§ĳçļĦåħ¶ä¸Ń ä¸Ģç§į
çļĦ åľ°æĸ¹
18 0
Ġ 2
æµ ©
ç¬ ¼
éĩĮ äºļ
èį Ĵ
é¸ ¿
çİ° ä»»
çĪ± å°Ķåħ°
åĪ ¸
å°Ķ çļĦ
ä¸Ń éĹ´
âĢ¦ âĢ¦
æĮī çħ§
æĿĥ åĬĽ
æĿ¥ åĪ°
ä¸ĵ éĹ¨
å·¥ åħ·
åıĳ åĩº
çīł ä»¬
éĥ½ å¸Ĥ
æµ ħ
æľĪ èĩ³
æľĢåĲİ ä¸Ģ
15 0
ç¦ģ æŃ¢
ï¼Ī "
ic e
çº¦ ä¸º
å¹´ åºķ
åĿ¦ åħĭ
Ġ çļĦ
è§Ħ åĪĻ
åįģ åŃĹ
åĵ² åŃ¦
å¤§ ä½¿
å¸ ħ
ç¬¬ ä¸ĥ
äº¿ åħĥ
åį ľ
èī² åĪĹ
å¤ª åŃĲ
åĤ ħ
èĭ± éĽĦ
æ» ©
åı¸ é©¬
åħŃ å¹´
å¡ «
éĢ Ĵ
æĮĳ æĪĺ
æ¯Ķ åĪ©
ä»ª å¼ı
é¦ĸ åºľ
æ¸ Ķ
Ġ zh
çİĩ é¢Ĩ
è¯Ħ ä»·
å¤ ·
èĩ³ å°ĳ
å®Į æķ´
é² į
ä½ľ æĽ²
åĬŀåħ¬ å®¤
æľī æīĢ
åı¦ ä¸Ģä¸ª
å°ļ ä¹¦
æķĪ æŀľ
åŁº åĽł
æĲ ¬
å¤ĸ åĽ½
Â °
çļĦ åİĨåı²
è£ħ çĶ²
åħ¶ ä½Ļ
åĲ¸ å¼ķ
åĬ¿ åĬĽ
è£ ķ
ä½ľ èĢħ
ç§¯ æŀģ
æ²³ çķĶ
é¥ Ń
æīį èĥ½
åĵģ çīĮ
7 1
è§Ĥ æµĭ
h t
æŀĦ æĪĲ
çº¢ èī²
èĢĮ è¢«
æĢ§ è´¨
èĿ ¶
æ¶ ¦
çī¹ çļĦ
çģ Į
éķ¿ åº¦
æ°ĳä¸» åħļ
æŃ¦ æ±ī
åī ²
çª Ĺ
èĲ¥ è¿Ĳ
ä¸ī è§Ĵ
è¢Ń åĩ»
è¡ į
åŃ¦ ä¼ļ
ä¸ŃåĽ½å¤§éĻĨ çļĦ
æĢ Ĵ
ĠC h
èĩª è¡Į
è´¡ çĮ®
7 3
æ³ķ åħ°
7 4
åĳ½ åĲįä¸º
æĹ¶ ä»»
æ· ®
ä¸ĩ åħĥ
å½¼ å¾Ĺ
ä¸ Ī
æ·± åľ³
ä¹ĭ åŃĲ
éĿ¢ å¯¹
åľ¨ æĹ¥æľ¬
åĮĹäº¬ å¸Ĥ
p h
æĥ ¯
ç»ı éªĮ
åĪ¶ çļĦ
å¿ĥ çĲĨ
æĪı åī§
åıĳ èµ·
æĿĥ åĪ©
æ°´ åºĵ
çļĦ éĩįè¦ģ
ä¾ ł
éĵ ¾
ç² ®
å®ĩ å®Ļ
197 9
åº ŀ
åĦ Ĵ
ac k
T V
åĩºçİ° åľ¨
æ°Ķ æĹĭ
å¸Ĥ æ°ĳ
çī¹ å¾ģ
ä¸ĸçķĮ æĿ¯
å¸ĥ é²ģ
è´Ń ä¹°
ind ows
åįģ ä¸ī
æİĪ äºĪ
å½¢ çĽ®
å¨ģ èĥģ
æĦŁ åĪ°
æĬµ è¾¾
ä¸į æ»¡
æĸ¯ å¡Ķ
a in
åľŁ èĢ³
å¤ļ å¹´
èĤ ¥
å¤ļ ç§į
å¸ĥ æĭī
å¸Ī èĮĥ
e v
æł ½
ãĢĬ ãĢĭ
å¦Ĥ ä½ķ
è´ ´
9 5
æĬ¥ å¯¼
ç»Ŀ å¯¹
é¹ °
åľŁèĢ³ åħ¶
il l
åĲİ æľŁ
çĵ¦ å°Ķ
ä»¥ èī²åĪĹ
åĮĹ æĸ¹
äºº åĴĮ
éĤ ¨
æİ¥ è§¦
ï¼Īï¼Į ï¼ī
èģĶ ç³»
æĽ´ åĬł
ä¹¡ è¯ķ
å° ¸
æĹ ¨
ï¼ļ "
ä¸º æŃ¢
ç¾İ åĨĽ
æ¯Ķ å¦Ĥ
è¸ ª
æ¬ £
æĬ ½
å° Ŀ
çĭ Ĥ
äºļ çĽ®
å½ĵ å¹´
çı Ĭ
åŀ Ĥ
æĸ ľ
èµ ¶
æ¸© åº¦
ä»ĭ ç»į
æĺ¯ é¦Ļæ¸¯
å®ī å¾·
ç¢ į
ä¸Ģ æĿ¡
æ´ ģ
çĬ¶ åĨµ
ä» ĳ
èĪŀ åı°
å¯¹ è±¡
åŀ Ĵ
åį« çĶŁ
åľ° çĤ¹
è¢«è®¤ä¸º æĺ¯
éĩĩ åıĸ
8 5
å¹´ æĹ¶
è¿Ļæł· çļĦ
é¢Ĩ è¢ĸ
éĻ¢ éķ¿
æĺŁ çŃīä¸º
å¢ŀ éķ¿
197 8
æĬĹ æĹ¥
Ġ 3
èĥ İ
å µ
å¹³æĸ¹ ç±³
ç¾İ æľ¯
è¾ĥ ä¸º
" ï¼Į
ä¸Ń æľī
åĽ¢ éĺŁ
æŃ£ å¸¸
èĨ ľ
éķĩ ä¸ĭè¾ĸä»¥ä¸ĭåľ°åĮº
å¾Ī å¿«
æ³° åĽ½
èĢĮ è¨Ģ
äºļåİĨ å±±
æĤ ī
çĻ½ èī²
åħ¥ ä¾µ
| |
çĻ» è¿Ľå£«
æłĩ å¿Ĺ
ä¼ł æĴŃ
èħ ¾
åĬł çĽŁ
å¨ ĺ
åįİ äºº
åŃ ¤
åĩł ä¸ª
è¾ ©
e b
ä¸ĵ å®¶
åİŁ åŃĲ
æ¼ĶåĶ± ä¼ļ
å¹¿ä¸ľ çľģ
å¤« äºº
éĹ ½
ç»ĵæĿŁ åĲİ
è¾¹ çķĮ
éħį åĲĪ
å®ļ ä¸º
å²ģ çļĦ
åĨ Ĵ
ç¼º ä¹ı
an t
çħ ¤
æĽ´ åĲįä¸º
æ¹ ĺ
çļĦ åıĳå±ķ
èĲ¨ åħĭ
åŁĥ å°Ķ
æīĢæľī çļĦ
åĴĮ åħ¶ä»ĸ
ou r
æ²³ æµģ
çŁ¥ åİ¿
åĽł ç´ł
çĻ» éĻĨ
è´ «
æŁ Ķ
æİ¨ åĬ¨
çĸ «
å¤§ èĩ´
ãĢģ ãĢģ
ç² Ĺ
æĦı ä¹ī
èģ ĺ
åİĭ åĬĽ
å» Ĭ
ç¡ķ å£«
åĢĻ éĢī
ç¨ ¿
n t
åĨħ éĺģ
æĺİ æ²»
åĲ ¾
æĽ´ å¤ļ
éľĢ æ±Ĥ
åĬ¨ ä½ľ
æı ¡
èĭı æł¼åħ°
å²ģ æĹ¶
æĿ Ĩ
åįģ äºĶ
ç»´ å¥ĩ
çĶŁ çļĦ
åĳ¨ è¾¹
åģ¥ åº·
èĢ Ĺ
éĻ Ģ
åľ¨ å¤§
æ°Ķ åĢĻ
åĿ ª
æºĲ äºİ
ä½ı å®ħ
éĤ£ äºĽ
æłĩ ä¸º
è§Ĥ çĤ¹
æĺİæľĿ æĶ¿æ²»äººçī©
æĶ¶ è´Ń
it y
8 9
è¿ Ł
ä¸ĭ æĿ¥
g e
æµĭ éĩı
å¤ª ç©º
q u
çħ§ çīĩ
å¾ĭ å¸Ī
çĭ Ħ
çļĦ ä½ľåĵģ
å½ĵ å±Ģ
198 1
çľŁ æŃ£
ä»£è¡¨ å¤§ä¼ļ
çĲ ī
çĲĨ äºĭ
æĴ¤ éĶĢ
æľº çļĦ
çĪ¶ æ¯į
å½ ¦
æī¾ åĪ°
ä¸ĩ ç¾İåħĥ
ï¼ ħ
çĲĥ åŃ£
å¯ ¨
èĬ± åĽŃ
ç»ı çĲĨ
é¡¾ éĹ®
å£ ¤
å¦ Ī
å¤§ å¥ĸ
è¯´ æĺİ
æŁı æŀĹ
å§Ķ ä¹¦è®°
éĢ Ĩ
åĲ¯ çĶ¨
è£ħ å¤ĩ
ç§ĺ å¯Ĩ
çĽ¸ ä¿¡
åį³ ä½¿
i p
æŃ» åĲİ
çļĦ åĽ½å®¶
è² Į
å¼ł ä¸ĵè¾ĳ
ç² ¹
åĩ Ģ
éĻį ä½İ
å¹´ åīį
é¦ĸ åħĪ
åĮ» çĸĹ
æľ ´
å© Ĩ
å·¥ äºº
åł ª
åħ¬ ä¼Ĺ
æ±Ł è¥¿
åĩº æĪĺ
æĬ ¢
æĦı è¯Ĩ
ç»Ī äºİ
19 00
æľº åĻ¨
æįŁ å¤±
çļĦ å¤ĸ
åľ° åĽ¾
ä¹ł æĢ§
æĸ° çĸĨ
ç¥ŀ ç»ı
å¤§ åĮº
ç¦ ħ
æı Ń
åħ¨ éĿ¢
ç¿ ł
çļĦ éĹ®é¢ĺ
èŃ¦ æĸ¹
å¹´ é¾Ħ
é£Ł çī©
ç»ı åħ¸
åľ¨ é¦Ļæ¸¯
åĵ¥ ä¼¦
iv e
å¤§ åİ¦
çļĦ å±±
åİĨ ä»»
é©¾ é©¶
å¯ Ĵ
é¾ Ł
æĶ¹ åĸĦ
éĺŁ ä¼į
ä¹Ĳ éĺŁ
ï¼ ı
çļĦ ä¸ī
ä¿ ĺ
åĬŀ çĲĨ
é±¼ ç±»
åĨľ æĿĳ
è±¡ å¾ģ
ä¿Ŀ ç½Ĺ
éĵ º
æ½ Ń
åıĤ è°ĭ
éĺ Ķ
åıĤåĬł äºĨ
åľ¨ ä¸Ģ
ç§į æĹı
èĸ Ħ
I C
åĲİ èĢħ
æĺ¯ å¾·åĽ½
æģ °
O S
ç³»ç»Ł çļĦ
çĸ¾ çĹħ
æĭī å¤«
ä¸ Ľ
åıĺ å¾Ĺ
çĭ Ĺ
å¼º è°ĥ
çģ« ç®Ń
è´µ æĹı
ä¿® æĶ¹
æĹ¥ æĬ¥
æ¯Ķ ä¾ĭ
æ·· åĲĪ
æµ· æ´ĭ
å°Ķ çī¹
å±Ģ éķ¿
æĹĹ ä¸ĭ
å»¶ ä¼¸
ä¸¾è¡Į çļĦ
åĬ³ åĬ¨
ç¤¾ä¼ļ ä¸»ä¹ī
æĻļ ä¸Ĭ
äºĨ è§£
çŁ ©
åįĹæŀģ æ´²
åħ¥ åı£
åħ¶ å®ŀ
ä»£ çĲĨ
å¼ ¦
194 6
åĲĮ çĽŁ
çģ« å±±
æī® æ¼Ķ
éĥ¨ çļĦ
è¢« è¿«
å·ŀ çļĦä¸Ģä¸ªå¸Ĥéķĩ
å¿ į
r an
ç¨ į
ä½įäºİ ä¸ŃåĽ½
6 00
æľ¬ ç«Ļ
å¤§ æ¡¥
éĥ¨ èĲ½
å¹¶ å°Ĩ
e g
éŃ Ĥ
æĳĦ å½±
195 8
å¤© ä½ĵ
å¥ĸ é¡¹
å²Ľ å±¿
æģĲ æĢ
å¤§ å¤ļ
æľĢ å¤ļ
è¾¾ æĪĲ
ç¿ Į
è¦Ĩ çĽĸ
åį° å°¼
å°± ä¼ļ
å®¶ çļĦ
ä¸į ä»ħ
è¯· æ±Ĥ
æł½ åŁ¹
i an
19 20
C D
åĬł å·ŀ
åĲ Ĳ
å¸ĥ å°Ķ
èµ ĭ
çļĦ æĹ¶éĹ´
å¯¹ æŃ¤
èµ· ä¹ī
ç©º ä¸Ń
é©¬ æĭī
éĶĻ è¯¯
ic h
å½¢ è±¡
æµ· å³¡
B S
é¼ »
è¥¿ åįĹéĥ¨
åĩº éģĵ
æĮ ª
å¸¦ æĿ¥
ä¸»è¦ģ æĺ¯
æµ· å¤ĸ
åĿ Ŀ
åľ¨ è¯¥
é»Ħ éĩĳ
è¡¨ æĺİ
åľ¨ åħ¶
on g
å°ĳ å¥³
æ¯ĶèµĽ ä¸Ń
çİĽ ä¸½
åĩº å¸Ń
çĶµ è¯Ŀ
a st
åº· çĨĻ
é¢Ĩ åľŁ
é¢ ĩ
è¿Ĳ ä½ľ
åĲĽ ä¸»
çĴ ĥ
æī ¶
é©± éĢĲ
åľ° çĲĨ
åł Ĩ
åĬł åĪ©
ç¢ İ
è¯ ı
åĬŀ äºĭ
çļĦ åŁİéķĩ
éģ µ
åĨĽ åĮº
åıĹ ä¼¤
s p
éĢ »
æ³ķ æ¡Ī
) ãĢģ
æī© å¤§
äº¨ åĪ©
Ġ ï¼Ī
å¸¦ é¢Ĩ
åħĭ éĩĮ
æĶ¿åºľ çļĦ
çĶŁæ´» ä¹łæĢ§
æ¶ī åıĬ
çªģ çĦ¶
çĪĨ çĤ¸
å¹´ ç¾İåĽ½
r y
ĊĊĊĊ ĊĊ
Ġ 1
å¤© çļĩ
åĪ ·
åįİ çĽĽ
å§ ¬
å¹´ åĪĿ
çļĦ æķħäºĭ
ç©º æ°Ķ
æ·± åº¦
çĻ Į
ä¼ ª
èĦ ı
éĢļ è½¦
åį¡ æĸ¯
è¯ķ éªĮ
ç§° ä½ľ
ä»¥ å¤ĸ
åĽ½å®¶ çļĦ
æĪĺ çķ¥
æĪª èĩ³
ä¸° å¯Į
è´£ ä»»
æī§ å¯¼
é¢ľ èī²
åįİçĽĽ é¡¿
å§ ļ
æĬķ éĻį
çĽ¸ æ¯Ķ
A M
è¥¿ åĮĹéĥ¨
éĵ Ń
çĶŁæ´»ä¹łæĢ§ ä¸įæĺİ
çļĦ å·¥ä½ľ
èĽ Ľ
å¹¶ ä»¥
åĮĸ çŁ³
è®¡ç®Ĺ æľº
èĥ ¸
ä¸ľ åĮĹéĥ¨
éĤ£ éĩĮ
ç¬¦ åĲĪ
åī§ æĥħ
æ¶ µ
åİ¿ çļĦ
åľ¨ äºİ
é¸ £
19 30
s e
åį Ĵ
i f
çŁ ¶
å¹¶ åħ¥
ä¼Ĺ å¤ļ
å±± è¥¿
åı¸ æ³ķ
éĹ´ çļĦ
æĿĢ æŃ»
å¯¹ å¤ĸ
åĬł å¼º
åı ł
èĭ ĳ
è¿Ļ éĩĮ
æ ª
éº¦ åħĭ
ç»ĦæĪĲ çļĦ
åĲį ä¹ī
ç½ ¢
ä¹Ł å°±æĺ¯
æ± ª
éĺ ª
la y
W indows
æ· ĺ
æĮĩ å¯¼
è½¬ çļĦ
äººåı£ æĻ®æŁ¥
ä¼ļ åĳĺ
åħ¼ ä»»
æºĲ èĩª
ä¸Ģ åº§
ä¾Ŀ çĦ¶
ä¸İ åħ¶ä»ĸ
éĢī ä¸º
å¾Ĺ çŁ¥
8 6
åįģ åĽĽ
ä¸ Ļ
åģ ·
å·® å¼Ĥ
ä»· æł¼
åĲ ı
ä¸¤ æ¬¡
194 0
å¯¹ åºĶ
èį Ĳ
â Ķ
å£° æĺİ
æĶ¿ åįı
ä¸»è¦ģ çļĦ
é£Ł åĵģ
ĠI n
çĭ ¼
æ¬¡ å¹´
åİŁ åĲį
åħ´ è¶£
äº² çİĭ
åħ Ĩ
æıĲ åĪ°
æ· »
B C
ä¸Ĭ æľī
å¤§åŃ¦ çļĦ
un d
A l
åı¯èĥ½ ä¼ļ
æĹ¶æľŁ çļĦ
ä¸Ģ å®¶
æ³ ¡
ä½ľ åĩº
èīº äºº
åĪĽ å»º
æł ı
éĺ¶ çº§
åĬ Ŀ
å±±ä¸ľ çľģ
è¯ģ æį®
æīĵ åĩ»
çľŁ å®ŀ
A R
å±ķ ç¤º
1 20
197 5
æŃ ĩ
å¯¹ æĬĹ
æŃ¥ åħµ
èĢĮ æĪĲ
æ¶ Į
çĶŁéķ¿ äºİ
ä¸¹ éº¦
or t
åĽ´ ç»ķ
Ġd e
å¯ ¸
ä¹ĭ æĪĺ
æĥ Ł
å¤§ è¥¿æ´ĭ
éĻĨ ç»Ń
å¥ Ķ
æī «
ç¡® è®¤
è¿ĳ å¹´
ç¥ Ģ
âĶ Ģ
æĶ¹ éĢł
ä¸º äºº
æĬ ¼
ç¯® çĲĥ
åľ° éĿ¢
æ¯Ľ æ³½
193 7
èĦ Ĭ
ä¿Ŀ åŃĺ
åĽº å®ļ
ç¡ «
å£° éŁ³
Ġ a
å§ »
èĲ¨ æĸ¯
æģĲæĢ ĸ
] ]
èı Ĭ
1 000
â Ĩ
A C
èµ° åĲĳ
éĢ ®
å¾Ģ å¾Ģ
æĬĹ è®®
åĽ½æ°ĳ æĶ¿åºľ
i o
çİ° ä»Ĭ
å¼ı çļĦ
çŃ¾ ç½²
ä¹Ł ä¸į
åıĤ èĢĥ
åı² ä¸Ĭ
194 8
åħ« å¹´
çļĦ äºĭ
ä¸ĸçķĮ ä¸Ĭ
è¶ ĭ
çĶ¨ ä½ľ
éĽ ĩ
ä¼ļ è¯ķ
ä¸Ĭ å¸Ĥ
éĢ ¼
è½° çĤ¸
åŁİ åĮº
çĲ ¼
ä»Ĭ å¤©
çĶ± æŃ¤
ä¸º ä¸ŃåĽ½
ï¼Ī ï¼Ľ
çĬ¯ ç½ª
èµĦ éĩĳ
[ [
åħĭ èİ±
Ġ Y
å¹´ åĪ°
æ¯Ľæ³½ ä¸ľ
ä¸İ åħ¶
ç§ĳ åŃ¦éĻ¢
8 00
èĴ ¸
ä½Ĩ çĶ±äºİ
éħ ¶
ç¼ħ çĶ¸
åĪĹ åħ¥
ç¬¬ åħ«
å¼º åº¦
æĪĲ äºĨ
ç£ ¨
ä¸Ĭ è¿°
ä¼Ĭ æľĹ
æĲ º
åĳ¨ åĽ´
åĹ £
ç§į åŃĲ
äº¦ æĺ¯
éķ¿ æ±Ł
èº« ä¸º
195 6
éĩı çļĦ
éªĳ å£«
æ¯ķä¸ļ åĲİ
é»ĳ èī²
è¾ °
å± ł
ç °
ä¸Ģ æ®µ
åĽĽå·Ŀ çľģ
éļı åį³
è®¾ äºİ
å± Ī
è´µ å·ŀ
ä» ĩ
å¤ ķ
åľ¨ åı°æ¹¾
æĸ¹ çļĦ
å±± åĮº
éĨ Ĵ
è®¤ è¯Ĩ
N G
éĤ£ ä¹Ī
èħ Ĳ
194 7
ä¸ĭ éĻį
éĽ Ģ
æľĿ å»·
ç¬¦ åı·
v er
ç¨ £
ä¾Ŀ æį®
ä¿ĥ è¿Ľ
æĸĩ çĮ®
åı ī
éĻķ è¥¿
äº¿ ç¾İåħĥ
æľĪ åĪĿ
éĢĢ åĩº
ä¸Ĭ ä¸ĭ
ä¹¦ éĻ¢
æĪĲ æľ¬
è½¬ åĲĳ
å¥ İ
è½¬ ç§»
çĮ Ľ
å« Į
è½¬ æį¢
åħĭ æĭī
æīĢ è°ĵ
èĢ¶ ç¨£
çļĦ ä¸Ń
éĢĢ ä¼ĳ
èĬ¬ åħ°
çĽ¸ äºĴ
éĢļ è®¯
å¯» æī¾
åį µ
çī¹åĪ« æĺ¯
9 2
åıĳ æĺİ
å¹³ åİŁ
ä¸ºè¾Ĳé³įé±¼çº² é²
åĮĹ æµ·
åĲĪ æĪĲ
å£° ç§°
8 7
çļĦ åĲİ
éŁ µ
åį¡ æĭī
ä¸Ĭæµ· å¸Ĥ
å§ ľ
åĬł æĭī
b er
ä¼ļ éķ¿
åĪº åı²
æĽ¾ ç¥ĸçĪ¶
åĨĽ åĽ¢
éĢļ éģĵ
åħį è´¹
ä¸į åĪ°
æ»¡ è¶³
éĩĬ æĶ¾
ä»» èģĮ
çİĩ ä¸º
197 6
å°¼äºļ å·ŀ
æľĪ çĲĥ
èį£ èªī
ä»¥ åĮĹ
ä¸Ĭ åįĪ
çĹħ æ¯Ĵ
çļĦ åħ³ç³»
åĨľ æ°ĳ
æľĢ è¿ĳ
çļĦ ä¸¤
' s
ç§ģ äºº
194 1
åħ¥ éĢī
è®º æĸĩ
éļ¾ ä»¥
æ°Ķ åİĭ
ç¼ĸ åī§
çļĦ è®¾è®¡
åĶĲ æľĿ
åı¯ä»¥ åľ¨
éĿĴ å²Ľ
è¿Ĳ çĶ¨
çĽĳ çĿ£
äºĭ æķħ
çłģ å¤´
197 3
äºļåİĨå±± å¤§
èį¯ çī©
éĺŁ éķ¿
ä¾ĭ åŃĲ
èĩ³ äºİ
ä¸ľ åįĹéĥ¨
åĵ¥ä¼¦ æ¯Ķäºļ
æ£ ĺ
è¯ Ĭ
8 2
ç¢ Ł
å·ŀ åºľ
åĬ «
on e
éĻĦè¿ĳ çļĦ
èĲ¨ å°Ķ
æ¶ Ĥ
çŃ¾ è®¢
é¢Ħ è®¡
ä¼ĺ ç§Ģ
æĭ ¼
è¥¿ å®ī
åģ ¿
å¼Ģ è®¾
æĸ ¤
éĩį å¤§
å¥¹ åľ¨
äºĮ äºº
åĳ¨ æľŁ
åįģ ä¹Ŀ
èĬ Ĵ
æķ´ ä½ĵ
åĺ ´
çļĦ æĥħåĨµä¸ĭ
éĢ® æįķ
æĿ° åħĭ
8 3
å°Ŀ è¯ķ
å« ģ
åĲĪ çº¦
é¹ ¤
æĮª å¨ģ
æīĢ å±ŀ
éļ ĭ
æĽ´ ä¸º
èµĦ äº§
ä¼ĺ åĬ¿
å®ŀéªĮ å®¤
æĥħ æĬ¥
åĽ° éļ¾
196 6
9 6
ä»ĸ ä¸İ
æĦı è§ģ
195 5
åĬª åĬĽ
çķĻ ä¸ĭ
ï¼ī ï¼Ľ
ç«ĭ åį³
æ¶Ī è´¹
åĳ¨ å¹´
æĺ¯ åįĹæŀģæ´²
å°Ĩ é¢Ĩ
è¯¥ åľ°
æŁ´ æ²¹
197 2
åĩ ī
åİ ¢
åĲĮ æĢ§
æ³ķ å®ĺ
å°ı åŀĭ
åĪĻ ä¸º
æĦ Ī
èĸ Ľ
å·´ å°Ķ
s s
ä¸Ĭ éĺµ
éĺ² å¾¡
æĽ °
æ³¨ åĨĮ
æ±Łèĭı çľģ
ï¼Į ï¼īï¼Į
å¹´ å¤ıåŃ£
å¥¥ å°Ķ
195 2
çĶĺ èĤĥ
å¾· å°Ķ
åĩ Ŀ
æĹ¥ æ²»
æ£Ģ æŁ¥
l y
æ´¾ éģ£
ç¤ ģ
æĤ ²
æµĻæ±Ł çľģ
çĬ ¬
äº§çĶŁ çļĦ
ç¬¬äºĮæ¬¡ ä¸ĸçķĮå¤§æĪĺ
ç§ĳ åŃ¦å®¶
å¦ĩ å¥³
on t
åŃ¦ å£«
åĮ» çĶŁ
åį± æľº
åľº çļĦ
E R
æĸ¹ è¨Ģ
æĳ Ĩ
åĪĨå¸ĥ åľ¨
å¥ ¶
æķ ¢
å±ŀçļĦ æ¤įçī©
è¡Į çļĦ
ä¸ĭ ä»¤
ä¸ī ä¸ĸ
Ġ st
èĢĮ ä¸į
åŁİ åł¡
ä»¥ åįĹ
åĽ½éĻħ æľºåľº
å¨ ĥ
å¤į åħ´
ä¼ ½
ç¥¨ æĪ¿
åİŁ å§ĭ
å¼ķ ç§į
æİĴ è¡Į
åħĭ éĩĮæĸ¯
çŁ³ æ²¹
èĩª æĿĢ
é¢Ĩå¯¼ äºº
å¼ķ åħ¥
8 4
æĶ¹ åĲįä¸º
åħ³ éĹŃ
åĨ¬ åŃ£
è¿Ľ æŃ¥
ä»¥ ä¸º
åĪĨåĪ« æĺ¯
a h
ä¹ī å¤§åĪ©
æİ ĺ
èĢĥ è¯ķ
éĵ ¸
çŁ Ľ
åĪĨåĪ« ä¸º
åĢ º
8 1
ä¸ŃåĽ½ çļĦ
éħį éŁ³
196 8
éĢĢ å½¹
éĹ ª
ä»ĸ è¿ĺ
åį ĳ
è¾½ å®ģ
å¿ Ļ
è¯Ń çļĦ
äº¤ æį¢
å¦ Ļ
197 4
åĳĬ è¯ī
æ¡Ī ä»¶
å¼Ģ éĢļ
æĪĲ éĥ½
èĩª èº«
çĶ± äººå·¥
èĤ ĸ
ä¸Ģ èĩ´
197 7
å¤§ è§Ħæ¨¡
9 7
è¥¿ åħ°
åħ¸ ç¤¼
æ° ¯
çļĦ çĶµå½±
å¾¡ åı²
å±ķ è§Ī
åħļ çļĦ
195 4
ãĥ »
æķ° çļĦ
åĿļ æĮģ
åĩºçīĪ ç¤¾
ç¼ĸ çłģ
ä¾Ľ åºĶ
éĻ¨ çŁ³
æł¼ ä¸º
o h
æī ģ
ä¿Ŀ å®Ī
ä»İ æŃ¤
m an
è¿ ¦
åħĭ ç½Ĺ
çº§ èģĶèµĽ
9 3
å¸ĥ èİ±
å¼ķç§į æł½åŁ¹
åĪĨ éħį
å§ Ĭ
åİĺ ç±³
åĢĻéĢī äºº
å¤§ å¸Ī
çī¹ èī²
S T
çĶ±äººå·¥ å¼ķç§įæł½åŁ¹
åįĩ çº§
è® ·
èĤ Į
åı· çļĦ
196 5
ç»Ļ äºĨ
åĽ½ åĨĽ
åĨħ æĪĺ
Ġ h
å¤§ ä¼Ĺ
å®¶ äºº
å·¡ åĽŀ
å°¼ è¥¿äºļ
a u
éĨ ĩ
e w
en d
çļĦ å¥³
åĲĦ ä¸ª
åľ° è´¨
æĬ ĳ
ç¥ ł
æĸ¯ é¡¿
ä»ĸ è¢«
åħ¬åħĥ åīį
ä»ĸ ä¹Ł
å¸¦ æľī
å·² æľī
èµĦ æľ¬
å¾· æĭī
å¿ ½
éĢĤ åĲĪ
æĺŁ ç³»
çī¹ æĭī
éĽ į
è§£ æķ£
çĶŁ æĢģ
å¼Ł å¼Ł
193 8
ĊĊĊĊĊĊĊĊ ĊĊĊĊĊĊĊĊ
f f
åĲ ¹
åĪ© çĽĬ
çĭ Ń
èİ« æĸ¯ç§ĳ
æĦŁ æŁĵ
äº² èĩª
196 4
å®ĥ æĺ¯
æĹ ¬
å¤§ å°ı
ç© ·
æĸ¹ ä¾¿
ä¿Ŀ éĻ©
è¾¾ å°Ķ
è¥¿çıŃçīĻ è¯Ń
æ³¢ æĸ¯
ä¾ ¨
å·² è¢«
åįĩ ä¸º
ig n
å°¼ åħĭ
æīĭ æľº
æ³ķ çļĦ
197 1
çİ° å®ŀ
æĪ¿ å±ĭ
193 9
è¯ģ å®ŀ
æĦı ä¸º
äºĶ æľĪ
åİŁ ä½ı
åĪĨ è£Ĥ
è´ ©
è®° å¿Ĩ
åī¯ ä¸»ä»»
ä¸ ĳ
æĺ¯ä¸Ģ åº§
åĬŀäºĭ å¤Ħ
å¹³ éĿ¢
å¥¥æŀĹåĮ¹åħĭ è¿ĲåĬ¨ä¼ļ
é©¬ éĩĮ
æİ¥ æĽ¿
é¼ İ
194 4
ç¢ §
æī© å±ķ
çļĦ è¯Ŀ
çł ĸ
å® °
éĤ ª
å¤©æĸĩ åı°
è®¾ å®ļ
åıĤ éĢī
çĻ¾ ä¸ĩ
ä¿Ħ åĽ½
èĪ ±
è¢ ĭ
ç©Ĩ æĸ¯
åĩº æ¼Ķ
æ´Ľ æĿī
195 9
e p
çİ» çĴĥ
å¹ ½
åĲī æŀĹ
åįł åľ°
éķ¿ å®ĺ
åĳĪ çİ°
çł Ĥ
éº Ł
çĤ ī
çĶ «
16 0
æ± °
è®² è¿°
éĵ ĥ
ï¼Ī ï¼īãĢĤ
çİ¯ å½¢
Ġ 4
åħ³ éĶ®
é³ ŀ
åŃ¦ çļĦ
æł ª
æĬ ±
ç¿ Ķ
åĽŀ å½Ĵ
æ´ĽæĿī çŁ¶
æ¼Ķ å¥ı
æİ¨ å¹¿
éķĩ åĮº
å½ĵ å¤©
åŁºéĩĳ ä¼ļ
æł ĭ
åĮĸ åĲĪçī©
éĽĨ åĲĪ
ä¸Ģ åĪĩ
u e
ç±» çļĦ
æľ¬ åľŁ
ç»¿ èī²
å©ļ å§»
åĸľ åī§
æĺ¯ åĽłä¸º
N BA
A P
196 9
åıª è¦ģ
å° ¹
äºĴ çĽ¸
âĢ Ļ
å¾· åįİ
çİĭ åŃĲ
åī§ æľ¬
æŃ¥ æŀª
ä¸Ī å¤«
çĽ´ å¾Ħ
åĲĦ èĩª
æĺ¯ åı°æ¹¾
çĤ¹ çļĦ
åĳĺ å·¥
9 4
åı¯ è§ģ
ç¨ »
å¤ ¹
éĺ» æŃ¢
èķ ¨
å¸¸è§ģ çļĦ
åı¤ åħ¸
æĸĩ æĺİ
æĶ¹ åĪ¶
åİŁ åĪĻ
ç»Ħ å»º
åħ¬ çĪµ
æŃ¦ å¸Ŀ
ç¦» åŃĲ
å»ºçŃĳ çī©
195 7
è½¬çļĦ å°ıè¡ĮæĺŁ
Ġt o
è¾ĵ åħ¥
ä¼ł åªĴ
æľ¬ åľ°
æĽ¾ äºİ
ç» ³
çĶ¨ éĢĶ
åĽŀ åºĶ
çĽ®åīį å°ļæľª
çŃī çº§
çĤ ¼
ç« Ł
ä»»åĳ½ ä¸º
çĪµ å£«
çļĦ éŁ³ä¹Ĳ
æģ Ń
éĤ» è¿ĳ
ä¸Ń è¢«
ä¿® æŃ£
å¤§ å¹ħ
å¢ŀ å¼º
çĽ Ĩ
æĢ§ èĥ½
è½¯ ä½ĵ
196 7
æīĵ ç®Ĺ
æ®ĸæ°ĳ åľ°
éģĹ äº§
æĴŀ åĩ»
åľ¨ ä»ĸ
æĽ´ æĸ°
ä¸Ń æľŁ
åĮĹ ç¾İ
çªģ çł´
9 1
æĭ ĸ
ä¸» åĬŀ
éĿł è¿ĳ
ä¿® å»º
ä¸¤ åĽ½
ç½Ĺé©¬ å°¼äºļ
åĲĦ åĽ½
æĥ ¨
åį± éĻ©
çī¹ éĩĮ
è¹ Ī
å· «
æİª æĸ½
èĢĮ éĿŀ
è° Ń
çº ¤
æľĢ ä½İ
çĶŁéķ¿äºİ æµ·æĭĶ
æľ¬ ç§ĳ
ç±³çļĦ åľ°åĮº
åĪĨ ç¦»
å·¥ç¨ĭ å¸Ī
åĻ¨ çļĦ
æĸ Ĳ
åĨħ èĴĻåı¤
å¤© ä¸ĭ
çķĻ åľ¨
çļĦ æĪĲåĳĺ
éķ¿ æ²Ļ
åĪ© æĸ¯
åī§ éĻ¢
åī ª
åĬ© çĲĨ
çī¹ å®ļ
éĤ ĳ
æ³¢ ç½Ĺ
ä»¤ äºº
å½ķ éŁ³
æĺ¯ ä¸º
æĹħ è¡Į
å¤§ èµĽ
ä¸Ģ çº§
âĨ Ĵ
éļ¶ å±ŀ
åº¦ çļĦ
ç«ĭ æĸ¹
195 3
åľ Ń
ä¸ ¸
æ± Ģ
å¹³æĸ¹ åįĥç±³
åıĳåĬ¨ æľº
çĶŁ åŃĺ
å¾Ī å¤§
å»ºç«ĭ äºĨ
çłĶ åıĳ
å®¶ ä¸Ń
åĲ« æľī
åĺī éĿĸ
å´ ©
ar k
å·ŀ åĪºåı²
å¯ ĵ
194 2
e y
å¾Ĺ åĪ°äºĨ
åĨĽ å®ĺ
Ġ æĺ¯
æĬ ĵ
è¢« è§Ĩä¸º
æ¡ĥ åĽŃ
èĳ£äºĭ éķ¿
å¤§ åį«
çĽ´ éļ¶
196 1
å¼ ¯
k m
å¾Ĺ åĲį
å¯¹ æĸ¹
åĪ¶ å®ļ
å¯ ®
çĶŁ æĪĲ
è¶³çĲĥ è¿ĲåĬ¨åĳĺ
æ´¾ åĩº
ec t
åħĭ å°Ķ
é¾Ļ æ±Ł
æ¯ ħ
æľ¬ çº¿
å°Ħ åĩ»
æĹ¥ æľŁ
ä½įäºİè¯¥åĽ½ è¥¿éĥ¨
æľĢ ä¸º
ä¹ĭ ä¸º
åįģ ä¸ĥ
æľį å½¹
çļĦ æ°´
æİ¥ æĶ¶
åī¯ ä¸»å¸Ń
æİ¥ ä»»
æ² ª
æĹ© å¹´
èĮ µ
æĺİ ç¡®
ä½įäºİè¯¥ çľģ
193 5
èĴĻ çī¹
è¾ Ł
ä¼ļ æľī
æĸĩ èīº
ç®¡çĲĨ å±Ģ
çĽ®åīįå°ļæľª çĶ±äººå·¥å¼ķç§įæł½åŁ¹
éĴ »
æ± Ŀ
æ´Ľ åħĭ
ç¥ŀ è¯Ŀ
éĺ¿ æł¹
èĻ ¹
æ·ĺ æ±°
å»¶ éķ¿
åıĻ åĪ©äºļ
çļĦ åĦ¿åŃĲ
ä¹¡ ä¸ĭè¾ĸä»¥ä¸ĭåľ°åĮº
è± «
æĺ¯ ä¿Ħç½Ĺæĸ¯
èĥ Ĩ
éĹ ¸
O N
Ġ n
éĦ Ĥ
e x
åľ° å¸¦
å¾· åĨĽ
éŃ ģ
196 2
å¤© çĦ¶
å¥¥è¿Ĳ ä¼ļ
èŁ ¹
æĪĲ éķ¿
åħ¶ä¸Ń ä¸Ģ
ä½Ľ ç½Ĺ
I n
æ¸ Ĭ
éĺ¿æł¹ å»·
å¹´ åĴĮ
at e
æľī èĳĹ
èĮ ħ
J R
èį Ĩ
æł¡ åĽŃ
ä¸¤ èĢħ
r ic
ä¸Ĭ åįĩ
åķĨ åĵģ
å°¤åħ¶ æĺ¯
196 3
æĸ ĭ
å¾ª çİ¯
è¾ ¨
è¥ Ħ
çĽ¸åħ³ çļĦ
æĪĲç«ĭ çļĦ
èĢģ å¸Ī
G o
åĽ½å®¶ éĺŁ
åŁ ĭ
æĪĳ çļĦ
çĲĨ æĥ³
æĺ¯ä¸Ģ éĥ¨
ç§ĺä¹¦ éķ¿
æĶ¯ æµģ
åĨ° å·Ŀ
åħ¬ å®ī
çİ°åľ¨ çļĦ
åĴ ¨
å½¢ æĢģ
åı¦ä¸Ģ æĸ¹éĿ¢
193 6
åĢ ¡
è¿Ļ éĥ¨
å±Ĥ æ°´åŁŁ
æ° ¨
æĸ ©
æ±ī æĹı
èĭ ¹
æĦı å¿Ĺ
æ´» è·ĥ
æł¡ åĮº
çĻ» ä¸Ĭ
194 3
éķ¿ è¾¾
æ¶Ī å¤±
åıį æĺł
åįĹ éĿŀ
å¾· çļĦ
æıĲä¾Ľ äºĨ
æł¼ æĭī
å¸Ĥ ä¸Ńå¿ĥ
åĿĩ ä¸º
åħ· ä½ĵ
ä¸Ģ è¯į
åĮħ åĽ´
è¾Ĳ å°Ħ
æĹł è®º
è´§ å¸ģ
é£Ł çĶ¨
åŃ¦ ç§ĳ
å» ĸ
æĮĩ ç¤º
åįģäºĮ å¹´
åģ¶ åĥı
éĶĢ éĩı
æĿŃ å·ŀ
æ¸¯ åı£
on d
éķ¿ åŃĲ
195 1
or d
åĽ Ĭ
éĥ ģ
ç§° åĳ¼
ä»Ĭ æĹ¥
å· ¢
æĸ¹ ç¨ĭ
æĢģ åº¦
ç»´ å¤ļ
ç©Ĩæĸ¯ æŀĹ
éĽ ¾
çļĦ æĸ¹æ³ķ
ç»´ æĬ¤
åħ¶ä¸Ń åĮħæĭ¬
çļĦä¸Ģ äºĽ
åıĹ æ¬¢è¿İ
èħ Ķ
A N
èĪŀ è¹Ī
éĽ Į
a i
è·¯ åı£
ä¸º æŃ¤
éĺ³ å¸Ĥ
åŁ¹ åħ»
æ´¾ çļĦ
éªĳ åħµ
äºī åıĸ
æĪĺ å£«
æĦı æĢĿ
s h
çº³ ç²¹
èľ Ĥ
æĮĩ å®ļ
å°¼ å°Ķ
è©¹ å§Ĩæĸ¯
æī £
æĸ° ç«¹
åİŁ æĿ¥
æİĪ æĿĥ
ä¸¤ å¹´
å¹´æĹ¶çļĦäººåı£ä¸º äºº
é© ³
æ¯ı å¤©
èĵ ¬
ä¸ ŀ
åĩºçİ° äºĨ
P S
æĿĢ å®³
æĹ¥ äºİ
ä¸¤ ä½į
å®ģ æ³¢
ç§ĳ å¤«
è¾ĸ åĮº
éĵģè·¯ è½¦ç«Ļ
é«ĺ è¾¾
çĶµ æ°Ķ
æŃ£ ç¡®
äºļ åĨĽ
æĢ ķ
èħ º
è ¤
çı Ģ
çĪ± æĥħ
åĪĨ æĶ¯
ç Ģ
æİ¢ éĻ©
ä¸į æķĮ
è´¨ çĸĳ
ä»¥ ä¸ĬçļĦ
å¤© åłĤ
ç¼© åĨĻ
é¢ĳ çİĩ
åĲ¸ æĶ¶
æľĪ çļĦ
åī¯ ä¹¦è®°
åĴ ĸ
åľ£ ç»ı
åĬłåĪ© ç¦ı
éĹ ²
åĪĻ åľ¨
æķĪ åºĶ
ä¸Ģ èģĮ
æľ¬ äºº
è°Ī åĪ¤
éĩĳ å±±
å¸Ĥ æĶ¿åºľ
è¾¹ å¢ĥ
å®ī ä¸ľ
åī§ åľº
å¥ ĭ
é¦ĸ ä¸ª
it h
çļĦ åĲĮ
åºŁ éĻ¤
Ã Ĺ
ãĢĤ ãĢĤ
é¸ Ń
o y
æļ ĸ
äººæ°ĳ ä»£è¡¨å¤§ä¼ļ
åĭĭ ç«ł
åŃ ķ
èĢĮ ä¸įæĺ¯
åĲ ŀ
å¯¼ å¼¹
éĵ İ
æľī è®¸å¤ļ
Ġ g
çĽ¸åĲĮ çļĦ
æ¯ĶåĪ© æĹ¶
Ġ v
çĲĨ è§£
æĺŃ åĴĮ
" ãĢĤ
ç¬¬ ä¹Ŀ
ç¾İåĽ½ çļĦ
å½¢ çĬ¶
æķĻ å®Ĺ
æĮ ĸ
æĿ¥ è¶Ĭ
æĵ ħ
æŃ¤ æ¬¡
åį³ ä½į
å´ ĸ
ä¸ĩ åİĨ
æĬ «
æī§ æĶ¿
ä¿Ŀ éļľ
æĺ¯ è¥¿çıŃçīĻ
æĺ¯ æĦıå¤§åĪ©
è° ¦
åĲ¯ åĬ¨
è¶³çĲĥ ä¿±ä¹Ĳéĥ¨
åĪĹ åĩº
åĬ ²
æĸ¹éĿ¢ çļĦ
7 00
èĭ ¯
æĭ ¨
åĲ §
èĤ ł
åĲ »
åĲī å°Ķ
é©¬ æĸ¯
Ġ åĴĮ
é¢ģ å¥ĸ
or e
æº ¯
å¹² éĥ¨
éĻ ª
è¥¿ æĸ¯
èĢ ķ
å¹¶ ä¸İ
Ġ åľ¨
æ» ķ
èĭ± å°º
han t
æĳĩ æ»ļ
è¿Ļ é¡¹
åĭ Ł
u c
çļĦ ç¬¬äºĮ
ä¸» åľº
å¼Ģ å±ķ
s on
æĺİ æĺŁ
çĵ ¶
éħ ·
åģľ è½¦
äºĶ ä¸ª
æ¸¸ æ³³
n g
å¤§ éĺª
çĽĳ å¯Ł
è´§ è¿Ĳ
æļ´ åĬĽ
å¤§ å¤«
è¶Ĭ æĿ¥è¶Ĭ
èĪ Ł
èĦ ¸
æĦı å¤ĸ
è¶³çĲĥ éĺŁ
éĺ² æŃ¢
åĩº åĶ®
æ²³åįĹ çľģ
çļĦ æĥħåĨµ
éĩĳ çīĮ
ig ht
æĹ¥ åĲİ
åĿĲ æłĩä¸º
çļĦ æĶ¯æĮģ
éĥ½ åľ¨
åĨĻ ä½ľ
æ¼ ł
èĭı ä¸¹
å¤ļ äºº
åľ¨ ä¸Ģèµ·
åįĹ ç¾İæ´²
A r
å®ļ å±ħ
æİ¨ è¿Ľ
çīµ å¼ķ
èĢ Ĳ
ä¸¤ åĲį
æĴ° åĨĻ
è¿Ļ åľº
19 27
æĺ¯ ä¸ª
èĦĤ é²¤
èį ¡
æĭĨ éĻ¤
ä¸º åħ¶
åī Ĭ
æ¡£ æ¡Ī
ä½Ĩ ä»ĸ
åİ¿ çļĦä¸Ģä¸ª
é»ĳ é¾Ļæ±Ł
h er
é»Ħ èī²
åĲĮæĹ¶ ä¹Ł
ĊĊĊĊ ĊĊĊ
èĤ¡ä»½ æľīéĻĲåħ¬åı¸
å¿ ĺ
ä¸ī åĽ½
æĬµ æĬĹ
èĪ Į
éĥ¨ éĥ¨éķ¿
æ²¿ æµ·
193 3
äºĭå®ŀ ä¸Ĭ
çĲĨ å·¥
å®Į å·¥
çŁ ®
è´§ çī©
æ¯ Ĺ
æ³¢ å°Ķ
è£ħ é¥°
èģ ª
çİ¯å½¢ å±±
äººæ°ĳ å¸ģ
å¤§éĩı çļĦ
æĢ§ åĪ«
è° ¥
åĿ Ĥ
å®£ ç§°
å¿ħ è¦ģ
åĸ ĩ
æīĭ æ®µ
æł Ĺ
ç»ı çĶ±
æĢ» è£ģ
åįĩ ä»»
åĩº åıĳ
æľº åĪ¶
èĴ ²
èĬĤ åº¦
èķ ¾
çļĦ æĥħ
ä¹¦ ç±į
0 5
ä¸¤ ä¾§
é£İ éĻ©
å¹³ è¡¡
æĶ¶ èĹı
åĽ½ éģĵ
èģĮ ä½į
ç´§ æĢ¥
äº ¥
V D
ä» ķ
åİŁä½ı æ°ĳ
è·Ł éļı
éĩį è§Ĩ
éĩı åŃĲ
æľī æľº
èģĶåĲĪ ä¼ļ
ä¿Ŀ è¯ģ
èľ ľ
æļ ¨
èľ Ģ
o x
æĹ¥ æŃ£å¼ı
å¯¹ åħ¶
è§Ħ èĮĥ
é¢ Ī
æ¨¡ æĭŁ
è®¾è®¡ çļĦ
ç¤º å¨ģ
ç¾İåĽ½ äºº
èĭ¹ æŀľ
æĭ ±
ä¸ĭ äºĨ
éĤ ±
çĽ¸å½ĵ äºİ
é¢ģ åıĳ
è¶³ å¤Ł
åľĨ å½¢
æ¸¯ åħĥ
è¾¹ ç¼ĺ
äºĮ æĪĺ
ä¼ļ ä¸Ĭ
åĪ° çļĦ
æĶ¶ è§Ĩ
æĤ£ èĢħ
çŃ¾ çº¦
ä»£ çļĦ
19 28
åĻ ¶
é¦ĸ æĴŃ
èĸ ĩ
åĬł å°Ķ
åıĳè¡Į çļĦ
åı¤ èĢģ
æĹł äºº
å¥¹ ä»¬
åĤ ¬
æķĮ äºº
æ³ķ è¯Ń
åĨ³ è®®
å· ·
ãĥ ¼
å¸¸ å¸¸
æĢĢ çĸĳ
åľ¨ ä¸Ń
A S
çĥŃå¸¦ é£İæļ´
I N
èĥ½ æºĲ
é¼ĵ åĬ±
æľ Ń
éĩĩ è®¿
æ¸ ł
ä¼ł æķĻ
ä¼ļ è¢«
å§ ĳ
en s
ç¢ ±
ä»¥ ä¸ľ
åĩº åľº
æİ ł
æ£Ģ å¯Ł
ç»´å¤ļ åĪ©äºļ
å±± åİ¿
çļĦ åİŁåĽł
ç½Ĺ å¾·
å¸ ½
éĺ¿ éĩĮ
çĽĳ çĭ±
æŃ£ éĿ¢
éģ ¥
åı¦ æľī
å½± åĥı
è¯Ĺ äºº
åħĭ çļĦ
ar e
åįķ åħĥ
ä¸»ä¹ī èĢħ
èĭ± éĩĮ
é² ¸
æĶ¶ éĽĨ
193 1
æ³ķ åºŃ
èģĶ ç»ľ
åıĺ ä¸º
ä¸¥ æł¼
å®¡ æŁ¥
å¤© åĲİ
ä¸Ĭ å¸Ŀ
æĪĲ å°±
æ¬§ çĽŁ
åģļ ä¸º
è¿Ļ é¢Ĺ
éĻ· åħ¥
åħ¬ æĸ¤
åį ¸
ç»´ æĸ¯
åįļå£« åŃ¦ä½į
åĬłåħ¥ äºĨ
èĸ ª
éĽ· æĸ¯
å¸¸ åĬ¡
æĬ¥ çº¸
è§ī å¾Ĺ
å¸ Ĳ
ç¬¬ åįģä¸Ģ
æĮģ æľī
æ±ī åŃĹ
ä½¿çĶ¨ èĢħ
ç¨ Ģ
äºº ä¸º
æĳ §
i re
ç«ŀ éĢī
ä»£è¡¨ åĽ¢
ä¸» åĬĽ
u st
æĦı åĳ³
é¡ ·
æ±ī è¯Ń
å·´ æĭī
æľŁ çļĦ
ä¸ŃåĽ½ åĽ½æ°ĳåħļ
çĲ ª
æº ĥ
åĢ¾ åĲĳ
ä¸Ģ åľº
å¸¸ å§Ķ
éļľ ç¢į
å¹¶ çĶ±
è·¯ æ®µ
éĶ Ĳ
èĥ º
è¯ ±
åİŁ åħĪ
é¦ĸ çĽ¸
ç§¯ åĪĨ
éĢļ çĶ¨
å·¨ å¤§
è° Ĭ
æĸ ¥
ä¼łç»Ł çļĦ
" ï¼īï¼Į
âĢ ĺ
èĵĿ èī²
åħļ åĳĺ
193 2
åĪ¶ä½ľ çļĦ
é¡º åĪ©
çļĦ åĲįåŃĹ
1 10
çĭ¬ç«ĭ çļĦ
æĹ¥æľ¬ çļĦ
å® ł
oc k
å»º åĪ¶
ä¹¦ ä¸Ń
Ġ l
æ°ĳ è¿Ľ
æľ¬ å±Ĭ
åı¸ä»¤ éĥ¨
åį¡ ç½Ĺ
äºº æĿĥ
èĢĥ åı¤
æĶ¹ è¿Ľ
å© ´
éĢ» è¾ĳ
æĹłçº¿ çĶµè§Ĩ
ç¦ıå»º çľģ
å¿ §
å¤ļ å°Ķ
å¼Ģ å¹ķ
ä»ĸ äºİ
è¾ĵ åĩº
è± ¹
æĪĺ éĺŁ
åŁİ çļĦ
å®¡ åĪ¤
æ¡ ĵ
èĹ »
å¸ĥ æľĹ
ä¸ľ äºļ
ä»ħ æľī
p er
çļĦ éĥ¨åĪĨ
çŃ Ĵ
æµ· åįĹ
ä¸ī äºº
è¸ ı
Ġ for
c n
ä¸¤ å²¸
ä»¥ æŃ¤
æ· ĳ
å²Ľ ä¸Ĭ
T C
åıĳçĶŁ åľ¨
è¿ĩ çļĦ
å®¢ æĪ·
åĮĹæµ· éģĵ
èº« åĪĨ
æİ¨ èįĲ
åķĨ äºº
è¡ĮæĶ¿ éĻ¢
ãĢĤ âĢľ
æī ĳ
çľģ éģĵ
çļĦä¸Ģ æĿ¡
çĥŃå¸¦ æ°ĶæĹĭ
ä»¥ è¥¿
0 1
éĢļ ä¿¡
å½¢ å®¹
ç§° åı·
ï¼Į ï¼ī
æ£ ī
å°ģ ä¸º
æĽ´ å¤ļçļĦ
çĶ ľ
ç§ĳ å°Ķ
åī§ éĽĨ
am e
éĻĦ å±ŀ
åķ ¡
193 4
å½ĵåľ° çļĦ
å¤§ éĢī
å°Ĩ åľ¨
æķĪåĬĽ äºİ
åĨħ åľ°
é¾Ļ çļĦ
åįĹ æµ·
ä¸ľäº¬ éĥ½
åģĩ è®¾
æ¤ İ
æĦŁ è§ī
å·² äºİ
èĲ½ æĪĲ
è´ ¼
æĦ ¤
éĩį éĩı
è¿Ļ é¦ĸ
è§Ĩ é¢ĳ
æľ¬ ä½ľ
ç±³ èĩ³
Ġ /
åīį åĲİ
æ²¿ å²¸
éĤ µ
è¯¥ æł¡
çļĦ ä½įç½®
åľ° åľ¨
ä¸»ä¹ī çļĦ
è¥¿ ä¾§
ä¸Ĭ äºĨ
åįı è°ĥ
äºĶ åįģ
ç»ıæµİ åŃ¦
çķ ħ
çĶ» å®¶
ç¾¤ ä¼Ĺ
p e
æĶ¹ ç§°
æĹ¥ å¼Ģå§ĭ
èģĶ ç½ĳ
åº ¶
ä½į çļĦ
èŃ¦ åĳĬ
æ²³åĮĹ çľģ
æĭ ĺ
éŃĶ æ³ķ
ä¹ĭ å¤Ħ
ç«Ļ åı°
ä¸Ń æľĢ
æĸ¯ æĭīå¤«
çī¹ åħ°
å¤© æ°Ķ
çº¦ æľī
æĿ¡ ä¾ĭ
åĮº åĨħ
çĿ ¡
æ¹ĸ æ³Ĭ
åħħ æ»¡
ç§į æ¤į
è¾ŀ èģĮ
å¤§ è¡Ĺ
åľ¨ èĭ±åĽ½
è¯¥ åĽ½
çļĦ è§Ĵèī²
åıĳ æĮ¥
o ok
å¹¶ æĹł
æĸĹ äºī
ä»ĸ ä¸º
ç½Ĺ ä¼¯çī¹
å® Ľ
çĪ± å¾·åįİ
æİ§ èĤ¡
åħĭ æŀĹ
è¯ģ åĪ¸
æ¢ ¨
è° ģ
æĥ ľ
çĥ ¯
ç§ĺ é²ģ
H R
m ent
æıĲ åıĬ
ç£ ·
.. .
è´¢ äº§
è·¯æĺĵ æĸ¯
çļĦ æĢ»
çĪ ·
ç© ´
ç²Ĵ åŃĲ
åĶ ĩ
ä¸ĭ ä¸Ģ
éĻ¨çŁ³ åĿĳ
éĺ³ åİ¿
æł¼ å°Ķ
ä¾į éĥİ
åį« è§Ĩ
0 6
åĵ ª
åįģä¸Ģ å¹´
èīºæľ¯ å®¶
çłĶç©¶ éĻ¢
å§Ķåĳĺä¼ļ å§Ķåĳĺ
çī©ç§į çļĦ
éĵģè·¯ å±Ģ
ar y
æŀ¶ æŀĦ
é¤Ĳ åİħ
éĥ½ è¢«
ä¸ľ æµ·
æ¾ Ħ
ä¸ĭ åĪĹ
çº¢ åĨĽ
éĤ® æĶ¿
æĶ¾ åľ¨
åĨ ķ
æīĵ çł´
çĬ¹å¤ª äºº
çĩĥ æĸĻ
ä½ľ ä¸ļ
åĽ¾ åĥı
19 29
æ¢ µ
æĹ¶ æĬ¥
æ°Ķ ä½ĵ
å¸ Ĩ
æ²ĥ å°Ķ
å° ¿
å® ´
ä¿® å¤į
ãĢĤ ï¼Ī
u g
çļĦ å½¢å¼ı
åķĨ åºĹ
èĳ µ
æ¯ı æĹ¥
c om
ç¦ ¾
çļĦ åŁºç¡Ģ
åĪĻ æľī
æ¸¸ å®¢
ä½Ļ äºº
Ġ X
ä½İ æ°Ķåİĭ
å·¡ æ´ĭ
æİ ©
å¼Ĺ éĩĮ
äº ©
èĭ± åĨĽ
å¤ª åĲİ
è§Ĵ åº¦
è ¤Ĳ
åķĨ åľº
ä»ĸä»¬ åľ¨
å¾Ī å°ĳ
i b
æĹ¶ä»£ çļĦ
æīĢåľ¨ åľ°
å¸ĥ éĩĮ
åł ¤
èŃ¦ æĬ¥
çĲĨ çĶ±
å¼ķ è¿Ľ
æĺ¾ èĳĹ
ä¸¾åĬŀ çļĦ
æ±¡ æŁĵ
åįĩ æł¼ä¸º
æ¦ Ħ
ä¸į è¦ģ
åħ¬ äº¤
ä¸Ń æŃ£
éģĵ åħī
æ¼ ı
äº« å¹´
25 0
è½ ©
æĺŁ çļĦ
è¾ħ åĬ©
äºĨ è®¸å¤ļ
æİ¥ èĳĹ
åĩ ¶
çİ°æĹ¶ çĶ±
è¿ĳ ä»£
ç¬¬ä¸ī çĶ²
èµ· åĪĿ
ç¢ °
åį §
æī© å¼ł
ç¡® ä¿Ŀ
ç» µ
åĬł ä»¥
a w
ç§° ä¹ĭä¸º
ç¬¬ä¸Ģ ä½į
è¿ŀ è½½
çĻ» åľº
åĪĨ æĪĲ
å¤Ħ çļĦ
è¡Į ä¸ļ
çİ° ä¸º
èı ©
çľģ çļĦ
æŃĮ è¯į
æķĻèĤ² éĥ¨
åľ¨ åĮĹäº¬
èĦ± ç¦»
æ±Ł æĪ·
æ¸ħæľĿ æĶ¿æ²»äººçī©
æ»¡ æ´²
ä½¿ åħ¶
åĮº éĹ´
èĤ º
P C
ãĥ ³
æ¼Ķ åĮĸ
ð «
ä»ĸ æĽ¾
æķ° ä½į
æĶ¯ ä»ĺ
æļĤ æĹ¶
åĮº åĪ«
çĵ ·
çĶµ è½¦
å·¨ å¤§çļĦ
æ¸¸ è¡Į
ãĢĭ ãĢģ
å¼ı æľĪåı°
ç±³ äºļ
0 9
i es
19 12
æĪĲç«ĭ äºĨ
é¹ ħ
u re
æĸ¯ æ´Ľ
å±Ĥ çļĦ
å¤§ å®¶
ä¹Ł æ²¡æľī
å¡Ķ å°Ķ
æľĢæĹ© çļĦ
å¤ļ é¡¹
è¯¥ çīĩ
é©¬ ä¸ģ
å¹´ èİ·
æŃ» äºİ
å¼ ĵ
æĶ¶ è´¹
æĸ° çķĮ
èª ĵ
æł¼ åĭĴ
çİ ²
å±± è¥¿çľģ
ent er
çĽ¸ åıį
éĢ ¸
ä¸İ æŃ¤
è¯¥ åħ¬åı¸
u x
æĮ ¡
èħ ¿
ä½¿çĶ¨ äºĨ
åĺī ä¹ī
m m
åĲİ è¢«
é² ¶
åĬł åĵ¥
é¢Ĩ åľ°
é¦ĸ å¸Ń
çŃĸ çķ¥
ä¸Ń å°Ĩ
E C
è¿ŀ ä»»
çļĦ åŁİå¸Ĥ
ä¸»æĮģ äºº
æ¹ĸåįĹ çľģ
èĬĿ åĬłåĵ¥
çĲī çĲĥ
æĢ ¡
æµģ ä¼ł
é¥ ¼
åįķ çĭ¬
äº¬ éĥ½
éĿ¢ç§¯ ä¸º
çłĶç©¶ çĶŁ
åģļ åĩº
æĳ§ æ¯ģ
ä¼Ĭ æĭīåħĭ
åĪĩ å°Ķ
åĴĸ åķ¡
åľº æīĢ
S h
0 8
é¦ĸ ä½į
æĪĺ è½¦
æ±Ł åįĹ
æĪĲç«ĭ åĲİ
åºĨ ç¥Ŀ
è½¬ ä¼ļ
ç»Ī çĤ¹
æ¨ ±
è¶³ åįı
S S
Ġ 6
éĻ¢ å£«
æ°ĳè¿Ľ åħļ
æ£ ķ
è§Ĩ æĺŁçŃīä¸º
æ²³ çļĦ
åĪĽ å§ĭ
é¹ ı
åĽŀ åĽ½
æĪĺ åľº
äº¤ çķĮ
èĬĤåº¦ ä½¿
æĹ© ä¸Ĭ
a z
æ²³ éģĵ
å·¡æ´ĭ èĪ°
çİ° åŃĺ
åıĳ è¨Ģ
åĽŀ å¿Ĩ
å¤ ¸
ä¸ľ ä¾§
æĺ¯ ä»İ
æĹ¶ æ®µ
æµ· ä¸Ĭ
åįĹæŀģ æĿ¡çº¦
è¿Ŀ åıį
è¯Ħ ä¼°
ä¹ł æĥ¯
è´ ª
ç§Ł çķĮ
çĺ ¤
å¥³ çİĭ
å·² çŁ¥
èĤ ¤
æīĭ æľ¯
ä» Ĩ
æĥ³ è¦ģ
å¹´ç¾İåĽ½ äººåı£æĻ®æŁ¥
ä¸Ģ ç³»åĪĹ
ä¼¼ ä¹İ
æ¡ Į
ä¼ ŀ
å§ ¿
åĲ Ĭ
çī¹ åĭĴ
æ¸ħ ä»£
æĤ ł
ĠT he
çĹĩ çĬ¶
åĲĪ æ³ķ
åįģ æľĪ
ç¿ ħ
éĢļ çŁ¥
æ¸ħ åįİ
éĢĶ ä¸Ń
çĶµ åĬ¨
I P
âĢ §
å®ĺ èĩ³
éľ ŀ
çļĦ æĶ¿æ²»
æĺ¯ ä¸į
1 30
Ġ 10
æħ İ
ç» ¥
æĸ° åĮĹ
å¨ ¶
æĻĭ çº§
ç±³ åħ°
æŁ¥ çĲĨ
0 7
ç«ĭ åľº
e e
æĴ¤ éĢĢ
åĩĮ æĻ¨
é¢ ł
éĹ» åĲį
çĽ¸ åºĶ
åį° åĪ·
åįĹæŀģæĿ¡çº¦ ä½ĵç³»
éķľ å¤´
æĸ¯ åį¡
çº¿ ä¸Ĭ
çļĦ æĹ¥
ç¬¬ä¸Ģ çĻ¾
èĩ Ĥ
æ Ĩ
æ¡ Ĩ
æ¡ Ĳ
æľ« æľŁ
Ġ 5
çļĦ ä¸į
èĬ ¦
çļĦ æľĢ
æĢ» ä¼ļ
çĪ ª
ä½ĵèĤ² åľº
å¥ ł
ä¾ £
ç» ĳ
æĶ¹ å»º
- -
åºı åĪĹ
åħĪ è¿Ľ
ä¸º åı°æ¹¾
ä½Ĩ åĽł
èµ¤ çº¬
éģŃ éģĩ
é©± åĬ¨
åį³ å°Ĩ
èİ± èĮµ
å¼Ĺ æľĹ
åįĹæŀģæĿ¡çº¦ä½ĵç³» ç®¡çĲĨ
çĻ» è®°
åı¯ åīįå¾Ģ
è¿Ļ æĹ¶
è¯¥ å¸Ĥ
è§Ĥ åħī
æĪĲ çĨŁ
èº« ä¸Ĭ
åĨ Ģ
æŀĦ éĢł
æĺ¯ åį°åº¦
æł¹ æľ¬
ä»£ æĽ¿
çļĦ ç»ĵæŀľ
å¼ Ħ
æĪĺæĸĹ æľº
éĩĮ è¾¾
èµŀ åĬ©
åľ¨ åĨħçļĦ
çº§ åĪ«
IS T
A K
éĿ¢ ä¸´
åı² å¯Ĩ
éĢļ å¾Ģ
åĽĽ åįģ
å¦Ĥ ä»Ĭ
ä¿¡ å¾Ĵ
èµ¤ ç»ı
çº¦ çĳŁ
åľ¨ ä¸Ģä¸ª
åĨħ æľī
éĻ¤ æŃ¤
äº¤ æ±ĩ
ä¸Ńåįİäººæ°ĳåħ±åĴĮåĽ½ æĶ¿æ²»äººçī©
çļĦ ç¥ŀ
æīĭ æŀª
æŁ Ħ
U n
å¤§ éĿ©åĳ½
ç«Ļ çļĦ
å¹¶ è¢«
æ¬¡ äºİ
æĻ® é²ģ
è¯¦ ç»Ĩ
é¢Ħ æµĭ
åŃĲ å¥³
åħ¬éĩĮ çļĦ
æł¼ éĽ·
é¢Ħ ç®Ĺ
åĢ¼ å¾Ĺ
è½¦ éĺŁ
æĶ¹ åĲį
æĹ¥ ä¸ĭåįĪ
or y
åįķ ä¸Ģ
åİ Ŀ
â Ħ
åĶ¯ä¸Ģ çļĦ
æľª æľī
éķ¿ å®ī
ä¾Ŀ çħ§
åľ° ä¸Ĭ
ç½ĳ çĲĥ
æķ´ åĲĪ
éĴ¢ çĲ´
å±ħæ°ĳ çĤ¹
åĨĴ éĻ©
èĤ ¢
åĪ¶ä½ľ äºº
å·´ åŁº
ç»Ħç»ĩ çļĦ
æģ ¨
å°± åľ¨
er t
y le
19 25
æĦ¿ æĦı
ç¿Į å¹´
æĸ¯ æīĺ
è¯º å¤«
åħ¶ä»ĸ çļĦ
èĩª æĪĳ
éĥ¨ å°ļä¹¦
D VD
å²© çŁ³
çİ°æĹ¶çĶ± åįĹæŀģæĿ¡çº¦ä½ĵç³»ç®¡çĲĨ
è´¹ çĶ¨
éħį ç½®
éģĵ å¾·
æĪĺ æľ¯
çĽ® çļĦæĺ¯
çŁŃ æļĤ
æİ¢ æµĭ
èŀį åĲĪ
I D
å¸ĥ éĽ·
çī¹ å°Ķ
o st
ä¸» æĿĥ
i al
çļĦ åıį
èµĦ åĬ©
æ¸¸ åĩ»
èĩª ç§°
çĹħ éĢĿ
ä¼ļè®® åĳĺ
åĩº æĿ¥çļĦ
å·¥ ä¼ļ
å·ŀ è´Łè´£ç®¡è¾ĸ
20 19
å¥´ éļ¶
æĬ Ħ
æľ¬ çīĩ
å²Ľ çļĦ
æľĢé«ĺ çļĦ
çļĦçī¹ æľī
äº¤ ç»Ļ
åĢŁ çĶ±
æĥ §
éĥ½ çĿ£
è¨Ģ è®º
æĪĲ å¹´
æ¶ Ľ
æĿ¥èĩª äºİ
l d
åĴ¨ è¯¢
19 24
ä¸ī ç§į
æł¼ éĩĮ
åĽĽ å¤§
æİĴ åĪĹ
ä¸º å¤§
å¥ ¸
è¿Ļ åº§
è½¦ åİ¢
èĿ ł
æĹ© åľ¨
æı´ åĬ©
æ£Ĵ çĲĥ
åĳ İ
å¸Ĥ æĶ¿
çĶ¨ ä»¥
æĬ Ľ
æħ °
ä¼Ĭæĸ¯åħ° æķĻ
åħ¨ ä¸ĸçķĮ
è´ ·
åĪĽ æĸ°
è®¤ è¯ģ
O M
å¼Ĺ éĽ·
æľĪ èµ·
ä¿Ĺ ç§°
çª Ħ
æ¸¸æĪı çļĦ
æĬĹæĹ¥ æĪĺäºī
å®¤ åĨħ
åĪ¶ çīĩ
çĶ» éĿ¢
19 18
çİ° æľī
å¼Ģ åĬŀ
c ol
åĬł åĪ©äºļ
åı¯ æĺ¯
og le
in a
æ¸¯ éĵģ
çī ²
äºĮ çº§
è° Ĳ
æĮĩ æİ§
èħ °
è¥¿ éĩĮ
å¯¹ ç§°
ç«ŀ èµĽ
è¡Į é©¶
å¥¥æĸ¯ åį¡
ä¸» åĬ¨
éª Ĺ
é¸ ¦
æİĮ æı¡
å¹´ ä¸İ
èĤ ¿
åĪ ł
åĩĨ åĨ³èµĽ
èµ Į
ä»ĸ åĴĮ
åįł æį®
èħ ĵ
æĽ¿ ä»£
èĤ Ŀ
äºĴ èģĶç½ĳ
19 19
éª ļ
åŁİ åİ¿
æĶ» æīĵ
åĪ© çļĦ
æĺ¯ ä¸ºäºĨ
ä¸ľåįĹ äºļ
å¾ģ æľį
i z
è¾ Ī
èĪ¹ åıª
oh n
éķĩ åİĭ
å¹² çº¿
éģŃ åıĹ
0 4
æĿ¥ å¾Ģ
ä»» æľŁ
çī¹ åĮº
æ® ·
é£Ł æĢ§
E D
ĠC om
èĩ´ åĬĽ
æĽ´ æĺ¯
æī Ń
ä½įäºİ éĵ¶
ç¾İ ä¸½
ç®Ĺ æ³ķ
åľ° äº§
ï¼īãĢģ ãĢĬ
éĿĴ æµ·
æ²Ī éĺ³
SA O
çľģ è´Łè´£ç®¡è¾ĸ
åľ¨ æĸ°
åħ¬ ä¼ļ
ä½ĵ åĪ¶
åħ¬ é¡·
æ²³ æµģåŁŁ
å»ºçŃĳ å¸Ī
åħ¶ä¸Ń ä¸Ģä¸ª
ĠP ro
çĶ· å¥³
ä¸ī å¤§
æĹ¥ çĶ±
æĺ¥ ç§ĭ
ä»£çłģ ä¸º
åľº æĻ¯
è¿ģ èĩ³
æ½ľ èīĩ
æ² ¼
èĮ İ
ä»» æķĻ
çĽ Ī
åıĳçİ° çļĦ
åħ¥ çĲĥ
ä¹ĭåĲİ çļĦ
æį· è¿Ĳ
M S
åĲ ģ
çļĦ åľ°åĮº
è¶ħ è¶Ĭ
èĤ ©
èī² å½©
æī© å»º
åĪĨ ä¹ĭä¸Ģ
åıĽ ä¹±
çŁĽ çĽ¾
å½» åºķ
sp an
åŃ¦ ç³»
æľ¬ åľ°åĮº
æĮĩ æķ°
19 26
çļĦ ç»Ŀå¯¹
ä¹Ł åı¯
éģĵ çļĦ
åīį èº«
a la
åħ¶ B
å¦Ĥ åĲĮ
é¢ Ĥ
é¢ ĸ
åĬ £
è®¾è®¡ å¸Ī
éĢĤ åºĶ
ä»¥ ä¾¿
æľĽ è¿ľ
çĶµåĬĽ æľºè½¦
èģļ éĽĨ
èĩª æŃ¤
å¤Ħ éķ¿
éĵ¶ çº¬
èļ Ģ
æĪĺ åĽ½
ä¼ģ åĽ¾
åĥı æĺ¯
åı« åģļ
è· µ
åĵ Ģ
è¿ĺ åľ¨
éħį å¤ĩ
å½ĵ ä»£
çº ł
is s
ä½įäºİéĵ¶ ç»ı
åĿĲæłĩä¸º èµ¤ç»ı
åŁ¹ è®Ń
èĪª çıŃ
åĪ¤ åĨ³
æľĪ åºķ
æ¶ ¡
S p
æĹ¥ è¯Ń
å±ł æĿĢ
åİŁ ä¸º
å¯» æ±Ĥ
è¿½ æº¯
å§Ķ åī¯ä¹¦è®°
åı· ä¸º
åĳ¨ åĪĬ
èĢĮ æĿ¥
å¦ ĸ
å¾® è½¯
ç§į ç±»
çº¿ æĢ§
è§Ĩ è§ī
ãĢĭï¼Ī "
ä¼Ļ ä¼´
å®ŀ åĬĽ
ä¿Ŀ åĬłåĪ©äºļ
åľ° å½¢
èĲ¨ æĭī
ç¦ı å¾·
19 22
æģĲ é¾Ļ
çĥ ·
æĶ» åįł
æĭħ å¿ĥ
æ¡¥ æ¢ģ
æĢ» ç«Ļ
æĪĲ äºº
åĲĮæĢ§ æģĭ
æĶ¹åĪ¶ ä¸º
åĩºçİ° çļĦ
åĨĻ çļĦ
éĢī åĩº
ç¥ Ī
ç²¤ è¯Ń
æıĲ è®®
åº ĩ
H K
åħ¨åĽ½ äººå¤§
çŃī çļĦ
æ± ¶
ä¸Ģ çĻ¾
èµ« å°Ķ
åĲį è¯į
éģĩ åĪ°
å¿ Į
å®ļ çĲĨ
åľ¨ åĮĹ
æ» ¤
ç¼ ´
è®¸ åı¯
æľī çĿĢ
19 14
çĮ ľ
åĲī ä»ĸ
åīį è¿Ľ
åĽĽ æľĪ
è¶³çĲĥ èģĶèµĽ
åº§ åłĤ
E T
ä¸į è¯¦
ä¿® éģĵ
çĽ´ æĴŃ
æĹ¥ åıĳè¡Į
ç»ĺ çĶ»
åĬŀ æ³ķ
è¾¹ çļĦ
æł¼ å¼ı
æıĲåĩº äºĨ
åĩł ä½ķ
å·´ æĸ¯
æķĳ æı´
çŃī äºİ
è¿Ľè¡Į çļĦ
æ°¸ ä¹ħ
çĮª ç¬¼
å·¥ èīº
å¸Į å°Ķ
å·´ é©¬
åľ£ æ¯į
ç¿° æŀĹ
åĿ Ł
è¯´ æĺ¯
åĽ ļ
åķĨ åĬ¡
æľĽè¿ľ éķľ
åĽ½å®¶ åħ¬åĽŃ
åį« éĺŁ
å° ĺ
ç¦ı å·ŀ
è¯ĳ ä¸º
å½° åĮĸ
çĮªç¬¼ èįī
å§Ķ ä»»
è¿Ļ ä¹Łæĺ¯
æĸ° å»º
çĽ¸ ç»§
åĵĪå°Ķ æ»¨
è® ¼
æ§ ½
è¯¥ åľ°çļĦ
19 13
å¹´ ä»»
éĢ ¾
äºº ç§°
å·´åŁº æĸ¯åĿ¦
éĿĴ å°ĳå¹´
åĬ³ å·¥
ä¸» ç®¡
è£ ¸
er n
ä¸º åŁºç¡Ģ
åľº æ¯ĶèµĽ
å®ī å¨ľ
ä»į æľī
æĭī å°Ķ
å®ļ æľŁ
æĶ¶ åĪ°
äºİ æŃ¤
ation al
æĹ©æľŁ çļĦ
å¤© çļĦ
âĦ ĥ
P h
æµ ¸
éĢı éľ²
åĿĲ èĲ½
ãĢĤ ãĢĮ
æĹı ç¾¤
åĲĪ åĶ±
ä¸Ģ éĥ¨
ä¸ĭ å±ŀ
éĻķ è¥¿çľģ
èµ Ķ
æŃ¤ äºĭ
çī© ä½ĵ
e ar
äºĮ æ¬¡
éĢĲ æŃ¥
å¤§ éĥ¨ä»½
å£« å°¼
ä¸Ģ äºº
çļĦåľ° ä½į
æľ µ
éķ ĳ
ãģ ®
çļĦ åŃ¦çĶŁ
M V
çĪ ¬
éĿŀ æ³ķ
Ð °
åĨĽ äºº
å»º åĽ½
åĬĽ åŃ¦
æĹĭ è½¬
çļĦ åĪĨ
å¤©æĸĩ åŃ¦å®¶
éĢ¢ æĺŁæľŁ
åľº åľ°
èģĶ åĨĽ
å¤§ æ°Ķ
æ¸ħ æ¥ļ
å¤§ è¿ŀ
å¡ŀå°Ķ ç»´äºļ
çļĦ çĶµ
çĲĨ æŁ¥
å¢ŀåĬł äºĨ
æ» ĭ
0 3
åĬł éĢŁ
å»¶ ç»Ń
çĤ Ń
çŁ© éĺµ
m er
å± ¡
19 11
çļĦ åĽ½éĻħ
æľ¬ ä¹¦
è¿ª å£«å°¼
æķĪ çİĩ
æłĩ æľ¬
ä¹Į æĸ¯
æĽ´ æį¢
åħ± è®¡
æĢ İ
æĢ» ç»ıçĲĨ
èĪª å¤©
åģľ éĿł
é¢Ĩ äºĭ
i er
19 17
åĿ ŀ
çĽ´ åįĩ
å¼ł åįķæĽ²
çĻ¾ å§ĵ
ic k
å°± æľī
å°ĳ å°Ĩ
åŁ ł
é³ Ħ
æĻº æħ§
ç§ ©
é«ĺ åİŁ
ä½ı åľ¨
0 2
æľĪ åľ¨
åŁİ å¢Ļ
æ°´ æ·±
æł¼ é²ģ
åİ ¥
åĲį äºº
è£ģ åĪ¤
åħ¶ ä¸º
ro und
é¥ ¶
æĤ ¦
å¹´ ä»¥
æ´Ľ éĺ³
æł¼ æŀĹ
åĮħæĭ¬ äºĨ
id e
ç¥ ¯
èĭı å·ŀ
æĳ© å°Ķ
åıĤè°ĭ éķ¿
çļĦ åĨħå®¹
ä¸ĸçºª åĪĿ
è®¤ åĲĮ
æİ¨ åĩºçļĦ
ç¾İåĽ½ æµ·åĨĽ
i x
åĲİ åıĤåĬł
è¾ĥ å¤§
åĽ½ è¯Ń
åĬłåħ¥ ä¸ŃåĽ½åħ±äº§åħļ
ç¥ ¸
çģ« è½¦ç«Ļ
åħ Ķ
åı°æ¹¾ çļĦ
æľį è£ħ
ä½įäºİè¯¥åĽ½ åĮĹéĥ¨
ter n
ä»» ä¸Ńåħ±
æĪĲ æŀľ
åįı å®ļ
çļĦæĦı æĢĿ
å®īå¾½ çľģ
åĲĮæĹ¶ ä¹Łæĺ¯
æī ĩ
å°± åı¯ä»¥
æĲ ŀ
I T
æ¿Ģ çĥĪ
è¡Į èµ°
ĠA r
åĮº åĪĨ
A L
çľ ī
å¥³ æ¼Ķåĳĺ
ä¸¤ æĿ¡
è° £
çļĦ çĶŁæ´»
åĮº è®®ä¼ļ
èĻ ¾
å¯ ĩ
èĬ Ń
ä¸ĸçºª çļĦ
çĻ»è¿Ľå£« ç¬¬ä¸īçĶ²
ç½Ĺé©¬ å¸ĿåĽ½
çļĦ æ¦Ĥå¿µ
çĽ¸ è¿ŀ
å½± è§Ĩ
Go ogle
è· ĭ
æ¯ı åĳ¨
å¦¹ å¦¹
M ar
äº¤æµģ éģĵ
ç¼ Ŀ
æ¼Ķ èīº
æĮĩ ä»¤
èĪª çº¿
åµ Į
å¥³ ä¸»è§Ĵ
ac h
éĢłæĪĲ çļĦ
çĭ® åŃĲ
å¹´ ä¸ĸçķĮ
ä¸įå¾Ĺ ä¸į
B D
åº ļ
åħ· å¤ĩ
å°¼ å¥¥
å¤« å¦ĩ
äºĨ ä»ĸçļĦ
åĩ °
3 000
å½ķ å½±
åı£ å¾Ħ
å¥½ è¯Ħ
çĳ ļ
èĪªç©º åħ¬åı¸
éĺħ è¯»
Ġ 7
åĸľ çĪ±
èĽĭçĻ½ è´¨
ä¸Ń åİŁ
å« ©
æĪĲ åĪĨ
èĵ Ħ
æīĢ è¾ĸ
å¤© ä½¿
19 23
èĤ ĩ
éĺŁ åĳĺ
10 1
æĽ¾ è¢«
åĽ¾ æ¡Ī
åĳ¼ åĲģ
éģ ®
å¹³ æ°ĳ
çļĦ çĪ¶äº²
çļĦ è¡Įä¸º
çĲĨ å¿µ
æİ¨ è¡Į
å§Ķ æīĺ
ç¬¬ä¸Ģ å±Ĭ
èĥľ åĩº
ä¼¯ çĪµ
åĵ¥ åĵ¥
Ġ |
åĲİ äºİ
é¦ĸ åº¦
< /
åıĤä¸İ äºĨ
åĲİæĿ¥ çļĦ
åıĤ è®®éĻ¢
å±Ģ çļĦ
ä¸» æµģ
èĲ¥ ä¸ļ
åĪº æ¿Ģ
è¯¥å¸Ĥéķĩ å¹´æĹ¶çļĦäººåı£ä¸ºäºº
IST AT
çª Ŀ
å¯Ĩ åĪĩ
äºĨ ä»ĸ
å¥¥æĸ¯ æĽ¼
å¿ĥ èĦı
ä¿Ŀ å®ī
çīĪ çļĦ
è¶ ģ
ä¹Ł åĽłæŃ¤
æĹ¥ ä¸ĬåįĪ
æ³ Ħ
å£« é¡¿
æĲľ ç´¢
ç¥ Ĳ
æ¶Ī çģŃ
äº¤æĺĵ æīĢ
19 21
çº· çº·
çļĦ ä¸Ĭ
æµİ åįĹ
åĿ ł
è®® é¢ĺ
èĬ Ļ
å°Ĩ äºİ
åħ¨ çº¿
åŀĭ åı·
æĹł éĻĲ
ç²¾ çģµ
è· Į
ç¦ı éŁ³
æ¯Ķ å°Ķ
ç¦ §
åĲĳ éĩı
çº³ å¾·
åº ¸
èģļ èĲ½
ä¾Ŀ èµĸ
å½ķ åĪ¶
çĮ ´
æ¹ĸåĮĹ çľģ
ä¼Ĺ è®®éĻ¢
ç§ģ ç«ĭ
å¹´ ä»ĸ
åĬ¨ è½¦
å±± å¸Ĥ
ï¼ī ï¼ļ
åĪĨ æł¡
å¥½ åıĭ
éĽĨ ä½ĵ
äº§çĶŁ äºĨ
A n
åĮĸ ä¸º
æ¤ ħ
éĩį å¤į
ï¼ İ
ä½ľæĽ² å®¶
æĸ¹ ç¨ĭå¼ı
é¸Ł ç±»
åıĳ éŁ³
å¥³ åŃ©
I M
å¤ĦçĲĨ åĻ¨
æľ¬ æĿ¥
ä¸º é¦ĸ
or k
è¾ĥ ä½İ
æŃ» åĪĳ
od ice
ç»´ åŁĥ
æŃĮ åĶ±
æĥ³ æ³ķ
å¤ª å®Ī
t on
ä¸ĭ è½½
è¿Ļé¢Ĺ å°ıè¡ĮæĺŁ
çº º
å®¶ ä¹¡
çĦ ļ
åİ¦ éĹ¨
æĮĩæĮ¥ å®ĺ
æĤ Ł
ä¸» æīĵ
æĢ» çĽĳ
çľĭ è§ģ
å¤ªéĺ³ åħ¬
æıĲåĩº çļĦ
åħµ åĽ¢
U N
ä½İ äºİ
æĪĺäºī ä¸Ń
å¤© åºľ
æ·± åħ¥
Ð ¾
æĺ¯ ä¸Ńåįİäººæ°ĳåħ±åĴĮåĽ½
è®¤ åı¯
é¢ĺ æĿĲ
æ¶Ī éĺ²
åĲİåıĤåĬł ä¼ļè¯ķ
( "
æĺ Ķ
åľ¨ è¥¿
åıĳ è¾¾
éĩĳ åĪļ
åĮ» åŃ¦éĻ¢
æ¼Ķ è®²
èľ ¥
åĲĮ åŃ¦
åĲĪ åĲĮ
å¾· æĦıå¿Ĺ
C P
éª ı
è®© ä»ĸ
çĶµè§Ĩ èĬĤçĽ®
åĪĨ åĮº
çľģ çº§
Ġ =
å¹´ ä¸Ń
æµ ı
æĹ§ åĿĢ
æĮ º
åĬł æĸ¯
ä»İ æľª
é£ŀ å¼¹
é¡º åºı
ç¦ı åĪ©
çļĦ å¯¹
ä¹ĭ éĻħ
æ´Ľ æĸ¯
é»ĳ æļĹ
æ¨¡ çī¹
èĻ ı
å¹» æĥ³
ç½Ĺ å¤«
å¸Ń ä½į
ag e
èµĽ ä¸Ń
ĠA l
ç±»ä¼¼ çļĦ
ç»¼ èīº
å° §
ç»´ ä¿®
éĶ ħ
æķ° ä¸º
æ© ¡
D NA
åĽ¢ ç»ĵ
æ° Ł
éŁ¦ å°Ķ
åįģ å¤§
åĮĹ ä¾§
ä¸ī æľĪ
çº³ åħ¥
è´ ¬
åħ« æľĪ
çģŃ ç»Ŀ
èĪ Ĩ
æħķ å°¼
æĹ¥ å¸¸
è¿Ľ åı£
èį ĥ
Ġ &
çī© åĵģ
as s
è® ½
ç¥ŀ ç§ĺ
ä¹Ĳ åĻ¨
æ¯ı ä¸Ģ
è¯¥ åħļ
æħĪ åĸĦ
ä»ħ æ¬¡äºİ
å¹¶ä¸į æĺ¯
èĤ ¾
Ġ 8
åı¸ èģĮ
çĤ¸ å¼¹
I G
Î ±
ä¼ł å¥ĩ
çļĦ éķ¿
æ³¨ åħ¥
å¼º çļĦ
æİ¨ ç¿»
æ·· ä¹±
è®º åĿĽ
ou nt
èĮĥåĽ´ åĨħ
è¯¥ çī©ç§įçļĦ
ä¸ĥ æľĪ
å·¥ä½ľ å®¤
åĩ¤ åĩ°
åı° å¸ģ
éĢĶ ç»ı
å±± çļĦ
å±Ĭåħ¨åĽ½ äººæ°ĳä»£è¡¨å¤§ä¼ļ
å¤§ åĲĮ
æŀģ ä¸º
å¤ĸ è§Ĥ
æ²Ļ çĶ°
å½¢æĪĲ çļĦ
ä»į åľ¨
çĶŁäº§ çļĦ
à ¸
ä»» åĨħ
ä»ĸ è®¤ä¸º
åįĹ æĺĮ
æ°Ķ æ¸©
åĽ´ç»ķ å¤ªéĺ³åħ¬
A D
æ´Ľ å¤«
ä¼¤ å®³
èķ ĥ
åıĬ åħ¶ä»ĸ
åĲĮ åĲį
ç»´ åħĭ
åıĳçĶŁ äºĨ
ä¼Ĭ åĪ©
å¤ļ åĲį
éģĹ ä¼ł
çļĦ ç¾İåĽ½
èĲ¨æĸ¯ å·ŀ
å®ĥä»¬ çļĦ
å°¼ åı¤
çļĦç»Ŀå¯¹ æĺŁçŃīä¸º
æĺ¯ èĭ±åĽ½
æ¬ ł
æĻ ´
åı¤ å·´
éĢģ åĪ°
æŁ ľ
åŁº éļĨ
è§Ĥ èµı
ç¼ĸ ç»Ħ
ä»» å¤©åłĤ
æĺ¯ä¸Ģé¢Ĺ åĽ´ç»ķå¤ªéĺ³åħ¬
åİ ī
å®ĮæĪĲ äºĨ
9 00
P lay
è¿Ĳ ç®Ĺ
è¿Ļé¢Ĺå°ıè¡ĮæĺŁ çļĦç»Ŀå¯¹æĺŁçŃīä¸º
æĵ ¦
æĺ¯ä¸Ģé¢ĹåĽ´ç»ķå¤ªéĺ³åħ¬ è½¬çļĦå°ıè¡ĮæĺŁ
çī¹ æĢ§
æİĴè¡Į æ¦ľ
æĹ¶éĹ´ ä¸º
çľ ł
è¡¥ åħħ
åħĥ å¸ħ
çģ« æĺŁ
Ġ re
æĥ ©
çļĦ ä¸ŃåĽ½
ä»¥ å¾Ģ
è¯Ħ ä¸º
ç¬¬ åįģäºĮ
åľ° ä¸Ń
åĨĽ å§Ķ
åŃĲ å¼¹
çİĭ ä½į
å¼Ģå§ĭ åľ¨
æĸ½ å·¥
åİ¿ åŁİ
çī©çĲĨ åŃ¦
è¿Ļ ä¸¤ä¸ª
é©¬åħĭ æĢĿ
çº¤ ç»´
åĲĳ åįĹ
é² ·
å¤ª åİŁ
x t
éĢī ç§Ģ
ä¸ĵ çĶ¨
æį· åħĭ
am p
å±ķ çİ°
E N
åĬł å·¥
çģ« è½¦
ä½ ĳ
Y ou
æıı ç»ĺ
æĲº å¸¦
èµĽ çļĦ
å¿Ĺ æĦ¿
å¤§ åŃĹ
åŀĤ çĽ´
åĲİ åľ¨
æķ° åįģ
äºī å¤º
åĬł åĭĴ
ro m
æľ¬ åĲį
åĸ »
èĳĹ æľī
ä¸Ģ éĥ¨åĪĨ
åħµ åĬĽ
o ol
çļĦ æīĢæľī
å°Ķ é¡¿
é«ĺéĽĦ å¸Ĥ
å¸ĥ æĸ¯
æ¯ı æ¬¡
ä½Ľç½Ĺ éĩĮè¾¾
åŃŁ åĬłæĭī
é©±éĢĲ èĪ°
åľ¨ ä»ĸçļĦ
éĩĮ åħĭ
éĥ½ ä¸į
åĩĨ ç¡®
æŁ ¬
åħĥ æľĿ
è§Ĥ çľĭ
åħ±äº§ ä¸»ä¹ī
ãĢĤ <
åįĹ ä¾§
å½ĵ æĹ¥
çĽ¸ éĤ»
T h
ä¸» å¯¼
å¾· æĸ¯
åĶ ¤
åį³ åı¯
un g
æŃ¤ å¤©ä½ĵ
çī© çļĦ
è¡į çĶŁ
æīĵ è´¥
" )
ä¸Ĭ æ¸¸
å¤ĸ åĽ´
çķĻ åŃ¦
èĮ Ħ
æĺİ ä»£
åĽĽ ä¸ĸ
è®¾ åľ¨
éĽ· è¾¾
is h
çĳ ľ
n ow
å¾· å·Ŀ
å·¥ åķĨ
æµ Ĩ
äºĭåĬ¡ æīĢ
çº§ çļĦ
åıĸå¾Ĺ äºĨ
éŀ ĭ
äºļ ç¾İ
å¸ĥ åħ°
è¯ŀ çĶŁ
è§Ĥ éŁ³
æĹ ±
å¼ķ çĶ¨
ub e
åħ¨ ä½ĵ
æ³ķåħ° åħĭ
ä¸į åıĺ
å¾Ī å¤§çļĦ
ç«ĭæ³ķ ä¼ļ
æħķå°¼ é»ĳ
æ£Ģ æµĭ
æį ī
ä¹ĭ åľ°
æµģ éĩı
åĩº åħ¥åı£
åľ¨ è¿Ļä¸ª
è¿ŀ ç»ĵ
p p
åıĳå±ķ çļĦ
ä½Ĩ åį´
å¹ķ åºľ
æµģ åĬ¨
æľī åı¯èĥ½
åİŁ çĲĨ
æŃ¢ äºİ
çļĦ æŃĮæĽ²
è¿½ æ±Ĥ
åıĳçĶŁ çļĦ
èµĽ è½¦
åĨ² åĩ»
äºº æīį
åĪĨ ä¹ĭ
æī¹ åĪ¤
æľī äºĨ
ĠS h
çĶµ è·¯
å½¢ çļĦ
æī¿ è¯º
å¹´ é¦Ļæ¸¯
è¿Ļ ç±»
è½¦ éģĵ
è¿Ļ æ®µ
åĮħåĲ« äºĨ
çıĬ çĳļ
åĪĿ å¹´
ä¹Ł æĽ¾
å§ĭ ç»Ī
èĳ¡èĲĦçīĻ è¯Ń
è¢« æįķ
æłĸæģ¯åľ¨ åºķ
çļĦ è½¨éģĵ
çº³ æĸ¯
æľī çº¿
åĿ ¤
åĲĳ åĮĹ
190 9
æıı åĨĻ
éĻ¤æŃ¤ ä¹ĭå¤ĸ
ç²® é£Ł
éĩĩçĶ¨ äºĨ
å·´ åĭĴ
å½¢æĪĲ äºĨ
èĭ į
ä¼ł è¾ĵ
åı°ä¸Ń å¸Ĥ
åĲĮ æĹ¥
åľ¨è¿Ļ éĩĮ
ç»ı çºª
éĴ ĵ
çĪ ¸
è½¬ ä¸º
å½ĵéĢī ä¸º
æīĢ éľĢ
åįı åķĨ
ĠU n
åĬłåĪ©ç¦ı å°¼äºļå·ŀ
å¤§ åħ¬
çĭ Ĳ
åī ¥
ç¥ĸ åħĪ
é¢ģ å¸ĥ
ä¹ĭ ä¸Ĭ
åĬŁ çİĩ
å®£ åĳĬ
âĢĿ ï¼ī
åıį èĢĮ
åĪĨ è§£
ä¸ľ æ±ī
æĺ ı
éĩĮ éĿ¢
éĩį è¿Ķ
èĤ¡ ä¸ľ
éĵ Ŀ
åºĵ å°Ķ
U S
ä¸ľ åĮº
æĭī å¾·
å®¢ è½¦
æ°¸ è¿ľ
æĶ¿ åıĺ
å¤©æ´¥ å¸Ĥ
ä¸¥éĩį çļĦ
ä¸Ń ä¹¦
èİ· èĥľ
è®¨ ä¼Ĳ
åĽ½ æĹĹ
å½¼ æŃ¤
çĶµ æ±ł
éĻĦ åĬł
æĮ ¤
åıĺ ç§į
é¦ĸ å°Ķ
ç»´ ä¹Ł
åıĺ æį¢
æ¸Ĳ æ¸Ĳ
ä¸Ģ å¤©
åıĳçİ°äºĨ æŃ¤å¤©ä½ĵ
ä¸ī æ¬¡
æħķ å®¹
æľī ä¸¤ä¸ª
åĴ ı
èĤ¯ å®ļ
åı²å¯Ĩ æĸ¯
çİ¯ çĲĥ
ä»ħ ä»ħ
åİĭ ç¼©
åı¯ åľ¨
å§ĭ äºİ
å¥ĸ æľĢä½³
çģŃ äº¡
-{ }-
ä¸į çŁ¥
åĽł åħ¶
æĶ Ģ
æŃ ī
ç»ĥ ä¹ł
åĭ ĺ
å¤º åıĸ
åİ Į
äºĴ åĬ¨
åĩºçīĪ çļĦ
æĶ¿ åĬ¡
çªģ åĩº
èĲ Ŀ
å¥ĸ éĩĳ
çļĦä¸» é¢ĺ
éĺ¿ å¯Į
è¯º è´Ŀå°Ķ
ä¸į ä½Ĩ
la t
ç½ĳ ä¸Ĭ
èĥ Ģ
é«ĺ æŀ¶
å·¦ ç¿¼
çĶŁæ´» åľ¨
åĪĳ äºĭ
æİ¢ ç´¢
é¢Ħ å¤ĩ
åĨ »
æĪĲåĬŁ çļĦ
çĤ¹ æĺ¯
åĨĽ åľ¨
æĢ ¨
éĺ² å®Ī
ä¸İæŃ¤ åĲĮæĹ¶
çļĦ ä¸ĸçķĮ
çŃī èģĮ
æľº æŀª
æķ° çĻ¾
ä»ĸ å¯¹
ç«ŀ æĬĢ
å·´ èµ«
éĽħ åħ¸
é¢Ĩ åħĪ
åĽŃ åĮº
è§ģ äºİ
åĮĹ å¹³
æĢ» æķĻåĮº
æ¼ Ĥ
åħ¬ åĳĬ
å®ī åİ¿
éħ ®
å¹¶ä¸Ķ åľ¨
å½ĵ ä½ľ
åħ¬ å¼ı
å®¹ çº³
å¼Ł åŃĲ
å¼º åĪ¶
æ³° åĭĴ
è¿Ĳ æ²³
ç»§ ä»»
è¸ ¢
O R
l and
çļĦ èĥ½åĬĽ
åĲĮ æŃ¥
åį° è±¡
çļĦ åĲįç§°
æ¶µ çĽĸ
al ign
èĭ± éķĳ
å®ļ ä½į
æľĢ å¤ļçļĦ
åĽŀ åĲĪ
éĴ ©
æ© Ħ
å¸ĪèĮĥ å¤§åŃ¦
çĴ ĭ
çļĦ ä»£è¡¨
éķ¿ æĺ¥
æĬĢ å·§
éĺ¿å¯Į æ±Ĺ
äºĮ æľĪ
è¯ī è®¼
èģĮ æ£Ĵ
p t
æĢ§ æł¼
æĶ¿æ²» å®¶
æľª çŁ¥
ä¸º çĥŃå¸¦
éĨ ī
ä¸Ńå¿ĥ çļĦ
åĪĻ çĶ±
çļĦ æľºä¼ļ
åĸ Ŀ
æľī ä¸¤
åģļ æ³ķ
ç¾İåĽ½ åĽ½å®¶
çļĦå±± å³°
æĽ¹ æĵį
åĲİ åıĪ
æ¨¡å¼ı äº§
æ£ ±
ä¿® è®¢
æ¸ħ çľŁ
å± ¥
å¤ļ ä¸º
æ®¿ è¯ķ
å¼Ģ å·¥
çļĦ å¤´
ä¸Ģ å¼Ģå§ĭ
å®ŀ è·µ
æĶ¿æ²» éĥ¨
èı© èĲ¨
å¤§ æī¹
æľĢ éĩįè¦ģçļĦ
æŁ¥ å°Ķæĸ¯
è¯» èĢħ
è¡Į äºº
è¯Ĩ åŃĹ
ä¸ĭ åįĬ
å¼Ģ åĲ¯
åŃĺåľ¨ çļĦ
å¡ Į
ac t
A nd
æ¬§ åħĥ
ä¹ĭ åĲį
é«ĺ ä¸½
äºĭ æĥħ
å¤ļ æł·
æ»¨ æµ·
æĦŁ æĥħ
çĸ ¯
ç¼ ¸
æĪĸ ç§°
åľ¨ ä½į
åĩº èĩª
çĪ± åĽ½
éĺŁ åıĭ
èį «
åħ¬å¼Ģ èµĽ
çľ¼ çĿ
r es
è¯» ä¹¦
åī§ åĽ¢
éĻį éĽ¨
éĥ½ åı¯ä»¥
çļ® èĤ¤
ä¼¤ äº¡
ä¿®éģĵ éĻ¢
çĤ ³
E S
åıĻ è¿°
æĸ°åĮĹ å¸Ĥ
ç»´ä¹Ł çº³
çĽ´åįĩ æľº
æµ· æ°´
c he
å¹´ æĪĲç«ĭ
å¥³ ç¥ŀ
è´¢ åĬ¡
çŃ¹ å¤ĩ
åĽ¢ éķ¿
è®® å¸Ń
æłĩ é¢ĺ
çļĦ å¥³åĦ¿
è®¤ä¸º æĺ¯
èµ £
ç¥Ń ç¥Ģ
åİ¿ æ²»
å°ı å§Ĳ
æĪĺ èĥľ
åħŃ æľĪ
æīĭ ä¸Ń
å·¡ æĬļ
éĿ¢ åĲĳ
le y
æī¿ æĭħ
åĪ¤ æĸŃ
çªģ åİ¥
èĩ Ģ
ç§» å±ħ
æ¯ı å°ıæĹ¶
I V
éĻ¢ æł¡
äº§ çī©
æľ¬ é±¼
åį° ç¬¬
ĠS ch
åĺī åºĨ
æ° ®
åľ¨ åĨħ
F C
ä¹ĭ æĹ¶
æĿĥ çļĦ
ä¸º æĸ°
ä¸Ĭ éĿ¢
å¹³ çŃī
çĥ Ĥ
ä¸º ä¸Ģä¸ª
M P
é«ĺ äºİ
èı² åĪ©
äºĭ åĲİ
åĨĻ éģĵ
Ġt h
åľ£ è¯ŀ
1 12
åĵģ ç§į
æ· ³
ä»» æĦı
NG C
æ©Ħ æ¦Ħ
g round
æĺ¯ æľī
ar l
ol d
è£Ķ ç¾İåĽ½äºº
ac e
è¾ĥ é«ĺ
è¿ĲåĬ¨ çļĦ
çĨ Ķ
æľĢ æľī
æķ° çĽ®
åıį æĬĹ
è¯Ĩ åĪ«
éĥ¨ ç½²
éĻĨ åľ°
D S
æŃ£ æĺ¯
ä¼ł éĢĴ
é¦Ļæ¸¯ çļĦ
åĨħ äºļ
ç© Ĺ
æĻº èĥ½
Ġst yle
ä»¥åıĬ ä¸ŃåĽ½å¤§éĻĨçļĦ
å±¯ éĹ¨
çļĦ æľī
åĮĹ å®ĭ
b ack
è¿« ä½¿
ä¸ ¢
L in
ç¬¬äºĮ ä¸ª
ç©¿ è¿ĩ
æŀ¢ çº½
åħ±åĴĮ åħļ
r it
åĵ º
åľ¨ ä¸Ĭæµ·
åĵģ è´¨
ä¹¡ æĿĳ
åİŁ æľī
åī§ ä¸Ń
åį³ æĺ¯
å°¸ ä½ĵ
æ·» åĬł
è£ ´
æłĩ è®°
ä¹Ŀ æľĪ
åľ¨ å½ĵæĹ¶
æŃ£ ä¹ī
å±± åľ°
å§ĵ æ°ı
Ġ Ð
èº ²
å¼¹ èį¯
19 10
C H
åĩŃ åĢŁ
é¥® é£Ł
åĮĹ éŃı
åĪ¶ æĪĲ
åı² èĴĤ
æ¯ı ä¸Ģä¸ª
åŁºæľ¬ ä¸Ĭ
ä¸Ģ æĶ¯
æľŁ åĪĬ
çķĮ çļĦ
æ²¡æľī ä»»ä½ķ
æł¼ æĭīæĸ¯
æ²Ł éĢļ
r am
åĽŀ çŃĶ
é«ĺ æł¡
å®Ī æĬ¤
çļĦä¸Ģ ä½į
å¹¿å·ŀ å¸Ĥ
æĺ¯ å¤§
åĲĳ ä¸ľ
çª ĳ
åĥ ļ
ç«ĭæĸ¹ ç±³
åĨľ åľº
ç©¿ è¶Ĭ
çļĦ è¯´æ³ķ
æĹ Ń
åħ¶ åŃĲ
åį°ç¬¬ å®ī
å¹´ æĺ¥
ãĢį ï¼Ľ
åīį æĿ¥
éĶ ¥
é¢Ĩå¯¼ çļĦ
o od
æµģ ç»ı
ç½ķ é»ĺ
å¹³ å®ī
ç½Ĺé©¬ å¤©ä¸»æķĻ
è¯¥çī©ç§įçļĦ æ¨¡å¼ıäº§
è´Ń çī©
æĴ ĳ
ç®¡ åĪ¶
æĻ® æĭī
å®£ è¨Ģ
è¿· ä½ł
é©¬ åħ¶
çļĦ æĪĲç»©
åľ¨ åīį
çº³ å°Ķ
ä¸Ģ æĹ¦
å¹´ æľŁéĹ´
ç¦ı å°Ķ
è¿Ļ ä¸¤
å¨ ħ
i el
é£ŀè¡Į åĳĺ
éĩį çļĦ
çŁ¥ åºľ
æĬĹ æĪĺ
æĢ§ åĴĮ
è¿ģ ç§»
éĢīä¸¾ ä¸Ń
åľ° äºļ
an n
åľ° åŁŁ
éķ ¶
ro s
ä½ĵèĤ² é¦Ĩ
è¯Ĺ æŃĮ
çļĦ æĹ¥æľ¬
ä¸º çĶ±
è¡ĮæĶ¿åĮº åĪĴ
åİ ¨
æĪ¿ éĹ´
åıĤ æķ°
æ» ¥
åı¸ æľº
å±Ģ å±Ģéķ¿
å¾· åħĭ
æĺĨ æĺİ
å¼º å¤§çļĦ
çŁ ¢
åŃĻ ä¸Ńå±±
è¢« æĿĢ
ç»ı è´¹
åĤ¨ åŃĺ
å±ħ å§Ķä¼ļ
çļĦçī¹æľī æ¤įçī©
äºļç¾İ å°¼äºļ
C l
å¹³ å®ļ
æĶ¹ èī¯
æĽ¾ æĺ¯
çİ¯ ä¿Ŀ
æŃ ¼
ç»Ī æŃ¢
è¿ĩ äºİ
çłĶ åĪ¶
æ¯Ĺ éĤ»
çº¦çĳŁ å¤«
åĭĴ æĸ¯
æ¬¡ æĹ¥
å·Ŀ åİ¿
éĹ®é¢ĺ çļĦ
ä¸ī ä½į
äºĨ ä¸ĢäºĽ
å¤© æĸĩåŃ¦
æ²³ åı£
ç¬¬ä¸Ģæ¬¡ ä¸ĸçķĮå¤§æĪĺ
c odice
åľ¨ ä¸ŃåĽ½å¤§éĻĨ
ç³ ķ
ä»ĭ çŁ³
çĽŁ åĨĽ
ãģ Ħ
è´Łè´£ äºº
åį°åº¦ å°¼è¥¿äºļ
çĶµå½± çļĦ
åĿĩ æľī
å±ħä½ı åľ¨
a x
çºªå½ķ çīĩ
ç®Ģåįķ çļĦ
æĿ¡ çĽ®
ç¦ı çī¹
è° ¨
è¾ĥ å°ĳ
ä¸Ģ åħ±
èĻļ æĭŁ
æį® è¯´
çĽ ²
å¹´ äºİ
åĴ Ĵ
åĮĹäº¬ å¤§åŃ¦
ç¾¤ ä½ĵ
åĳ¨ æģ©
éĤ£ å·ŀ
é£İ æĻ¯
åħŃ ä¸ª
åī¯ éĥ¨éķ¿
èĢĥ å¯Ł
ä¾¿ æĺ¯
éĻ¨ åĿĳ
çĽ Ĵ
ä¹ĭ åĨħ
æķ° çłģ
åĮ ł
äºº æ¬¡
å®¹ éĩı
é©¬åħ¶ é¡¿
å¦ ¥
ä¸» ä½ĵ
åİŁ æĿ¥çļĦ
å¼Ģå§ĭ äºĨ
åĽłæŃ¤ åľ¨
E M
å±± åĿ¡
æĸĩåĮĸ å¤§éĿ©åĳ½
ä½Ĩæĺ¯ åľ¨
æīĺ å°Ķ
ct ion
å¼Ĺ æĭī
æľº åĬ¨
å¾Ĺ åĪĨ
æķĻ å¾Ĵ
åĩ ¸
æĭ¿ ä¸ĭ
ç¹ģ æ®ĸ
æīĵ å¼Ģ
çĽ´ è¾ĸ
é»ĳ äºº
14 0
åıĮ æīĵ
æĭ¿ çł´
æĹ¶ åĪ»
åħ¥ å¢ĥ
æ¦ ´
ç«ĭæ³ķ å§Ķåĳĺ
æ¶ ¨
ä¸ģ çĽ®
æ¶ī å«Į
æĬĳ åĪ¶
èī ³
è®¤ å®ļ
æĹ¥ è¢«
ãĢĭ (
å¼Ĥ å¸¸
èµ¢å¾Ĺ äºĨ
æĸ Į
åİŁ åĪĽ
å¹´ èİ·å¾Ĺ
ç±» åŀĭçļĦ
çī§ å¸Ī
å¤§å¥ĸ èµĽ
åĮ ª
ç³»åĪĹ çļĦ
çĩĥ çĥ§
åĲį èªī
çŃī å¾ħ
å¤ĸäº¤ éĥ¨
ç« £
éķ¿ å¤§
ç¤¾ åĽ¢
çī º
å¼º åĮĸ
ç§ ī
å¤ı å¨ģ
ç©Ĩ ç½ķé»ĺ
æĪ ļ
äº¤ åĵį
å·¥ä½ľ çļĦ
åĨ ¢
è½°çĤ¸ æľº
ä»ĸ è¯´
æıĲä¾Ľ çļĦ
éħ ¿
å² Ĳ
å°¼ æ³Ĭ
æ´ª æŃ¦
at h
é¦ĸ é¢Ĩ
èĴĭ ä»ĭçŁ³
æĶ¿åįı å§Ķåĳĺ
åĵĪ åĪ©
é±¼ éĽ·
å· ©
éĺ Ģ
ä¸ĵ åĪ©
çĹ ķ
æ£ ļ
çĻ¾ ç§ĳ
åŁĶ å¯¨
çķ ľ
æ¸ħ æ°´
en ce
å¸Į çī¹åĭĴ
æĭ¿çł´ ä»ĳ
åĮ £
äºº çĶŁ
å¹´å¤ıåŃ£ å¥¥æŀĹåĮ¹åħĭè¿ĲåĬ¨ä¼ļ
ç¦» å©ļ
æĭħ å½ĵ
çħ Į
åĩº åľŁ
ãĢĮ ãĢį
æĽ¾ ä¸º
é²ģ æĸ¯
èĭ¥ å¹²
æ³ķåħ° è¥¿
å¾ Ļ
ç¼ Ķ
çĶ· åŃ©
å¤ļ åħĥ
è¾ ±
è´Ŀ åħĭ
èį£ èİ·
iv ers
æŁ¬ åŁĶå¯¨
çļĦå¤§ åŀĭ
æłĸæģ¯ æ·±åº¦
åŀ ¦
çľ¼çĿ Ľ
åīį éĶĭ
éĺ¿å°Ķ å·´
æ°ĳ ç±į
éĩĳ æĽ²
çļĦ åħī
å¸ ĸ
åĸ ī
æĳ Ķ
ç¦» å¿ĥ
éļı æľº
è½¨éģĵ äº¤éĢļ
ä¸Ĭ è¯ī
æİ¥ ç®¡
åłĤ åĮº
åįĹ å®ĭ
é¡º æ²»
éĩį ç»Ħ
å¾· ç½Ĺ
éĴ ł
çİĩ åĨĽ
çŁŃ æľŁ
B M
å¼Ĺ åħ°
å¼Ģåıĳ çļĦ
ç²¾ ç¡®
è§Ĥ å¿µ
åħħ åĪĨ
æĮĩ è´£
åıĹ åĪ°äºĨ
èī¯ å¥½
éĽį æŃ£
åĮ» å¸Ī
æ³ķ ä»¤
ä¸»æķĻ åº§åłĤ
æľĪ å¼Ģå§ĭ
èŀº æĹĭ
èĩ´åĬĽ äºİ
çħ§ é¡¾
è¯¥ åºĦ
èı² å°Ķå¾·
èĩª ä»İ
19 16
éľ ĸ
å¤§ å¸Ŀ
Ī å½¢çĽ®
çļĦ éģĵè·¯
éŀ į
ä¸ª åĽ½å®¶
åĲĳ è¥¿
190 1
æ¢ Ń
ç¬¬ä¸ī æ¬¡
åıĹ æįŁ
å¤ıå¨ģ å¤·
è½¦ æīĭ
èµ· æºĲ
éķ¿ çº¦
åºĦ æĿĳ
æľ¬ åī§
æķ° åĢ¼
ä¹¦ åĨĻ
åº µ
åŁºçĿ£ å¾Ĵ
I A
ä¸ĭ æĸ¹
æ³ ª
éħ ¯
çıŃ æ¬¡
å®ľ åħ°
éº ĵ
Ġ Z
æµģåŁŁ éĿ¢ç§¯
é«ĺ å±±
æ¼ Ĩ
äººæ°ĳ æ³ķéĻ¢
ä¼Ĳ åĪ©äºļ
æĸ° åŁİ
ä¾Ľ å¥ī
æĪ Ĭ
å¤ļ ä¼¦
æ²¿ çĶ¨
å®¿ èĪį
æĺĨ èĻ«
çļĦ å¼Ģ
èģ Ĥ
åĭ ¾
çłĶç©¶ ä¸Ńå¿ĥ
èĥĮ é³į
ov e
é» Ľ
å®ĥ åľ¨
ç¡¬ å¸ģ
åĪĴ å½Ĵ
æĻ®é²ģ å£«
190 5
åľ° åĲį
in t
åįİ åĮĹ
æµģ æµª
åıĪ åľ¨
ç¡ķå£« åŃ¦ä½į
æĹı çļĦ
ä¸ĵ ç§ĳ
åĨľ åİĨ
èĽ Ļ
çĲĥ è¿·
æĢ» åħ±
è¿Ľ èĢĮ
é¦ĸ ä»»
é¥ ±
ä¸½ èİİ
ä¸¾ äºº
æĥħ ç»ª
åŃ£ åĲİ
åĲİ æĸ¹
äºĳåįĹ çľģ
éĺ ľ
19 15
ä½įäºİè¯¥åĽ½ ä¸Ńéĥ¨
ä½ĵ ç§¯
çļĦä¸Ģä¸ª åİ¿
èİ· å¥ĸ
ä¸Ģ èĩ³
æĺ¯ å¯¹
èģĮ åĳĺ
å¹´ æĿ¥
åĺ Ľ
æ²Ļ æ¼ł
æķ° ä¸ª
æĹ¥ ä¸¾è¡Į
åıĳ æİĺ
åıĤ è§ģ
å¤§ å°ĨåĨĽ
åı¯ä»¥ éĢļè¿ĩ
æ¸¸æĪı ä¸Ń
èµ· çĤ¹
æĺ¯ å·´è¥¿
å§Ĭ å¦¹
èĭ±åĽ½ çļĦ
æĹ§ éĩĳå±±
çīĪæľ¬ çļĦ
Ġc ol
æŃ§ ä¹ī
éĢł åŀĭ
éĽĨ çļĦ
åį³ ä¸º
æľĢé«ĺ æ³ķéĻ¢
éĵ ħ
éĢī ä¸Ń
éļ¾ æ°ĳ
æķ´ çĲĨ
å¤§ æŃ£
è¢« åıĳçİ°
è¿ĳå¹´ æĿ¥
i le
æĶ¹ è£ħ
ç«¯ çļĦ
åı°æ¹¾ çľģ
ç»Ĩ èıĮ
åıĤ è§Ĥ
at t
Ġ 9
åı¦ ä¸Ģç§į
åľ° å¤Ħ
å¹¶ æľī
èĻ ŀ
æķĻ ç§ĳ
é¥Ń åºĹ
çķ ´
å¹´ä»£ åĪĿ
ç»´ åŁº
åľ¨ æ¬§æ´²
æ°ĳ æĶ¿
æĿ° åĩº
åħ° å·ŀ
ä¹ĭ æĦı
åĽ½ æľī
ä¸Ĭ æĸ¹
ç«ĭ æ³ķéĻ¢
æĪĺ èĪ°
è§£ éĻ¤
æµı è§Ī
æĪĺ è´¥
å°± ä»»
ç«ĭ éĻ¶
ä½Ĩ ä¸į
çīº çī²
ä¸ĵ åĮº
çĳ ¶
èĤ¡ æĿĥ
åħļ ç»Ħ
è´ ¿
è°¢ å°Ķ
ä»ĸ äºº
å°º å¯¸
åı°åįĹ å¸Ĥ
åĳ½ åĲįçļĦ
çĶµå½± èĬĤ
S M
çķ ı
æĹĹ ä¸ĭçļĦ
ä¸ĭ æĿ¥çļĦ
åĴĮ å¤§
æĻº åĪ©
ç³ Ĭ
ä¸ª ä½ĵ
æ°´ éĩı
çľŁæŃ£ çļĦ
èĭ Ķ
15 00
å¾Ģ æĿ¥
åİ¿ éķ¿
èĽ ®
ä¸»æķĻ ç»ĥ
äºĭ åıĺ
äº¤ æĪĺ
æİ¨ æµĭ
å¹´ æīį
èı ±
æ¨¡ ä»¿
ä¸ĭ æ¸¸
çĶµ æµģ
çģµ éŃĤ
ç¬ ĥ
ç½ĳ åıĭ
å¸ķ å°Ķ
åħ¬ ç¤¾
çĭ¬ çī¹çļĦ
å¤ļ å¤«
ç¼ĸ åĨĻ
å·´ ä¼ĲåĪ©äºļ
am es
å®Įæķ´ çļĦ
ä»¥ å¤ĸçļĦ
C om
æ¬ º
åĽł åºĶ
åį¡ çī¹
ç½ĳ é¡µ
éĴ¢ éĵģ
é©¬ è¾¾
åĪĴ åĪĨ
S c
å®ļ å¾ĭ
æĿĳ æ°ĳ
è¶ħçº§ èģĶèµĽ
æł¼ æĸ¯
å±ŀçļĦ åĬ¨çī©
æŀ «
æĻ® åıĬ
èĥ½ åľ¨
æĮĩ çļĦæĺ¯
éĢĤ çĶ¨äºİ
æĸ° å¢ŀ
åħ¥ åĽ´
åĲ¦ è®¤
åıĹ å®³
ä¸ļ ä½Ļ
çĻ½ äºº
æĹ¨ åľ¨
on s
éģĵ æķĻ
åľ°ä¸Ń æµ·
ä¸Ĭ å°Ĩ
èĩ³ æŃ¤
è¿ª äºļ
æĻ¶ ä½ĵ
åĽ½å®¶ è¶³çĲĥéĺŁ
åħ¬ åĬ¡
åıĳè¡¨ äºĨ
æ¸ħçľŁ å¯º
å¹´ ä»¥æĿ¥
éĢļå¸¸ æĺ¯
å¹´äººåı£ æĻ®æŁ¥
éĹ ¹
è·ĳ éģĵ
è¥¿ åħĥ
ä¿¡ ä»»
ç»ĵ è®º
r is
å¤ª å®Ĺ
éĵ¶ æ²³
éĿ©åĳ½ åĨĽ
èµ· äºĨ
æµ· åºķ
ä¹¦ æ³ķ
æ³¢ å£«é¡¿
im e
æŃ£ æľĪ
åľ¨ éĤ£éĩĮ
åĲĮ å¿Ĺ
åĵº ä¹³
æĺ¯ä¸Ģä¸ª ä½įäºİ
ä¸ī åĲį
C C
ä¸» äºĭ
åįģ ä¸īå¹´
å°±è¯» äºİ
i um
è¯į æ±ĩ
çļĦ è®¡åĪĴ
åº Ĳ
èº« äº¡
çŀ Ħ
P ro
å¤į æ´»
ç«ĭéĻ¶ å®Ľ
çĲĨ åŃ¦
éĥ½ æ²¡æľī
æĻ¯ çĤ¹
åĽ½ åħ±
ä»£ æķ°
å¹¿æĴŃ çĶµåı°
ä¼ĳ æģ¯
ç»ĩ çĶ°
Ġ on
é¥ ¥
ä»¥ åħ¶
åħĭ åĪ©
æĲŃ è½½
å¹´ æĪĲä¸º
æĶ¯ çº¿
æ¾ İ
éĿ¢ ä¸Ĭ
æĸ° è¥¿åħ°
åı¤ å¸ĮèħĬ
it e
çİĭ å®¤
çĽ¸ æľº
å¯¼ å¸Ī
äºĪ ä»¥
æ¤ Ĵ
åĨħ æĶ¿
A d
å½ĵ çĦ¶
ĠS p
åħ¬ å¯ĵ
å¤ı å¤©
çļĦ ç»ıæµİ
çī© èµĦ
çİ¯ ç»ķ
åĵ Ń
æĸĩ å¸Ŀ
ic al
éĩįåºĨ å¸Ĥ
æ³¢ éŁ³
æıĲ åīį
çĶ² çº§èģĶèµĽ
ä¾Ŀ éĿł
æĻļ æľŁ
od e
5 000
Ð ¸
èİ· åıĸ
æ±Ł è¥¿çľģ
æīĺ é©¬æĸ¯
æ°¸ ä¹Ĳ
ä¸ºè¾Ĳé³įé±¼çº²é² Īå½¢çĽ®
åģľè½¦ åľº
ç´¯ ç§¯
æ°´ åĪ©
åİ¿ çŁ¥åİ¿
è§ģ åĪ°
å·ŀ éķ¿
çļĦ åĽĽ
åĲİ åį«
çļĦä¸Ģ æ¬¡
æ¯į èĪ°
St ation
% ï¼Ľ
J ohn
åıĳçĶŁ äºİ
æµ ´
æĺ¯ æľĢ
ä¾¦ å¯Ł
é©¬ åĬĽ
åĳ½ è¿Ĳ
çļĦ æīĭ
åİŁ åŀĭ
äºº ä½ĵ
æ¼ ³
åĪĹ å®ģ
y st
æľ¯ è¯Ń
åĵĪ æĭī
éĺ² ç©º
è¤Ĳ èī²
ä¹ĭ å¥³
å¯¹ éĺµ
å½Ĵ ç±»
éĤ£ ä¸ª
å°¼æ³Ĭ å°Ķ
éĤ£ æł·
æ¢ħ å°Ķ
åĲĪ çĲĨ
å°± è¢«
å¢ŀ è®¾
åı· ç§įåŃĲ
ä½ £
å¸ĥ ç½Ĺ
éĽķ å¡ĳ
çĶ° å¾Ħ
æŁĲ ç§į
å¯º éĻ¢
äº§ éĩı
æĵħ éķ¿
å¯Į å£«
çļĦä¸Ģä¸ª åĮº
åĳ¨æģ© æĿ¥
åĩı å¼±
æ¸© å¸¦
åĲį åı«
é¢ģå¥ĸ åħ¸ç¤¼
åĲ¾ å°Ķ
åı¤ è¿¹
å» ¿
åĲĦ å¤§
190 3
éĢĶ å¾Ħ
çĪ± å¥½
å¹´ ä¸ĸçķĮæĿ¯
åīį èĢħ
åĮº åĴĮ
åı¬ éĽĨ
å¸¸ å§Ķä¼ļ
å¹´ æ¯ķä¸ļäºİ
å¤§ åŁĶ
çī Ł
åı¯ä»¥ çĶ¨
" ï¼Ī
å¤ĸ çķĮ
æ· Ģ
å¤ľ éĹ´
åĳ¼ åĲ¸
æĿ¥ çľĭ
åĲĦ é¡¹
åĴĮ ä»ĸçļĦ
ç½ ©
å¤į åĪ¶
ç´§ å¼ł
å¯¹ è¯Ŀ
åĮĹ æ´ĭ
ä¸Ģ åı·
ä¹ī åĬ¡
çªģ åĩ»
èĭ± è¶ħ
éĻĲ äºİ
ä¸ľ è·¯
é»Ħ æ²³
back ground
åĩº äºİ
æ¸© æ³ī
ç©Ĩç½ķé»ĺ å¾·
éĺ İ
è¿ĺ è¦ģ
åĽ¾ å½¢
ä¼¯ æł¼
æº¶ æ¶²
ï¼Īï¼Ľ ï¼ī
åĶĲ ä»£
æŁ´æ²¹ æľºè½¦
ç¼ĵ æħ¢
åĲİ åĽł
æ³¢ çī¹
èĭı ç»´åŁĥ
ç¥ŀ åľ£
æĸ° åı°å¸ģ
èĻ Ĳ
åı¸ä»¤ åĳĺ
ä¸º æľŁ
åĲĦ ç±»
çİ° å·²
è¯Ń éŁ³
ï ¹
éĺµ äº¡
çĳ Ļ
çļĦ ä¸Ńå¿ĥ
æĪ Į
åŀ £
æĹı èĩªæ²»
ar a
çľģéģĵ åı°
m a
åįķ æīĵ
åıĸ èĩª
éĴ §
è¡Ĺéģĵ ä¸ĭè¾ĸä»¥ä¸ĭåľ°åĮº
åĲİ ç»Ń
æıĲ äº¤
åľ° åĿĢ
; "
ç¬ Ľ
æĸ° äºº
ç¥ ·
å¹ ¢
ä¸Ģ é¡¹
ik i
åİĨåı² åŃ¦å®¶
è¿ŀç»Ń åī§
ä½Ĩ åħ¶
æĭ ¦
èģĮä¸ļ çĶŁæ¶¯
ç«£ å·¥
æľī ä¸ĢäºĽ
æŃ¤ åľ°
å¸ ľ
ä¹Ĳ åĽŃ
æĭ ¯
æµģ äº¡
åľŁ å£¤
ä½Ĩ ä»į
å°ģ éĹŃ
ç§ĳ å¹»
å°± åĥı
ç¡® å®ŀ
æĿĳ åºĦ
çĽ¸ è¾ĥ
è¿ĩ æ¸¡
ä¸Ń æĸŃ
" ,
æ³ķ å°Ķ
ä¾µ çķ¥
æĪĺ ä¸Ń
äºº ä¸İ
å½ Ĺ
ç»§ ä½į
ä¸»é¢ĺ æĽ²
åŃĲ åħ¬åı¸
ä¹ĭ ä¹±
ä¿Ŀ åį«
ç±»ä¼¼ äºİ
ä¼ĺ åħĪ
k e
ç§© åºı
éĽĨåĽ¢ åĨĽ
ç¤¾ ç¾¤
åįĥ äºº
ä¸Ģ ä»½
å¤§ éĺŁ
æľĪ ä¸Ń
é© °
è¯Ħ å®¡
æľ Ķ
æĹ¶ å¸¸
é«ĺ å±Ĥ
æŁĲ ä¸ª
çļĦ æ¸¸æĪı
æĻļ éĹ´
å¤´ éĥ¨
ä¸º æĹ¥æľ¬
è¢« ä»»åĳ½ä¸º
éŁ ¶
çļĦ éĺ¿
éĢī æ°ĳ
ISTAT ä»£çłģä¸º
è½¬ ä¹ĺ
è¾ £
åħī åŃ¦
åĪ¤ å¤Ħ
çļĦ åľ£
åįģåħŃ å¹´
åĽ½éĺ² éĥ¨
ç»´ åĲ¾å°Ķ
æĽ² çº¿
èĴ¸ æ±½
æĹı äºº
ä½įäºİè¯¥åĽ½ è¥¿åįĹéĥ¨
ç¼ĸ åĪ¶
ä¸Ģ çĶŁ
å¹³ è¡Į
åĩ ¹
äºļ ç§ĳ
çĽĳ åĪ¶
åĪĻ ä»¥
å¤ª éĥİ
éĿĴ æĺ¥
c enter
è¾ĥ å¤§çļĦ
è° į
åħį çĸ«
âĢĿï¼Į âĢľ
ĠT h
ä½įäºİè¯¥åĽ½ åįĹéĥ¨
èĽ ¤
çļĦ æľĢé«ĺ
çĶµ ä¿¡
çļĦ å»ºçŃĳ
ä¿¡ å¥ī
æĹ¶ éĢŁ
åĽ½ å¤ĸ
æĺİ çļĦ
éĹ½ åįĹ
åħ¶ çĪ¶
åŃĺåľ¨ äºİ
éĢļ è¡Į
èĻļ æŀĦ
åħ¬ çº¦
è·¯ å¾Ħ
æ¤ Ń
çºªå¿µ ç¢ĳ
åį³ æĹ¶
æĶ» åĬ¿
æ¬¡ æķ°
å£° ä¼ĺ
ç»Ĩ èĬĤ
å·´ å¡ŀ
ç«ĭ åĪ»
åĳ¨ æľ«
10 5
éħ ĭ
ä¼ļ è®¡
å¯Ĩ çłģ
åįļ è§Ī
æ¶Ī æŃ§ä¹ī
åįģåħ« å¹´
è®¯ æģ¯
T e
å¤± è¸ª
çļĦ åĨħ
y n
çĶ· ä¸»è§Ĵ
çĥŃå¸¦ ä½İæ°Ķåİĭ
æĥħ èĬĤ
éĥ¨ çĶµå½±
åįģ åĽĽå¹´
å¯Ħ çĶŁ
åĨĽ èĪ°
æĭī å¤ļ
åĻ ª
ä¸į å¤ļ
æį¢ ä¹ĺ
å¼ §
å°Ħ åħ¥
çŃĸ åĪĴ
åĪĽå§ĭ äºº
éĹ ¯
æ¯« æĹł
åħ¸ åŀĭçļĦ
åĲ¦ åĪĻ
å¹¸ ç¦ı
è¯Ĭ æĸŃ
ç¾İ çļĦ
åħ¨ ä¹¦
åįģäºĮ æľĪ
æ£ ł
ç¿°æŀĹ éĻ¢
çļĦ æ´»åĬ¨
æĲŃ éħį
éĩĮ å¥¥
å¤ª ç¥ĸ
èªī ä¸º
æĴŀåĩ» åĿĳ
a e
åľ¨ åįĹ
æĹ¥ æĸĩ
çļĦåīį èº«
å¾Ĺ ä¸»
ä½ľ è¯į
æĻ® ç½Ĺ
æĤ ¼
çļĦçī¹ å¾ģ
è¿Ľ åĨĽ
åıĤ è®®åĳĺ
æŃ§ è§Ĩ
è¾½å®ģ çľģ
çľŁ çļĦ
åıĭ è°Ĭ
æĹłçº¿ çĶµ
åħ¬ ç½²
è½¦ åŀĭ
ä¸º é£Ł
å®ŀ ä½ĵ
æİ¥ å£¤
åıĪ æľī
èİ± æĸ¯
ä¸Ģ è·¯
ä¹ĭåīį çļĦ
åħ´ èµ·
é² ¨
æŃĩ å°Ķ
èµ· è¯ī
çĥ ¦
åĸĩ åĺĽ
äº¤ åıī
è¡ĮæĶ¿ éķ¿å®ĺ
te xt
å¹´ æ¬§æ´²
å½ ¬
çĶµè§Ĩ åĬ¨çĶ»
æľĢåĲİ çļĦ
èĤ¡ ç¥¨
è°ĭ æĿĢ
åĬ¨ å·¥
M L
äºİ åĲĮå¹´
æĿ¡ æ¬¾
éĺ² åį«
ç»Łæ²» èĢħ
ä¸ĸçºª æľ«
åİĤ åķĨ
æĸ¯ å¤§
äºĶ ä¸ĸ
çļĦ ç¤¾ä¼ļ
éģĹ è¿¹
é«ĺ å³°
æ¨¡çī¹ åĦ¿
å·¥ åħļ
å½±åĵį åĬĽ
æ¬¡ åĪĹè½¦
çļĦ éĩĳ
ç» ħ
ç¿ ¡
æĺ¯ä¸Ģ å®¶
d e
åĶ±çīĩ åħ¬åı¸
æĺ¯åįĹæŀģæ´² çļĦ
å¤į åĲĪ
é¢ Į
æľº ç»Ħ
æŃ£ ç»Ł
æĤ¬ æĮĤ
èĢĮ åĲİ
çļĦä¸Ģåº§ åŁİå¸Ĥ
åħĭ éĽ·
G A
ä¸į åıĹ
ä¸ľ åİ¿
å¸¦ æĿ¥çļĦ
ç¯ĩ å°ıè¯´
æĽ² çĽ®
ä¹¡ éģĵ
çĶµ åİĭ
æĿĢ äºº
Play Station
ç©º è°ĥ
å¼Ģ ä¸ļ
æ¥ ł
è½¬ åıĺ
å¹´ æľī
æĢ» å±Ģ
åĲĦ åľ°çļĦ
ä¼¦ æĸ¯
ç³» çļĦ
è´¢ ç»ı
æĢ» åı¸ä»¤
çļĦç¬¬ ä¸Ģä¸ª
è¯¥çī©ç§įçļĦæ¨¡å¼ıäº§ åľ°åľ¨
æĶ» åħ¥
æĻ¯ è§Ĥ
il li
è¿ģ å¾Ģ
æĶ¾ å°Ħ
ç¥ŀ ç¤¾
è½¦ çļĦ
èĬĤ å¥ı
æ¸ħåįİ å¤§åŃ¦
äºļ åĪ©
çīĻ é½¿
åĲ¬ åĪ°
çĽĨ åľ°
åıĬ åĲİ
åĬ¨ æĢģ
è° ´
é¢Ĩ éĺŁ
åħ¶ä¸Ń çļĦ
ç¥ŀ çĪ¶
çļĨ ä¸º
ä¹Ł èĥ½
è¯¥ ç«Ļ
éļı ä¹ĭ
å¤§ åĨĽ
ãĢĭ ï¼Īï¼īï¼Į
æĬķ æīĭ
åĲĮ æ²»
ç¡® ç«ĭ
æĺ¯ä¸Ģé¢Ĺ æģĴæĺŁ
æ¿ Ĵ
åĨ³ çŃĸ
æĶ¯æĮģ èĢħ
éĿ¢ ä½ĵ
ç²ī ä¸Ŀ
çĪ± çļĦ
èįī åİŁ
il ver
å¾® åįļ
å®° çĽ¸
an ce
en n
éĩįçĤ¹ æĸĩçī©ä¿ĿæĬ¤åįķä½į
å®¢ å®¶
190 6
å¾Ī éļ¾
æĺŁ éĻħ
ç»į åħ´
Ã ¡
çļĦ çĥŃ
çľĭ æ³ķ
æ¢¦ æĥ³
æ³ķ åŃ¦
åĩºçĶŁ åľ¨
æµ ĳ
ä¸Ĭ ä¸Ģ
èĤī é£ŁæĢ§
å¹¿ ä¹ī
ä¼Ĭ å°Ķ
èĢĥ åħ¥
è¯¥ åī§
åħ¬ ç«ĭ
èĥ ĥ
éģĵ å¤«
çłĶç©¶ åĳĺ
Q u
ï¼Īï¼ī ãĢģ
æĹ¥æ²» æĹ¶æľŁ
æīĢè°ĵ çļĦ
å¤§ å¤§
å¹¶ ä¸º
è¾ŀ åİ»
æĺİæĺ¾ çļĦ
å¤§ä½¿ é¦Ĩ
åŃĺ åĤ¨
åī© ä½Ļ
åĲ Ĺ
èĨ ¨
ç§° èµŀ
è´¹ å°Ķ
ç² ĺ
çļĦ åħ¨
åı°é£İ èŃ¦æĬ¥
c k
ç¡ Ŀ
r u
åħĭ åĬ³
åĵĪ ä½Ľ
åįģ äºĶå¹´
æīĵ éĢł
å·® è·Ŀ
èĿ Ļ
çĵ £
çļĦ è¥¿
ä¸» åĶ±
ä¼Ĳ åħĭ
çĶŁéķ¿ åľ¨
æ» ´
åįĬ å¾Ħ
çº¦ åħĭ
èĿĻ èĿł
I R
èĴĤ åĪ©äºļ
åĴ Ģ
çĲĨäºĭ ä¼ļ
Ġ id
å¤§ èģĶçĽŁ
ç§ĳ ç½Ĺ
è°ĥ èĬĤ
l l
æĿ ı
å¯ ħ
è¿Ļ æĿ¡
ç½ķ è§ģ
ä¹ĺ åĿĲ
ä¹ ŀ
ç±» åĪ«
190 7
E P
å¹´ ä¸º
æ° Ľ
C O
çļĦ èº«ä»½
èµ ¦
çļĦ æ¯ĶèµĽ
å©ļ ç¤¼
a f
è´¨ çļĦ
åĪĨ äº«
æĬ¤ çħ§
æĴŃ åĩºçļĦ
ä¹Į æĭī
æľºåĻ¨ äºº
çĩ ¥
åľº åĲĪ
äº¦ ä¸º
ç¾İæľ¯ é¦Ĩ
ä¸ģ åł¡
å¨ģ å°¼æĸ¯
æľī ä¸ī
åŃĹ ç¬¦
æŃ» åİ»
æĪĪ å°Ķ
çŁ¥ åĲįçļĦ
æĹ¶éĹ´ çļĦ
â Ī
ä¸´ åºĬ
å±ĭ é¡¶
ä»ª åĻ¨
col or
èĢ¶ å¤«
æĸĩ çļĦ
of t
æ´ª æ°´
æĭī èĲ¨
å¤§ äºİ
è¿Ļ ä¹Ł
åŀĭ æľºè½¦
å°ģ éĶģ
åħīç»ª äºĮåįģ
190 8
éħ ±
éĽĨ ä¼ļ
ic a
éª ¤
åı¤èĢģ çļĦ
å°Ĭ éĩį
æ¹ Ľ
åĵĪ éĩĮ
å´ĩ æĭľ
æĢ» æĺ¯
çĦ °
p s
çļĦ ç¬¬ä¸ī
çĽ¸ å¯¹äºİ
äº¦ åı¯
æĶ¹ ç»Ħ
å¤§ çĲĨ
å¾Ĺ ç¥¨
ä¿ ±
åıĪ è¢«
å®ĭ æľĿ
å±± é¡¶
ä¹ĭ ç§°
æĶ¾ ç½®
æĥ ĳ
å°ģ éĿ¢
è¿ĺ åĮħæĭ¬
å¥³æĢ§ ä¸º
æĸ¯ åĽ¾
å¢ĥ åĨħçļĦ
è¡Ģ æ¶²
åĺī å®¾
åĲ ĵ
èĪªç©º æ¯įèĪ°
çī©çĲĨ åŃ¦å®¶
éĺ¿å°Ķå·´ å°¼äºļ
åĨ² ç»³
è¡¥ ç»Ļ
æ³½ å°Ķ
çĳ °
æ´»åĬ¨ çļĦ
åĨľæĿĳ å±ħæ°ĳçĤ¹
çī ¢
èĲ¥ åħ»
v e
çļĦ é©¬
ä¸Ń åľº
æĻ® æŀĹ
åĵį åºĶ
L e
è·¯ åĨĽ
Ġ 0
ç¦ ¹
é¹ ĥ
æľĪ ä»½
æŁĵ èī²
ç¿¡ ç¿ł
äºļ å½ĵ
çļĦ ä½ľçĶ¨
è¿Ļé¦ĸ æŃĮ
æŀģ å¤§
äº« æľī
çĶ² ç»Ħ
ç£ ħ
Ð µ
å½ķå½± å¸¦
å°Ĩ ä»ĸ
åł µ
ï¼Į "
è¯¸ å¤ļ
Ġcol span
æŃ£ è§Ħ
å¤±åİ» äºĨ
æĸĩ éĿ©
æĽ´ æĶ¹
k y
çī¹ å®ļçļĦ
åı¯ åĪĨä¸º
äºī è®º
å±±èĦī çļĦä¸Ģéĥ¨åĪĨ
c o
æĸ¯ èĴĤ
æł¡ èĪį
æĶ¿ ä½¿
éĽ¶ åĶ®
åħī è°±
æĴŃ æĺł
ä¼į å¾·
æĶ¹ç¼ĸ èĩª
å¹´ çĲĥåŃ£
äºļ çĥŃå¸¦
æľī å¾Īå¤ļ
é» ı
è´Ŀ æł¼
å´ĩ ç¥¯
ä¼łæķĻ å£«
å¤ļä¼¦ å¤ļ
ä¼ļ ç¤¾
åįĹ ä¸ĭ
å§Ķåĳĺä¼ļ çļĦ
c l
ä¸ī çº§
èĩª ä¸»
r ess
ä¸Ģ åıª
è¾© è®º
åı¯ éĿł
é«ĺ åľ°
åŃ¦ åłĤ
å¤§åŃ¦ çĶŁ
æĶ¿æ²» å±Ģ
ä¸Ģ åįĬ
çĻ¾ å¹´
A V
äºº æĸĩ
ä¸ĸçķĮ çļĦ
é¥ ²
åĨ ¶
æľ¬ æ¬¡
è¿ĩ åº¦
å¹² æī°
åŃ¦æł¡ çļĦ
æĳ ĺ
or ld
3 50
åĬ¨ è¯į
åħ¶ éĹ´
æ² §
æ© Ļ
ãĢį ï¼ī
æķĻ å¯¼
çİ «
æĥħ å½¢
åįİ ä¸ľ
ä¼ļè®® ä¸Ĭ
çļĦ åĲĮæĹ¶
ãĤ ĵ
æļĤ åģľ
çļĦ è¿ĩç¨ĭ
æ§ Ł
äºº æīĢ
ä¸į è®º
è¯¸ ä¾¯
å¼º å¤§
åĩł åĨħäºļ
æĸ¹ å½¢
ç§ĳ çłĶ
åĴĮ ç¾İåĽ½
éĺ¿ å§Ĩ
åıĪ è¯ĳ
åĨĽ æĸ¹
è¿Ļ ä½į
é¢Ħ å®ļ
å»ºç«ĭ çļĦ
æĹ¥ åĩĮæĻ¨
ä½ĵ éªĮ
æł¡ åıĭ
æ· ¹
æĽ¾ æľī
è§Ħ æł¼
éĺŁ åľ¨
æĿĥ å¨ģ
å½ĵ æĻļ
åı¯èĥ½ æĢ§
å·´ å¸ĥ
èĮ¨ åŁº
å®ļä¹ī ä¸º
re e
S P
ç¼ Ĩ
æľī äººåı£
åĮĹ ç¾İæ´²
åĪĨå¸ĥäºİ åįĹç¾İæ´²
åĨ ¥
ä¸Ģ åįĥ
éĢī æĭĶ
ç¬¬ä¸Ģ éĥ¨
ow n
éĢĥ äº¡
åįİ è¯Ń
æ£ į
éĩİ çĶŁ
ä½¿ ä»ĸ
çĻ¾ è´§
çª Ł
æ± ģ
ro w
ä¸į åı¯èĥ½
é² Ī
åĻ¨ å®ĺ
æĢ»éĥ¨ ä½įäºİ
çºº ç»ĩ
æĮĩ æłĩ
çģ« åĬĽ
åĮĹ ä¼Ĳ
190 4
ç¼ Ģ
ä¸Ĭ ä»»
åĩº åħµ
æĸ¯ éĩĮ
å¸¸ è§Ħ
è®¯ åı·
åıĪåĲį BD
çļĦ åŃĺåľ¨
åŃ ľ
è¿ŀ åĲĮ
å°ĳæķ° æ°ĳæĹı
ä»ĸ å°Ĩ
é¦Ļæ¸¯ æĶ¿åºľ
æİ¨åĩº äºĨ
çĶµ ç£ģ
äº® çĽ¸
çīĽ æ´¥
èĲ¨åħĭ æ£®
æĪĲ åĮĸ
è½¦ ä½ĵ
C N
ç»Ī èº«
ä¸Ń ä¸ľ
ç¤¾ äº¤
ä¸Ń ä»¥
åħ¬ è½¦
æ¬¡ åŃĲ
æ³ķ å¸Ī
è° ķ
æĹı èĩªæ²»åĮº
çª ĥ
çľŁ äºº
èī¯ å¥½çļĦ
çļĦ è¡¨çİ°
çīĩ æ®µ
çīĪ æĿĥ
æĩ Ĥ
å¹¶ æĪĲä¸º
æ¸ħ åĨĽ
èįĥ æ¹¾
äºº è®¤ä¸º
çķ ¿
èĤ Ĩ
Ġ å¹´
ä¸Ń æīĢ
çº Ĥ
åīį çº¿
è¯º æĸ¯
ãĢĭ ãĢĬ
ãĢĢ ãĢĢ
çĽ´ å±ŀ
ä¸¹ å°¼
æŃ¤ åīį
ä½ĵ çİ°
éĽĨ ç»ĵ
åıĳçĶµ åİĤ
Ġ 12
ä¸º åĲį
ä¹Ŀ å·ŀ
å¸Ī éķ¿
æľĢç»Ī åľ¨
æ¡Ĩ æŀ¶
çļĦ åĬŁèĥ½
èĢĮ å¾ĹåĲį
åħĪ åīį
åįĹ æĸ¯æĭīå¤«
éĺ Ĳ
å·² åľ¨
ç´¢ å°¼
èĬ ½
åħ¶ä¸Ń æľī
è¥¿ åĮº
äºİ é¦Ļæ¸¯
éĤ ¸
å°ıè¡ĮæĺŁ åĪĹè¡¨
åįģä¸Ģ æľĪ
æ¼«çĶ» å®¶
æĬĢ èĥ½
åħĭæĸ¯ åĿ¦
åĬłåĭĴ æ¯Ķ
çİĭ åĲİ
ä¸ĵ çº¿
é£İ éĢŁ
å¸ĥ å±Ģ
å¤´ è¡Ķ
ç»Ļ ä»ĸ
å¥¹ æĺ¯
éĩį ä¿®
çº½ è¥¿åħ°
æĶ¿ å§Ķ
G B
åī ¿
åºĶ å½ĵ
or g
å¸¦ å°ıè¡ĮæĺŁ
è¿Ľ çĲĥ
çĶ· äºº
åĪĬ çĻ»
å¹´ åĬłåħ¥
åīį èº«ä¸º
åľ¨ ç¬¬
æĪ İ
ä¸» äºº
çº³ å·ŀ
ç° §
é»ĳé¾Ļæ±Ł çľģ
è¿ Ħ
an s
å·¥ä½ľ äººåĳĺ
as e
å©´ åĦ¿
åľ¨ ä»Ĭ
ä¸İ å¤§
æĸĩåĮĸ çļĦ
çļĦ ä½¿çĶ¨
ä¸Ĭ åįĬ
æĸ° ä¸Ģ
çª ¦
åĪ¶éĢł åķĨ
éĻ ĩ
åĬ¨ åĳĺ
å¿ĥ çļĦ
åħĥ éŁ³
è¡¨çİ° åĩº
æŃ¤ ä¸Ģ
in s
å°Ķ å¤«
å°Ħ çº¿
é¢ĳ ç¹ģ
A A
å·´åĭĴ æĸ¯åĿ¦
åģļ äºĨ
æĹ¶ ç©º
å¸Ĥ åĨħ
åĬ¨è½¦ ç»Ħ
ä¸ľ æĹ¥æľ¬
éħ °
å»º æľī
å¨ģ å°Ķæĸ¯
èī °
E E
å¡Ķ åŁº
æ³ Į
åĪĿ æŃ¥
çŁ³ å¤´
çŃī ç«Ļ
è¢« åĳĬ
åħ³ ä¸ľ
è°´ è´£
ç»´ æĭī
r on
åıį å°Ħ
æĪĺ åĪĹ
Ġ al
é³ Ĺ
ä»£ åı·
è·¯ å¾·
æľŁ æľĽ
ä¸¤ å¤§
å¥¥ åı¤
å¤© çİĭ
ç«ĭ å§Ķ
ç¹ģ å¿Ļ
å±± åı£
åľ¨ ä¸İ
èĢħ ä¸º
æŃĮ åī§
ç³»ç»Ł ä¸Ń
ä¼ł ä½ĽæķĻ
æĹ¥ çĽĬ
Ġ ĊĊ
æľĪ ä»»
çī© æµ¦
çĹħ äºº
åĲİ ä¸ĸ
å¹´ä»£ ä¸º
ä¸Ģ æĹ¥
åį°åº¦ æ´ĭ
æ¿ ĳ
å¸ĿåĽ½ çļĦ
åĮĹ æŀģ
åĽŀ æĿ¥
æ² Ľ
åĨĻ æĪĲ
çĢ ĳ
D C
å¯º åºĻ
ä¸į å¦Ĥ
é«ĺ éĵģ
æĸ° åįİ
æ²¿ çº¿
åĵĪ å¾·
çļĦ å®¶
å·® åĪ«
D P
éĴ ¥
è¶ĭ åĬ¿
çļĦ åıĮ
çī¹ çĤ¹
è·¨ è¶Ĭ
åĽ½ ç±į
éĹ µ
åĮ ¿
1 18
æĭ¯ æķĳ
åĽĽ äºº
æ² ¦
åĩ»è´¥ äºĨ
M ic
åĲİæĿ¥ åľ¨
æĤł ä¹ħ
çļĦ èĢģ
ç«Ļ ä½įäºİ
æł¹æį® ç¾İåĽ½
çĶŁçī© åŃ¦
å¹¿æĴŃ åħ¬åı¸
M A
åĬ ¾
åĪĨ å¼Ģ
ç¬¬ä¸Ģ åĲį
å²ģ äººåı£
å¥¹ ä¸İ
ä¼Ĺ äºº
æĽ´ å¤§çļĦ
æ» ŀ
æµĵ åº¦
åĪĽ æĦı
ä½į åľ¨
èĬ± èİ²
å¹´è½» çļĦ
ä½ĵ éĩį
æľĢé«ĺ çĤ¹
è¿ĳ ä¼¼
åħ¨åĽ½äººå¤§ ä»£è¡¨
ä¸Ń å¼ı
å¯ ¡
åŁİ éĹ¨
æŃ¦ æĺĮ
çĪĨåıĳ åĲİ
åĨį åĬłä¸Ĭ
æĹ¶éĹ´ åĨħ
èĢ¶ å¾ĭ
å¥ ķ
ç¤¾ éķ¿
ä¿ĺ èĻı
èµĽ ä¼ļ
è¯ĨåŃĹ çİĩ
çĭ¬ èĩª
ç¨³ å®ļçļĦ
åħļ ç±į
å®« æ®¿
æĩ ¿
çĶĺèĤĥ çľģ
åĽł åŃĲ
çļĦ è¦ģæ±Ĥ
åĮĹ éĿ¢
åľ£ æ®¿
ä¼ł åĬ¨
åĽ¾ çīĩ
ä¸Ģ ä¹¦
çħ ®
æ³° å°Ķ
çļĦ å¤ļ
åħ¸ åŀĭ
åīĳ æ¡¥
ï¼Ī ãĢģ
éķ¿ è½´
æµ· åħ³
è¿Ľ ç¨ĭ
ç¨ ½
æŀª ç®¡
æ·± åĪ»
æ© ĺ
åĪ© çī©æµ¦
å°¼åı¤ æĭī
åĲīæŀĹ çľģ
æľĪ åĪĬ
ä¸¤ åº§
ĠT e
æīĢ å¾Ĺ
å¸¦ èĳĹ
çļĦ æłĩåĩĨ
åħ³ èģĶ
åĨ· åį´
è¥¿ æ±ī
ä¸ĸ ä»£
åĲį åĪĹ
å·´ æĭ¿
çļĦ æķ°æį®
ç» £
åıª å¥½
æĦ¤ æĢĴ
å§Ķ å¸¸å§Ķ
æľĢåĪĿ çļĦ
çĶŁ æķĪ
åħĪ éĶĭ
å¥ĸ ç«ł
äºº æĺ¯
åĪĻ ä¼ļ
éĺ¿æĭī æĸ¯
æ¶Īè´¹ èĢħ
è¯´ æľį
æķħ éļľ
æĪĸ åħ¶ä»ĸ
ç¥ĸ ç±į
æ·¡æ°´ é±¼
ã Ħ
çļĦ ä¼łç»Ł
æĢ» ä½ĵ
è¡Į è½¦
éħ ¬
åĽŀ å¤į
å§Ķåĳĺä¼ļ ä¸»å¸Ń
åĤ¬ åĮĸ
æŃ¤ ä¸¾
çļĦ æ¶Īæģ¯
æľĢ å¥½çļĦ
å¹¶ èİ·å¾Ĺ
al e
èģĶåĲĪ åı°é£İèŃ¦æĬ¥
èĤĮ èĤī
èĬ± è´¹
ãģ Ĩ
M ac
åŃ ļ
é¦ĸ æī¹
æį® çĤ¹
å°± èĥ½
è¿ĺ åİŁ
è§Ĥ å¡ĺ
éĺµ å®¹
æµª æ¼«
èµĭ äºĪ
ä¾ Ħ
å¼Ģ æĴŃ
éļ Ļ
åİŁ æľīçļĦ
èµ· æºĲäºİ
æĻ® å°Ķ
éĿ¢ç§¯ çº¦
ul t
Ġ ,
å¹¶ æŃ¢äºİ
èį §
ç¾İåĽ½ æĢ»ç»Ł
åıª åľ¨
çļĦ ä¸įåĲĮ
éĤ ¹
çļĦ æĬĢæľ¯
ä¸ľ é£İ
çº½çº¦ å¸Ĥ
è¿ĩ ä¸ĸ
è¿ľ ä¸ľ
æıĲ çĲ´
çģµ æĦŁ
èº« é«ĺ
èĶ ½
é©¬ å¾·éĩĮ
æĿ¥æºĲ äºİ
Ġ is
åĪļ æŀľ
æĹĹ å¸ľ
ä¸Ń ä¸ĸçºª
è®¾ç½® çļĦ
å¹´ æĢ»äººåı£
ç¤¾ä¼ļ çļĦ
éĻį èĲ½
åħ¥ äºĨ
å°± å·²ç»ı
èµĶ åģ¿
èģĶåĲĪåı°é£İèŃ¦æĬ¥ ä¸Ńå¿ĥ
ä¸Ģ è§Ĵ
æľ« å¹´
éĩĳ æĸ¯
è½¬ ä»»
åħĥ æľĹ
è¯ Ī
æł· çļĦ
åħ¨åĽ½ éĩįçĤ¹æĸĩçī©ä¿ĿæĬ¤åįķä½į
æ¯ģ çģŃ
å¦ Ĩ
éĩĳ éĹ¨
çĶ¨ äºĨ
çº¿è·¯ åı£
å® ¦
ä¹ĭ è·¯
ç» °
æŀģ ç«¯
æİ ·
è´· æ¬¾
Ġ k
æ± ķ
æķ° åŃ¦å®¶
ç§» æ¤į
il d
ä¿ĥ ä½¿
å¾Ĵ åĪĳ
å°ı å¹³
åĸ Ĭ
ç¹ģ èį£
ç» Ĵ
å¹¸ åŃĺ
å¯ Ĥ
ä¸» ç¼ĸ
çĽ¸ è¿ĳ
æĽ´ æľī
ä¸Ńåįİæ°ĳåĽ½ æĶ¿åºľ
ãĢ Ĳ
ãĢ ĳ
ä½¿ èĢħ
ä¸ļ èĢħ
ä¸ª æĢ§
åŀ ĥ
äºļåĪ© æ¡ĳ
å½± è¯Ħ
æŀĹ ä¸Ń
æĿĥ çĽĬ
å¸¸ çĶ¨
åĽŀ å®¶
åķ ¤
è¿ĩ äºĨ
ç©º è¢Ń
è¯¥ åľ°åĮº
æ±ī åł¡
çĭ¬ çī¹
æ±¤ å§Ĩ
å·´ åĵĪ
åĪĹ é¢ł
æī¹ å¤į
è´¢ å¯Į
æĹ¶ ä¼ļ
å¤© æ¡¥
å®Į åĸĦ
èĮĥ çķ´
èĳ¬ äºİ
å½± å±ķ
å®ī ç½®
en g
æĴ¤ ç¦»
çļĦ åľŁåľ°
10 4
åĪĻ è¢«
çĽ¸ ä¼ł
å¹² æ¶ī
å¤«åį¡ æĺ¯ä¹Įåħĭåħ°çļĦæĿĳèĲ½
çŀĦ åĩĨ
åŀĭ æĢģ
æµ Ĭ
å¤© ç©º
éª Ĥ
éĺ³ åħī
ä½ľ çī©
åıįå¯¹ æ´¾
åĲī æĸ¯
åŀĭ çĶµåĬĽæľºè½¦
æĭľ åįł
ç¼ ł
ä¸Ģ çĤ¹
çº¿ åĴĮ
åİŁåĽł æĺ¯
è°ĥ ä»»
ä½© å°Ķ
å¼ķèµ· äºĨ
ä¸į åıĬ
èµĽ é©¬
éŀ Ń
ä¸º ç¾İåĽ½
å³ »
æ°´ çļĦ
äº¤æ±ĩ å¤Ħ
çľģ éķ¿
å±Ģ éĥ¨
ç¼ĸ æĽ²
Lin ux
èİ± æĺĤ
å¾·åĽ½ çļĦ
èĢ¶ å°Ķ
å¼ł å®¶
åĴ¸ ä¸°
çİ°ä»£ åĮĸ
éĿ¢ åīį
å¾Ģ è¿Ķ
åŃ¦éĻ¢ çļĦ
çŃ ĭ
æīĵ è¿Ľ
å¹´ ç§ĭ
çī© ä¸ļ
æĽ¾ æĭħä»»
" ï¼īãĢĤ
ç«Ļ æĪ¿
ç»Ī ç»ĵ
è¥¿ éĹ¨
æĴĴ åĨ·
L a
L E
è ł
å¯¹ ä»ĸ
æĺ¯ä¸Ģ æ¬¾
ä¸º é¦Ļæ¸¯
åħ¬ å¹³
åįĹ è·¯
è¿Ĳ ä¼ļ
æ¢ ĵ
åĲį ç§°ä¸º
ä¸Ģ å¼ł
åħ¨ ç¨ĭ
éĶ £
åĽ¢ çļĦ
åıĺ æĽ´
æķħ æŃ¤
âĶĢ âĶĢ
èĢ¶ è·¯
åº§ ä½į
åĪ¶ åĵģ
åĢ ª
åŁº å°Ķ
ä¸ĵ åĳĺ
åİ¿ çº§
åĭ ī
åĽ½éĻħ èµĽ
ä¹Ł ç§°
çģ« çĤ®
æĦıåĳ³ çĿĢ
è¿ľ å¾ģ
éľį å°Ķ
çİĩ åħĪ
åŃĹ ä½ĵ
åįĬ éķ¿è½´
åı ¹
æķ ĸ
åŃ£ èĬĤ
åºĻ å®ĩ
å¦ ĵ
æ¸ Ĺ
è° ľ
éĢĤ å½ĵ
äºĮ æ°§åĮĸ
åħ± è¯Ĩ
è®© äºº
çĳŀ æĭī
åĪ© å®ī
ä¸Ģ æīĢ
å¯¼èĩ´ äºĨ
åĬŀåħ¬ åİħ
ç¬¬åįģ ä¸ī
çŁ³ åĻ¨
ä¹¦ åºĹ
å¾· åĭĴ
ç¼ĸ åħ¥
éķ °
å»¶ å®ī
å¹´ æľ«
æĹ¥æľ¬ äºº
åıĪ ç§°ä¸º
æĸ° çĶŁ
å£ ¬
è¦ģ å¡ŀ
ä¸Ń çŃī
æ°ĳ åħļ
åħ¶ä¸Ń çĶ·
åŀĥ åľ
ä¼ º
ä¸ª åĪ«
ä¸į åľ¨
èĹ ī
æľ¬ è´¨
éĽ ģ
æĸ° åħ´
ä»ĸ åıĪ
æ³ķ å®ļ
ä½ł ä»¬
å§Ĳ å¦¹
èį Ķ
æĢ» è®¡
ä¸İ ä¸ŃåĽ½
ĠE n
åŀĥåľ ¾
æĸ° åĮº
ç¤¼ æĭľ
æĹ¶ å°ļ
çľģ ä»½
ä¿ ŀ
æŃ¦ æľ¯
ä¾Ŀ æĹ§
åıĳè¡Į äºĨ
Ġ ï¼ī
æĦı åĽ¾
æľĢ èĳĹåĲįçļĦ
çĦ ķ
çŃ¾ è¯ģ
åĬł çĥŃ
as h
éĢĥ ç¦»
åĿĲ æłĩ
æĪĳä»¬ çļĦ
èĢ¶è·¯ æĴĴåĨ·
åĴĮ ä¸Ģä¸ª
æĽ¼ èģĶ
è§Ĵ éĢĲ
æģĲ æĥ§
ä¸Ńå¤® åĨĽå§Ķ
é¢ ħ
éĺ¿ å¸ĥ
le x
åĽ½æ°ĳ éĿ©åĳ½åĨĽ
ow er
à ¤
åĩº å±Ģ
éħ µ
çĶµåŃĲ æ¸¸æĪı
éĹ´ æİ¥
è®½ åĪº
é¾Ļ ç§ĳ
AK B
æīĭ æ³ķ
è¶³çĲĥ çĶ²çº§èģĶèµĽ
ä» Ĺ
ä¸įåĲĮ äºİ
å·ŀ ç«ĭ
ä¸ºä¸» çļĦ
éļĶ ç¦»
ç« ĸ
éĩİ æĪĺ
ä»ĸ ä»¥
åĪĨ ç»Ħ
æ» ĩ
èĥ¡ åĲĮ
çļĦ æ¯įäº²
åĪĨ æķ£
éĽķ åĥı
å½ĵ åĪĿ
éĿ¢ç§¯ çº¦ä¸º
å¹´ ä¸ŃåĽ½
çº ±
æĤī å°¼
ãĤ ¤
èĲ į
å¸¸ è¢«
ä¸Ń çİ¯
æİ¥åıĹ äºĨ
åİ¿ æĶ¿åºľ
ä½ĵ åŀĭ
åĮĸ å·¥
åİ»ä¸ĸ åĲİ
æĹ¶ è¢«
åĤ ²
åĮº æĺ¯
å®ģ å¤ı
äºº æŃ»äº¡
è®¤ çŁ¥
éħį è§Ĵ
s ilver
åħ¶ åľ¨
ä¾µ çĬ¯
æİ¢éĻ© éĺŁ
åİĨ ä»£
çļĦ äººåı£
è¶³ ä»¥
è¯Ħè®º å®¶
çĶµæ°Ķ åĮĸ
çģ« çģ¾
çļĦå¤§ éĥ¨åĪĨ
å« ¡
æľĿé²ľ åįĬå²Ľ
è½¦ èº«
è¡Ĺ å¤´
èµ· é£ŀ
å¹² çĩ¥
è¯¥ ç»Ħç»ĩ
èĨ¨ èĥĢ
åĳ ¢
æİĴ éĻ¤
ç±»åŀĭ ä¸º
åĪ© äºİ
æĢĿ èĢĥ
æ¬¡ çļĦ
ï¼ī ï¼Ī
è¢« éĢīä¸º
æµ· çĽĹ
å®ļ äºĨ
çļĦ å¿ĥ
åħĥ é¦ĸ
åĶ® ç¥¨
åķĨ æłĩ
189 5
å¹¿æ³Ľ çļĦ
ä¼ļ ä»¥
è¥¿ è·¯
ĠC ol
æ³ķ è§Ħ
ä¸į ä½³
âĢĿ ï¼Ľ
æ¦ Ĩ
åī Į
æľįåĬ¡ åĻ¨
éĿĴ å±±
å¹´ äºļæ´²
å¨ģå°Ķ å£«
åİ¿çļĦä¸Ģä¸ª åŁİéķĩ
é³ ī
ad e
éĵľ çīĮ
çĥ ¤
åı¯ä»¥ æĺ¯
åħī æĺİ
è¡Ģ ç®¡
H O
ä½ľ çļĦ
åº§ æłĩä¸º
å¤įæĿĤ çļĦ
å·²ç»ı è¢«
Î ²
ä¸Ģ æĸ¹éĿ¢
è¯ µ
åŁº è¾ħ
è¯¸ å¦Ĥ
è¿« å®³
åĲĪå¹¶ ä¸º
æŀģ éĻĲ
ä¸į åĪĹé¢ł
ä¼¯ åĪ©äºļ
èİ± åĿŀ
å±Ĭåħ¨åĽ½ æĶ¿åįıå§Ķåĳĺ
ä¼ł éĢģ
çĶ· æ¼Ķåĳĺ
S te
åİ¿ éģĵ
ç®Ģ åĮĸ
C R
è¯ Ľ
æıĲ åĢ¡
èģĶèµĽ åĨłåĨĽ
é¦ĸ æŃĮæĽ²
è£ ¹
å®« å»·
å¿« ä¹Ĳ
ä¸º ä»ĸ
ä½įäºİè¯¥åĽ½ ä¸ľéĥ¨
ð« ļ
17 0
åıĭ å¥½
r ist
æĹ¥ è®°
å¥³ äºº
æµģ éĢļ
èı² å°Ķ
çıį çıł
åħ¶ä¸ŃçĶ·æĢ§ ä¸º
èĭĹ æłĹ
æĸ¯å¤§ æŀĹ
æĪĺ äºĭ
w w
ä¸Ģ æĹ¶
å¸¸ æķ°
éĢī ç¥¨
ä¸ĢçĽ´ åĪ°
ãĢĤ ï¼ī
åħ¬ åŃĲ
åĩ» éĢĢ
éĢļè¿ĩ äºĨ
æĢ»çĿ£ åºľ
è¾ĥ å¤ļ
âĢ »
åĲĦ çľģ
ig h
æľ¬ éĥ¨
èī¾ ä¼¦
é¢Ŀ å¤ĸ
å¼º è¿«
å·ŀ äºº
yst em
åĲ ĭ
æ°´ ä¸Ń
é±¼ äºļçĽ®
çļĦ ç¾İ
è¿ª æĸ¯
er v
ç£· éħ¸
ä»¥ä¸ĭ çļĦ
å¯Ĩ çļĦ
w ard
çĨŁ æĤī
é¢Ħ æľŁ
ä¸º ä¸»è¦ģ
æ³ķ æĭī
åŀ Ħ
çĭ ©
å®ī å¦®
å¤Ħ åĨ³
èĪª è¡Į
ä¸ī çĶ²
Ð ½
æĺİ å°¼
åĪĽä½ľ çļĦ
çļĩ å®¤
å®ĺ èģĮ
éĻĲ å®ļ
ĠM ar
æĪĺ æľº
ç½ĳ æ°ĳ
ä¸ĩ å¼ł
éĻĨ æĪĺéĺŁ
èĩªè¡Į è½¦
y s
æĸĩ æľ¬
ç¼ ª
u k
åĮĹ åĮº
A m
æ® ī
å½ Ŀ
189 8
åģĩ åĲį
éļĲ èĹı
å®ŀ ä¸ļ
ä½įäºİè¯¥åĽ½ è¥¿åĮĹéĥ¨
çļĦ éĩį
or n
è½¬ æĬķ
Ñ Ģ
éģĵ æŃī
åħ¨ ç¾İ
èĳ£äºĭ ä¼ļ
ä¹Ł æĪĲä¸º
ä½Ĩ åĽłä¸º
åŁİ éĻħ
çľŁ èıĮ
os e
æİĴåĲį ç¬¬
çļĦ åŁºæľ¬
c c
é«ĺ å®Ĺ
åŁİ åĨħ
åĩł å¹´
ç©¿ èĳĹ
p en
æĹ¶ è£ħ
åıĳ çļĦ
æ³ķ äºº
çīĩ ä¸Ń
åĲĪ éĩĳ
æİ¢ è®¨
åıĳå¸ĥ äºĨ
åįĹ æĬķ
æĹł åħ³
æ¦´ å¼¹
éĺ´ è°ĭ
åľ¨ åľº
ç¼ĸ è¯ĳ
ä¹ł ä¿Ĺ
ç»¼èīº èĬĤçĽ®
çĻĮ çĹĩ
ä¸°å¯Į çļĦ
G e
24 0
çĭ ¸
åıĺ éĩı
ä¸ĩ åĲ¨
åĪĽ ä¸ĭ
ç¤º èĮĥ
ä¸Ģä¸ª æľĪ
ain t
éĤ® ä»¶
R e
è¡ĮæĶ¿ ä¸Ńå¿ĥ
å¿ĥçĲĨ åŃ¦
å¤§ åĬĽ
190 2
ä¸ĺ éĻµ
è¯¸ èĳĽ
æ¶² ä½ĵ
æĺ¯ä½įäºİ ç¾İåĽ½
å¢ ħ
å±ħ äºİ
åŁĥ å¾·
éģĹ ä½ĵ
å¸ķ æĭī
æģ¶ åĮĸ
ï¼Ł âĢĿ
èĬĤ æĹ¥
Ġ 18
èµĦ æ·±
åħ¨ åı°
æĿľ é¹ĥ
ä¾¿ åĪ©
æĽ Ŀ
ç§ĳæĬĢ å¤§åŃ¦
çļĦ åĽ½
ä¸§ å¤±
Ġ ãĢģ
æıĲ æ¡Ī
å¤´ çļĦ
ol og
åķ¤ éħĴ
èĲ Į
å¢ ©
æĶ¯ éĥ¨
åıĺ å½¢
å·´ åħĭ
ä¸Ńå¤® çĶµè§Ĩåı°
é¦Ļæ¸¯ æĹ¶éĹ´
è¾¹ å½¢
å¤§ è´¥
åįĹ éĿ¢
S O
æĭī çī¹
I F
ä¸Ĭ æł¡
å¹´ åĽł
ä¸İ ä¹ĭ
åıĳ éĢģ
æľĢ å°ı
è¯¥ å°ıè¡ĮæĺŁ
èĮ ¹
çİĭ çļĦ
æĶ¯ æĴĳ
åĪĽåĬŀ äºº
ä¸Ģ éĹ´
éħį ä¹Ĳ
èĵ ī
éĹ¨ çļĦ
ç¬¬ä¸Ģ æī¹
ä½Ĩ ä¹Ł
å¥ĸ åĬ±
åĽ½å®¶ çº§
è¿Ļ ä¹Ī
åŁİå¸Ĥ çļĦ
ä¸º ä¸Ńå¿ĥ
éĶ ¯
on y
çī¹åĪ« è¡ĮæĶ¿åĮº
æĭ ¾
æĻĭ åįĩ
éĩĳ éĴŁ
èĭ± å¯¸
ç¢ ĺ
æĪĺäºī çļĦ
å¸ĥ ç½®
åįİ ä¾¨
éĢł èĪ¹
ä¼Ĭ ä¸½èİİ
çĥĪ å£«
æłĩ ç¤º
èķ ´
å¤ļ ä½į
äºĮ çĶ²
å¢ Ł
èĹ ĵ
åĢŁ æŃ¤
G P
å¹´ä»£ çļĦ
å¯¿ åĳ½
æķı æĦŁ
é©¬ è·¯
æĭĵ è·ĭ
ä¼ł åħ¥
æĻ® æ£®
èĩ Ń
å°ı äºİ
åįģ ä¸ĥå¹´
éĵ¶ çīĮ
å½Ĺ æĺŁ
åľ¨ æ³ķåĽ½
èĢ ¿
ç§ĳ è¿Ľå£«
æģ© æĸ¯
èĢĮ è¯¥åľ°çļĦ
åıį åĩ»
æ£Ģ éªĮ
æĪª æŃ¢
è¹ Ħ
ç»ĺ åħ¥
ä¹Ł å¼Ģå§ĭ
èįī æ¡Ī
æĮ Ŀ
æ· ĭ
èİ² èĬ±
ç´¯ è®¡
æ°Ķè±¡ å±Ģ
ç¨ ļ
äºĶ ä»£
åĽ¾ å°Ķ
ä¸ĭ éĿ¢
åĲĮ ä¸Ģä¸ª
è½¯ æĿ¡
çļĦ æľº
å² ĳ
ä¿¡ éķ¿
æĽ¿ æį¢
åĲĮ ä¸º
æµ· å§Ĩ
äºº éĥ½
è¿ĩ åĲİ
å§Ķ åĨħ
ç¼© çŁŃ
ä¸ĢèĪ¬ çļĦ
éĽķ åĪ»
èı²åĪ© æĻ®
ä¸į å¹¸
æ¶Ī èĢĹ
å© ī
10 3
æĹł éĶ¡
åı¯ä»¥ è¢«
æ³ķ åĨĽ
æ¥¼ æ¢¯
ä¹Į å°Ķ
an c
æ¾İ æ¹ĸ
æĪĺ æŃ»
åħ¨ å¸Ĥ
åħ° åį¡
åĽ½ç«ĭ åı°æ¹¾
ä¸Ģ è¯´
åĴĮ æĸ°
åĽ´ æ£ĭ
æļĹ æĿĢ
ç»ķ å¤ªéĺ³
èĪĨ è®º
æľª æĿ¥çļĦ
è¯Ń ä¸Ń
åĲī äºļ
èĴĤ å®ī
æ´Ľ ä¼Ĭ
ä¸ĭ åİ»
ä¼ĺ æĥł
) ,
ä¸į æĦ¿
ä¸į éľĢè¦ģ
å¯Ĩ è¥¿
äºĶ çĻ¾
æļ ĳ
åŃ¦å£« åŃ¦ä½į
10 2
èµ° å»Ĭ
ä¼Ł å¤§çļĦ
å§ĶåĨħ çĳŀæĭī
ç¨ĭåº¦ ä¸Ĭ
è¿Ī åħĭå°Ķ
æ°¯ åĮĸ
æ²» æīĢåľ¨
æ´» æĢ§
äºĮ çĻ¾
ä¸ºä¸» é¢ĺ
II I
çĶ¨ åľ¨
æĶ¿åºľ åľ¨
åĪł éĻ¤
æĦıæĢĿ æĺ¯
å¥³ æŃĮæīĭ
éĿ¢ åĮħ
å¼ķ åĬĽ
æĤ Ķ
å½ķéŁ³ å®¤
åį¡æĸ¯ èĴĤåĪ©äºļ
æ¡ ¶
éĿĴ éĵľ
æĪĲä¸º ä¸Ģä¸ª
åĵĪ çī¹
ç¦»å¿ĥ çİĩä¸º
å¼Ģåıĳ åĮº
åĽ½ ä¸Ń
åħĦ éķ¿
R NA
Ġ e
æĶ¾ éĢģ
æľīåħ³ çļĦ
æµ· æ¹¾
an k
åİŁ åĿĢ
åİŁ æĸĻ
åĮħ è£ħ
é±¼ ç§ĳçļĦåħ¶ä¸Ńä¸Ģç§į
é¢Ħ éĺ²
B e
æĢ» éķ¿
12 5
Ã ¼
æ¸ħ å»·
æĹ¥ åıĳçİ°
æľĢ åħ·
æłĳ æŀĹ
ç¼ ī
è¿½ åĩ»
åĬł éĩĮ
ä¸ŃåĽ½ ç§ĳåŃ¦éĻ¢
æĶ¹ çĶ¨
åĵ² åŃ¦å®¶
ç»§æī¿ äºº
ä¸ĸçķĮ åĲĦåľ°
éĩĳ åĥı
è¡£ æľį
B O
ä¸Ģ ç¾¤
å±ŀ èĤīé£ŁæĢ§
æ²³éģĵ åħ¨éķ¿
ä»ĭ åħ¥
ä¸īè§Ĵ å½¢
èĦĬ æ¤İ
çļĦ å®ļä¹ī
ä½Ĩ æ²¡æľī
æĶ¹ ä»»
å¯¼ ä½ĵ
åıĳ èĤ²
èĭı éĩĮ
åħ± äº«
H T
åĪĹ æĸ¯
éĴ Ļ
éľį å¤«
é¢Ħ åĳĬ
å¹´ æŃ£å¼ı
éĺµ èĲ¥
å°ı åŃ©
çĵ¦ æĭī
åĵ ĩ
å¥ĸ çīĮ
èģĮ è´£
çļĦ ä¿¡
æ°´ ä¸Ĭ
èĤ¿ çĺ¤
åįĬéķ¿è½´ ä¸º
å½ ª
å¹´ä»£ æľ«
æľĢåĲİ ä¸Ģæ¬¡
å¼Ģ å°ģ
çĶµ æ¢¯
æķĻ åıĭ
çģ¾ éļ¾
éĻįéĽ¨ éĩı
åįĹ æľĿ
éĢłæĪĲ äºĨ
ãĥ¼ ãĥ
ä¼Ĭä¸½èİİ çĻ½
ç´¢ å°Ķ
ä¸»è¦ģ ä¸º
å®¢ æľº
éĥİ ä¸Ń
æĺ¯ éŁ©åĽ½
å·´ è¾¾
è¯ģ ä¹¦
åįł æľī
å®ŀ è´¨
æĸ½ è¡Į
è¡ ·
éĩĮ ç¨ĭ
è° ı
Ġ r
è¾¾ èµĸ
å°± ä¸ļ
æ¹ĸ å¹¿
èİ« å°Ķ
äºĭ çī©
ç»ĺåħ¥ åľ°åĽ¾
çļĦ çĽ®æłĩ
ä¸Ģ æĸ¹
ä½ľä¸º ä¸Ģä¸ª
åĲİæĿ¥ è¢«
æĢĢ åŃķ
è¾ĥ å°ı
èļ ģ
èĬ ¯
æĺ¯ä¸Ģé¢Ĺ ç»ķå¤ªéĺ³
æ¡Ĥ æŀĹ
ĠU A
åĮĹ è·¯
åĪ¶ åĬ¨
æ²³ è°·
åŃĶ åŃĲ
Ġ ãĢĬ
èĤ ª
æłĳ æľ¨
çĬ ģ
æ¨ Ł
äºĭä»¶ çļĦ
è¿Ĳ è½¬çļĦå°ıè¡ĮæĺŁ
åıĳè¨Ģ äºº
æĺ¯ä¸Ģé¢Ĺç»ķå¤ªéĺ³ è¿Ĳè½¬çļĦå°ıè¡ĮæĺŁ
éªĮ è¯ģ
éĺ¿æĭī å·´é©¬
åĲı éĥ¨
è¯¥å°ıè¡ĮæĺŁ äºİ
æĭ¼ éŁ³
èĩĢ é³į
çİ« çĳ°
ä¸Ń çļĦä¸Ģä¸ª
ï¼ļ ãĢĬ
ç¾ Į
æŃ¤ ç±»
é¦ĸ å¼ł
ou t
èĪ ľ
10 6
çļĦè½¨éģĵ åįĬéķ¿è½´ä¸º
d u
çļĦ éĢŁåº¦
äºĨ å¯¹
ç² Ł
æ¶Ī éĻ¤
çĶµ æľº
ä½ĵ æĵį
éĢı æĺİ
èĦĤ èĤª
äº¤ ä»ĺ
è¯ ł
æŃ¥ è¡Į
ç½ª åĲį
æ²» çĲĨ
çĶŁ ç´ł
10 8
åĨħ æĸ¯
å¥¥ åĪ©
èĢģ æĮĿ
ou s
ä¸ĵ æ³¨
èĴĻ å¾·
ãģ Ĺ
è¯Ń æ³ķ
il le
up er
æĭľåįł åºŃ
å¤ĸ éĥ¨
ä¾Ľ çĶµ
çĲ ¦
ä¹Ĳ åĿĽ
è¶³ æĢ»
çļĦ åĨĽäºĭ
çļĦ åĮºåŁŁ
ä¸ī éĥ¨
éĽĨåĽ¢ æľīéĻĲåħ¬åı¸
åıĤèµĽ èĢħ
ä¸İ ä»ĸ
èĪª æµ·
åī© ä¸ĭ
ä½į å±ħ
åİĨ ç»ı
ä¿Ħ äº¥
ç£ģ åľº
éĥ½ è¦ģ
çİ© åħ·
åµ ©
æĶ¹ çĶ±
çĢĳ å¸ĥ
ç« Ń
æĮ ½
éĤ£ æĹ¶
ä¿Ħäº¥ ä¿Ħ
çľĭ èµ·æĿ¥
ä¸ĸ åĩ¯
å¹¶ åĲĳ
çĳŀ åħĭ
t o
åĮ» èį¯
è°ĥæŁ¥ å±Ģ
æĭįæĳĦ çļĦ
å¹´ æĭħä»»
åī¯ æĢ»ç»Ł
æ¨ª æ»¨
æļ´ åĬ¨
å®¶ åºĦ
ä¹Ķæ²» äºļ
ä¹ĭ çĪ¶
éĺ¿ åħĭ
è¡Ģ ç»Ł
i i
èģ Ĭ
m e
æĪĺå½¹ ä¸Ń
å®ī è¾¾
ç»ĵ å±Ģ
åı£ åı·
/ /
åıĬ åĪ©äºļ
æŃ¦ åĬĽ
çŃĶ åºĶ
çī ¡
è¿Ľ å±ķ
è¿Ľåħ¥ äºĨ
æĥħ æĦŁ
éŃ ħ
ï¼ģ âĢĿ
çģ° èī²
av a
al d
åİ¿ åĲį
èĭı åĨĽ
åı¸ éĵİ
äº¤ å¾Ģ
è¿½æº¯ åĪ°
å¤Ħ æŃ»
å±Ģ åĬ¿
åħ±æľī äººåı£
T A
åįĹ åĮº
E n
åĥ µ
å°ıè¡ĮæĺŁ å¸¦å°ıè¡ĮæĺŁ
è´Ń åħ¥
å¤ļ å°ĳ
åı² æĸĻ
æ¶¡ è½®
åħŃ åįģ
è¯º å°Ķ
éŁ³ä¹Ĳ ä¼ļ
æľĢåĲİ ä¸Ģä¸ª
éĥĳ å·ŀ
åį¢ çĵ¦å°Ķ
ä¹ĭä¸Ģ çļĦ
æ·· åĩĿ
4 000
äºº æ°Ķ
ä¸ºä¸» å°ıè¡ĮæĺŁå¸¦å°ıè¡ĮæĺŁ
å§Ĳ å§Ĳ
æĶ¶ å¤į
ä¸Ńåįİäººæ°ĳåħ±åĴĮåĽ½ æĪĲç«ĭåĲİ
éĽĨä¸Ń åľ¨
çĲĨå·¥ åŃ¦éĻ¢
åĴĮ åįİ
æīį ä¼ļ
è¿Ĳ éĢģ
éķ¿ èĢģ
åı¯ çĶ¨
èµ ļ
è½ ¿
çł į
çĽ® å½ķ
åıĳå±ķ åĩº
è¿ĺ ä¼ļ
åķ ¸
åĨ³ å¿ĥ
åĩºèº« äºİ
ï¼Īï¼Ľ ï¼īï¼Į
Ġ y
ç§Ģ åĲī
æĹĭ å¾ĭ
om e
3 60
ç«Ļ åľ¨
è¾ĥ é«ĺçļĦ
æģĭ çĪ±
æĢ» ä¹¦è®°
å ¬
è¢ ľ
ä¸į èī¯
åıĤ æ¼Ķ
æŃ¦ å£«
æ°Ķè±¡ åİħ
äºĨ ä¸¤
æĦ ļ
æķ° åįĥ
é©» æīİ
æŀ¢ æľº
åĳĬ çŁ¥
æ·± åıĹ
æĢİ ä¹Ī
åĲ« éĩı
æĹ¥ åħ¬å¸ĥ
ä¸ī çĻ¾
æī§ æ³ķ
å¹¶ å¼Ģå§ĭ
åķ ¦
ä»Ĭ å±ŀ
èĮ ľ
ä¿ĿæĬ¤ åĮº
çĪ ½
äºĳ æŀĹ
èĢĮ æľī
å£« åĿ¦
ç²¾ éĢī
è¯¢ éĹ®
äºĭ å®ľ
äº« åıĹ
å·´æĭ¿ é©¬
çļĦ éĿŀ
æľīä¸Ģ ç§į
åħ¨ æķ°
ä½Ľç½ĹéĩĮè¾¾ å·ŀ
ä¸İ ç¾İåĽ½
å¼Ģ åĪĽ
å»ºçŃĳ éĿ¢ç§¯
å¯¹ æ¯Ķ
éª ¸
åĽ´ æĶ»
ç½¢ å·¥
åľ°åĮº ä»£è¡¨
è¢ģ ä¸ĸåĩ¯
åĮĪ å¥´
åı° çļĦ
æĪ¿ åŃĲ
åħĥ ä»¶
èĬ ľ
è¶ ¾
ä¹Ł å°Ĩ
å®Į é¢ľ
çī¹ éĽ·
åĪ© å°¼
æ¬§ éĺ³
æĺ¾ å¾Ĺ
çĽĳ è§Ĩ
éĽħ åĲĦ
äººç±» çļĦ
æįŁ å®³
éĥ½ èĥ½
å½ĵ åīį
å½¢ åĬ¿
çļĦäºĭ æĥħ
ä¸»è¦ģ çĶ±
çº§è¡ĮæĶ¿ åĮº
æ²³ åĨħ
ç«¥ åĨĽ
ä¸º ä½ķ
é¢Ħ è¨Ģ
åĪĨåĪ« åľ¨
èĴĭ ä¸ŃæŃ£
æ¸ħ æľ«
æ··åĩĿ åľŁ
æ³ķ åŃ¦éĻ¢
11 5
è½¬ åŀĭ
ĠE x
çļĦ åħ¶ä»ĸ
åĴĮ ç¤¾ä¼ļ
çĪ¶äº² æĺ¯
åĴĮ ä¸ŃåĽ½
å¤© åľ°
å°ĳ éĩı
ç¢ Ĺ
éĵģè·¯ çļĦ
å¹² äºĭ
å±Ģ éĿ¢
äº¦ ä¼ļ
ï¼ģ ãĢį
é¾ ļ
an a
éĩĳ é¢Ŀ
ãĤ ¹
å¹´ä»£ ä¸ŃæľŁ
ä¸Ĭ å±Ĥ
ä¹ Ĵ
æ¿Ģ è¿Ľ
éģµ å®Ī
ä¸įä¹ħ åĲİ
ç¦ ½
ç»Ħ éķ¿
æī¬ å·ŀ
å¹¶ å¯¹
å·¥ä½ľ èĢħ
æĸĩ ä¸Ń
æİ¥ ä¸ĭæĿ¥
è£ ¤
æįĲ èµł
è½¬ æĴŃ
åįĬ çĲĥ
åĴ ¬
èĢĮ æŃ»
éĩį æĴŃ
ä¿Ŀ èĤ²
åĩº ç§Ł
éĢģ å¾Ģ
ä½ĵ åĨħ
è·¯ ä¸Ĭ
è®® éķ¿
æĻ °
æĺ¯ å°Ĩ
åĲİ åĭ¤
è½¬ èĢĮ
äºº è¢«
æķ ·
äºļ æĸ¯
æĻ®éĢļ è¯Ŀ
èĢĮ å·²
ä¸Ń éĢĶ
åĪĻ äºİ
ä¹ĭ åĪĿ
ç½® äºİ
è´Ł æĭħ
çĦ¦ çĤ¹
è¿Ļ ä½¿å¾Ĺ
åįļ å°Ķ
å°ļ æľī
E L
éĥĬ åĮº
éĥ¨ åī¯éĥ¨éķ¿
æĬ¤ åį«
å¤§ å°Ĩ
é«ĺ æ¸ħ
ç¥ŀ åŃ¦
æĶ¶è§Ĩ çİĩ
æľĢ æĸ°
ä¸ĵ æ¡Ī
ç»Ļ åĩº
è¯º æĽ¼
åįĩ éĻį
D e
E X
åĩº å¢ĥ
è¾¾ åĪ°äºĨ
ç¬¬äºĮ çĻ¾
ou nd
åĨ³èµĽ ä»¥
M et
n a
ä¸Ģ è¾¹
u al
åħĭ é²ģ
çļĦ ç»ĵæŀĦ
ç«Ļ æĺ¯
åĩºçİ° äºİ
ä»İ å°ı
åĩ» ä¸Ń
ä½įäºİè¯¥åĽ½ ä¸ľåĮĹéĥ¨
çĻ» åł¡
åħ¬ æĬķ
æĪĺ æĹ¶
è¯´ çļĦ
åĬł æ³°
å£ ¶
èĬĤ çĤ¹
re d
ä¸º éĤ»
è¡Į æĿİ
åŀ «
æīĢ éķ¿
è¿Ľ é©»
æĵ Ĵ
ĠL e
å¼ ¼
æ· «
èī² æĥħ
é£İ åĬĽ
ç¥ŀ çļĦ
æĵį çºµ
è¡ Ļ
åı¸ å¾Ĵ
æī§ æķĻ
éĵĥ æľ¨
å¼Ģ è¾Ł
çľŁ çĽ¸
ç¼ĸåı· ä¸º
åĴĮ è¥¿
ç¦ı åĨĪ
ä¸į çŃī
äºĮåįģ å¹´
å½¢å¼ı çļĦ
èĪ ħ
åºĶ çĶ¨äºİ
è¿Ħ ä»Ĭ
æĺ¯ è¢«
åįĹ ç«¯
åı¯ä»¥ ä½¿çĶ¨
éĤĵ å°ıå¹³
ä¸ĩ å¹³æĸ¹ç±³
å¤į ä»ĩ
t s
ä¸» æľº
çł Į
ä¼ł æī¿
åł ķ
å¤§ éĹ¨
åŃ¦ åĳĺ
åĲĽ å£«åĿ¦
å±ķ åĩº
å¥ĸ çļĦ
ç» İ
ä¸º è¯¥
å±ŀ çļĦä¸Ģç§į
ak e
å±± è°·
çĭ Ļ
æ¸© åĴĮ
èĶ ļ
æª Ģ
åĽ½ åħ¬
åİ» äºĨ
eb ook
l o
ç»Ŀ å¤§å¤ļæķ°
è± ļ
æ¯ķä¸ļ çĶŁ
çļĦ ä¸ľ
çļĦä¸Ģ æīĢ
ĠM us
æĲŃ ä¹ĺ
å¥½ èİ±åĿŀ
çĶŁ æĦı
çºµ éĺŁ
è¯Ńè¨Ģ çļĦ
æŃ¤ å¤Ħ
æĽ¾ ä¸İ
ï¼Į ï¼Į
æ°ı çļĦ
ç³» æķ°
é©» åľ°
åĲİ è£Ķ
oc i
äº¬ å¸Ī
Ġw ith
åĲİ ä¸įä¹ħ
å¹¶ ç§°
æĹ¥ åĨħ
ic s
èĢģ äºº
è®¡åĪĴ çļĦ
Ġ âĢľ
çĶŁ èĤ²
æ¸¯ æ¾³
èĶ ĵ
èĸ ¯
åħ¬ æ¼Ķ
éĶ ¤
æĸ¯ åĴĮ
åŃ£åĲİ èµĽ
èĪ¹ åĳĺ
å¼ Ĭ
è´ ¦
æĹģ è¾¹
G ame
è¿ŀ ä¸²
çŁŃ çīĩ
æģ¶ éŃĶ
çī¹æ®Ĭ çļĦ
åħ¨ å¹´
åĩºçīĪ äºĨ
äºļ é©¬
çĻ½ ä¿Ħç½Ĺæĸ¯
èĢģ æĿ¿
æ¯ĶèµĽ çļĦ
èµ¤ éģĵ
äº ı
åı· çłģ
è§£ æŀĲ
çī¹ ç§į
ĠM e
åĪĨ åī²
æ¸© åĵ¥
ç½Ĺ éĹ¨
éĥ¨ ä¸ĭ
æĸ¹ éĴĪ
å¾· åħ°
æĶ¯ çĲĥéĺŁ
å°Ħ æīĭ
å®Ŀ çŁ³
ä¸Ń åĴĮ
æ°ĳä¸» ä¸»ä¹ī
åĨ° å²Ľ
ç»Ń éĽĨ
å¼ķ å¯¼
åľ¨ ä¸ľ
æĹ¥ åıĳåĶ®
æłª å¼ı
æķħ æĦı
éĺ² æĬ¤
æ¾ ľ
æĺł å°Ħ
æī© åħħ
è¥¿èĹı èĩªæ²»åĮº
æ¬£ èµı
åĨ³ äºİ
èģĮ å·¥
in i
åıĳè¡¨ çļĦ
åĮ ¡
çķħ éĶĢ
çļĦ åĨĽéĺŁ
çĶŁ æĹ¥
æļ´ éľ²
éĺµ çº¿
å±± éķĩ
åĨħèĴĻåı¤ èĩªæ²»åĮº
æĺ¯ ä»ĸ
æ¨ª è·¨
èĨ Ģ
æ¸©åĵ¥ åįİ
å¾· åĪ©
10 7
éĴĵ é±¼
é¹ ¦
é¦Ļæ¸¯æĹ¶éĹ´ éĢ¢æĺŁæľŁ
ä¹ĭ çĶ¨
çĶ± ç¾İåĽ½
åı¯ ä¾Ľ
æĸ¯ åľ¨
ç¡ ħ
åĺ İ
å¤§ åİħ
å« Ķ
åħ¥ åŃ¦
åĳĬ ç¤º
æłªå¼ı ä¼ļç¤¾
èĪ ĸ
å» ĵ
ä¸Ģ çŃī
æľī æĦı
åľ° çĭ±
åĭĩ å£«
D R
Ġ é¥°
åľ¨ ä¸ĢäºĽ
éĺ¿ èĤ¯
2 20
å¤§åŃ¦ æķĻæİĪ
çĲĨäºĭ éķ¿
èİ ŀ
åĢ Ń
è¶³çĲĥ ä¼ļ
æĸ¹åĲĳ çļĦ
ç½ Ĳ
ä½ľåĵģ çļĦ
çļ ĸ
æĦ ī
æµģ æĶ¾
ä¼ĳ éĹ²
Ã Ń
æĪĺ åĮº
æł¼ ç½Ĺ
æ´¾ äºº
åı³ ç¿¼
å·¨ äºº
æ¸ ¤
åħŃ ä¸ĸ
æķ´ æķ°
èįī ç§ĳ
åºŁ æŃ¢
åľ¨ å½ĵåľ°
æĹł æķĪ
ç«ĭ ä½ĵ
ĠC ount
èľ ¡
O V
å·´ çī¹
æ¯ ĵ
æłĸæģ¯åľ¨åºķ å±Ĥæ°´åŁŁ
çĤ Ĵ
åĪĬ çī©
éĺ¶ å±Ĥ
ä¸ĥ ä¸ª
çļĦ M
æ³½ è¥¿
ä¸ĭ æĹ¬
åı¯ æĥľ
æľŁ å¾ĴåĪĳ
å¤º åĨł
é© ¹
åĲį å½ķ
åħĭç½Ĺ åľ°äºļ
ç¿¡ç¿ł åı°
å¤« å¦»
é³ ĥ
T P
ä¸Ģ å¯¹
èµ İ
è¶³ èģĶ
æĿ¥ äºĨ
åĪĻ è®¤ä¸º
illi am
åĢĻ è¡¥
ä¸» æĴŃ
å·´ å«©
a ul
é£ ĺ
ir l
ĠY ou
çļĦ æŃ£
æ¹¾ ä»Ķ
èĲ½ åĲİ
äººåı£å¯Ĩåº¦ ä¸º
æĸ¯ æĭī
ä¸»è¦ģ æľī
å½± ä¸ļ
è´µå·ŀ çľģ
çļĦ æ¯Ķ
æĻ ĸ
S N
æĢ» åĢ¼
çļĦ è¡ĮåĬ¨
è¡Ĺéģĵ åĬŀäºĭå¤Ħ
æ²¼ æ³½
l or
å¹´ ä¸Ĭæĺł
ä½İ åľ°
ãģ ĭ
çļĦ å¦»åŃĲ
ä¸Ń ç«ĭ
ä½Ĩ åĲİæĿ¥
æĪĺäºī æľŁéĹ´
âĢ ¢
è¢« åĪĹä¸º
æĺ¯ä¸Ģ æīĢ
æ©¡ èĥ¶
è¯Ń åĴĮ
ç§į ç§į
å¼¹ åĬ¾
ä¼Ĭ ä¸ĩ
éĴ ŀ
ä»£è¡¨ éĺŁ
é©» å®Ī
Ġp ro
é«ĺçŃī æķĻèĤ²
è¿ľ ç¦»
è®¾ç«ĭ çļĦ
åĩº èµĦ
æİĴ çĲĥ
çŀ ¬
å½» æĸ¯çī¹
èĢĮ æĪĲçļĦ
ç²¾ èĭ±
éĩĮ å¥ĩ
ar i
é»İ å·´å«©
æĶ¶å½ķ äºĨ
a ur
å¾® åĪĨ
ä»į æĺ¯
æĸĩåĮĸ éģĹäº§
åĽ½ åľŁ
åĲĮ è¿Ľå£«åĩºèº«
æĽ´ é«ĺ
å®Į ç¾İ
a il
è¯´ è¯Ŀ
æ±Ł åİ¿
ac ebook
éĴ» çŁ³
åºĶ å¯¹
å¥ī åĳ½
ä¸»è¦ģ åĪĨå¸ĥäºİ
åľ¨ æľ¬
18 90
æľįåĬ¡ çļĦ
äº¤ çĶ±
åı² ç§°
ä¸į ä¸Ģ
åİ¿ å¸Ĥ
åī ĸ
äºĮ å±Ĥ
åıĳå¸ĥ çļĦ
Ñ ģ
çĭĻ åĩ»
åº¦ åģĩ
è¿ľ çļĦ
æĿ¿ åĿĹ
åĨĽ éķ¿
åħ« åįģ
èĶ ¬
èĤ¯ å¡ĶåŁº
å®¢ ä¸²
H z
æ´Ľ çī¹
äºĶ å¤§
åĲĦ æľī
ç¬¬äºĮ åŃ£
åľ¨ ä¸Ĭ
ç»ĺ åĪ¶
æ´» ä½Ľ
ĠB e
åĪĨ æķ°
å¤« æĸ¯åŁº
èģĺ è¯·
åĲİ æīį
åħĭ æĭīåħĭ
ä»¥ä¸ĭ ä¸º
æµģè¡Į éŁ³ä¹Ĳ
åı£ å²¸
éľ ī
çĽ´ æµģ
æ¡Ī ä¾ĭ
r in
ä¸ºçĥŃå¸¦ æ·¡æ°´é±¼
å®¶ å±ŀ
åľ¨ åĽ½éĻħ
åĵ ©
åĽŀ æĶ¶
æ±ī æľĿ
æ· Ĩ
æĹ¥ æĻļ
åĮĹ ä¸Ĭ
æĿĢ æīĭ
ĠA n
æºª æµģ
éĩ ľ
å¤ļ å¹´çļĦ
çļĦ çİ¯å¢ĥ
Ġ ä¸º
ä¸İ æĹ¥æľ¬
å¾Ī æľī
T O
èľ ĺ
å¤§éĥ¨åĪĨ çļĦ
èįī åľ°
çļĦåŁºç¡Ģ ä¸Ĭ
ä¹ĭåĲİ åľ¨
æĹ© å·²
ä¸Ģ çīĩ
æĢ» åĨ³èµĽ
èĳĹ çļĦ
D A
æ¨ Ĭ
çĶŁ åīį
è¿Ĳ è½½
æĦıè¯Ĩ åĪ°
ä¿®æŃ£ æ¡Ī
çī¹ é²ģ
åĪ© å¥¥
æĻ® éĩĮ
ç§Ł åĢŁ
B BC
é¦ĸ æĺł
çĪ± æ²Ļ
æĶ¿æ²» å§Ķåĳĺ
æĳĦ æĶ¿
æĲŃ æ¡£
æĮĸ æİĺ
1 200
ä¸į çĶ¨
åĪĽ ä¸ļ
è´¹ åŁİ
å¼ĺ æ²»
åıĬ æĹ¶
æµ· æ»©
èµ· åħµ
ĊĊĊĊĊĊĊĊ Ċ
åŁºç¡Ģ ä¸Ĭ
æ¯ Ļ
åİ¿ è´Łè´£ç®¡è¾ĸ
ç»Ħ çļĦ
et h
å¹³æĸ¹ èĭ±éĩĮ
ä»£è¡¨ ä½ľ
åįĹåĮĹ æľĿ
æľĿ éĺ³
Ġ la
æ½ľ åľ¨
çĪ±æ²Ļ å°¼äºļ
C S
è¯º ä¼Ĭ
æĶ¶ åĽŀ
å·© åĽº
ä¹Ŀ å·´
çĹĽ èĭ¦
æĵįä½ľ ç³»ç»Ł
è¤ Ĵ
l er
å°ı éķĩ
å»¶ è¿Ł
æ¹¿ åľ°
éĢŁ çİĩ
äº¦ åľ¨
ro id
èĪ° èīĩ
ç¡« éħ¸
a j
è¥¿ å²¸
è½¬ åħ¥
è¾¹ ä¸º
èľĺ èĽĽ
é«ĺ åİĭ
çĥ ¹
å¦Ī å¦Ī
ä¸į æķ¢
åıĸ åĨ³äºİ
æ·· æ·Ĩ
åįĹ åįİ
æ£® åł¡
é© ¼
çĶ¨ åľ°
åĲĦ çķĮ
æīĢ å±ŀçļĦ
éĩį åĬĽ
189 6
å²Ń åįĹ
åİļ çļĦ
éĩĳ éĴ±
189 7
æĶ» éĻ·
ĠR e
åĲī ç¥¥
åİħ éķ¿
åĲĪ èĤ¥
ä¸¾è¡Į äºĨ
åįĹéĥ¨ çļĦ
åİ ķ
ed ia
ä»¥ èĩ´
ä¸ī æĺŁ
åħĪ é©±
æĳ© æīĺ
åĬ¨çī© çļĦ
ä»¥åıĬ åľ¨
æĺ¯ä¸Ģ æĿ¡
æĹ¶ ä¸º
æĪĺ çļĦ
äºº åĬĽ
æĮī å¯Ł
T S
æĹ¥æľ¬ æ°Ķè±¡åİħ
è§£ ä½ĵ
now iki
B r
Ġ 16
çļĦ å®ĺæĸ¹
æī ³
ç®¡ éģĵ
ä¸Ĭ æĺ¯
éĴ ¾
çºªå¿µ é¦Ĩ
ä¸ī åįĥ
åįİ åįĹ
it t
åħ³ç³» çļĦ
å±ŀ æĢ§
çİĽä¸½ äºļ
çļĦ æ¯ĶèµĽä¸Ń
éĤ ¯
è¯¥ ä¹¦
åĢ¾ æĸľ
ä¸Ģ å±Ĥ
ä½ľåĵģ ä¸Ń
èī¾ å°Ķ
æ²Ļ çī¹
æĲ¬ åĪ°
ivers ity
ãĢį ï¼Īï¼ī
10 9
å²Ľ å¼ıæľĪåı°
é¢Ĩ è¡Ķ
æļĹ ç¤º
åħļ å§Ķ
çļĦå¤§ å°ı
å¹´ åı·
å¤ĸ çº¿
æĬ¥ å¤į
é¡¹çĽ® çļĦ
B L
åħ¬ çĽĬ
11 1
Ġ 15
éĺ² çº¿
çĶŁæ´» çļĦ
ä¼ļ å°Ĩ
å°¼ æĹ¥
æ¸ Ń
ä¸ŃåĽ½ åĽ½å®¶
æĹ¥ åĴĮ
æł· æľ¬
ä¹ĭ äºĭ
å¼ł åŃ¦
ç¬¬ä¸Ģ ä»£
èģļ ä¼ļ
çļĦ æ²³æµģ
é©¬ åĪ©
ä»¥åıĬ åħ¶ä»ĸ
ros oft
æĺŁ çĲĥ
ä¾ĭ å¤ĸ
ä¸Ń é¥°æ¼Ķ
åĨħ å¤ĸ
ä½Ĩ è¿Ļ
æ³ķåĽ½ çļĦ
éĥ Ŀ
åģľ çķĻ
é ®
å¹² é¢Ħ
éĹ´ è°į
æŀĹ èĤ¯
ä¿ ¯
ç¼ĸ ç¨ĭ
çĶ Ħ
åı° å¤§
å¾Ĺ åĩº
é¥ ¿
ç¦»å¼Ģ äºĨ
äºº å¯¹
åĬ© äºİ
ç¼º éĻ·
åĨħ éĻĨ
ä¸Ģ å¥Ĺ
æīĢ ä½¿çĶ¨çļĦ
s c
åŃ¦ éĩĳ
ä¸İ åīį
åı¤ å±ĭ
è¿½ è¸ª
åĴĮ å°ı
å®Ĺ å®¤
éľ ľ
C E
èĥ ļ
çļĦ åĲį
it ed
èķ ī
ĠSch ool
é¢Ĩäºĭ é¦Ĩ
â ĸ
åĩł ç§į
å®ĭ ä»£
å¹´ å·¦åı³
ä¸ľ å²¸
ä»¬ çļĦ
ç į
æĳ Ĭ
å¯¹ ç«ĭ
åĳ½ ä¸Ń
T w
çļĦ èĩª
t he
è¶³çĲĥ è¶ħçº§èģĶèµĽ
é¢Ĺ æģĴæĺŁ
çĽ¸è¾ĥ äºİ
åĪ¶éĢł çļĦ
åĮ Ģ
ãĢĭ ï¼ī
åĴĮ ä¸Ń
è¡Į ä½¿
æķħ å±ħ
åŀĦ æĸŃ
çļĦ å¤©
ä¸ŀ çĽ¸
å£ ¹
é©¬ å°¼
éĴ ®
èº« è¾¹
æľĢ å°ĳ
éĩį ä¼¤
ud e
çĮ ©
çļĨ æľī
çĻ ¸
åįķ çº¯
èĲ¨ æĳ©
æĹ¥ èĢ³
è¿Ļ å¼łä¸ĵè¾ĳ
æ²» å®ī
å¤« å·ŀ
åĩº èµĽ
æīĢ çŁ¥
å·´å£« è·¯çº¿
çļĦ çĲĨè®º
çļĦ èµĦæĸĻ
è¿Ľ åĮĸ
è¯¥ åĮº
æ¯ı æľĪ
ĠF or
å®īä¸ľ å°¼
èĥ ¤
er e
æķ° æ¬¡
æĿ°åħĭ éĢĬ
èĢĮ éĹ»åĲį
ç¥ ĩ
å®ī å®ļ
èİ± çī¹
çĽĳ ç®¡
çĲĨæŁ¥ å¾·
åīį å¤ķ
éĻĪ æ°´
åĮĹ éŁ©
å¸¸ çĶ¨çļĦ
è¿ĺ æ²¡æľī
ä¸į çŁ¥éģĵ
il la
å¼ı ä¸º
æĸ¯éĩĮ åħ°åį¡
B R
æŃĮ èĪŀ
æĮĩæĮ¥ éĥ¨
æª Ĳ
ä¸ŃåĽ½ æĶ¿åºľ
æŃ» èĢħ
çļĦ ä¸¤ä¸ª
æľĪ è¢«
æİ¨ çĲĨ
åĬ© æĶ»
æĵ ¢
å®¾ å¤ķ
éļĶ å¹´
èĲ½ å®ŀ
å®Ī å¤ĩ
å£ģ çĶ»
æĥ¯ ä¾ĭ
äºļ ç§į
ç¥ ģ
æĽ´ åĲį
åŁĥ å¡ŀ
çļĦä¸Ģ å®¶
o o
çļĦ çİ°è±¡
çĿ ¿
å¥ĩ å¹»
å·¨ æĺŁ
æ±Ĺ åĽ½
éĺ¿èĤ¯ èī²
éķ¿ æĹ¶éĹ´
åı¯ æ±Ĺ
è¿Ľ ä¿®
ĠC l
çļĦ ä¸ĭ
åľ¨ å¯¹
å¸¦ åĪ°
çĪµ ä½į
åĽĽ åĲį
å¸Į ä¼¯
è´Ŀ æĭī
l es
çļĦ ä¹¡
é£İ äºĳ
ä¿Ħ è¯Ń
äºº äºĭ
ä½ľ å®¢
æĿĢ äºĨ
ç´§ å¯Ĩ
å¹´ ç»Łè®¡
å±± ä¸Ĭ
åį´ æĺ¯
å² ±
en c
çļĦ æĹł
è´Ł éĿ¢
ç§» äº¤
åīį æĸ¹
æĶ¿åºľ åĨĽ
Ñ Ĥ
çļĦ äº²
äºº åĿĩ
em ent
çģĮ æľ¨
åľ¨ å¾·åĽ½
ä¸Ń å±Ĥæ°´åŁŁ
æŃ£ å¾·
ä½įäºİ åı°æ¹¾
ç½ ¹
é¾Ļ ç±»
èĬĤçĽ® ä¸Ń
Ġb e
ãĢĬ ãĢĭï¼Į
åĲĦ çº§
çļĦä¸Ģ éĥ¨
åĲ¦ åĨ³
é¡¶ éĥ¨
çĤ® åħµ
è¥¿ ä¼¯åĪ©äºļ
å°Ĩ è¿ĳ
ä¸ľ ç«Ļ
é«ĺçŃī åŃ¦æł¡
You T
ä¸ī å±Ĥ
é©¬ ä¸Ĭ
ç«ĭ ä¸º
ĠM an
ç¢° æĴŀ
å°Ĩ æĿ¥
å¤© æŃ£
é»Ħ åŁĶ
æĬ ¬
éĥ¨åĪĨ çļĦ
åĽº ä½ĵ
æ°¨ éħ¸
å®Į ç»ĵ
å¾Ĳ å·ŀ
åŃ ¢
å¼ºçĥĪ çļĦ
çļĦ æķ°éĩı
çĶµ èį·
èµĽäºĭ ä¸Ń
èħĲ è´¥
å«ģ ç»Ļ
ä¸ĸ å®Ĺ
ä¸¹ å°¼å°Ķ
æĿ ĸ
æĸ° æķĻ
åį ¦
åı¤ å»ºçŃĳ
å®ĺ åħµ
E F
åĽ½ å°ı
èĢħ åĴĮ
éĥ¨ ä»¶
éĹ¨ å¤ĸ
èĪ° åıª
åĨ² éĶĭ
ç¿Į æĹ¥
åıª æľīä¸Ģ
äºĨä¸Ģ ç§į
å°± èģĮ
æĪ· éĥ¨
ãģ Ł
å¤ª æŀģ
çº³ è¥¿
ic t
åºĶçĶ¨ ç¨ĭåºı
åĽĽ åĳ¨
äº¦ è¢«
èĩªçĶ± åħļ
éĺ® ç¦ı
æ¢ §
èĲ½ è´¥
æħ¢ æħ¢
æĺ¯ çĶ¨
ä¼ļ è°Ī
ä½į åĪĹ
ä»£ è°¢
æĪı éĻ¢
å¤ļ å®¶
ä¹Ł åı¯èĥ½
åĲĮæł· çļĦ
è§ģ è¯ģ
æ°¨ åŁº
åºŁ å¼ĥ
ĠI I
æľĢç»Ī å¹»æĥ³
b ox
æ² ģ
äºļåĪ©æ¡ĳ éĤ£å·ŀ
éĴ ī
åħ« ä¸ª
ç«Ļ åİħ
ç¥ŀ åºĻ
å·¡ éĢ»
æľīæķĪ çļĦ
åľ£ ä¿Ŀç½Ĺ
æĻĭ åįĩä¸º
ä¼ļ åĲĪ
çº¢ æĹĹ
æ±ŁæĪ· æĹ¶ä»£
å®¶ åº·
éĺ¿å°Ķ åįĳ
æĸĩèīº å¤įåħ´
åĴĮ éĺ¿
åı¥ ä¸½
å¹´ åıĬ
ĠS c
åįĥ çĵ¦
åĮĹéĥ¨ çļĦ
åģ¶ å°Ķ
æŃ£ å½ĵ
çıŃ æľº
å´ Ľ
ä½įäºİè¯¥åĽ½ ä¸Ń
çļĦæĦı è§ģ
åįĹ è¶Ĭ
æŃ¦ çĶ°
189 9
åĨĽ çĶ¨
çļĦ è¿ĩç¨ĭä¸Ń
åĪĨ æŃ§
ä¼ģä¸ļ å®¶
åīį ä»»
èŃ¦ åĬ¡
åıĺæĪĲ äºĨ
Ġ 17
èĤ¯ å°¼
æľĪ åĪ°
æĶ» åħĭ
ç½Ĺæĸ¯ ç¦ı
et er
å¹¶ æĭħä»»
æĺ¾ çĦ¶
æĹ¥ ä¸İ
éª Ĩ
ä½ĵ åŃĹ
ä¸ĵ æłı
å®³ æĢķ
av e
éļĭ æľĿ
E d
åĪĿ çº§
çĪ¶ åŃĲ
éĤ®æĶ¿ ç¼ĸçłģ
4 50
Ġ 20
æ³ ¼
å¹³ åİ¿
ç½Ĺ å®¾
æīĺ åĭĴ
åĪ ¹
åħ¨ æĸ°
é¦ĸ å±Ĭ
éĺ¿æĭīå·´é©¬ å·ŀ
äºĮåįģ ä¸ĸçºª
è§ģ éĿ¢
ä»ĺ è´¹
å¾· å·ŀ
æĽ´ å¤§
le t
c m
ä¸Ģ äºĭ
12 8
çĶ² æĿ¿
æ² «
è¥¿ æ¯Ķ
å°ı å·´
åĩı è½»
éĿĴæµ· çľģ
åĵ ¨
åıĳçİ° äºİ
éĺµ åľ°
é£İæł¼ çļĦ
Ð¾ Ð
åĩ ĳ
æĹ¥ é£Ł
çļĦ åĲįä¹ī
ä¸Ģ åĳ¨
âĢ ĭ
Ä ģ
æĥ³ åĪ°
éĩĳ æĺŁ
åįİ çº³
çļĦ çĬ¶æĢģ
I L
å·¥ èµĦ
ä»¥ä¸ĭ æĺ¯
å¹´ ä»ħ
æ±ī äºº
çº½çº¦ å·ŀ
f t
åħ ĳ
åħ¬åı¸ åľ¨
çļĦä¸Ģ éĥ¨ä»½
åĽ½åħ± åĨħæĪĺ
å¸ĥ ä¼¦
èĦ Ĩ
è¿ģ å¾Ļ
æī© æķ£
æĶ¾ æĺł
åħ¬åĬ¡ åĳĺ
çļĦ åıĺåĮĸ
åħ¥ çĭ±
å¸¦ çĿĢ
éĥ¨ ä½į
åĲ¯ åıĳ
åı¸ éķ¿
ç¬¬ä¸Ģ ä»»
ï¼Ł ãĢį
ãĥ³ ãĤ
è¿ Ń
åĩ ¿
å¡Ķ æĭī
éĻĪæ°´ æīģ
å®¾å¤ķ æ³ķ
æĶ¹ è®¾
è¿ĺ åı¯ä»¥
è¿½ éļı
äºļæ´² çĶµè§Ĩ
å®¶ éķ¿
èĭ± å±ŀ
åıį å¤į
é¢ĨåŁŁ çļĦ
æĬķåħ¥ æľįåĬ¡
å»¶ä¼¸ èĩ³
åĪ« å¢ħ
æ¸ħ æĻ°
it ion
ä½Ĩ æľĢç»Ī
å·´ æ¯Ķ
åĽ½ ä¼ļè®®åĳĺ
éķĩ å®Ī
éĺ¿ æĸ¯
å§ĵ åĲį
åľ¨ é«ĺ
r en
æ¸¯ å²Ľ
å¹¶ æĬĬ
çĽ´ çº¿
æľª ç»ı
åĵĪ é¡¿
åįĥ åı¶
æ² Ĥ
æľ¨ æĿĲ
çļ® å°Ķ
M C
æķ ²
èİ ½
å¨ Ħ
æķ°æį® åºĵ
åĴĮ è°Ĳ
æľį é¥°
ç¤¼ ä»ª
ĠCom p
æĺŁ äºĳ
åı¥ è¯Ŀ
è¿Ļ å°±æĺ¯
æģ¶ åĬ£
å¤©çĦ¶ æ°Ķ
å¨ģ æĸ¯
è´« åĽ°
ç¯®çĲĥ è¿ĲåĬ¨åĳĺ
tern ational
ä¸ľ éĿ¢
ä¹Ł ç§°ä¸º
æĶ¹ æĪĲ
éŁ³ä¹Ĳ å®¶
éĩĮ æĺĤ
éĢļå¸¸ ä¼ļ
é«ĺçº§ ä¸ŃåŃ¦
çĲ¼ æĸ¯
æ³° åĽł
è½¬ç§» åĪ°
ç¬¬ä¸Ģ åŃ£
èĹ¤ åİŁ
11 3
13 5
çĶ± èĭ±åĽ½
çļĦä¸Ģ åĳĺ
at a
ro up
æłĩåĩĨ çļĦ
åŁ¹ èĤ²
å®ĩ æĸĩ
æł¼ èİ±
ä¼¦ åł¡
æīį æĺ¯
æĬĢæľ¯ çļĦ
æĽĿ åħī
y pe
æĺ¯ åĮĪçīĻåĪ©
è¢« èªīä¸º
éĤ ¢
ot t
åİĦ å°Ķ
èµĦæľ¬ ä¸»ä¹ī
èħĵ çī¹
è¯¥ éĻ¨åĿĳ
åı· åľ¨
åį´ è¢«
èİī äºļ
åł¡ åŀĴ
æķ£ æĸĩ
ãĢĤ "
ĠP h
éĩĬ åĩº
åŃ¦ æ´¾
æ°ĳ åħµ
çŁ £
åĨĻ äºĨ
ç¬¬äºĮ è½®
æ¦ ķ
å·² æĪĲä¸º
ä¸įè¿ĩ åľ¨
å´© æºĥ
ä¸Ģ æŀ¶
ä¸º ä»Ģä¹Ī
å¤§ åĲį
ä¿¡ çĶ¨
åĪ© æ¯Ķäºļ
çĽĳ ç¦ģ
æĪĺæĸĹ ä¸Ń
æĺ¯åįĹæŀģæ´² çļĦå±±å³°
U TC
å°± æŃ¤
æİ¥ çĿĢ
æ¸ħ æĻ¨
äºº ç¾¤
çĸ ²
æŀľ å®ŀ
æĹ¥ ä»¥
åĬ¨ çļĦ
æ²ī ç§¯
æĭī å§Ĩ
æĢ» ç®¡
éĺ¿å°Ķåįĳ æĸ¯
åŃ¦ åİĨ
æĬ½ è±¡
çļĦ æĿĥåĪ©
åĩº åİ»
åŀĭ æŁ´æ²¹æľºè½¦
çľŁ çĲĨ
éĺ¿å°Ķ åıĬåĪ©äºļ
çĸ¯ çĭĤ
çĭ¬ è£ģ
æİĴ åºı
åľ¨ å¤ĸ
åĲĳ åīį
an y
k i
æĺ¯ è¯¥
åı¤ åŁİ
åı¯èĥ½ çļĦ
å¹´ é¦ĸæ¬¡
ä»¶ äºĭ
é¦Ļæ¸¯ çĶµå½±
æĻļ å¹´
åĩº èī²
èİ º
ä¸ºè¾Ĳé³įé±¼çº²é² ¶
æ¢ Ĺ
è¢« æĮĩ
æĹĹ èĪ°
ä¸ºè¾Ĳé³įé±¼çº²é²¶ å½¢çĽ®
j ect
n er
åľ° è¡¨
æĮ «
æĢ» ç»ĵ
å¥¥æĸ¯æĽ¼ å¸ĿåĽ½
çĶŁ æ¯į
åİŁ ä½ľ
åĨ° åİŁ
èĿ ´
çļĦ å¥³æĢ§
åıĳ æĶ¾
å®īå¾· çĥĪ
æĥ© ç½ļ
ç§ĳç½Ĺ æĭīå¤ļ
© çºª
åĩº å®¶
æİ¥ åı£
çĬ¶ çļĦ
åģļ çļĦ
ä¸Ģ æľŁ
éģĩ éļ¾
èħĵçī¹ çĥĪ
çļĦ è¯Ńè¨Ģ
æĺ¯ åħ¶
å¯¹ ä»ĺ
äº¦ ç§°
åĲī éļĨ
æ± Ĳ
è·¯ ç«Ļ
åħ³ å¿ĥ
è£ Ļ
éĨ Ľ
ä¸į åĲĪ
çĶŁ æ®ĸ
åĲĮ æľŁ
è¿ĩ æĿ¥
å¸ĥ æĶ¿ä½¿
ou se
ä¸Ĭ æ¼Ķ
åĬł å¯Ĩ
äº¿ æ¸¯åħĥ
æķĮ åĨĽ
åĲİ ä»£
å·¥ éĥ¨
ç»Ļ äºĭ
æŃ¥ éª¤
ä¸Ńå¤® å§Ķåĳĺä¼ļ
ä¹Į é²ģ
èĭ± ä¹Ŀ
åľ¨ çº¿
ä»ĸ å·ŀ
è° ħ
äººåı£ çļĦ
å¹¿ å²Ľ
å¤§ åĴĮ
ãĢį (
ä»į æľª
åħ¬åħ± äº¤éĢļ
ä¸Ń æĹ¥
ç»ĳ æŀ¶
æµıè§Ī åĻ¨
çļĦåİĨåı² å¹´ä»£ä¸º
å¯Į æľī
è¿ģ åĪ°
ä¸Ń åŃĲ
çİ° éĩĳ
Ã ³
åħļ åĨħ
çłĶç©¶ çļĦ
çĮ ¿
TV B
ç©º éĻį
èĳĹ ç§°
åįĹ éŁ©
ä»ĵ åºĵ
ä¸į åĪ©
çī¹ ç½Ĺ
çļĦä¸Ģ é¡¹
åĲī å£«
äºĮ çŃī
Ġ ä¸İ
è´© åĶ®
æĪĺ ç»©
ĠN ew
èĿ´ èĿ¶
R ob
çļĦ å»ºè®®
å½© èĻ¹
æ¥ ·
åĽłä¸º åľ¨
æĹ¥èĢ³ æĽ¼
å¼Ģ è¡Į
åį« åĨķ
ä¸į å¤§
ä¼º æľį
Ã ¨
åĲĮ æľĪ
èĴ ¿
éķ¿ åŁİ
ä»¥ èĩ³
åĲ« ä¹ī
åĨĽ æĶ¿
æļ ¹
çīĽ é¡¿
åįĥ ä¸ĩ
æįŁ åĿı
188 9
è¿Ŀ æ³ķ
åŁº äºļ
çıł æµ·
æĺ¯ äºİ
k a
çŃī åĲĮ
çļĦä¸Ģ åľº
ä¸º çķĮ
è¢ į
éħĴ åĲ§
æĸ ¼
åĮĹ çº¦
ä¸Ģä¸ª äºº
çİĭ åĽ½çļĦ
åĪĺ å¤ĩ
çĶµåĬ¨ æľº
è¯¥ å»ºçŃĳ
ç»Ħ ä»¶
ç»ĦæĪĲ éĥ¨åĪĨ
åª Ľ
èĿ ī
æĪ´ ç»´æĸ¯
âĢ ²
å¾ħ éģĩ
ä¸Ń ä¹Ł
çĶ¨ åĵģ
ç»ĵ è¯Ĩ
èĢĥèĻĳ åĪ°
åħĪ åıĳ
éĻĪ åĪĹ
ä¼ĺ å¼Ĥ
åıĤèµĽ èµĦæł¼
B l
æĸ° åŀĭ
ç§ĳåŃ¦ æĬĢæľ¯
äº¤éĢļ éĥ¨
èĪŀåı° åī§
G N
å¹´ åĩºçīĪ
åħ¬ åĽ½
è½¦ åİĤ
F or
T R
çļĦ æľĢå¤§
åı· åĴĮ
æīĵ åħ¥
é¦ĸåºľ è®¾äºİ
æ¸ Ŀ
å¼Ģ éĻ¤
è¿İ æİ¥
è¿ĩåİ» çļĦ
et t
è®² å¸Ī
æĹħå®¢ éĵģéģĵ
è¢« ç§°ä½ľ
ç»´ æĸ°
å¼Ĺ åĲī
éĵľ éĶ£
ä¸Ģ éĿ¢
ä¸ī æĿ¡
å¡Ķ åħĭ
æ³¨ éĩį
è¯¥å¸Ĥ æľīäººåı£
å¾· åł¡
ä½Ĩ è¢«
åħ¨ æ°ĳ
æĽ¼ åĵĪé¡¿
æĥ ¹
åĪĨå¸ĥäºİ ä¸ŃåĽ½å¤§éĻĨçļĦ
3 20
åĪ© æ¶¦
æĳ© æĸ¯
å·¡åĽŀ æ¼ĶåĶ±ä¼ļ
æĹ¥ å®£å¸ĥ
æłĸæģ¯ äºİ
ä¸Ĭ ç©º
æĸ¯ å¾·
åĩº åĵģ
å®ŀ çĶ¨
çĬ Ģ
ç¬¬äºĮ çĶ²
éĥ¡ çİĭ
éĥ¡ çļĦ
2 30
ä¼ļ éĿ¢
è¶³å¤Ł çļĦ
æĶ¯ éħį
ç»ĵæĿŁ äºĨ
ä¸ĥ åįģ
å¯Į è±ª
åı³ ä¾§
ä¿Ŀå®Ī åħļ
åĬłåĪ©ç¦ı å°¼äºļ
éĽ ı
å¼Ģ åĽ½
éĶ® çĽĺ
è¿Ļ æĺ¯ä¸Ģä¸ª
ä¿Ŀ å®ļ
åıĸä»£ äºĨ
åĪĽ åĪĬ
æĭĵ æīĳ
åŀĴ æīĵ
ä¸¤ å±Ĥ
å¤ĩ åıĹ
èµŀ æĪĲ
æĸ¯ç§ĳ çī¹
å¦ ¾
è±¡ æ£ĭ
éļ¾ åº¦
çº³ç²¹ å¾·åĽ½
æ®µ çļĦ
æĭĽ åĭŁ
åºĶçĶ¨ ç¨ĭå¼ı
åīį åİ»
çļĦ åĨ³å®ļ
çĻ½ éĩĳ
åľ°æĸ¹ æĶ¿åºľ
" ãĢģ
ä¸Ń åįĪ
åīį æľŁ
æľīä¸Ģ åº§
æµ·æĭĶé«ĺåº¦ ä¸º
Ã ¶
æº ¥
æĿİ æ°ı
æ°´ æĻ¶
å¥ĸ åŃ¦éĩĳ
Ġ 11
ä¸ĭ è®¾
av id
æ±Ł å¸Ĥ
20 20
åħ¶ æ¬¡
åĪĽéĢł äºĨ
çİ» åĪ©
åĲĪ åħ±
æĢ» åħµ
ing s
ĠH e
èĨ Ŀ
è´© åįĸ
æĪ¿ åľ°äº§
æĢ»éĿ¢ç§¯ ä¸º
å¹¿ å¤§
çģ¾ å®³
è¥¿ è´¡
æ¼Ķ è¯´
åı· åı¬
æįĲ æ¬¾
å·¥ åĨľ
éĩĳ é©¬
å´Ľ èµ·
å· ¾
æĪĺ ä¿ĺ
çĽ Ķ
ä¸¤ å¹´åĲİ
æº¶ äºİ
åºĶ ä»ĺ
å¼Ģå§ĭ äºİ
ä»ĭ äºİ
åĢº åĬ¡
Mic rosoft
ä¸ĩ åĲį
èģĶçĽŁ çļĦ
ht t
å® µ
å¤§ çķ¥
çİĭæľĿ çļĦ
åħļ æł¡
æĢ»ç»Ł éĢīä¸¾
æĬ ¹
å·´ çĻ»
å°ĨåĨĽ æ¾³
è¡Į ç¨ĭ
ä¸ĭ è®®éĻ¢
çł´ äº§
è®² è¯Ŀ
ä¸Ģ å¹´åĲİ
äºĳåįĹ çŃīåľ°
ä¸Ģ ç»Ħ
æĺ¯ ç½Ĺé©¬å°¼äºļ
æ³ī å·ŀ
ä¸ĵç§ĳ åŃ¦æł¡
is e
ç¬ ł
ç½Ĺ æĿ°
èķ Ĭ
å¤§ æ¦Ĥ
ä¹Ł è¢«ç§°ä¸º
ç´ł çļĦ
28 0
çħ¤ çŁ¿
åıª ä¼ļ
æ³ Ĺ
ç¡¬ ä»¶
éī´ äºİ
å®¦ å®ĺ
YouT ube
åĲį åı¤å±ĭ
åĳĺ å¤ĸ
æĶ¯ éĺŁ
åĸ Ļ
æ½ Ł
åĵ¥ çī¹
äººå¤§ å¸¸å§Ķä¼ļ
è¥¿ ç«Ļ
ç¬¬äºĮ å¤©
çļĦçī¹ æ®Ĭ
æ°ĳ çĶ¨
åŃĻ åŃĲ
è±ª åįİ
è´¯ ç©¿
æĺ¯ å±ŀäºİ
ä¹ĭ æīĢä»¥
åľŁ æľ¨
ç¬¬äºĮ ä»£
è¶ħ äºº
èİ·å¾Ĺ çļĦ
è®¾ç«ĭ äºĨ
å¤§ åłĤ
åĴĮ åħ¶
ä½į åħĥ
é«ĺ åı¥ä¸½
å°ı æĹ¶çļĦ
éĩĩ çº³
æ¦Ĥ çİĩ
16 00
åłª èĲ¨æĸ¯å·ŀ
æİ¥ åĪ°
å¹ķ åĲİ
Ġb y
çĶŁ çĲĨ
è£ħ æľī
çĥŃ éĹ¨
çİ¯ èĬĤ
è°¥ åı·
çĽ¸åºĶ çļĦ
çĽ¸å¯¹ è®º
åĮ ¾
æĻ® éĽ·
æ®µ æĹ¶éĹ´
é³ ķ
èİ ¹
åĮħ è£¹
æ¯ı ç§Ĵ
æķħ ä¹¡
èĩ´ åĳ½
æĿ¿ æ¡¥
Ġ +
æł¹æį® åľ°
æĸ° æĿĳ
é¢Ħ èŃ¦
æİ¥ æīĭ
çºª å¾ĭ
æĻ ¤
æĸ¯çī¹ æĭī
å®½ åº¦
ä¸§ çĶŁ
æĺ¯ å½ĵæĹ¶
çģ ¿
in k
åĲĦ å¼ı
åı° ä¸ľ
æ°´ æ³¥
ç»ıçºª åħ¬åı¸
åĪĨ æ³Į
èĭ ·
ä¸ľ æĻĭ
ä¹ ĵ
ç§ĳ ä¼ļè¯ķ
æ¯Ķ èµ·
åį¡ éĢļ
åįļè§Ī ä¼ļ
çĲĥ è¡£
ç¿» åĶ±
æĪĺåĪĹ èĪ°
æİ§åĪ¶ çļĦ
æĹ¶ æľī
å®Į æ¯ķ
åŃ£ åĨĽ
i us
ä¸į å¤ª
æĢ§ è¡Įä¸º
èĬ± ç§ĳ
ä»½ åŃĲ
æĿ¡ä»¶ ä¸ĭ
çªĹ åı£
A pp
Ġ 14
å®ļ äºİ
è¯ł éĩĬ
èĪ ¶
æł¼ è¾¾
åı² è®°
o ot
é« ĵ
æĸ° æĺŁ
æľīä¸Ģ å®ļ
å¤©åºľ ä¹¡è¯ķ
çļĦ åı¯
å¤ļ è¾¾
åĬ© æīĭ
æĸ¹éĿ¢ åĨĽ
èĤ ļ
ç½ª è¡Į
èĨ Ľ
: //
æ»ĳ éĽª
æ°ĳ èĪª
å¼Ģåıĳ èĢħ
åĲ¸ è¡Ģ
çļĦ çīĪæľ¬
æĶ» ä¸ĭ
å¢ŀ èĩ³
æĲ ģ
çģµ é¡¿
å±ŀä¸ĭçļĦä¸Ģä¸ª åıĺç§į
æ¸¤ æµ·
ç¬¬äºĮ å¤§
æľĢ å¿«
F ran
æ¸ħ æ²»
é¥® æĸĻ
æİ¥ é©³
æ»¡ æĦı
å®¡ çĲĨ
é¸¦ çīĩ
èĿĻèĿł ä¾ł
åľ£ å½¼å¾Ĺ
è½¬åĲĳ æŀ¶
çº³ ç±³
çĥ§ æ¯ģ
è¥¿ åħĭ
å·¡ æ¼Ķ
é¡¾ å®¢
æ¸Ķ ä¸ļ
æľĪä¸Ń æĹ¬
çĽ´ éĢļ
éĿŀ å»ºåĪ¶
çļĦ æİ§åĪ¶
ä¸Ń åħ´
èģĮ èĥ½
åĪĨ å±Ģ
å¥ĳ çº¦
å¤© æ°´
çľ ·
éħĭ éķ¿
å¨ ¥
å®ģ åİ¿
è´µ çļĦ
åĲĲ èķĥ
è¯Ń ç³»
è¦ģ åľ¨
æ°´ åĩĨ
ä¸»è¦ģ ä»¥
å¹³ æĪĲ
éĢļ åĭ¤
èĩ´ ä½¿
å¤ļ æĸ¯
çĶµ ç«Ļ
èĹı ä¼łä½ĽæķĻ
éĺ» ç¢į
èĳ¡èĲĦ éħĴ
åį¸ ä»»
é©¬ èĭ±ä¹Ŀ
éĻ¤ éĿŀ
æĢ»ç»Ł åºľ
æ¥ļ åĽ½
f er
çļĦ ä»»åĬ¡
æŃ£ æķĻ
åĪļ åĪļ
ç° ¿
æ³¨æĦı åĪ°
åĲİ äºº
éĵ Ģ
æ°ĳ æĦı
åĪĿ ä¸Ń
ä¸ĩäºº æ¬¡
é© ¿
æĸĩ ä¹¦
è¡¥ åĬ©
éĵģéģĵ éĥ¨
æĹ¥ æĻļä¸Ĭ
æĦŁ è°¢
éģĩ ä¸Ĭ
çĸ« èĭĹ
çĽ¸äºĴ ä½ľçĶ¨
éĤª æģ¶
é» Ķ
æī¿ åıĹ
ä¸Ń äºļ
å¾Ī é«ĺ
ç¬Ķ è®°
å¤§ çģ«
åįĹ å¼Ģ
la ss
éĺ¿å§Ĩ æĸ¯çī¹
äºļ å¤ª
æ¼Ķ åıĺ
æŀĹ ä¸ļ
è¾¹ çĸĨ
åľ¨ æł¡
æ°´ éĿ¢
åĢĻ è½¦
èĨ ı
èŃ¦ å¤ĩ
åºĦ åĽŃ
å¼Ģ æĭĵ
ç¥ º
åħ¨ æĹ¥
çĲĨ ä¼ļ
è¿ŀ éĶģ
åĪĿ å§ĭ
ä¼ł è®°
ap p
æ·· è¡Ģ
æ°ĳæĹı ä¸»ä¹ī
å¹¼ åĦ¿
a el
ä»ĸçļĦ çĪ¶äº²
äº¤éĢļ å¤§åŃ¦
éĢĤ çĶ¨
çļĦ åįķ
è¥¿ èĴĻ
é£ŁçĶ¨ é±¼
çº¿ ç´¢
å³¡ è°·
æ¶ ©
ab le
éĽ ¯
æŀģ å¤§çļĦ
éĻį çº§
éĢĥ åĪ°
ä¹Ĵ ä¹ĵ
åħī çļĦ
èĢĥ éĩı
åıĳçĶŁ åĲİ
çĲĨå·¥ å¤§åŃ¦
åł Ģ
è¿ģ åħ¥
çĲ³ å¨ľ
æ¸ ´
åħļ å§Ķä¹¦è®°
å¡ŀ æĭľ
æĳ© æ´Ľ
éĺ¿èĤ¯èī² å·ŀ
å¤ĸ æĺŁ
çĽĽ è¡Į
U R
éĢļ ç§°
åĪĳ éĥ¨
åĨ³èµĽ ä¸Ń
æŃ£å¼ı çļĦ
äºĶ äºº
èīº åĲį
ĠC on
å¿½ çķ¥
åī¯ ä½¿
åĤ į
éŃĶ æľ¯
åı¦ä¸Ģ ä½į
å®ĮæĪĲ åĲİ
ä¸İ æĸ°
å½±åĵį äºĨ
éĥ½ åŁİ
æİ¥ å¾ħ
åĲİ å¤ĩ
åħ¬éĩĮ å¤Ħ
éŁ³ èĬĤ
m y
å°Ĩ æŃ¤
ä¼´ ä¾£
æİĴ æĶ¾
å°ģ å»º
m p
çļĦ åĬĽéĩı
å¹³åĿĩ æµ·æĭĶé«ĺåº¦ä¸º
è¾© æĬ¤
å®¶ æĿĳ
æĹ© äºİ
è´¢ åĽ¢
åľ¨æŃ¤ æľŁéĹ´
èį§ å¹ķ
åĬŀ åŃ¦
å¹´è½» äºº
è®°å¿Ĩ ä½ĵ
æľī ä¸įå°ĳ
åĭ ¿
åĪ« äºº
ä¿® çŃĳ
éĵ¸ éĢł
And roid
o z
æŃ¦ å°Ĩ
}- ï¼Į
æľº èº«
èĪª ç«Ļ
å¤º åĽŀ
ä¾µ èļĢ
åįķæĽ² æ¦ľ
æł ħ
æ±ī åı£
èİ·å¾Ĺ ç¬¬
ol l
æĲľ å¯»
å¾·éĩĮ åħĭ
çļĦæĥħ å½¢
ä½įäºİ æĹ¥æľ¬
ç»ĵ çĽŁ
åĮĪçīĻåĪ© è¯Ń
æ¼Ķ ä¹ł
è´ª æ±¡
18 00
æķĻ å®¤
åĩ» èĲ½
ç§» éĻ¤
çī© ä»¶
æīĢè¾ĸ çļĦä¸Ģä¸ª
çĽ´è¾ĸ å¸Ĥ
èĤ ĭ
æ·±åľ³ å¸Ĥ
æĦŁ åıĹ
ä¼łç»Ł ä¸Ĭ
èĢĮè¯¥åľ°çļĦ å¹³åĿĩæµ·æĭĶé«ĺåº¦ä¸º
å¾· çĶ²
æ°´ éģĵ
æłĩ çŃ¾
O r
å¹´ ä»İ
åį´ åľ¨
åĩº åħ¥
éĽ· è¯º
æ·± å¤ľ
åº¶ åĲīå£«
è° Ł
11 4
å¹´ ä»½
ä¸Ń éĺŁ
èģĮ äººåĳĺ
èĥĮ éĿ¢
æĸ¯åħĭ å·ŀ
åĲİ ä»»
åĪĨ çļĦ
åĲĪ èµĦ
è¯ĳ æľ¬
èİ± å°Ķ
å³ Ļ
åĳĬç¤º çīĮ
éģĵ åħ·
å¸Ī åĽ¢
çĻ½ åŀ
éĢĥ å¾Ģ
å®īå¾· é²ģ
çĪ±å¥½ èĢħ
æ³ ¾
å·¦ ä¾§
åıĹå®³ èĢħ
æĺ¯ æĸ°
å®Ĺ æĹ¨
æľīçº¿ çĶµè§Ĩ
æĺ¯ ä¸İ
è´¡ å£«
æĽ¾ç»ı åľ¨
å¸®åĬ© ä¸ĭ
ä¹ĭ ä¹ħ
èĢĮ åĩº
èĳ ±
æĻ® åĪ©
åĲİ éĿ¢
äº¦ äºİ
è® ³
çĽ® çļĦåľ°
ç¦ı åħĭ
æĸŃ å±Ĥ
çº¦ æĿŁ
æİ¥ çº³
å¾Ī å®¹æĺĵ
ä¾¿ ä¼ļ
éŁ© æ°ĳåĽ½
æľ« ç«¯
ç½Ĺ æĽ¼
çī§ åĮº
çļĦ ç»Ħç»ĩ
åŃ¦ è¯´
ä¼ļ é¦Ĩ
ä¸įåĲĮ çļĦæĺ¯
çļĦ å£°éŁ³
æ¬§ ç¾İ
189 4
N HK
os s
ç¬Ķ åĲį
çĲ ħ
åĬł çļĦ
æ°Ķ æ°Ľ
J o
ä½Ĩ ä¹Łæľī
åĽĽ ç§į
ç¯® æĿ¿
æĶ¹ç¼ĸ ä¸º
çļĦ æĢģåº¦
ä¸į å¤Ł
å°Ĩ ä¹ĭ
é©¬ èĲ¨
18 60
çļĦåľ° ä¸ĭ
åľ° åĬ¿
ãĢĭ ï¼Ľ
æ¡ ¦
é¦ĸ éĥ¨
å®ŀ ä¹ł
æīĭ ä¸ĭ
æĶ¾ å¤§
åĪĨå¸ĥäºİ éĿŀæ´²
æ³ķåħ°åħĭ ç¦ı
å¤ĸåĽ´ èµĽ
o le
ä½İ åİĭ
æ¯Ľ åĪ©
å¤ļå¹´ æĿ¥
l ic
ä¸īåįģ å¹´
çŁ¥åĲį åº¦
E l
å¹´ å®ĮæĪĲ
æĢ§ é±¼ç±»
âĢĿ ï¼īï¼Į
18 80
è¾½ ä¸ľ
ä»ĸ æīĢ
â Ĺ
åį ¤
åħ¨ èº«
ä¸Ģ é¢Ĺ
æķĻ ä¹ī
å¥¥ å¤ļ
è®°èĢħ ä¼ļ
ç»§æī¿ äºĨ
ä¸ŃåĽ½ äºº
å¥³ å£«
åĪĹè½¦ çļĦ
çĦ¶èĢĮ åľ¨
æĶ¹åıĺ äºĨ
å¤ªéĺ³ ç³»
S D
åıĬ é¦Ļæ¸¯
æµģ åħ¥
æĪĸèĢħ æĺ¯
å¹¿è¥¿ å£®
çļĦ è§ĤçĤ¹
r at
ç§ĳ éļĨ
ä¿¡ æīĺ
å¥ĳ ä¸¹
é¥² åħ»
åı° éĵģ
æĺİ æ¸ħ
ä½© æĸ¯
åĪĨå¸ĥåľ¨ ä¸ŃåĽ½å¤§éĻĨçļĦ
çī¡ ä¸¹
å¾ĹåĪ° çļĦ
æĹº è§Ĵ
ä¾¦ æİ¢
çĶŁ ä¸ĭ
åĽĽ ä½į
éĩĩ è´Ń
äºļé©¬ éĢĬ
a ir
å¼ı å»ºçŃĳ
åĵĪ èĲ¨
æ·± æ°´
ä¿ĿçķĻ äºĨ
æķ Ľ
è¯ĳ åĲį
å°¾ å·´
ä¸Ģ çº¿
éĹ¨ ä¸ĭ
å®ĺæĸ¹ ç½ĳç«Ļ
ç¾½æ¯ĽçĲĥ éĶ¦æłĩèµĽ
åįĹ ç«Ļ
å¾Ĺ å¥ĸ
è¿ĩ å¾Ģ
å© ·
ç¾¤å²Ľ çļĦ
ä¹ĥ èĩ³
å¸ĪèĮĥ åŃ¦æł¡
å ļ
ä½įäºİ é¦Ļæ¸¯
ç¼© å°ı
æİĮ ç®¡
ï¼ī ãĢį
åĬł ç´¢
å¹³ åĿ¦
æº ī
ãģ ¨
éĹ´ éļĶ
æľĢåĲİ åľ¨
å¹´ åıĤåĬł
æľĢ å¥½
ä»£ ä»·
å¿ħ çĦ¶
æŃ£ç¡® çļĦ
åŃĲ åŃĻ
å¼¹ åĮ£
ç¡¬ æ£ĺ
æĢª çī©
æĦı æĮĩ
å© ¿
P G
ä¹Ł å°±
åįģ åĲį
åħ³ åį¡
åĲĪä½ľ çļĦ
æ²ī æ²¡
é«ĺ å°Ķå¤«
æİ¥ ä¸ĭæĿ¥çļĦ
çĸ ¼
åľ£ åľ°
è®¡åĪĴ åľ¨
IS O
å¸Įä¼¯ æĿ¥
åĵĪä½Ľ å¤§åŃ¦
èĢĮ åħ¶
ä»İ æĿ¥
ãĤ ¢
é¡¶ çĤ¹
è¿Ļæĺ¯ åĽłä¸º
åı²èĴĤ èĬ¬
çļĦ çºªå½ķ
re at
åĨ³å®ļ å°Ĩ
qu e
æŁĵèī² ä½ĵ
Ġ 13
çļĦ è§Ħå®ļ
æķ ķ
æ± ¾
åĲĪ éĢĤ
ä¹Łå°±æĺ¯ è¯´
H e
er y
éĽĦ æĢ§
éĽĨ æĪĲ
è¾ĥ å°ıçļĦ
åį« æĸ¯
è¶³çĲĥ åįıä¼ļ
ä¼ģ åĪĴ
æİ¢æµĭ åĻ¨
åĮĹ ç«Ļ
T E
çļĦ é£İ
ä½įäºİ åįĹ
çļĦ ç»Łæ²»
ä¸Ģ è¾Ĩ
åľ¨ éĺ¿
an e
ç»ıåİĨ äºĨ
è¾ ľ
çŃī äººçļĦ
å±± ç«Ļ
äºĮ åı·
ç½Ĺ å°¼äºļ
éĩı äº§
èħ¹ éĥ¨
çĭŃ çªĦ
åľ¨ è¿ĻäºĽ
ä¾Ŀ æ¬¡
J ava
æ¸ £
è¯ģåĪ¸ äº¤æĺĵæīĢ
çļĦ æ¼Ķåĩº
è¥¿ å¾·
è¢« åĪ¤
åħļ æ´¾
å±ĭ èĭĳ
èĢ Ĩ
å¥ ¢
éĩį åıł
11 6
åºķ éĥ¨
ç¢İ çīĩ
åľ£ åħ¬ä¼ļ
å¯¹åºĶ çļĦ
å¹ Į
11 7
ç»ıæµİ åıĳå±ķ
26 0
åĽł çĹħ
æ·± æµ·
éĿŀå»ºåĪ¶ åľ°åĮº
äºº éĹ´
çŃī ä»·
å¤Ħ ç½ļ
éļĨ å¤´
çĻ¾ åĲĪ
çļĦ äºĭä»¶
åį ¯
ä¸Ģ ä½ĵ
ç®Ģ ç§°ä¸º
åĮºè®®ä¼ļ éĢīä¸¾
N ew
åħ¶ä»ĸ äºº
ä¸Ń è§Ĩ
çĪ¶äº² çļĦ
ç¿» æĸ°
åĽ½ åŃĲ
éĥ ¸
çļĦ æł¸å¿ĥ
åĨĽ ä¸Ń
åįİ è£Ķ
å¤Ħ å¤Ħéķ¿
èľ Ĺ
åĽ° æī°
åįĹ æ´ĭ
æľ± åħĥ
éħįéŁ³ åĳĺ
æ¸¸åĩ» éĺŁ
æ°´ ç³»
åįĬ å¯¼ä½ĵ
æľĪ åĲİ
ä¿ Ń
éĥ½ å°ī
å®¹ è®¸
å³ ¨
è¾Ľ äº¥
çļĦ æĿĥåĬĽ
èĢ »
é¦ĸ åĳ¨
èĶ¬ èıľ
åĨ ¤
å·´ éĩĮ
åī§ ç»Ħ
åħ¬ æŃ£
re am
èĻ½çĦ¶ åľ¨
ä¸Ģ æī¹
èĩª æĦ¿
å±± åŁİ
çĻ» å±±
æľ¨ æĺŁ
çĽ®åīį å·²
å¤ļ éĥ¨
æĳ© æł¹
åģĩ æĹ¥
è¡¥ åģ¿
æĢĢ çī¹
åħĭéĩĮ ç±³äºļ
æĽ´ å¥½çļĦ
en e
åıĮ åĲĳ
å¼¯ æĽ²
åľŁ èĳĹ
æİ© æĬ¤
ç»Ļäºĭ ä¸Ń
è¢« äºº
æĢ» æķ°
ä¿ ©
çķĻ å®Ī
çľ¼ éķľ
è°Ī è¯Ŀ
è¿Ļéĥ¨ çĶµå½±
è¡Į åĪĹ
éĩĮ çº¦
é«ĺéĢŁ éĵģè·¯
çļĦ æĶ¿çŃĸ
çķĮ éĿ¢
æ¸¸ ä¹Ĳ
ä¸Ģ åı°
ç¾İ éĩĳ
æ°´ æŀľ
å²Ľ å³°
åĪĴ åħ¥
ä¸Ńå¤® æĶ¿åºľ
åįłåľ° éĿ¢ç§¯
ä¸º ä¸ī
æµģ ä½ĵ
å¤ĸäº¤ å®ĺ
ä¹Ł è®¸
æ£Ģ è®¨
çļĦçī¹ æĢ§
æ¡ĥåĽŃ å¸Ĥ
çĿ ¦
ä¸Ģæ®µ æĹ¶éĹ´
å¤ĸ æĿ¥
ç¤ºå¨ģ èĢħ
b o
æľĪ ä¸ĭæĹ¬
ä¸¤ åľ°
åħ¨ çľģ
æĿ¡ çº¹
åįĵ è¶Ĭ
çļĦ éĵģè·¯
å¹´ ä»¥åĲİ
å¿« è½¦
è° İ
ä»İ ä¸Ń
or th
æľª è¢«
å½© èī²
åĽĽ åĨĽ
æº ¢
å¸¦æĿ¥ äºĨ
åł °
ä¸ĩ å¹´
ãĥ «
è´« ç©·
ç¬¬äºĮ å±Ĭ
ãĥ ©
ç£ ¡
å¹¿è¥¿å£® æĹıèĩªæ²»åĮº
æĺ¯ ä¸ĸçķĮä¸Ĭ
åºĩ æĬ¤
èĻ Ķ
ç¬¬ä¸Ģ è½®
åİ¿ åĴĮ
ç»Ł å¸ħ
å²ģ ä»¥ä¸ĭ
çľĭ ä½ľ
çļĦ å¹³åĿĩ
æĪĲ åĲį
åĪĨ è¾¨
ç¼º å°ĳ
æī« æıı
åľ¨ è¿Ļä¸Ģ
ä¸Ń æ¯Ĵ
åįİ å¾·
åĪĴ åĪĨä¸º
æĦŁ åºĶ
ä¸ºé¦ĸ çļĦ
æ³¢ å¤ļ
åħµ åĻ¨
åīĬ å¼±
I U
äºĨ è¯¥
åŃ¦ åĽŃ
äº§ éĺ¶çº§
æĤ ¨
éĢģ ç»Ļ
èĭ »
æµģ ç¨ĭ
éŃģ åĮĹ
ç½Ĺ ä¼¯
æ¡ ¨
åı¤ ç½Ĺé©¬
å·¦ æ´¾
è¥¿ å¤ªå¹³æ´ĭ
åĮĹ ç«¯
æ¨¡ ç³Ĭ
çļĦæĦı ä¹ī
éĩİæĪĺ åĨĽ
æ´ ¼
é¡ ½
åĲĮå¹´ äºĶæľĪ
åľ¨ åħ¨åĽ½
å² ļ
or s
å±Ĥ æ¬¡
åĵĪ èĲ¨åħĭ
æŁ´æ²¹ æľº
å°Ĩ è¢«
é»İ æĺİ
æıĴ åħ¥
ä¸ĭ è¯ı
ç¾ ŀ
åĨį çĶŁ
åĢŁ çĶ¨
æįŁ ä¼¤
å¢ĵ åľ°
æĪ Ł
å¸ĥ ä»Ģ
è§Ħ å¾ĭ
re t
çļĦäºº å£«
æ£Ģå¯Ł å®ĺ
äºº é©¬
åħ¨ åĬĽ
åºĦ ä¸ºéĤ»
äºº å¿ĥ
è¿Ĳ è½¬
çº¢ åįģåŃĹ
è£ģ å®ļ
ĠD e
çļĦ çĽ¸åħ³
æĶ¶ èİ·
åģı è¥¿
åľ¨ æŁĲäºĽ
æ°ĳ çĶŁ
æ£ º
åĽ½å®¶ å®īåħ¨
éĢĥ èµ°
ä¸º ç¬¬
å¯¹ æµģ
ç¾İ é£Ł
å°± å¼Ģå§ĭ
ĠI s
H E
o la
åĩº èī²çļĦ
åĪº æĿĢ
C ar
ä¸İ æĿİ
æŃ¤ åī§
O C
åĲİ çĶ±
å®¶ èĩ£
çļĦ çŁ³
åĮĹ æĿ¡
æľĢ éķ¿çļĦ
åŁº å±Ĥ
éģ¿ éļ¾
è¿ĽæŃ¥ åħļ
æĺ¯è¥¿çıŃçīĻ åį¡æĸ¯èĴĤåĪ©äºļ
åıĺ åĬ¨
ä½įäºİè¯¥åĽ½ ä¸ľåįĹéĥ¨
äºļ çī¹åħ°
åħ± éĿĴ
çĥ ĥ
éħ¸ çĽĲ
ç¨ĭåº¦ çļĦ
å¥¥ æīĺ
åĴĮ é«ĺ
åĴĮ çº¦
è´¨ åŃĲ
åĨ°åİŁ å²Ľå³°
åĲīéļĨ åĿ¡
ä¸Ģ å®ļçļĦ
ç§ĳ éķ¿
åħ« è·¯åĨĽ
èĪ¬ çļĦ
åģĩ æľŁ
äºĨä¸Ģ åľº
æ³° å±±
åıĳ æºĲäºİ
ç¾ ļ
6 000
ä¼ł è¾¾
åī¯ éĻ¢éķ¿
çļĦ åŃĹ
è¥¿ å°Ķ
æŀģ åħ¶
å¹´ ä¹ĭåĲİ
åŃ¦ éĥ¨
ĠCount y
åĪĨç±» æ³ķ
èģĶéĤ¦ æĶ¿åºľ
ç¥Ī ç¥·
çĶ² åŁº
12 3
æłĸæģ¯ åľ°
æŀ ¯
ä¸¤ é¡¹
èĭ±åĽ½ çļĩå®¶
åį«æĸ¯ çĲĨ
åľ¨ ä¸ī
æ³¢ åĪ©
ran s
åİŁ å£°
çľŁ ç©º
èİ« æĸ¯
åĪ° æĿ¥
åħī ç¦Ħ
åıĤ åĨĽ
è®¢ è´Ń
äºĭ è¿¹
æĢ» ç½²
éĥ½ ä»¥
ä¸ĩ èĭ±éķĳ
èµŀ èµı
çģĮ æºī
å±ı å¹ķ
ä¸Ģ ä»£
ä»¥ æĿ¥çļĦ
å¾ģ åı¬
é¢Ŀ å¤ĸçļĦ
åı¯ çĶ±
åħ³ æĬ¼
ç¼ĺ æķħ
å¯ Ŀ
è·¯ çļĦ
éĩĩ éĽĨ
é¹ ī
i ro
å¤§ çİĭ
åħ¨ åŀĴæīĵ
è®² åº§
çīłä»¬ çļĦ
ä»ĸ æĪĲä¸º
M y
éķ į
ä¸į è§ģ
æŃ¤ ç«Ļ
åħ³ èĬĤ
æĭĽ çĶŁ
çº¯ ç²¹
P A
æŃ£ å¥½
12 2
èı ģ
ç»ĵ å°¾
æĪı æĽ²
æĬ¤ çĲĨ
å¹´ è¿Ľåħ¥
åľ¨ åħ¨çĲĥ
ä¹Ł ä¸º
ĠB r
ä¼ļ å¯¼èĩ´
åľ¨ éĤ£
å¤§ æ³ķå®ĺ
ä¸į åºĶ
è¾ħ å¯¼
Ġ æĪĸ
æ¥¼ é«ĺ
çĴ §
çļĦ äºĶ
å®Ĺ åº§
å¸ĥæĭī æł¼
çļĦ è®°è½½
åĮº çļĦä¸Ģä¸ª
ç§ĳ æĸ¯
åĽĽ å¼º
å¤Ħ åĪĨ
é«ĺçŃī æ³ķéĻ¢
éģµ å¾ª
æĪĲåĳĺ åĽ½
çİĽ æł¼
æĸ¯æ´Ľ ä¼Ĳåħĭ
ç»° åı·
åĲİ ä¸º
åĽŃ æŀĹ
M B
å±± æĿĳ
åıĹ ä½ĵ
èļ Į
çļĦ çĲĥåĳĺ
å¹´ ç¬¬
åĴĮ è§£
éķ¿ å´İ
å¯¹ å¾ħ
éº¦ åı¯
åįģäºĮ åĲį
ä¾ ı
æĻ ı
18 70
å¡ŀ æĭī
æĦıåĳ³ èĳĹ
G r
çļĦ ä¸ªäºº
æĽ¼ è°·
å°ıè¯´ å®¶
åħ¬ ä½¿
åĨĽ ç±į
åĬ¨ æľº
æŃ¤ ç§į
è½¦ æ¬¡
åĪ¶ æľį
æ¼Ķ ç»İ
å¤± ä¸ļ
ãĢī ãĢģ
æĭīä¸ģ è¯Ń
ç» ¸
æľĢ åıĹæ¬¢è¿İ
ä¸Ń ä½į
æĻ ĥ
æĵį æİ§
äºº ä¹ĭ
åŃĺ æ´»
188 5
è¾¾ æĸ¯
å¤´ è§Ĵ
æĸĻ çĲĨ
æ´ ½
åĲ Ł
åĪĨ åºĹ
éĵģ çº¿
ĠC ar
åĬłæ³° ç½Ĺå°¼äºļ
ä»ĸ ä¹Łæĺ¯
ç¼ĸ ä¿®
åįłé¢Ĩ äºĨ
èģĶ ä¼ļ
åĴĮ ä»ĸ
åİĨ æĹ¶
æĭĵ å±ķ
æĺĶ æĹ¥
å¯Ĩ éĽĨ
è½¨ çĶµè½¦
èµ· èįī
åıª å¾Ĺ
å¼¹ æĢ§
æ¿Ģ ç´ł
çĦ Ĭ
çĽĳ æİ§
åİŁæľ¬ çļĦ
åĨį è½¬
çŁ¿ çī©
æµ· æĪĺ
å¼Ĺ èİ±
ä¸º formula
å½ķ å¾Ĺ
æľĹ å¾·
çĤ® åı°
æľ±åħĥ çĴĭ
åĨĽ æł¡
æľĢ éķ¿
è®° è¿°
åįĹäº¬ å¸Ĥ
æ³¨æĦı çļĦæĺ¯
çĪª åĵĩ
æĳ©æ´Ľ åĵ¥
ä¸į è¢«
æĹ¥æľ¬ æĶ¿åºľ
ä¸Ńæĸĩ çīĪ
æīĢåľ¨ çļĦ
ä¸ºäºº çŁ¥
åį¡ è¥¿
é£ŀ èĪ¹
åŃĻ æĿĥ
ç»ĵæŀĦ çļĦ
åķ Ĭ
é©¬è¾¾ åĬłæĸ¯
he l
æ³¨ å°Ħ
é¦ ¨
å¤± æľĽ
ĠA d
å¤į åĩº
è¿ª åħĭ
çĶŁæ´» äºİ
ä¸º åĽĽ
å±ı ä¸ľ
èĪªç«Ļ æ¥¼
åĮ Ļ
åĪĻ æĺ¯åľ¨
éħĴ ç²¾
éĺ¿æĭīä¼¯ è¯Ń
æĺ¯ æĿ¥èĩª
åŃ¦ çķĮ
åħ¶ ä¸»è¦ģ
åįĹ ç¾İ
ĠE d
å¤§è§Ħæ¨¡ çļĦ
éĤ¯ éĥ¸
ä¸Ń æŃ¢
åįĹ éĺ³
åħµ éĥ¨
å§Ķåĳĺä¼ļ ä¸»ä»»
çļĦ å¼Łå¼Ł
æĺ¯ å¥¥åľ°åĪ©
åĬłåĭĴæ¯Ķ æµ·
çļĦ åī¯
ä¸ľ èİŀ
åįķ è¡Į
æŀ¢ å¯Ĩ
åºŀ å¤§çļĦ
W h
åĪ© æ²ĥ
å®¶æĹı çļĦ
æī¹å¤į åĲĮæĦı
åĨħ å°Ķ
æľŁ å¾ħ
åĮĸ åŃ¦å®¶
åī¥ å¤º
å¾ģ æĶ¶
æ»ĳ åĨ°
åı¯ ä½ľä¸º
ä¸į äºĨ
é¡º ä½į
F acebook
ï¼Ī ãĢĬ
å¤§ åħ´
ä¹ĭéĹ´çļĦ åħ³ç³»
å¹´ åıĪ
å¹´ å½ĵéĢī
é©¬ åľº
éª Ħ
ä¸ĸçºª ä¸Ń
ç£ º
å°Ķ æľ¬
çľģ æĶ¿åºľ
ç¥¨ ä»·
ä½ł çļĦ
å®£ èªĵ
æ³¢ç½Ĺ çļĦæµ·
ç¾ Ł
æĹł ç©·
ç¬¬äºĮ åĲį
èĢĮ æĿ¥çļĦ
æ¸ħ çĲĨ
30 1
æĶ¶å½ķ äºİ
æĺ¯ çĳŀå£«
Ġ as
æ´¾ å¾Ģ
çĭ© çĮİ
å¤ļ çĵ¦
æĹ¥ æĹ©ä¸Ĭ
åŃ¦ ä¸ļ
çºł çº·
r al
åĪĿ æ¬¡
å¡Ķ æĸ¯
çº½çº¦ æĹ¶æĬ¥
åħ° å¾·
ä¹Ĳ æĽ²
åī¯ éĥ½
é©¬æĿ¥ äºļ
æ²³ ä¸ľ
åį± å®³
ä¸Ńæĸĩ å¤§åŃ¦
ä¸Ĭ åľº
é¡¶ çº§
åĬ¨çī© åĽŃ
æĻ® æ³ķå°Ķ
èĢģ èĻİ
çļ® åį¡
äº® çļĦ
æĶ¶ çĽĬ
ä¾Ŀ æ³ķ
æĻ¶ çīĩ
çĺ ¦
çĽĳå¯Ł å¾¡åı²
åĽ½å®¶ æĿ¯
ç¾¤ çļĦ
åĬª å°Ķ
çĽ®åīį çļĦ
æĺ¯æ³ķåĽ½ ä¸Ĭ
æĤ£ æľī
æĳĨ èĦ±
æĹ¶ æīĢ
éĹ °
çļĦ åĪ¶ä½ľ
åľ¨ ä¸ĸçķĮ
ä¸Ń åŃ¦æł¡
å¸ĥèİ± æģ©
å¹½ é»ĺ
å¯¹ æĪĺ
äººåı£ æľī
å¹³ å£¤
æľ¬å±Ĭ èµĽäºĭ
åĪĨ éĥ¨
æľĢ åħĪ
æĽ¾ å¤ļæ¬¡
éŁ³ä¹Ĳ åŃ¦éĻ¢
çĶµ è®¯
é©¬ éŀį
äº¬ åī§
ä¸ĢçĽ´ åľ¨
é¹¦ é¹ī
èĭ±åĽ½ äºº
èį¯ åĵģ
å¦Ī ç¥ĸ
æĪĺ çº¿
éŃģåĮĹ åħĭ
ä¸ĵ é¢ĺ
çļĦçī¹ èī²
ä»£ è¨Ģ
è¯Ħ éĢī
å®ī æīĵ
ç¤¾ä¼ļ ç§ĳåŃ¦
æ¸© æļĸ
S aint
è§Ĩ éĩİ
å¤ªéĺ³ çļĦ
æĺİæ²» ä¸īåįģ
éĽĮ æĢ§
ä¹Į åħ¹
æĹħ é¦Ĩ
åĨĽ éĺĢ
åįĬ éĥ¨
åĪ¶çīĩ äºº
å¡ ¾
ĠW orld
ä¾¦ æµĭ
æµ· åı£
åħ¬ æīĢ
æİ Ģ
çĶ± è¯¥
åħī å¹´
æııè¿° äºĨ
è§Ĥèµı é±¼
åŃ¦çĶŁ çļĦ
å¡ĳ æĸĻ
å·ŀ åĴĮ
åºŀ å¤§
äºº åıĹä¼¤
è¯Ŀ é¢ĺ
æĬķåħ¥ ä½¿çĶ¨
O H
å¹´ å¹¼
æīĢ ç»ĦæĪĲ
çĲĨ æĢ§
æħ Į
ä¸ª äººçļĦ
ä¸Ĭ ä¹¦
åı° è¯Ń
ç¼ ®
in es
å®¡ è®®
äºİ ç¾İåĽ½
å¤§ åľ°éľĩ
æį¢ åıĸ
ä¸ĢçĽ´ æĺ¯
ç»Ł é¢Ĩ
æĻ®æ³ķå°Ķ èĮ¨
ä¸Ģ åĿĹ
åİŁ å±ŀ
çľģçº§ æĸĩçī©ä¿ĿæĬ¤åįķä½į
è¯ ¬
er g
åī¯ å±Ģéķ¿
ot h
Ġ ch
å¤Ħ åľ¨
æī¾ åĪ°äºĨ
çº¦ç¿° éĢĬ
ä¸Ģ é¦ĸ
æľ¬ åŃ£
åĲĮ äºĭ
éĥ¨åĪĨ åľ°åĮº
12 9
å®¶ éĩĮ
æĴ¤ åĽŀ
æĺ¯ä¸ŃåĽ½ çļĦçī¹æľīæ¤įçī©
åĲīä»ĸ æīĭ
æŀ £
ç±³ é«ĺ
èµĽ éģĵ
er m
æĴ¤ åĩº
å·´ å¾·
y l
çļĦ éŁ³
çļĦ åĨłåĨĽ
ç±³ åĭĴ
æĮĳ éĢī
ä¸ºä¸ŃåĽ½ çļĦçī¹æľīæ¤įçī©
3 80
ä»ĸ ä»İ
åįĹ èĩ³
å¼Ģ éĩĩ
å¤« çļĦ
æİ¨ ä¸¾
ä¼¯ æģ©
é ĳ
ä¸į åŃĺåľ¨
ä¸ĸ çļĦ
è®º è¿°
å¡« æµ·
åľ¨ åľ°
ä¸į åĬ¨
èĥĮ åĲİ
åıĮ éĩį
æĭ¿ åĪ°
æĭĴç»Ŀ äºĨ
ä¸Ń ä½¿çĶ¨
éĽ ³
çĶµ æºĲ
éĺ¿ æ³¢ç½Ĺ
çºª åħĥ
ä½ı æĪ¿
æĭ¨ æ¬¾
çĶ± æĿ¥
ä¾Ľ ç»Ļ
åĪĨåĪ« äºİ
å¸ķ åħĭ
æł¼é²ģ åĲīäºļ
Ġ <
è¶³ åĪ©
æ²Ļ åĴĢ
è¥¿ å±±
çĮİ äºº
çĻ»è¿Ľå£«ç¬¬ä¸īçĶ² ç¬¬ä¸ĢçĻ¾
ç« º
ä¸į ç®¡
å¸Ī çĶŁ
çº³ çļĦ
æŀĦ æĥ³
å·²ç»ı åľ¨
ãĥ ª
ä¸į éĶĻ
çİĦ å®Ĺ
è¾¾ ç§ĳ
18 71
åĴĮ äººåı£
èĢħ æĺ¯
å½±åĵį çļĦ
b y
åĪ ĥ
æĹ¥ ä¸Ĭæĺł
é«ĺ æ¸©
åıĮ å±Ĥ
ç¥ŀ å¥Ī
æĭ¦ æĪª
( )
åĨħ åĬ¡
èŃ¦ åĳĺ
ä¸Ģ éģĵ
åŁ ¼
èĢħ åľ¨
çļĦ æ³ķå¾ĭ
å¾· ç±³
è½¦ äººæ¬¡
æķĻåĮº ä¸»æķĻ
å¤ļé¡¹ å¼ı
å¾·åħĭ èĲ¨æĸ¯å·ŀ
æĸ¯åŁº åĮº
ä¸ ķ
O pen
æĹ¥ åĪ°
âĢľ âĢĿ
æĪĸ è®¸
ç³ Ł
çļĦ æĸĩç«ł
åľ¨ ä¸Ģæ¬¡
äºļ è§Ĩ
æŃ£å¼ı æĪĲç«ĭ
ch n
è¥¿ éĿ¢
è¦ģ ç´ł
Ġ âĢĵ
èĥ ĸ
è¿Ļ ä»½
èŀį åħ¥
æĺ¯ æł¹æį®
å¤§ ä¸º
åįĹ å®ģ
çļĦä¸Ģ ç³»åĪĹ
é¢Ĺ ç²Ĵ
çļĦ åı°æ¹¾
æĺŁ åħī
å¤§åŃ¦ å£«
çĪ± åĽł
çĻ» å½ķ
éĽ¶ ä»¶
éī´ å®ļ
é£ĵé£İ ä¸Ńå¿ĥ
åĴĮ åľ¨
it s
èĥ¡ å®ī
å¹´ åĨħ
é¾Ļ å±ŀ
æĳ ¸
èĴĤ æĸ¯
æ¤įçī© ç§į
è©¹ å§Ĩ
O L
çİĩ åħµ
æĿ¾ å±±
ä¸Ĭ ä»¥
å®ī æıĲ
ç»´ åĲī
ä¼ł æŁĵ
èģļ å±ħ
èĬ ¹
èĦī åĨ²
åįģä¸Ģ åĲį
å®ŀ åľ¨
ç©ºä¸Ń çħ§çīĩ
æ³ µ
åĪĨ åıĳ
æĽ¿ è¡¥
ä¼ļ è§ģ
åħ¼ å®¹
ç§¦ åĽ½
å¹´ å°Ĩ
åı¯ åģļä¸º
éĵľéĶ£ æ¹¾
w e
å¹´ æīĢ
al k
æ¡Ī çļĦ
è´Ŀ æĸ¯
Ã ¤
åĮĹ çº¬
åħĪ è¡Į
å¢ŀ æı´
æ²¿ éĢĶ
ä¸¤ åº¦
éĵ¸ å¸ģ
ä¸Ģ ä¸ĩ
äºĶ åįĥ
è¾ĥ æĹ©
åİĨåı² çļĦ
åĮĹ æ¬§
ä¸¤ éĥ¨
ä¸»æīĵ æŃĮ
åĽ½ éĵģ
å¨ģ åĬĽ
ï¼ļ ï¼Į
æĭĺ æįķ
ä½į ç´ł
åħ¨ å¢ĥ
ç¥ŀ æĪ·
ä»įçĦ¶ æĺ¯
äºĨ èĩªå·±çļĦ
åıĪ ä»¥
éº Ĵ
ç¤¾ä¼ļ åħļ
å«Į çĸĳ
iel d
çļĦ äºĮ
æľĪ éĹ´
ä¹ĭ æĺŁ
é¦ Ī
æķĻ ä¼ļçļĦ
ä¹° åįĸ
å¹¶ è¡¨ç¤º
æı ½
å¤ª å¤ļ
åĲį é¢Ŀ
åħ¨ æĸ°çļĦ
èĲ¥ éĢł
å² ¬
å½ķ åıĸ
æ²Ļ å°Ķ
ä¸ĸçºª æĹ¶
å¾·éĩĮ å¸Į
è¿Ļ æ¬¾
æĢ» åħ¬åı¸
èĶ ·
å¸ĮæľĽ èĥ½
éķ¿ éĢĶ
å¯¹ è¯¥
æ²¡ èĥ½
ç¦ı åħĭæĸ¯
ãģ ª
çĶŁçī© åŃ¦å®¶
æĸ° é²ľ
æ¸¯ åĮº
éĴ Ŀ
æ»¡ è´¯
å¹´ æİ¨åĩº
å¸Ī ä»İ
C ol
ä»¥ åīįçļĦ
æĹ¥ éĹ´
æĭī çļĦ
çĻ»è¿Ľå£« ç¬¬äºĮçĶ²
è¶³æĢ» æĿ¯
ä¼ºæľį åĻ¨
æ¼Ķ æĬĢ
ä¼ł åĩº
å¸ĮèħĬ è¯Ń
åĲĪåĶ± åĽ¢
çĹħ çļĦ
éĩį åŀĭ
en a
æĭĨ åį¸
æ©Ħæ¦Ħ çĲĥ
h a
ä¿¡ ä¹ī
ç®Ĺ æĺ¯
ä¸¥ åİī
å¾· éĽ·
æµ· æ»¨
èĲ ¼
å¤Ħ å¥³
çĶ±äºİ åħ¶
çĻ» åŁº
èįī æľ¬
åį¡ æĸ¯çī¹
æŁĲ ä¸Ģ
Â ²
å±± å³°
èĪ¹ èĪ¶
ä¸ĭçļĦä¸Ģä¸ª å±ŀ
çŁ¿ ä¸ļ
æį ŀ
ä¾į ä¸Ń
æľī æĹ¶åĢĻ
çĶ° ä¸Ń
è½» æĿ¾
æľĪ åĬłåħ¥ä¸ŃåĽ½åħ±äº§åħļ
å·²ç»ı æľī
åı¯ä»¥ ä»İ
çļĦçī¹ çĤ¹
çĶµ æĬ¥
çĶµ åĻ¨
ä¹ł è¿ĳ
çĤ® å¡Ķ
çļĦä¸Ģ åĲį
è¿ģ å±ħ
ä¸ĸ ä¿Ĺ
çļĦä¸Ģä¸ª éĵģè·¯è½¦ç«Ļ
èĢ¶ åĴĮåįİ
å¤§ åĮºçļĦ
èĢĮ æĪĲä¸º
æŀĦ æĪĲçļĦ
çİĩ éĥ¨
åħ¬å¸ĥ æĹ¶éĹ´ä¸º
èµĽ åĨłåĨĽ
å¼ķåıĳ äºĨ
åĻ¶ å°Ķ
iv er
åĬ¡ æ®µ
å½Ĵ å±ŀ
ä¸Ń è·¯
è¿ĺ æľīä¸Ģ
è¿Ļä¸ª è¯į
æ²¿ èĳĹ
æ½® æ¹¿
åº¦ è¿ĩ
äº¦ æĽ¾
åħ« è¾¾
åĺ ²
èµ° äºĨ
éŃĶ æĪĴ
çĪ±åĽł æĸ¯åĿ¦
æģ ¼
æ²³ å·Ŀ
B ar
ï¼Į ï¼Ī
è¿Ľ åĩº
å¼º è¡Į
ä¿® è¡Į
æ°¸ å®ī
ä¸½ çļĦ
çıł æ±Ł
äºļ çĳŁ
14 5
å¹´ çºª
åŃĲ åĴĮ
ç§ĳ çī¹
éĺ¿ åĭĴ
ä»ħ åŃĺ
æ³ķ è½®
ä¸¤ å®¶
èĩªæ²» å¸Ĥ
å»ºéĢł çļĦ
N et
æľī å¤ļ
æĭį åįĸ
12 1
æĬķ å½±
æĭľ ä»ģ
å®¹ åĻ¨
çľĭ æĿ¥
æ¬¢ ä¹Ĳ
åĲ¸å¼ķ äºĨ
åĬłå·ŀ å¤§åŃ¦
æ° °
éħ ī
èĢĥ è¯ģ
for m
çłĶ è®¨
åĪ° åºķ
åĽĽ æĸ¹
æĹł éľĢ
åĨħæĶ¿ éĥ¨
çĽŁ åıĭ
S C
åĬł è£ħ
æŃ£ éĢī
æ¸ħ æ´ģ
æµģåŁŁ ä¸º
æĲľ éĽĨ
X box
çļĦ é¦Ļæ¸¯
è½¬ åĪ°
çļĦ æķĪæŀľ
æİ¥ è¿ŀ
æĹł åĬĽ
æĮĩ åįĹ
æŃĮ è¿·
çĶµå½± ä¸Ń
ä¸Ń åįĹ
èµĽ åĲİ
ç«ŀäºī å¯¹æīĭ
æľī è¶£
æĬ Ĵ
åĪĽ å»ºäºİ
ç¤¼ éĥ¨
çļĦ éľĢæ±Ĥ
æĬĬ ä»ĸ
éŁ³ä¹Ĳ åī§
ĠC o
çļĦ èĬĤçĽ®
çŁ³ åĭĴ
æ¸ħ æĶ¿åºľ
èĥĮ åıĽ
äºİ åı°æ¹¾
æĹ¶ åľ¨
! !
çļĦ è½¦
åĽ¢ åĳĺ
èĪª è¿Ĳ
çŃī æµ·åŁŁ
ä»ħ åľ¨
A åŀĭ
å±± æĺ¯
åĸ· å°Ħ
C at
ï¼ļ '
æĢ» åĨłåĨĽ
ä¸ŃåĽ½ åı¤ä»£
åĲĳ ä¸Ĭ
12 7
ç»´ çī¹
å¸¦ åĽŀ
çĶŁäº§ æĢ»åĢ¼
åģľ åĬŀ
äºĨä¸Ģ ç³»åĪĹ
in o
è¡ĮæĶ¿ æĿĳ
çľĭ åı°
çİĩé¢Ĩ çļĦ
å½ķéŁ³å®¤ ä¸ĵè¾ĳ
ä¹łè¿ĳ å¹³
çļĦ æĸĩåĮĸ
æĺŁ åº§
çĻ½åŀ ©çºª
g h
åı¯ çĶ¨äºİ
S uper
æ® ´
åĲİæĿ¥ æĪĲä¸º
çļĦ å±ħæ°ĳ
åıĤ çħ§
äº¤ äºĴ
ç»ĪçĤ¹ ç«Ļ
å¤§ åľ°
èĢĮ ä¸İ
æĪ´ ç»´
ä¸ªæľĪ åĲİ
ç¨į åĲİ
æ´¾ ç³»
u ro
åħ¬ åŃĻ
éĶ Į
å¸¦ åĬ¨
ç¤¼ çī©
è¯¸ å¡ŀ
ä¸ī åı·
æ°ĳä¸» åħ±åĴĮåĽ½
æĹ¥åĨħ çĵ¦
éĩĮ å¸Į
ä¸ľ åį°åº¦
ä¹Įæĭī åľŃ
æĬµ åĪ¶
æ°§ æ°Ķ
çĲ Ľ
æĹ¥æľ¬ å¸ĿåĽ½
è¯Ħ çº§
åĪĩ æĸŃ
t ain
è¯¥ å±ŀ
çİĭ æľ±
å°¼ çļĦ
ä¸ĢèĪ¬ æĿ¥è¯´
å½°åĮĸ åİ¿
w ay
éľ ¹
æīĭ æĮģ
çłĶç©¶ èĢħ
ç¥ĸ æ¯į
æľĪ åıĤåĬł
åĬł å¿«
çĻ½ äºĳ
å®Ī åĨĽ
ç¬¬ä¸ī åĲį
æ°ĳä¸»ä¸»ä¹ī äººæ°ĳåħ±åĴĮåĽ½
æĺ¯ éĢļè¿ĩ
å¤§ éĥ½
ç»´ å¸Į
å°Ħ ç¨ĭ
çļĦ çļĦ
å¤© åŃĲ
D D
æĺ¯ ä¸ĸçķĮ
é½Ĳ åĽ½
ä¹Ĵä¹ĵ çĲĥ
ä½ ¥
å½Ĵ è¿ĺ
åĪĨ ä¼ļ
ä¾ ¬
25 00
å¥ĩ è¿¹
è¾ħ éŁ³
S E
è¡ ¬
å¾Ī å¥½
æŃ¤ ä¹¦
è° ¬
è½¬ åĮĸä¸º
çŃ¾ åĲį
æľĿé²ľ æ°ĳä¸»ä¸»ä¹īäººæ°ĳåħ±åĴĮåĽ½
ä¸Ĭ åı°
æĢ» é¢Ŀ
éĩĳ åįİ
1 19
ç£ Ĳ
æķ£ å¸ĥ
å®ĩ èĪª
I nt
åĽłä¸º ä»ĸ
å¤ĸ ç§ĳ
åĽĽ åĽ½
å¤± åĪ©
èĹı ä¹¦
ä½ı æĪ·
æµ·åĨĽ çļĦ
åĳĺå¤ĸ éĥİ
æĹ¥ æİ¨åĩº
åı² è¯Ĺ
ä¸ĢèĪ¬ è®¤ä¸º
èĭıèģĶ çļĦ
çĸĹ æ³ķ
b le
er o
åı¯ä»¥ å°Ĩ
æ²Ļ æ»©
ä¸Ĭ æĿī
æļ´ éĽ¨
çļĦ ç²¾ç¥ŀ
äºĨ åħ¶
åħ¬ å¢ĵ
éª ¼
å®¢ åľº
äºĮåįģ åĽĽ
åŃ¦ åĴĮ
ä¹Ł ä¸İ
å² Ķ
çŁ³åĻ¨ æĹ¶ä»£
å°¼ åŁº
12 4
èĩªå·± æĺ¯
is c
åľ¨ è¿Ļç§į
é©¬ çī¹
æ²¡ æĶ¶
çļĦ èĩªçĶ±
Ġ :
æ¢ ³
ç©Ĩ å°Ķ
Ø §
Ġ or
æĽ´ é«ĺçļĦ
éĻ¶ çĵ·
2 10
ä¸į æĥ³
æīĺåĭĴ å¯Ĩ
æľī åĬŁ
åıĤ æĪĺ
çªģ è¢Ń
åħ» æ®ĸ
å¤§ æ´ĭ
JR ä¸ľæĹ¥æľ¬
n et
åħ± çĶ¨
ä¸Ģ èīĺ
å¸Ĥ çº§
çº¦ æĹ¦
æ£ µ
åıĳå±ķ æĪĲ
äºĭä»¶ ä¸Ń
T r
åĮĹ å²¸
éĻ¤ å¤ĸ
çİī ç±³
åľ°çĲĥ çļĦ
Ġc om
å¿į èĢħ
å·ŀç«ĭ å¤§åŃ¦
æŁ¥ è¯¢
åľ°ä¸ĭ éĵģ
å®ł çī©
çģĮ ä¸Ľ
å½ĵ ä»Ĭ
æĻ® é¡¿
ik e
äºĨ åľ¨
æ°ĳ äºĭ
çĶµ éĺ»
ä¸° èĩ£
ä¸º ä¾ĭ
åĪĨ éĺŁ
åĮĹ å¤§
èĿ ĩ
çļĦ åĴĮ
çļĦ å½¢è±¡
å¿ Ĵ
åĢ ļ
æĥħ äºº
äºĨä¸Ģ åº§
åįķ è½¦
æ¸ħ éĻ¤
å¢¨ å°Ķæľ¬
æĿ¥ è¿Ľè¡Į
é©¬ åĵĪ
çľģ ä¼ļ
åıĤ æĶ¿
æĻ¯ åĮº
æĿ¾ æ±Ł
çļĦ è½¦ç«Ļ
çļĦ é¢Ĩå¯¼
æ°´ æºĲ
åŃĹ åŃĲ
åĽłä¸º å®ĥ
çļĦ ä»·æł¼
ä¸ľ ç»ı
è¿ĩ å¤ļ
è¯¥ éķĩ
B E
æľī ä¸ª
å¾Ĺ è´¡å£«
å®¢ éĩı
æ¿Ģ åħī
åĴĮ ç¬¬
ä¸ĭ è¡¨
åĲĪ ç§°
åľ¨ æµ·
è¡¨ å½°
}- ãĢģ
è¿Ļä¸Ģ çĤ¹
çİ°ä»£ çļĦ
S e
en er
æĭĽ æĶ¶
æıŃ éľ²
éĶ Ĥ
åĳ¨å¹´ çºªå¿µ
éľ¹ éĽ³
æīĺ å¤«
åį¢ æ£®åł¡
ä¹ĭ äºº
åħĥ èĢģ
å¯Į è£ķ
è½» åŀĭ
ãĢı ï¼Į
D F
çĶ± ä¸ŃåĽ½
è¯¥ å¯º
è½¬ åĮĸ
è¾ĸ å¢ĥ
it al
éĹª çĶµ
åĵĪèĲ¨ åħĭæĸ¯åĿ¦
çļĦ çĶŁäº§
åįĴ äºİ
ç«Ļ èĩ³
çıį å¦®
çħ¤ çĤŃ
é©¬åħĭæĢĿ ä¸»ä¹ī
çĳ ¾
åİĭ åĪ¶
op h
èħĵ åĬĽ
æĺ¯ ä¸Ń
é¦ĸ éķ¿
æĶ» è¯»
åĪĺ éĤ¦
D r
ä»ĸ æĭħä»»
åħ Ģ
äºļ å°Ķ
äºļ ä¼¯
åįİ ä¸Ń
çļĦ åĩºçİ°
å®¢ è§Ĥ
é¸ ½
çħ§ æĺİ
å®ĮæĪĲ çļĦ
çŃ¾ ä¸ĭ
åĳ³ éģĵ
åľ¨ è®¸å¤ļ
äºĶ åĲį
ä»Ĭå¤© çļĦ
èĬ± å²Ĺ
åŃ¦èĢħ è®¤ä¸º
çķª èĮĦ
ä»ĸ çİ°åľ¨
ç© ¹
åĸĦ äºİ
æ½ľ æ°´
èįĨ å·ŀ
èĲ ¤
æĦŁ åħ´è¶£
åĬł çī¹
189 2
äºĨ è¿Ļä¸ª
ä¸ĸ è¢Ń
çĬ¶ åħĥ
èµŀ æī¬
å¸Ī çļĦ
å§Ķåĳĺ éķ¿
èħ ķ
æ¶Ī åĮĸ
å°½ç®¡ å¦ĤæŃ¤
éķ¶ åµĮ
åķĨ åŃ¦éĻ¢
ĠO r
è¡Į çľģ
é½¿ è½®
åħĪåĲİ åľ¨
å¨ ĩ
åħī å¤į
èı ĩ
èīº åĳĺ
è¡° èĲ½
æĹ¥ åŃĲ
ç§ĳ ç»´å¥ĩ
é¦Ļæ¸¯ å¤§åŃ¦
æĹ¥ æľĪ
çŁ³ çģ°
çļĩ å®«
åĨħ åŃĺ
å¼ķèµ· çļĦ
èŀº ç§ĳ
æķĻç§ĳ æĸĩ
å®ī å¤§çķ¥
è®© ä»ĸä»¬
çļĦ çĽ®çļĦ
æĸ §
ä¸Ńå¤® äººæ°ĳæĶ¿åºľ
27 0
æĳ© æĵ¦
éª¨ éª¼
188 6
é«ĺ æ¡¥
å¤§ èĥľ
ä¹ĭ å½¹
å¥³ åıĭ
æŀª æ¢°
u te
åıĺ éĢŁ
3 30
åĲİ åĨį
âĢĿ ï¼īãĢĤ
æĭī èĦ±
çº¿ ä¸İ
ä¼ł éĹ»
çłĶç©¶ äººåĳĺ
åĵĪ æł¹
é¸ ł
æ´ĭ åŁº
åı· æľĪåı°
åįİ æ²Ļ
æķħ å®«
ä¸¾åĬŀ äºĨ
å¢ĵ èĳ¬
åĮº è®®åĳĺ
éĿĴ è¡£
æĺ¯ä¿Ħç½Ĺæĸ¯ èģĶéĤ¦
äºĮæ°§åĮĸ ç¢³
b ur
åİĨåı² å»ºçŃĳ
æ°ĳ ä¿Ĺ
é«ĺ åĩº
N e
å¹´ åĿĩ
ç§ ĥ
æŀ ķ
èĢĮ è¿Ļ
è¿ĩ æ»¤
å½ĵ å¹´çļĦ
åįģ ä½Ļ
æĪ· ç±į
åĲĮ çŁ¥
çĶļèĩ³ æĺ¯
éĿĴå²Ľ å¸Ĥ
åĪ© å°Ķ
éģĵ æł¼æĭīæĸ¯
åķĨ ä¼ļ
æł· å¼ı
å°ĸ æ²ĻåĴĢ
ä¸Ńå¤® å§Ķåĳĺ
ãĤ Ĭ
èĪŀ æĽ²
å¥ī å¤©
è¯¯ å·®
å²Ľ åĴĮ
æĳĦ æ°ı
åĲĪ ä¸Ģ
12 6
å¼ł åĽ½
ä¼¦ è¥¿äºļ
åį¡ç½Ĺ èİ±
æĭīèĦ± ç»´äºļ
æľĪ æĹ¶
ĠEn ter
æĶ¾å°Ħ æĢ§
å¯Ĩè¥¿ è¥¿æ¯Ķ
ä¿Ħ æ¯Ķäºļ
åľ¨ å¤©
æĸĩ æ¡£
åħļ éĥ¨
å®£ ç»Ł
è¢« ä¿ĺ
çłĶç©¶ å®¤
åŁĥ æĸ¯
ä»Ļ å¥´
7 50
å¹´ æĹ¥æľ¬
å·´ åĪ©
åĽŀ æĹı
åįĹ éģĵ
éĿ©åĳ½ åħļ
åŁĥå¡ŀ ä¿Ħæ¯Ķäºļ
åľ£å½¼å¾Ĺ åł¡
è¯ ĥ
åħ¨ åĨĽ
çº¦ å®ļ
è®¸å¤ļ äºº
çļĦ å¥½
ä¸º çºªå¿µ
æļ ±
ç¼ĸ ä¸º
éĢ¼ è¿ĳ
å¿ĥ çģµ
æł¡ æĸ¹
è¿ª å°Ķ
æ¢ħ åħĭ
æĩ ĭ
ç¬¬åįģä¸Ģ å±Ĭåħ¨åĽ½æĶ¿åįıå§Ķåĳĺ
å¤§ å±łæĿĢ
æ· ŀ
åį° åľ°
å¹´ çĶµå½±
æĿ¥ è¡¨ç¤º
èĭı è¾¾
æĭħä»» åħ¨åĽ½äººå¤§ä»£è¡¨
el la
C on
çļĦ é»ĳ
åīį ä½ľ
çĽ´ è¾¾
èıĬ ç§ĳ
çĶ² å£³
éħį å¥Ĺ
ä¹Ļ çº§èģĶèµĽ
åı· ç§°
åĩł æ¬¡
ä¸» çļĦ
ä¹Ł åĽłä¸º
188 4
é²¶ ç§ĳçļĦåħ¶ä¸Ńä¸Ģç§į
çļĦ çĲĥéĺŁ
å¤« åħ°
çº¢ ç£¡
æİī äºĨ
èĮ¨ åħĭ
æĸĳ çĤ¹
) .
éĽĨ èµĦ
is m
R S
åĲĳ è¥¿åĮĹ
ä¼¦ çĲĨ
æĲ ı
çļĦ åħ¬åı¸
çļĦäºº ç±»
éģĩ è§ģ
åįģåĽĽ åĲį
å¡ŀæĭľ çĸĨ
ä¹Ł ä»¥
åĪ» æľī
è¡ «
ç¤¼ åłĤ
çĢ Ľ
å¸Ĩ èĪ¹
çĪ¸ çĪ¸
çİ»åĪ© ç»´äºļ
h am
å¤© æīį
ãģ ¾
çļĦä¹¡ ä»½
% ãĢģ
åħ¨ å®¶
çīĩ å°¾
å¹´ å¤ıå¤©
çİĭ åºľ
ç¾İåĽ½ æĶ¿åºľ
éļı æĹ¶
æ»¡æ´² åĽ½
ä¸į åĬŀçĲĨ
ä»ģ å®Ĺ
æĺ¯ç½Ĺé©¬å°¼äºļ çļĦä¹¡ä»½
å·¥ åŃ¦éĻ¢
å®ĺ è¯Ŀ
æįķ æįī
è¿·ä½ł ä¸ĵè¾ĳ
çļ ĵ
ãģ į
åħ¶å®ŀ æĺ¯
çļĦ çĪ±
å»º çļĦ
äºĮ æľŁ
é£ŀ å¾Ģ
å·¥ä¸ļ åĮº
æ³ķ è¥¿æĸ¯
æĬķ è¯ī
æĤ² åī§
O P
å¼Ģ åħĥ
æľĢç»Ī äºİ
åĽ½ æŃĮ
åĪĨ éļĶ
ä¸ļ çķĮ
åĮĸ å¦Ĩ
æĺİ çĻ½
æ½® æµģ
188 8
èĳ¬ ç¤¼
çļĦ èĮĥåĽ´
åĽĽ å¤Ħ
éĩĬ è¿¦
åħ±éĿĴ åĽ¢
ä¸į åĲ«
éĽĨä¸Ń èĲ¥
åħ¥ è¯»
åĺī å®ļ
ç¨³å®ļ æĢ§
æ± ŀ
èĹı æĹı
çī¹åĪ« æĺ¯åľ¨
çļĦ ä¹¦
å¸ĥ è¾¾
æĽ´ å¥½
ĠUn iversity
çļĦ æĹ§
çļĦ å®īåħ¨
æİ§åĪ¶ åĻ¨
ä¸ľ å±±
ä¸¤ ç«¯
ç³»åĪĹ èµĽ
åĨ¬ å¤©
ä¹¡ æĺ¯ç½Ĺé©¬å°¼äºļçļĦä¹¡ä»½
åŃ£ é£İ
ĠR o
äºĮ åįĥ
æĮĩ åĲĳ
ä¸į åĥı
ãĢį ï¼īï¼Į
ç®¡ å¼¦
åįģä¸ī åĲį
ä¸ī éĩį
å°Ĩ è¯¥
é©¬ åĮ¹
æ£ £
æĬ¥ åĲį
èŃ¦ åį«
è¡° éĢĢ
åĦĴ å®¶
åĽ½ å®ī
ä¹Ł å¾Ī
å¤ĸ åĢŁ
æ¯Ķ çī¹
éŁ³ä¹Ĳ èĬĤ
é½Ĳ äºļ
äºĨä¸Ģ ä»½
ich ael
é©¬è¾¾åĬłæĸ¯ åĬł
ä¸º ä¸Ń
åĪĨ è¡Į
å¹¶ åĪĹ
çīĩ çļĦ
èĤ¯å¡ĶåŁº å·ŀ
èĭ ŀ
in al
çľĭ åĩº
ç¥ĸ åĽ½
åĵºä¹³ åĬ¨çī©
å ¶
èĩª å¹¼
åĬ¨ èĦī
åħ¨ æ¸¯
æĸ° ä»»
çİ° è¡Į
åı° è§Ĩ
ä½¿ ä¹ĭ
æ±Ł æ¹ĸ
å¤§ åŁİå¸Ĥ
åĪĨ æīĭ
çĵ¦ è§£
O K
z a
åĴ ª
ä¸ľ æ¬§
æł¼ çļĦ
éĵģè·¯ åħ¬åı¸
ä¸Ģ çıŃ
ä¸Ĭ èİ·å¾Ĺ
ä¸į æĺĵ
ç³» ä¸»ä»»
le ct
Ġ [
æľĢç»Ī ä»¥
å¤§çº¦ æľī
éĢĨ è½¬
æĺ¯ çĶ±äºİ
ä¹ĭ æĹħ
åĲĮæĹ¶ åľ¨
èĢķ åľ°
çļĦ å¼Ģåıĳ
è¥¿ æĻĭ
ç¬¬ä¸ī ä¸ª
ä¼ĺ åĮĸ
å¤ĸäº¤ åħ³ç³»
åĲį å°Ĩ
äº¤ ä¼ļ
åºķ æłĸ
åĩ¯ å°Ķ
å·´å£« æĢ»ç«Ļ
éĽĩ ä½£
æ³ķ å±ŀ
ä¹Įåħ¹ åĪ«
èĪ ·
ç¥ Ĥ
é©¬ å£«
æ®ĭ çĸ¾
åħ¶ åĲįç§°
åŃĲ å¼Ł
è¡ ŀ
å¤ļ åªĴä½ĵ
F F
é«ĺ ç¥ĸ
è·¯ éĿ¢
åĨħéĥ¨ çļĦ
å®¢æĪ· ç«¯
åĽļ ç¦ģ
è¢« æ¯ģ
17 5
éĢĥ èĦ±
ä¿Ĺ åĲį
ç¦¾ æľ¬ç§ĳ
éªļ æī°
çŁŃæľŁ å¤§åŃ¦
çĦ ī
å½± éĽĨ
åĬ¡ å±Ģ
+ +
ä¸İ åĲĮ
éģį å¸ĥ
ä¸ĭå±ŀ çļĦä¸Ģåº§åŁİå¸Ĥ
åħ ľ
è¯¥ å¹´
çĳ Ľ
åī¯ æķĻæİĪ
ç®Ģ æĺĵ
å¯Į åħ°
çŁ³ å®¶åºĦ
è½» å¾®
èľ Ĵ
åįķè¡Į æľ¬
çļĦ çĻ½
çĽ¸ éģĩ
å°± è¦ģ
æĿİ åħĭ
èį Ģ
éĺ¿ åįľ
è¶Ĭ è¿ĩ
ä¾¿ å®ľ
ä¸ºè¾Ĳé³įé±¼çº² é²¤
æłĸæģ¯åľ¨åºķ ä¸Ńå±Ĥæ°´åŁŁ
è¥¿ åŁŁ
å¸ĥ éĩĮæĸ¯
çĽ® åĩ»
äºĨ ä¸ŃåĽ½
B åŀĭ
æĺİ æľ«
å°¼ åħĭæĸ¯
é¢Ħ çķĻ
P er
t d
å¾· æĸĩ
åĩ» æ²ī
åī¯ ä¼ļéķ¿
ç»´åŁº çĻ¾ç§ĳ
ï¼ĪãĢģ ï¼ī
æīĢè¾ĸçļĦä¸Ģä¸ª æĿĳ
ä¸Ģ éĥİ
è¥¿ æ¹ĸ
å§ĭ ç¥ĸ
189 3
è·¯æĺĵæĸ¯ å®ī
æĸ° ç½Ĺ
æĭľ è®¿
çĤ® å¼¹
å®īä¸ľ å°¼å¥¥
I X
åľº éĿ¢
å§Ķåĳĺä¼ļ åī¯ä¸»ä»»
èĪ¹ éķ¿
åĢĴ å¡Į
çļĦé¦ĸ åºľ
æ¹¿ æ¶¦
J e
ãĢĬ ãĢĭãĢĤ
æĮĩ çļĦ
åī¯ å¸Ĥéķ¿
çĮĽ çĥĪ
è¢« å¹¿æ³Ľ
å¼¹ ç°§
åŃ¤ ç«ĭ
C o
æľī ä¸īä¸ª
æĹ¥ åľĨ
è¢« åĪĹåħ¥
çĶ» ä½ľ
æŃ¼ çģŃ
ä¸īéĥ¨ æĽ²
D avid
N C
ä½¿ åĳ½
è¿ŀ çº¿
188 7
ãĢī ï¼Į
æµ·å²¸ çº¿
è¿Ľ äºĨ
é©¬ åı¯
ä¸ĸçķĮ éģĹäº§
æĥ³ åĥı
çĮ® ç»Ļ
æ½® å·ŀ
æĳĶ è§Ĵ
åıĳ åĩºçļĦ
éķ¿ ä¹ħ
åĴĮ åĽ½å®¶
ä¹ĭ åŃĻ
å§¿ æĢģ
é©¬ èµ«
å±ŀ ä¸ĭ
çļĦä¸Ģ åĪĩ
åĲ¦ å®ļ
Ġw h
æ·® åįĹ
äºº éĢī
éļı åĲİçļĦ
æĢĿ ç»´
æĻļ ä¼ļ
çļĦåľ° çĤ¹
çļĦ åº§æłĩä¸º
åľĨ æŁ±
æī¾ åĩº
æĭīä¸ģ æĸĩ
" (
éĶ Ī
åİĭ è¿«
åĴĮ èĭ±åĽ½
å¹² éģĵ
å¸ĪèĮĥ åŃ¦éĻ¢
æľī ä¸¤ç§į
èģĶ éĺŁ
æıĲ éĨĴ
åıį æ´¾
ä¹ĺ è½¦
é©» åįİ
ĊĊĊĊĊĊĊĊ ĊĊ
éĢĥ è·ĳ
åı¬ åĶ¤
å½±è¯Ħ äºº
æľį ä»İ
æŃ» äºĨ
æļ´ é£İ
æĸĩ åĩŃ
æ¼Ķ åĩºçļĦ
åıį æĶ»
ar s
ç¨İ æĶ¶
åįģåħŃ åĲį
æ´»è·ĥ äºİ
ä¸ľ èĩ³
æį §
è¿ª åįĹ
åŃ¦çĶŁ ä¼ļ
å¤© é¹ħ
æ°¸ åº·
éĢīæĭ© äºĨ
çļĦ äººçī©
åıª éľĢ
å½ķ åĥı
èİ±èĮµ åħ°
i or
ç§ĳ çĽ®
æ°´ æīĭ
åħī çº¿
ç¼º çĤ¹
ĠO S
ä¸īè§Ĵ æ´²
å·´å¸ĥ äºļ
æĪ į
æľī æľºä¼ļ
çİ° å½¹
ç¾½æ¯ĽçĲĥ åĽ½éĻħèµĽ
çļĦ ä¾ĭåŃĲ
å¤į æķ°
çģ« çĦ°
å¡« è¯į
æľī æĿĥ
åĨĽ è¡Ķ
æīĢ ä½ľ
ĠSt ud
å¤ļ äºİ
å²Ľ ä¸ĬçļĦ
åĨĻ ä¸º
æ¿Ģ åıĳ
çŀ »
æľī åĪ«
ç½Ĺ éĤ£
ä»ĸ å¼Ģå§ĭ
ç»´ çĶŁç´ł
åħ« å¼º
å¿Ĺ æĺİ
åºķ å±Ĥæ°´åŁŁ
ä¹ĭ å®¶
ç»Ħ è£ħ
éĿ¢ç§¯ åĴĮäººåı£
åºĨ åħ¸
åıĤä¸İ èĢħ
çĽĸ å°Ķ
è´¢æĶ¿ éĥ¨
å¾Īå¿« å°±
èĻĲ å¾ħ
l an
åħ ĸ
çĶ± é¦Ļæ¸¯
å®īè£ħ åľ¨
äºº éĢł
é¾Ļ å±±
15 5
éĻĪ è¿°
ç§» èĩ³
è¯ĳ ä½ľ
çīĽ æĸ¯
èİī ä¸Ŀ
å¸ĤæĶ¿ åİħ
ä»¥ åħį
çĵ¦ æĸ¯
æ¯Ĵ æĢ§
åĲ¸è¡Ģ é¬¼
" |
C A
åĴĮ åįĹ
æĶ¿ åı¸
èģĶ æīĭ
çļĦä¸Ģ æ®µ
èľ ¿
è·Ŀç¦» é¦ĸåºľ
æĸ°çĸĨ ç»´åĲ¾å°Ķ
ç±į è´¯
äºĮæ¬¡ å¤§æĪĺ
çİĭ å®¶
ç»ĵ æĻ¶
ç«¯ çĤ¹
èĥĮ éĥ¨
æ´ŀ ç©´
åı¯ å®¹çº³
åįģäºĶ åĲį
c on
ä½Ĩ ä»ĸä»¬
éĹ¨ åı£
è½» æĺĵ
æĻĭ åĽ½
å¹¸ è¿Ĳ
åĬ¨ æ¼«
åģ¶ çĦ¶
æĳĦå½± å¸Ī
ç»ı åĽ½
åĪ¶ å¤ĩ
ãģ «
åĥ§ äºº
ä¸Ģ å¤Ħ
åįģ ä¹Ŀå¹´
çĤ ¬
å¤® è§Ĩ
æľĪ æŃ£å¼ı
æµ ļ
å®ī å¸Ĥ
è¾ĵ éĢģ
ç½ª çĬ¯
å¥ł åŁº
ä¸Ģ ä¸Ń
å¯Ĩ èĭıéĩĮ
ï¼ħ ï¼Į
éľ Ĩ
çļĦ æĶ»åĩ»
åĴĮ æĹ¥æľ¬
åįı åĲĮ
ber t
æĸ° å®¿
âĢĿ âĢľ
ï¼ħ ãĢĤ
ä½Ĩ å®ŀéĻħä¸Ĭ
æĹħ ç¨ĭ
æ´ Ĵ
çĶŁ å¹³
èµ· çļĦ
èĭ±åĽ½ ä¼¦æķ¦
ä¾§ å¼ıæľĪåı°
åĬª æĸ¯
olog y
å¤§ ä¸Ń
çī¹ åĬ¡
ä¼ļ äº§çĶŁ
ç¼ ļ
åĬłæĭ¿ å¤§çļĦ
å¯¹ ä¸ŃåĽ½
åī¯ ç§ĺä¹¦éķ¿
ä¸ĩç¾İåħĥ çļĦ
é©¬ èµĽ
åĲĳ å¤ĸ
åį¡ æ´Ľæĸ¯
çļĦ åıįåºĶ
çļĦ åı¤
å¹´ ä»¥åīį
çİ° æľīçļĦ
ĠA ss
å¸½ åŃĲ
æĨ ¾
Ġ at
æĹ¥ åĲ¯çĶ¨
ä¸Ĭ ä¼ł
ä¿¡ å¿ĥ
ä»£ ä¹ĭ
éĥ½ æĺ¯åľ¨
ãĥ Ī
è¯Ĺ éĽĨ
è¾Ľäº¥ éĿ©åĳ½
ä¼ļ æĪĺ
æ°´ åİ¿
åı¯èĥ½ æĮĩ
åĹ ľ
çİĽæł¼ ä¸½
â ħ
ä¹ĭ åıĺ
åº¦ éĩı
çļĦ æĬ¥åĳĬ
åĽº å®ļçļĦ
å¿ł è¯ļ
æľīæīĢ ä¸įåĲĮ
åĴĮ çļĦ
éĹ¨ å°Ĩ
çŁ³ åĪ»
. ï¼ī
è¡¨ åĨ³
éĩĳ éĻµ
èĴĤ äºļ
çļĨ æľªçŁ¥
åıĳ æºĲèĩª
çĿ ¹
èĶ Ĺ
âĸ ¡
éĳ «
åĩ¯ æĴĴ
æĶ¹å»º ä¸º
è¯¥åľ°çļĦ éĿ¢ç§¯åĴĮäººåı£
è¯¥åľ°çļĦéĿ¢ç§¯åĴĮäººåı£ çļĨæľªçŁ¥
æķĻ æĿĲ
å±± æľ¬
åŁİ ä¸Ń
S H
å¹³ æĹ¶
å·´ æŀĹ
å½Ĵ åĽ½
å¾Ĺ å¤ļ
æķĻç§ĳ ä¹¦
äºİ æĺ¯åľ¨
æĭī æł¼
ç¾İåĽ½ éĻĨåĨĽ
åº§ çļĦä¸Ģ
æķ´ ä¿®
å±ŀä¸ĭçļĦä¸Ģä¸ª æ¤įçī©ç§į
æĸ° åºĦ
ç§° å¸Ŀ
æłĩ è¯Ĩ
åĨĻ ä¿¡
çº¸ å¸ģ
ç«ĭ éĿ¢
æīĵ åĩº
ç¼ĸ çºĤ
ç¬¬ä¸ī ä»£
çĨ ¹
æĪĲåĬŁ åľ°
æĸĩåŃ¦ å¥ĸ
èĶ· èĸĩ
I BM
åľ¨ è¢«
èĬ ¸
æ²³ æ°´
æŃ¦ å¾·
åĺ ±
ð ©
åįĩ èĩ³
å¹² æĹ±
éĴŁ æ¥¼
W illiam
æĺ¯ èĩª
ç¬¬äºĮ ä½į
çĶµ éĵģ
13 7
çĶ· åıĮ
åºķ è´¨
çĽ¸ éļĶ
å¼¹ éģĵ
æľĪ åı·
æĬ ¨
æĴ ķ
ä¸½ ä¸Ŀ
çļĦäºº ä»¬
æľī åĬ©äºİ
èĭ¥ æľĽ
èĥ °
å¹¶ å°Ĩåħ¶
ä¿® ç¼®
ion s
ĠL ove
éģĩ åĪ°äºĨ
æīĢéľĢ çļĦ
åĽŀ åĪ°äºĨ
èľ¿ èľĴ
éĻ ¡
ä¸į å®ī
ç³ Ļ
æĶ¶ ç¼©
æĹħæ¸¸ ä¸ļ
äºİ æĹ¥æľ¬
å¸Ĥåľº çļĦ
çĽ¸ä¼¼ çļĦ
æķĻ çļĩ
å¤ĸ å½¢
æĶ¶ åıĸ
ç¯ ¡
åıĳçĶµ æľº
æŃ£ åĢ¼
æ·¡æ°´ æµģåŁŁ
éĩĳ æŃ£
å¤§åŃ¦ åĴĮ
çĽĳ æµĭ
ä¸ĭ ä¸Ģä¸ª
èĢĮ ä»ĸ
æķĻ æ´¾
æĶ¹éĿ© å¼ĢæĶ¾
æĺ¯ çĽ®åīį
éĿ ¶
ä½¿ å¾Ĵ
ç§ĳ ç´¢
æ£Ģå¯Ł éĻ¢
çī© æµģ
éĢī é¡¹
æĽ¾ åıĤä¸İ
æķĮ å¯¹
çŃĶ æ¡Ī
æĢ» ä¸»æķĻ
å¼Ĥ æĢ§
æĺ¯ åŁºäºİ
è·¯ æĸ¯
æ¨¡ åĿĹ
åĬĽ åĴĮ
18 61
å¿ħ éľĢ
æ±ĩ æĬ¥
5 50
ä¼ı å°Ķ
æº ľ
ĠS er
æĭĽ å¾ħ
åįģä¹Ŀ åĲį
æľī è¶ħè¿ĩ
è½¬ è¿Ĳ
ç§ģ æľī
å°ıæĹ¶ åĨħ
å¸ĥé²ģ æĸ¯
èĮ ±
çĶ±äºİ åľ¨
çļĩ åŃĲ
l in
« çĹ
åĴĮ M
å¼º å¥¸
çĽ®æłĩ æĺ¯
éĤ® ç¥¨
æľīæĹ¶ ä¼ļ
T L
å¤ļ å¤Ħ
æĢ» ç¼ĸè¾ĳ
åģı åĮĹ
åįıåķĨ ä¼ļè®®
çĶŁ åľ¨
é«ĺ åĬłç´¢
æĮ¯ åħ´
å¯Įåħ° åħĭæŀĹ
ä¸Ģ ä¸Ģ
åįģ ä¸ĩ
éĥ½ æĺ¯çĶ±
éĺ¿ èĲ¨
çĻ½ å®«
ä¸° çĶ°
æ·· åıĮ
åĽ½å®¶ åĴĮ
o on
åı°åĮĹ åİ¿
åĨĽéĺŁ çļĦ
åľ¨ åħ¶ä»ĸ
åĴĮ æ°´
å¤ª åĴĮ
ç¤¾ä¼ļ åŃ¦
åľ°æĸ¹ æ³ķéĻ¢
æĺİ å¸Ŀ
ä¸¾ åĬ¨
ãĤ ¯
è¿½æº¯ èĩ³
å±¥ è¡Į
å¹´ å¹³åĿĩ
ä¸Ģæł· çļĦ
å¹´åº¦ æľĢä½³
åįģä¸ĥ åĲį
åĪĩå°Ķ å°¼
i OS
æĬ¥ ç«ł
å¹¿æĴŃ çĶµè§Ĩ
åıĽ åĨĽ
R O
å¹´ åĨ¬åŃ£
éĩı ä¸º
éªĳå£« åĽ¢
æ¬§æ´² çļĦ
åĿļ åĨ³
éļĲ å±ħ
è§ ħ
çķĮ çº¿
éĻĨ ä¸Ĭ
åľ°çĲĥ ä¸Ĭ
é¢Ĩè¡Ķ ä¸»æ¼Ķ
ãĢīãĢģ ãĢĪ
è¡Į è¿Ľ
ä¸İ åı°æ¹¾
è¿Ļ ä¸¤ç§į
ä¸ĵ å±ŀ
ä¸Ģèĩ³ äºĶ
G DP
åĬ¨åĬĽ åŃ¦
æĬ¨ åĩ»
å¤± è¯¯
å»ºç«ĭ ä¸Ģä¸ª
Ð »
ä¸ĭ å±Ĥ
ĠO ne
çļĦ èĬ±
éģĵ ä¸Ń
çĪ± ä¸ģåł¡
çļĦåľ° éĿ¢
å©Ĩ ç½Ĺ
åŁ¼ çİī
ä¸ª éķĩ
æĶ¹ ä»¥
æµ¦ ä¸ľ
è§£åĨ³ æĸ¹æ¡Ī
èµ¶ åĪ°
åĮĸ çī©
ä¼¯ åħĭ
è´¥ ç»Ļ
éĩĳåĥı å¥ĸ
æĮīå¯Ł ä½¿
å®Ĺ çļĦ
æ²Ļ çļĩ
çļĦ å¯¹è±¡
åįı åĴĮ
çļĦ åįĹ
å¤ļ åįĬ
åĮĹ åĳ¨
æ¡ ©
æŀĹ æĸ¯
çł´ è£Ĥ
ĠR ec
äº® åº¦
çĮİ çī©
é¢ħ éª¨
èĽ ¾
æľīä¸Ģ æĿ¡
æİ§åĪ¶ äºĨ
çļĦ çº¢
ä¹Ł åĽł
18 76
éĤ£ ä¸į
æľ¨ é½Ĳ
æĭīä¸ģ ç¾İæ´²
ĠCol le
çļĦ æľįåĬ¡
æĹ¥ æ¸Ĳ
åħ¬ çĲĨ
è¢« çĶ¨äºİ
äºĭ åıĳ
å®ī æģ¯
åŁŁ åĲį
èħ¾ åł¡
åľ¨ ç¬¬äºĮæ¬¡ä¸ĸçķĮå¤§æĪĺ
åıĤ è®®
èģļ åĲĪ
çļĦ è¯Ħä»·
å½ĵ ä»ĸ
âĦĥ ï¼Į
è¯Ń æĸĩ
åºķ å±Ĥ
çŃ¹ å»º
å¹´ ä¹ĭéĹ´
ä¸Ń åĩºçİ°
ä¸į å½ĵ
æ¯ı å¹´çļĦ
åĻ ¬
éĺ´ éĺ³
ä½ľä¸ļ ç³»ç»Ł
ä¹ĭ å¿ĥ
ç¬¬åĽĽ æ¬¡
æĽ¾ç»ı æĺ¯
æº¶ åīĤ
æļ¹ ç½Ĺ
çİ º
æŀĹ ä¸ĭ
ä¾¿ äºİ
æķĪ èĥ½
å¹´ä»£ åĲİæľŁ
æĽ ľ
éķ¿ èĢħ
äººåı£ çº¦
çıł å®Ŀ
ä¸Ģä¸ª ç§į
èĲ ĥ
å²Ľ å¼ı
è´µ å¦ĥ
ç¯ĩ æĸĩç«ł
èļ ķ
åıĸæ¶Ī äºĨ
åıĸ æĻ¯
è¿Ļä¸ª åĲįåŃĹ
å¯» å¸¸
è®¸åı¯ è¯ģ
æ¯Ķ æĸ¯
ç©º éļ¾
è®© å¥¹
æ¸Ĺ éĢı
éĺ Ļ
ç§ĳ æ®¿è¯ķ
åħŃ åĽĽ
ä¼´ éļı
åĤ¨ å¤ĩ
å°ı æıĲçĲ´
å®ī éĹ¨
å¹³æĸ¹ åĳİ
éŁ³ä¹Ĳ çļĦ
çĲĥéĺŁ çļĦ
æıĲ çĿ£
æĹł æĦı
å¤ª ä¿Ŀ
åĿĳ å£ģ
å¹´ å»ºæĪĲ
åħĭ æ´Ľ
å±± ä¸ĭ
éĩį åĪĽ
èĬĤ çľģ
åĩł ä½į
å¸ Ľ
ä½ľ äºĨ
éĩĮ å°¼
è¯¥ å¤Ħ
ä¸ĩ å¹´åīį
ç½¢ åħį
éŁ §
ä¸¤ äººçļĦ
é²ģ è¿ħ
åįł æĢ»äººåı£
E G
Ġ an
çī¹ æĸ¯
æīĢ ç½ĹéĹ¨
ä½įäºİ ç¾İåĽ½
æĪĳ æĺ¯
éĽĨåĽ¢ çļĦ
è¿Ī éĺ¿
ä¹ĭ å£°
ç§ĳ å¤§åŃ¦
å¥¥ å¾·
è§Ĵ çļĦ
æĹ© æĻ¨
åı¶ åŃĲ
è§Ĵèī² æī®æ¼Ķ
6 50
å¹´ åıĳè¡Į
å½ĵ åľº
éľ Ħ
åĩł å¤©
ĠMus ic
é¦ĸ èĦĳ
è¿½ èµł
åįģåħ« åĲį
ä¸Ń æĸ¹
åĩº äº§
åĪ« åĲį
å®ĥ ä¸İ
ä¸Ń èİ·å¾Ĺ
é¢ ļ
æĶ¿ äºĭ
ç¨ ł
æľī è¿ĩ
èĬ ®
ä»į ä¸º
çļĦ ç§°åı·
ä¸Ģ å°ı
åĵ ī
ç«Ļ åĲį
ç®¡çĲĨ å§Ķåĳĺä¼ļ
æ¯Ĵ åĵģ
æľŃ å¹Į
æ² ¸
å»º å®ī
æķĻ å»·
å»¶ èĩ³
è½» è½¨
æ¯ĶåĪ© çīĽæĸ¯
ç¥ŀåľ£ ç½Ĺé©¬å¸ĿåĽ½
l ine
çļĦ èĭ±åĽ½
åĽ½ èĲ¥
åĪĨ åĩº
åľº é¦Ĩ
æ¯į è¯Ń
æĪĺäºī çĪĨåıĳ
çŁŃ ç¯ĩ
çĥŁ èįī
åĢ¡ å¯¼
å®£å¸ĥ å°Ĩ
é¢Ĩå¯¼ å°ıç»Ħ
åģı åįĹ
ä¸įæķĮ èµĽä¼ļ
æ¸¯ åºľ
ç¦» èģĮ
ä¸»è¦ģ åľ¨
çĲĨè®º ä¸Ĭ
æĬķèµĦ èĢħ
åĪĽç«ĭ äºİ
æµ· çļĦ
éĥ½ å¾Ī
å¯¼ èĪª
æĶ¯ éĤ£
èĲ½ åľ¨
æ¦ľ åįķ
ãĢ ľ
æ°ĳ èĲ¥
åĬł åĨķ
18 50
åĪĽä½ľ äºĨ
èŁ ¾
éĻª åĲĮ
é©¬ æģ©
æģ ª
ä¸ĩ ç«ĭæĸ¹ç±³
å½±åĵį åĬĽçļĦ
ä¸ĵæ³¨ äºİ
åīį éĿ¢
ç¦» æķ£
åºķ çĽĺ
çıĬçĳļ ç¤ģ
W eb
çģ ¶
å¹¿ ä¸º
ric on
æł Ī
æ°ĳ å»º
çİĭ æ°ı
åŃĹ çļĦ
å·¡ èĪª
ç¼©åĨĻ ä¸º
æĭĺ çķĻ
æĶ¿æ²»éĥ¨ ä¸»ä»»
è¿Ľ åĪ¶
åľŁ åºĵ
éº¦ éļĨ
å¤ľ æĻļ
èģĮä¸ļ è¶³çĲĥ
äº¤çķĮ å¤Ħ
ç¾İ å¥ĸ
æ¯Ķ åħĭ
åĿĩ åĮĢ
æĶ¹ç¼ĸ æĪĲ
ä¹Įé²ģ æľ¨é½Ĳ
ä¸Ģ æıĲ
åĴĮ æĸĩåĮĸ
æĢ ľ
åĩº ä½¿
å·´å¡ŀ ç½ĹéĤ£
çŀ¬ éĹ´
å¹¶ èİ·
âĢĿ ï¼Īï¼ī
æ¥¼ å®ĩ
åī© ä¸ĭçļĦ
æ¸ ¥
éĺ¿ ä»Ļå¥´
éľĢè¦ģ çļĦ
å¼Ģ äºĨ
it ter
åıĳè¡¨ å£°æĺİ
åŃ µ
èī ®
å½ĵ ä¸ŃçļĦ
çĶµå½± éĻ¢
ber g
ç¥ ļ
40 1
è¡ĮæĶ¿ä¸Ńå¿ĥ ä¸º
ä½įäºİä¸ŃåĽ½ å¹¿ä¸ľçľģ
H ar
å°± å·²
çļĦä¸Ģä¸ª è½¦ç«Ļ
æİ¨ è¿Ł
M O
Ð º
la ck
çĶ· çĪµ
æ°ı æĹı
å¹´ä»£ å¼Ģå§ĭ
äºĮåįģ ä¸īå¹´
ãĢĬ ãĢĭï¼Ī
å¼Ģ æŀª
è¿ĳ æľŁ
ä»ĸä»¬ è®¤ä¸º
å¨ģå°Ķ éĢĬ
èĩ³ åħĥ
ç»Ń çº¦
åŁİ éĤ¦
æĢª åħ½
Ġth at
æĹıèĩªæ²» åİ¿
u ch
æĪĲ ä»½
æŃ£ å¦Ĥ
åı³ æ´¾
ä¸º ä»£è¡¨
å±± ä¹¡
å®Ī åį«
åį°åº¦ çļĦ
ä¸Ń çº§
åħ« ä¸Ģ
æ°ĳä¸» è¿ĽæŃ¥åħļ
æĬµ å¾¡
åħ¶ æīĢ
ä¹Ł å¯¹
å®ī æĬļ
åºľ çŁ¥åºľ
é¦ĸ æŃĮ
åĩĨ åĪĻ
æłĩ æ³¨
ç»ıèĲ¥ çļĦ
åħ³ ç¨İ
éŁ³ éĢŁ
åįģåŃĹ åĨĽ
çŃī æĸ¹éĿ¢
äº¬ åŁİ
çİĽ åĪ©äºļ
èīºæľ¯ åŃ¦éĻ¢
åį¡ æ´Ľ
èģĮ æĿĥ
ç¦ı æĸ¯
åħ± æĮ¯
16 5
ç½ļ æ¬¾
èİ ĵ
å¤ĸ è¯Ń
æ°ĳä¸» æ´¾
å¤ĸ ç±į
äºĶ ä½į
å£° æ¯į
éĽħ åħĭ
ä¸į è®¾
éĺ¿ å¾·
åĽ° å¢ĥ
è¿Ļ éĩĮçļĦ
éļ į
ä¿® æĸ¯
åŁºæľ¬ æ³ķ
å°ıæĹ¶ åĲİ
188 3
æĹłè®º æĺ¯
æĬĽ å¼ĥ
ä»¥ çºªå¿µ
äº² å±ŀ
åĩº åĬ¨
é² ī
15 2
çĶµè§Ĩ å¹¿æĴŃ
âĪ Ĵ
åİķ æīĢ
ou th
çģµ æ´»
189 1
P r
æĸĩ æ£®
æľĢ å°ıçļĦ
çĶ· åıĭ
åľ¨ åĲĮä¸Ģ
or ge
è½¬ åıĺä¸º
åħ« å¤§
çĹķ è¿¹
ä¸ĸ å®¶
M e
¸ °
æĸ° å¹²çº¿
èĭı æĭī
åĽłæŃ¤ è¢«
b e
åº§ çļĦ
ä¹Į åħ°
åİĨåı² ä¸ĬçļĦ
å¤ªéĺ³ èĥ½
è£ģ åĨ³
èĹ© ä¸»
æĶ¾å¼ĥ äºĨ
ä¼ļ ä¸İ
æĸ° ç§Ģ
ä¸ī å³¡
çİĩ çļĦ
æĭ³ åĩ»
æĿ ł
å¤§ æķĻåłĤ
å°ı å¿ĥ
äº¤ æ¶ī
ç±» åĬ¨çī©
å¥¥ åħ°
ç¥ŀ åĥı
åĪ» æĦı
y a
è¿Ļ å¯¹
ä½Ĩ æľª
18 68
at er
çļĦ å®¶åºŃ
çł ¾
ç»ıæµİ åŃ¦å®¶
éĽħ åĽ¾
å¸¸åĬ¡ å§Ķåĳĺä¼ļ
åį¡ç½Ĺ æĿ¥
O ricon
å¹¶ ä»İ
çķĻ ä¸ĭçļĦ
ä¸ī ç»´
æ¸ħ åĪĿ
ä¸ĥ ä¸ĸ
æľīä¸Ģ å®ļçļĦ
ð«ļ ¥
åĬł æĿ¥
æº ´
è¾Ľ æĻ®æ£®
ä¾¦ æŁ¥
åĲĽå£«åĿ¦ ä¸ģåł¡
åĴĮ æĶ¿æ²»
å¤ļ ä»¥
æıĲ åıĸ
åĲĦ æĸ¹
æĪ· å¤ĸ
ĠM c
äºĨä¸Ģ æ¬¡
å¿ħé¡» åľ¨
ä¼ļ äºİ
è§ģ çļĦ
ç»Ī å¹´
æĸ¯ è¾¾
æŃ¦ åĬŁ
çīĮ çħ§
çī¹ åĴĮ
æĽ¾ åŃĻ
èģª æĺİ
ĠEx p
å³ Ń
å¹¶ è¦ģæ±Ĥ
æµ· å°Ķ
ä¸¾ ä¾ĭ
æĸ¯ å·´è¾¾
æŀ¶ é£ŀæľº
ãĤ ĭ
çĸı æķ£
å¤ĸåĽ½ äºº
åĲĪ è®¡
ä¸ļ ä¸»
åĪĹ åħĭ
å·² æķħ
èĴĻåı¤ åĽ½
æµģè¡Į çļĦ
æŃ¦æ±ī å¸Ĥ
I ON
èĬ ¥
çħ ŀ
å¤§çº¦ æĺ¯
æº¶ è§£
Î ¼
åıĹ éĤĢ
é£İ ä¿Ĺ
çĻ¾ åĪĨä¹ĭ
åĶ± æŃĮ
åħ» åŃĲ
ä¾ĽåºĶ åķĨ
åº§çļĦä¸Ģ é¢ĹæģĴæĺŁ
çļĦ ç³»ç»Ł
éĢ Ĺ
å£° è°ĥ
æ²ĥ ä¼¦
åĥ§ ä¾£
æ¤Ń åľĨ
F L
ä¸į è¿ľ
çŁŃ ç¯ĩå°ıè¯´
åĲ¬ è¯´
æĺ¯åįĹæŀģæ´² çļĦæµ·
æĸ°çĸĨç»´åĲ¾å°Ķ èĩªæ²»åĮº
çļĦ åı¯èĥ½æĢ§
æ¬¡ éĥİ
ĠS ystem
åĪĽç«ĭ äºĨ
æĹ¥ æĹ¶
ç»Ħ åĪ«
æł¼ æĸĹ
è§Ħ å®ļçļĦ
æĪĲåĳĺ çļĦ
ation s
è¡° åıĺ
ä¸ª åİ¿
çİĭ æĺŁ
ç¬¬ä¸Ģ æľŁ
ç¬¬ä¸Ģ åº§
ä¸´ è¿ĳ
ast er
æĺİå°¼ èĭıè¾¾
D E
ä¸ĩ æ¸¯åħĥ
13 8
åıĤåĬł è¿ĩ
çģ¯ å¡Ķ
å¯Ĵ åĨ·
å¿ħè¦ģ çļĦ
æľĢ åı¤èĢģçļĦ
æĺ¯ä¸Ģ é¡¹
çļĦéĩįè¦ģ æĢ§
è¡Į éĶĢ
æĦŁ åĬ¨
ĠG r
èµı è¯Ĩ
å½ĵåľ° å±ħæ°ĳ
åİļ åº¦
åĩ¶ æīĭ
åľ° ä¸»
ä½Ĩ æľĢåĲİ
åŁİ å·´
æ¢ħ èĬ±
çļĦäºº åĳĺ
æľī ä»¥ä¸ĭ
çº¦ åľ¨
å°º åº¦
åĲİ æĪĲä¸º
å°ı çĶ°
å¼ĹéĽ· å¾·
å¸® å¿Ļ
çļĦ çİĭ
è¢« è¯Ħä¸º
çī¹ åľ¨
çŃī éĹ®é¢ĺ
ä¸»è¦ģ çĶ¨äºİ
åĳĬ åĪ«
ç«Ł çĦ¶
è®¾ æ³ķ
éĶ »
åĵĪ å¯Ĩ
èľĹ çīĽ
æĺ¯ éĿŀ
å¤§ ç¢Ł
ãĢį ãĢĮ
é©¬ åħĭæĸ¯
æį į
çļĩ å¤ªåĲİ
åī¯ æł¡éķ¿
ĠC or
ãģ ķ
çļĦ çĭ¬ç«ĭ
å·´ é¡¿
æµģ æ´¾
ĠB l
è¿Ŀ èĥĮ
æŀĹ æł¹
v en
åį¡ çº³
çİ¯ çĬ¶
çħ ½
å¥ĩ å¼Ĥ
ç§ĭ åŃ£
ä¸ĭ åı°
éĩĮ å°Ķ
æľī æľŁå¾ĴåĪĳ
ä¹Ł éĥ½
å¦ Ħ
ä½ı äºĨ
ä»ĭ éĿ¢
ç²¾ç¥ŀ çĹħ
ä¸Ģ æľ¬
ä¸ľ æŃ£æķĻ
åįĥ å¹´
é¡µ éĿ¢
æĹħå®¢ åĪĹè½¦
åĪĨ åħ¬åı¸
ä»Ĭ æĹ¥çļĦ
ãģ ı
ä¸ĳ éĹ»
å¹¶ çĶ¨
å±± è·¯
çľģ å§Ķ
å¸¦ çļĦ
æİĮ æİ§
æĸ¯å¡Ķ å¤«
æĺ¯ éĿŀå¸¸
èİ· åĩĨ
å¸ĥé²ģ åħĭ
éĽĩ åĳĺ
Rob ert
é«ĺ æĸ¯
é» ľ
å¥³ çļĩ
ä»ĸçļĦ åĦ¿åŃĲ
ä»į æĹ§
éĺ¿åįľ æĿľ
ä¸ī çŃī
15 8
æĬĢæľ¯ åŃ¦éĻ¢
ä¾ĭå¦Ĥ åľ¨
å½ĵåľ° äºº
åĵĪå°Ķ ç§ĳå¤«
åįĩéĻį æľº
B N
ä¹ĭ ç¥ŀ
éŁ¦ ä¼¯
åıªæľī ä¸Ģä¸ª
èĤ¯å°¼ è¿ª
ä¼ļ ä½¿
18 5
èĪ¹ ä¸Ĭ
åħĭ åĬĽ
çĶµ åİĤ
éĢļ æĬ¥
ç»´ åĭĴ
æĽ´ åľ¨
15 4
ç¦» åİ»
æ±ī æŃ¦å¸Ŀ
åĳĬ ç»Ī
æĬĬ å®ĥ
ä¸į ä¸Ģå®ļ
is ion
æįŁ æ¯ģ
èģĶåĲĪåĽ½ æķĻç§ĳæĸĩ
åĩĨåĨ³èµĽ ä»¥
ä»£è¡¨ æĢ§
æĬĹ äºī
åĨ· æĪĺ
éķ° ä»ĵ
"ãĢģ "
åħ¨ é£Ł
åĽĽ åŃ£
æĭ¥æľī çļĦ
é¤Ĳ é¥®
æ³ķ åĪĻ
æĽ¾ ä¸Ģåº¦
æĺ ¼
ä¼Ĺ å¤ļçļĦ
æ²¿ çĿĢ
è§Ĵèī² çļĦ
å½ĵä¸Ń åĮħæĭ¬
éĥ¨ ä½ľåĵģ
çī¹ æľĹ
ä¸¤ æłĸ
çļĦä¸» åĬĽ
ç«Ļ çĤ¹
è½¬ åĬ¨
ç¼ĸ æĪĲ
é»ĳ æ´ŀ
ç´¢ ä¼¦
å®ī çº³
æİ¨ æĸŃ
å¼¹ å¤´
Ġ âĨĴ
åľ¨ éŁ©åĽ½
æĺ¯ æ¬¡
æĺ¯ åĶ¯ä¸Ģ
æľŁ éĻĲ
è¾ĸ ä¸ĭçļĦ
ç»Ī æŀģ
åĩ½æķ° çļĦ
åħļç»Ħ ä¹¦è®°
åĽĽ æ¬¡
éŀ ĳ
A s
åı· çıŃæľº
æıĲ èµ·
ä½įäºİ ä¸Ńåįİäººæ°ĳåħ±åĴĮåĽ½
æĶ» çł´
ä¸º çİĭ
æ² ½
èĲ½ åħ¥
éĥ¨éĺŁ çļĦ
èĶ¡ èĭ±æĸĩ
G O
èĩª æĪĲ
çĥŃ æĥħ
åģ¥ èº«
ç¡Ŀ éħ¸
æķ ŀ
åĮĹ èĩ³
åĬł æ²¹
å»º æŀĦ
å¸¸ æłĸæģ¯åľ¨
è§Ĩ å¯Ł
æĶ¿æ²» åįıåķĨä¼ļè®®
æī§ çħ§
ç»ıå¸¸ è¢«
çļĦ è·Ŀç¦»
å½ĵ æĪĲ
åĶ® åįĸ
åªĴ ä»ĭ
åįĹ åįĹ
æľº åŀĭ
ç® ķ
æł¼ å±Ģ
ä¸´æĹ¶ æĶ¿åºľ
ä½ıå®ħ åĮº
ç§ĳ æĻ®
13 2
åĺī åħ´
åĭĩ æķ¢
æ°§åĮĸ çī©
æĹ¢ æľī
å¼ĹéĩĮ å¾·éĩĮå¸Į
åĵ¥ æĭī
ä¿Ħ åĨĽ
å®« å´İ
é«ĺ æ½®
æĹł ç½ª
åĽļ çĬ¯
Ġ ï¼īï¼Į
è¡Į æĢ§
ä¿ ¾
18 62
åıª åĪĹåĩº
èĩªå·± åľ¨
æīį å¼Ģå§ĭ
æĦıè¯Ĩ å½¢æĢģ
çļĦ åıĳ
åı°æ¹¾ æĢ»çĿ£åºľ
åĥı ç´ł
æ±½ æ²¹
æ¸¡ è¿ĩ
é¥± åĴĮ
htt p
åĿĲèĲ½ äºİ
åŃĹ å½¢
çªģ åıĺ
åĲĳ ä¸ľåĮĹ
åľ¨æŃ¤ ä¹ĭåīį
16 6
ç¥ŀ å¥ĩ
ä¼¯ éĩĮ
ç®¡çĲĨ çļĦ
ç«ł ç¨ĭ
å¼Ĺæĭī åŁº
y m
æľī å¤§
ç»ĵæĿŁ æĹ¶
æ³ķè½® åĬŁ
æĽ Ļ
åį¡ å¡Ķ
åį· åħ¥
çº¿ æĺ¯
éķĩ æ±Ł
æ´» å¡ŀ
ä¸ĸçķĮ çºªå½ķ
åħħ å½ĵ
åħ³ è¥¿
å±Ĥ éĿ¢
åĽ½æ°ĳ å¤§ä¼ļ
éĺ¿ å¡ŀæĭľçĸĨ
ĠW indows
åĩ¡ å°Ķ
åı°åĮĹå¸Ĥ æĶ¿åºľ
åįł äºĨ
ä¼ļ å¯¹
æĸ° æĪĲç«ĭçļĦ
æŀģ åº¦
éĢļå¸¸ åľ¨
æĿŃ å·ŀå¸Ĥ
å¤§ éĥ½ä¼ļ
å®Ŀ è´Ŀ
W W
çļĦ è¿ĲåĬ¨
çļĦ ä¸ľè¥¿
æºĲ å¤´
us s
æĬĺ åıł
å·´æ¯Ķ ä¼¦
çļĦ é£İæł¼
åĽ½ äºº
å¼Ģ å¾Ģ
æįķ èİ·
æĿĳ çļĦ
éľĩ æĥĬ
èļ ¤
å¹´ å¤ı
æĺ¯ ç¬¬
æľī ä¸įåĲĮçļĦ
æ¶Ī æķ£
åĿĲ åľ¨
åĽ½ç«ĭåı°æ¹¾ å¤§åŃ¦
æĹ¥ åħĥ
è¿Ļ æľ¬ä¹¦
è·¯ çĶ±
ç§ĳ ä¸¾
èİ· é¢ģ
æĸ¹ æµİ
ä¸ľ åĲ´
ro p
æµ·åĨĽ éĻĨæĪĺéĺŁ
ç¯® çĲĥéĺŁ
CP U
D J
ç¾İ äºº
æ°´ å¸Ī
è¶³çĲĥ éĶ¦æłĩèµĽ
åĴĮ å°ļ
æĹł æķ°
ç¿ Ł
å¯Ĩ æŃĩ
å¤±è´¥ åĲİ
ä¸ĸçķĮ åĨłåĨĽ
la s
æŀª æľº
åĩ¯ èİī
é©¬æĭī æĿ¾
åľ° å±Ĥ
å¹³ æĹ¥
æŃ¤ ä¸º
åįģ ä¸ª
æĿİ å®Ĺ
è¿Ĳè½½ çģ«ç®Ń
äºī æī§
å¯ĨæŃĩ æł¹
çļĦ æĪĺäºī
ä¸ī èı±
å¤ĸ è¡¨
ä¸¤ å¤©
åįĩ çıŃ
åĲİæĿ¥ åıĪ
è§Ĥå¯Ł åĪ°
è´ŀ è§Ĥ
çļĦ æ¯Ķä¾ĭ
è¥¿ æ¬§
çĶ¨ æ³ķ
åģ ķ
re et
åıªæľī åľ¨
çļĦ åĶ¯ä¸Ģ
åĮĹ éĿŀ
å¹³ æģ¯
ç¾İ èģĶ
åĪĻ åı¯
åĿĩ çĶ±
å°½ éĩı
ä¼´ å¥ı
ä¼ļ åłĤ
14 8
åĩ¯ çĳŁ
æĬ« éľ²
Ph one
çī© è¯Ń
èĦĬæ¤İ åĬ¨çī©
åį¡ è½¦
è´Ŀ åĪ©
åĶ® åĩº
å¡ĳ éĢł
éŁ³ä¹Ĳ å½ķå½±å¸¦
ç¡® åĪĩ
éĢĢ ä¼į
ç´« èī²
åī§åľº çīĪ
åħ¶ ä¸ĭè¾ĸ
çļ Ĥ
æĹ¥ æľŁéĹ´
å¤ļ æĿ¡
æľĿ æĹ¥
æ´¾ åħµ
ov er
ç§ĳçļĦåħ¶ä¸Ń ä¸Ģä¸ªç§į
åĢ¡ è®®
ä¹Ł è¦ģ
è®¾ çļĦ
å¥³ çĶŁ
æ²³ ä¸Ĭ
ä¼ĺ èī¯
åĢ¾åĲĳ äºİ
Ġ æĢ»éĿ¢ç§¯
ãĢ Ķ
æĺ Ĭ
éĥ¨ åĴĮ
ç¾İ å¼ı
æĽ¼ å½»æĸ¯çī¹
åºĵ åħĭ
æī¹ åħ¨åĽ½éĩįçĤ¹æĸĩçī©ä¿ĿæĬ¤åįķä½į
æĺ¾ç¤º åĩº
æ¤Ń åľĨå½¢
èģĮä¸ļ ç¯®çĲĥè¿ĲåĬ¨åĳĺ
E x
æīĢ åıĸä»£
åĽŀ æĬ¥
åģļ åĩºäºĨ
åĩ¯ æĸĩ
ä¼ļ åĩºçİ°
ä¸ŃåĽ½ éĵģè·¯
é¾Ļ éĹ¨
mu n
è¾¾ å°¼
æł¼ åĪ©
èĸ °
éĺ» æĮ¡
åĸĢ å°Ķ
ï¼Į -{
ä»¥ ç¤º
ä¸ĩ ä½Ļ
æľį çĶ¨
åĵ¥ å°Ķ
ä¼ĺ çĤ¹
åŁºç¡Ģ è®¾æĸ½
èĢģ é¼ł
ä½Ĩæĺ¯ çĶ±äºİ
æīĢä»¥ åľ¨
äºĮåįģ åİħ
å¹´åľ¨ ä½į
çİ° åĲį
åħ¥ åľº
åĽ½åĨħ å¤ĸ
è¥Ħ éĺ³
æ±ķ å¤´
ä¸İ å°ı
åĲĮ æĥħ
åĬ¨ éĩı
èĬ± äºĨ
æĹ¥ åıĳå¸ĥ
ä¼Ĺ è®®åĳĺ
æľºæŀĦ çļĦ
ãĢ ķ
æ· ĩ
åĨ³ æĪĺ
å»º äº¤
æ³¢ å¾·
13 3
èĪ° éķ¿
åºĵ å°Ķå¾·
æ»¡ æĹı
å§Ķä»» ä¸º
éĺĲ è¿°
åº§ æ¤ħ
re f
åĩ¯ çī¹
å¹´ å¤§éĢī
åľ¨ ä¼¦æķ¦
è¶³çĲĥ èµĽ
æīĢ è¿°
15 6
äº¦ åį³
è·Ł èĳĹ
ç» ŀ
äºº æł¼
èĢĮ æĹłæ³ķ
åĲĳ çļĦ
æ±ĩ ä¸°
åĨĮ å°ģ
çŁ ½
ç² ª
æŀĦ å»º
13 6
å½Ĵç±» ä¸º
i j
ä¸Ń è¶ħ
ç¥ŀ å®Ĺ
ä¼ĺ èĥľ
è·Ł è¸ª
åħħ è¶³
å¢ŀ åİĭ
æĸŃ è£Ĥ
èĮĥåĽ´ åĮħæĭ¬
è¯ī æ±Ĥ
æĺ¯ä¹Įåħĭåħ°çļĦ åŁİéķĩ
ä¸Ń è¥¿
æľī åĽĽ
ä¸¤ è¾¹
æ°Ķ æµģ
æķĳ åĩº
çĶŁåŃĺ äºİ
çļĦ æĪĺæĸĹ
èĢĮ è¿ĻäºĽ
ç½Ĺ ä¼Ĭ
18 48
S L
ä¸į é¡¾
åĮº æ®µ
ä¿Ŀ ç¦Ħ
å®« ä¸Ń
ç¯ ·
æį· åħĭæĸ¯
åħ¬å¸ĥ äºĨ
è¶³åįı æĿ¯
ä¹ĭ å¼Ł
ä¸¤ èīĺ
åĲĳ ä»ĸ
æīĭ æĮĩ
çļĦä¸Ģ å±ŀ
æ³½ æ°ĳ
å¥¥å°Ķ èī¯
éĤ º
æ¸© å·ŀ
ç¼º å¸Ń
ä¸Ŀ ç»¸
äº¿åħĥ äººæ°ĳå¸ģ
NBA éĢīç§Ģ
åį³ä½į åĲİ
çĸ¼ çĹĽ
å¹´ ä¸Ńåįİæ°ĳåĽ½
åĨħ ä¾§
åĬŁ èĩ£
ers on
20 5
è¿Ļ æĶ¯
é² Ģ
13 9
çī¹åĪ« çļĦ
åľŁ æĺŁ
èĢĹ èµĦ
çļĦ éĤ£
æµ· åķ¸
è¿ŀ èĥľ
æħ ¨
éĶħ çĤī
ä¸Ĭ çıŃ
éķ¿ å¾ģ
18 77
æĭħä»» è¿ĩ
é³ ħ
å¤§çº¦ ä¸º
æłĩå¿Ĺ çĿĢ
ff ice
æľº ä½ĵ
æıĲ ç¤º
çľĭ å®Ī
åĨłåĨĽ èģĶèµĽ
os h
ç¬¬åįģ åħ«
p ort
ä¿Ŀ åģ¥
å°½ å¿«
çīĽæ´¥ å¤§åŃ¦
èĭ £
å¤ļ ç±³
åĽł åľ¨
çº¿ ä¸ĬçļĦ
è¡¥ éĢī
èħ¾ è®¯
è¶ģ æľº
éĻ¢ çļĦ
å¸¸ ä¾į
æŀĹ çļĦ
åħĪ çŁ¥
åŃ¤ åĦ¿
% ï¼īãĢģ
å®ĥ è¢«
äºĮ åħ«
è¿ĺ èĥ½
çļĩ å¤ªåŃĲ
å± ĳ
æĹ¶ è¡¨ç¤º
åĬ³ ä¼¦æĸ¯
æĹ¶ åħī
ä¸Ĭ ä¸İ
é¦ĸ è½®
èĴĻåı¤ æĹı
å¹¼ ç¨ļ
èħ¹ è¶³
z e
çļĦ çĬ¶åĨµ
çī¹ èī²çļĦ
ä»£ å°Ķ
ä½Ĩ å¥¹
æĿİ çĻ»
åºĵ æĸ¯
ri pt
çĬ¹å¤ª æķĻ
8 000
çļĦ æ¹ĸæ³Ĭ
åĮĹ é½Ĳ
å°¼ ç§ĳ
éģŃ åĪ°äºĨ
2 14
ä¸į åĮħæĭ¬
ä¹Ł ä¸įä¼ļ
çļĦä¸Ģ æĶ¯
å¤´ åıĳ
ä½ı æīĢ
ä¼Ł å¤§
åī² è®©
å®īå¾· æ£®
ĊĊĊĊĊĊĊĊĊĊĊĊĊĊĊĊ ĊĊĊĊĊĊĊĊĊĊĊĊĊĊĊĊ
è©¹å§Ĩ å£«
tain ment
åĲį èĥľ
çĶ± æĹ¥æľ¬
å°ĨåĨĽ è¡Ķ
è¯ģæĺİ äºĨ
t a
çļĦ ç©ºéĹ´
ä¸į çĽ¸
å®ī èĳ¬
æ³¢ éķ¿
æĺ¯ä¸Ģ äºĽ
ç»Ī ç«¯
è¿ľ ç¨ĭ
å·¦ å²¸
ç§ĳåŃ¦ ä¸İ
ç¢³ éħ¸
è¿Īéĺ¿ å¯Ĩ
åįĹ å±±
çŃī åĽ½
æ±ī æĸĩ
ï¼Ľ ï¼ī
åľ£è¯ŀ èĬĤ
å»ºçŃĳ ç¾¤
åºĶè¯¥ æĺ¯
çĵ¦ åħ¹
AT P
cl ude
æį·åħĭæĸ¯ æ´Ľ
çļĦ æĪĲåĬŁ
ä¸Ģ ä¸¾
å¤© åı°
å¸¸ ä½ı
åĽ¾ æĸ¯
æ´ĭ è¡Į
çļĦ éģĹ
çļĦ åĪĹè½¦
äº¤åĵį ä¹ĲåĽ¢
æĹıèĩªæ²» å·ŀ
ï¼Ī âĢľ
å°± ä»¥
å°Ĩåħ¶ åįĩæł¼ä¸º
åĮĹ éģĵ
åįķ è¯į
çļĦ åĪĽä½ľ
æľī åĪ©
éĩĮ å¾·
æ³ķ åĪ¶
æĸĩ æĸ¯
åħĭ æĭīæĸ¯
ä¸ī æ®µ
è¡¨ è¿°
å¤§éĺª åºľ
2 25
C L
æĻ ķ
å½ĵ äºĭ
æĬ¥ åĪĬ
ç¬¬ä¸Ģ å®¶
æ¨¡ èĮĥ
ä½İ æ¸©
çļĦ åĳ½ä»¤
æĹ¥ å¯¹
ä¸Ĭ çº¿
ä¸į ä¸¹
æķĮ æĸ¹
è±ª æĸ¯
ul l
O n
ä¸ľ å¾·
18 67
æµģ æĺŁ
åº§ çļĦä¸Ģä¸ª
æ¥¼ çļĦ
æļĹ ä¸Ń
èµ ģ
æľº ä¸Ĭ
å¤© åĲ¯
ä½Ĩ è¯¥
18 73
éħ ļ
çī¹ å¾ĭ
çĻ¾ èĢģ
æķĻèĤ² å®¶
åĩ¯ å°Ķçī¹
é¼ĵ æīĭ
é¢ĩ ä¸º
ä¸Ńä½į æķ°ä¸º
æ¸ħ æ´Ĺ
å¤į æĹ¦
éĻĪ æ°ı
åĲ¬ ä¼Ĺ
æĦ¿ æľĽ
åĴĮ å¯¹
å®ī äºº
çĥ Ľ
åģı ä¸ľ
uc k
çļĦ èīºæľ¯
å¸ĥ åĪĹ
çĿ£ å¯Ł
Ġ 25
åľ° é©¬æĭī
æį® ç§°
åįĬ å¹´
æĭ¥ æĬ¤
å±ŀçļĦ é±¼ç±»
S K
Ġ are
æĹ¥ è¿Ľè¡Į
çŃ Ľ
ç»¼åĲĪ æĢ§
æĺ¯ ä¸Ńåįİæ°ĳåĽ½
æľī ä¸įåĲĮ
è¥¿ èĩ³
ä¸ī åĪĨ
éĩĳ æľĿ
16 8
ä¸½ é±¼
å¿ħé¡» è¦ģ
æ£ī èĬ±
å¥¥æĸ¯åį¡ æľĢä½³
åį¡ çīĩ
æ±ī ä¹¦
å®£ æī¬
ç«ĭæ³ķ ä¼ļè®®åĳĺ
å»¶éķ¿ èĩ³
éĺ¿å§Ĩæĸ¯çī¹ ä¸¹
ä¹ĭ æŃĮ
å®ŀ æķ°
ç¤¾ çļĦ
æĻ® æĸ¯
å®Ī éĹ¨
åĪĩ æį¢
äºĳæŀĹ åİ¿
éĩľ å±±
å¡ŀ çī¹
ä»ħ ä¸º
åľ¨ ä»»
åľ¨ åı°
å¤§ æĪĲ
æĹ¶ äºĭ
ä»ĸä»¬ æĺ¯
å¹´ä»£ åĪĿæľŁ
ç¼ĵ è§£
åįİ è§Ĩ
æĺŁ åĽ¢
æĪĲä¸º ä¸ŃåĽ½
è¯» éŁ³
è¾Ľ æł¼
æ¯įäº² æĺ¯
å¼± çļĦ
Ġf rom
åħĭ æľį
å®ĥ åı¯ä»¥
éĻ¤ åİ»
ç»§ æ¯į
èĢĮ æ²¡æľī
æĭī éĩĮ
èĤ ½
ç¦ º
éĢļè¿ĩ çļĦ
éŃĶ é¬¼
å¹´ ä¹ĭåīį
å¤§ éŁ©æ°ĳåĽ½
ä¼ļ æīĢ
é±¼ çĽ®
æĬ¢ åĬ«
æ¿Ĵ åį±
k g
åŁ ¤
æ¯Ķ åĪĨ
åıª åī©ä¸ĭ
å¾Ī åı¯èĥ½
ä¸īä¸ª æľĪ
åħĥ ä»£
èº ¯
å¨ģ çī¹
æĪĲåĳĺ ä¹ĭä¸Ģ
çĻ¾èĢģ æ±ĩ
åĽ½ åĨħçļĦ
èĢĮ å¯¼èĩ´
è´¹ å°Ķå¾·
æ½ ¼
èĬĤçĽ® çļĦ
éķ ĸ
å¦ ¨
ç¾½ èģĶ
æİ§èĤ¡ æľīéĻĲåħ¬åı¸
å±± æ°´
ä¸į åģľ
é¢ Ĳ
è¿ľ è¿ľ
æııè¿° ä¸º
æģ ķ
æ³¢ çļĦ
åĻ¨ åĴĮ
å¾Ĺç¥¨ çİĩ
çļĦ å°ıè¯´
èĢħ ä¹ĭä¸Ģ
éĺ¿ åį¡
çĽ¸ æľĽ
å·´ æ´Ľåħĭ
å¼Ĺ æ´Ľ
åľ¨ æ²¡æľī
æľĪ çĶ±
çī¹ æľī
èĭ± çļĩ
éº ¾
éĤ» å±ħ
éľ² åĩº
ä½įç½® æĺ¯
èĤĸ åĥı
éĹ½åįĹ è¯Ń
13 4
çīĻ ä¹°
è¡ĮæĶ¿ åĮºåŁŁ
ä¹° ä¸ĭ
æĹģ çļĦ
æ¯Ķ åĪ©äºļ
ä¼Ĭ è¾¾
äººæ°ĳ åħļ
æ±ĩ åħ¥
ä»Ļ å¥³
æľī åħ¶
éķĩ çļĦ
å®ĺ åĥļ
åľ¨ å¥¹
ä½ľ åĩºäºĨ
çĶŁ åŃĲ
è¯¥å¸ĤéķĩæĢ»éĿ¢ç§¯ å¹³æĸ¹åħ¬éĩĮ
åİĦ çĵľ
N T
æľī çĤ¹
äºļ çļĦ
å°¼ å¯Ł
å¡ŀ çº³
ĠB ar
è¿ĺæľī ä¸Ģä¸ª
è¯¥ å²Ľ
èģļ åĲĪçī©
ä¹¾éļĨ å¸Ŀ
è¾¾æĪĲ åįıè®®
èķ¨ ç§ĳ
çīµå¼ķ çĶµåĬ¨æľº
æ¾Ħ æ¸ħ
äº¤åĵį æĽ²
å¹³ åıį
ç«ł èĬĤ
ãĥ ĥ
188 2
Ġw as
å·´ å·´
éĻį æ°´
å¯¹å¤ĸ å¼ĢæĶ¾
åĻª éŁ³
ä¸Ĭ éĻĲ
ç¬ ¨
äºĭ é¡¹
æģ º
ç»Ł çŃ¹
ä¼¯ æĺİ
æ·± è¿ľ
æĬļ åħ»
å¤§ æ®¿
å¤§ èĦĳ
åı² è¿¹
åıĸ åĲį
å¾Ī å¥½çļĦ
åªĴä½ĵ çļĦ
ä¼ĺç§Ģ çļĦ
ä¸ºè¾Ĳé³įé±¼çº²é²Īå½¢çĽ® éļĨå¤´
æ´¾ å¯¹
æľºåľº çļĦ
çİ¯å¢ĥ ä¿ĿæĬ¤
èĩ §
æĢ» éĺŁ
é¢Ĩ ä¸»
å¥ı æĽ²
åį«æĺŁ åĿĳ
å·´æĭī åľŃ
ä¸» å§Ķ
ä¿ ¸
çĻ½ å¤©
14 4
14 00
å·¥ç¨ĭ åŃ¦éĻ¢
é¦ĸæ¬¡ åľ¨
åĪĳ æ³ķ
è®¢ åįķ
çĺ Ł
å¡ĳ èĥ¶
çļĦ éĥ¨éĺŁ
å¸ķ çī¹
å®¡ è®¡
ï ¸°
åĨĽ èĲ¥
18 79
ä¹ĭåĲİ åıĪ
åħ´ å¥ĭ
éĻį ä¸º
ç¼ĵ åĨ²
åŃ¦ çłĶç©¶
æĪĲ åĥı
å¼Ģå§ĭ è¿Ľè¡Į
è¯· æĦ¿
åı³ æīĭ
éļıåĲİ åľ¨
å®ŀçİ° äºĨ
å£« å®ĺ
åİŁ äº§
åı² ä¹¦
åŃŁåĬłæĭī åĽ½
ä¹ į
åİŁ æĸĩ
æķĻèĤ² åŃ¦éĻ¢
å±ĭ éĤ¨
ich ard
éĿ ¼
ä¸į ä¾¿
æĶ¯ åĩº
st it
æ´¥ è´´
åıĭ äºº
ä¿ĥ æĪĲ
æĿ¥ åı°
æĹł ç¼ĺ
é»ĳ çĻ½
æĺ¥ åŃ£
çļĦ åķĨä¸ļ
ä¸Ń å¤ĸ
éĩĳ åŃĹ
å²Ľ åİ¿
åıĮ äºº
ãĢĭï¼Į ãĢĬ
ãģ ¿
åı³ å²¸
è¥¿ æĹ¥æľ¬
åıĬ ç¬¬
æµ· ä¼¦
åŁº åĩĨ
åĳ½ é¢ĺ
æĶ¿ æ³ķ
çļĦä¸Ģ çº§
çİ¯ æµģ
ä½Ľ åĥı
åĶ® ä»·
åĲ¯ å¾·
çĶ¨ æ°´
ç¾ ģ
åħ¨ åİ¿
ãĢįï¼Į ãĢĮ
æģ¢å¤į äºĨ
å°¼æĹ¥ åĪ©äºļ
åľ¨ è¿ĩåİ»
å¤§ åĽ½
ä¸į ç¨³å®ļ
å¼Ģ æĻ®
18 75
æ²ĥ æĸ¯
åĲ¯ èĴĻ
æī° åĬ¨
åĸ· åıĳ
è¥¿ å¤ı
çŃī åĪ°
å¤« åĮºè´Łè´£ç®¡è¾ĸ
ç¬¬ä¸ī å±Ĭ
æĸ¯æ´Ľ æĸĩ
ä»Ĩ å°Ħ
åīĳæ¡¥ å¤§åŃ¦
ä¸ºè¾Ĳé³įé±¼çº²é²Īå½¢çĽ®éļĨå¤´ é±¼äºļçĽ®
çļĦ äº§åĵģ
çļĦ å®ĹæķĻ
ä¸Ń åĮº
ä¸į èµ·
ä½Ĩ æľī
R A
æīĢ æĿĢ
å®ī åįĹ
å¢Ļ å£ģ
N O
åİŁ å®ļ
éŁ¦ æĸ¯
18 64
æ³° åĿ¦
æ²ĥ åħĭ
çİī å±±
éŀĳ éĿ¼
éķ ģ
ç«ĭ å®ª
æĽ¾ ä»¥
å¡Ķ çļĦ
å¡Ķ å°¼
åĪĨå¸ĥäºİ äºļæ´²
èļ Ĭ
æ¸Ķ æ°ĳ
åıį åıĽ
éº¦ åį¡
ĠG roup
çļĦ å²Ľå±¿
çŁ³ éĹ¨
åıįåºĶ åłĨ
åįģåŃĹ æŀ¶
æıŃ åıĳ
ä½ľ çĶ»
çļ ĭ
åĪĻ è¡¨ç¤º
åħī ç¢Ł
ar g
å·²ç»ı æĪĲä¸º
é©» åĨĽ
æīĺå°Ķ éĩĳ
çļĦ C
çĶ¨ è¯Ń
çİ° åĿĢ
ç²¾ åº¦
ĠB oy
è½¦ ç¥¨
18 78
å¥Ī èī¯
é¥¥ èįĴ
ä¸ĭ æ°´
åĬł å¤§
è¯´ éģĵ
çĶµå½± åħ¬åı¸
for d
æĸ° åĩłåĨħäºļ
or a
çĵ¦ å¤«
åĨ³å®ļ åľ¨
åĪ¶éĢł ä¸ļ
èŃ¦å¯Ł å±Ģ
P P
å¹´ åİ»ä¸ĸ
ä¸Ģ æ¬¾
ä¸İ èĭ±åĽ½
å±± åºĦ
å¤© åĽ½
æº º
åħī åº¦
çŁ³ ç¢ĳ
è¾ĥ çŁŃ
äºĭä»¶ åĲİ
çļĦå¤§ éĩı
çļĦ æľ¬
ç«Ļ åĨħ
éĽĨåĽ¢ åħ¬åı¸
éĶĻè¯¯ çļĦ
æĸ¯æ´Ľæĸĩ å°¼äºļ
æĹ¥ æĪĲç«ĭ
ä¹ĭ ä½ľ
è¥¿ è¥¿éĩĮ
å¼Ģ æĶ¯
18 65
åį´ æ²¡æľī
è¶ħè¿ĩ äºĨ
èº² éģ¿
éŃħ åĬĽ
ä¸ī åº§
æĳ© å¤©
å·¥ äºĭ
æµĭ å®ļ
é¢Ħ åħĪ
ä¸ĭ æľī
ä¿® çĲĨ
ou l
èĭ±æĸĩ åĲį
çļĦ æľĢåĲİ
å®ĺ åĲı
åħ´ çĽĽ
æ®ĭ çķĻ
ç¥ŀå¥Ī å·Ŀåİ¿
å¸¦ èµ°
äººæ°ĳ çļĦ
æĬ¤ èĪª
ç´¢ çĵ¦
ou n
èĩªçĦ¶ ç§ĳåŃ¦
T ype
äº§ æĿĥ
æīį è¢«
çķĻ åŃ¦çĶŁ
åĶĲ çº³
ĠT r
ä»ĸçİ°åľ¨ æķĪåĬĽäºİ
X X
åĴĮ ä¸ĢäºĽ
åŃ¦ ä¸Ń
ä¹Ł äºİ
è¿ĳ æµ·
æĿİ é¸¿
åįļ å®¢
å·¨ åŀĭ
X å°Ħçº¿
åĴĮ åĽ½éĻħ
ä¸į åłª
çŁ¥è¯Ĩ åĪĨåŃĲ
å¹´æľī æķĻåıĭ
ä¸ĩ æ¬§åħĥ
åıĸ èĥľ
èİ± æģ©
éĤ»è¿ĳ çļĦ
A t
åĲ ¡
ä¸» çº¿
ç»ĵ ä¸ļ
åı¯ä»¥ è¿½æº¯åĪ°
æĬķ èº«
éº¦ å½ĵ
å½Ĵ äºİ
èĥ½å¤Ł åľ¨
ä¸¹å°¼ å£«
Ġ ex
éĺ¿ åŁº
åįķ äºº
çļĦ éĻĲåĪ¶
æĸ° å¨ĺ
éĺ¿ æĽ¼
ĠW h
åĪ ®
çļĦä¸Ģ åįĬ
è¿İ æĪĺ
éĻĦåĬł èµĽ
7 000
m in
å¸Ĥ ç«ĭ
ä¸ī å¤©
åľ£ çº¦ç¿°
ç¬¬äºĮ ä»»
èĢ¶ é²ģ
ĠP ark
èĲ¨å°Ķ çĵ¦
UN D
åĴĮ é¦Ļæ¸¯
èĩª ä¼ł
èĪ µ
è¿½ åĬł
ç§Ł èµģ
å¦¥ åįı
ä¼ļ éĢłæĪĲ
æĸĩ åºĵ
å¡Ķ åĪ©
it ch
åĪ¤ å®ļ
M an
d iv
s ch
å·ŀ éĻħ
åı¶ çīĩ
æľīéĻĲ è´£ä»»
æ£ķ èī²
åħ«è¾¾ éĢļ
çĶŁ æŃ»
ä¸¤ åľº
18 40
åħļ éŃģ
ä¸ĩ éĩĮ
é¾ Ľ
çĹħ æĤ£
çļĦåİŁ åĪĻ
å¤§èĩ´ ä»¥
æ»¤ æ³¢
åĨħ æł¸
ç»´ åĪ©
è¡Ĺ çļĦ
å°Ķæĸ¯ åħĭ
æĹ¥ åĩº
æ³ »
è¾ Ĺ
ä¸į åĪĨ
æľĢ ä¸»è¦ģçļĦ
ä¸¤ éĥ¨åĪĨ
æĬķ éĿł
æĬ¢ æķĳ
åıįæĺł äºĨ
çļĦæĹ¥ åŃĲ
æĻ®æŀĹ æĸ¯é¡¿
ç©ºä¸Ńçħ§çīĩ ç»ĺåħ¥åľ°åĽ¾
çº¦ åįł
éĻį æł¼ä¸º
åģĩ è¯´
åĲĮ ä½įç´ł
è¡¨ éĿ¢çļĦ
éĢļ é£İ
æļ ®
æ¨¡ ç»Ħ
åµĮ åħ¥
Ġ le
ä½į å¤Ħ
æĽ´ å®¹æĺĵ
æĿİ ä¸ĸ
F M
æĹ¥ å¹³åĿĩ
è´ ±
éĴ Ĭ
ç»Ŀ å¤§éĥ¨åĪĨ
åĪĨå¸ĥäºİ åį°åº¦
æ®ĭ éħ·
æĪĺåĽ½ æĹ¶ä»£
åĪĨç»Ħ èµĽ
S U
æĺ¯ è¦ģ
åħŃ çĶ²
å¸Ŀ çİĭ
éĻį èĩ³
éĻį æ°´éĩı
çĶŁæ´» ä¸Ń
åį¢ çĵ¦
60 1
ä¸Ģ å¤§
æľī åĲį
éļ ħ
åĪ¶ æĪĲçļĦ
è¯Ħ åĪĨ
æĳ© æ³½å°Ķ
æľ¬ åĪĹè¡¨
åħĥ åĴĮ
ä¹¦ éĿ¢
åł ĩ
åĲĮçĽŁ ä¼ļ
æĸ°ç«¹ åİ¿
æīĵçł´ äºĨ
èģĶåĲĪåĽ½æķĻç§ĳæĸĩ ç»Ħç»ĩ
ä¹ĭ ä½į
æķ° å¹´
æĶ¾ åħ¥
åİ» éĻ¤
æ®ĭ ä½Ļ
åĲŀ å¹¶
æĿİçĻ» è¾ī
åħ¬ è®¤
èĭ± åĨł
æŃĮ åī§éĻ¢
çĻ¾ åº¦
éº» çĥ¦
èĩªåĬ¨ åĮĸ
éªļ ä¹±
å¼Ĺåħ° åħĭ
çļĦ ç®¡çĲĨ
æķ° ä»¥
å®ī åĵ¥æĭī
æĮĩ å¼ķ
å¢ŀåĬł åĪ°
åıĶ çĪ¶
å¿ĹæĦ¿ åĨĽ
å¤§ ä¸ĵ
ä¸į èĤ¯
han n
æł¼æĭīæĸ¯ åĵ¥
å¸ ĺ
ä¸ī éĹ´
ä¿® å¥³
ãģ ¯
ä¸ľ éĿŀ
ä½Ĩ å®ĥ
åħ¬ åİĺ
æĸ¹ ä½į
å¹¶ è®¤ä¸º
å¯¹ ä»ĸçļĦ
ä¸ī é¡¹
å°ĳ æŀĹ
èį· é©¬
æĺ¯ æ¬§æ´²
äºĭ åħĪ
re en
èı² äºļ
çīĽ å¥¶
ut ion
å¹´ åĩºä»»
èĤ¡ ä»·
ä¸Ģ éĺŁ
åľ¨ åį°åº¦
åĬ¨ èį¡
åĲĦ å·ŀ
è¾¾ æĭī
ç«¥ å¹´
ç¬¬åįģäºĮ å±Ĭåħ¨åĽ½äººæ°ĳä»£è¡¨å¤§ä¼ļ
åĬłæĿ¥ æµ·å³¡
ä¸Ģ è¿ŀä¸²
å¸Ĥ è¾ĸåĮº
éŁ³ä¹Ĳ äºº
ir st
ä¸ªæľĪ çļĦ
åĴĮ é©¬
éħ ª
æĽ¾ èİ·
æķĻèĤ² çļĦ
åĬ³åĬ¨ åħļ
éĤ£ä¸į åĭĴæĸ¯
åİ¿ çļĦä¸Ģä¸ªå¸Ĥéķĩ
åĪĹ ä¸¾
æĿ¡ æĸĩ
mu s
æŀª åĩ»
å¥ī è¡Į
Ġd es
å¹´ åĽ½éĻħ
æµ· åĽł
å·ŀ æīĢè¾ĸçļĦä¸Ģä¸ªæĿĳ
å®ī è¿ª
çİĭ åĪĺ
æ²³ éķĩ
æ³¢ åĬ¨
æ¸¸æĪı æľº
æī¿ è¢Ń
æĶ¯æĮģ çļĦ
éľį åįİå¾·
æľĢé«ĺçĤ¹ æµ·æĭĶé«ĺåº¦
åĩº åĩ»
æ¸¯ åı°
æ¶Ĥ è£ħ
æµ· è±ļ
ä¿Ŀ æľī
æīĺ åħĭ
å¹´ä»£ èµ·
ãģ ĵ
çģ° èĿ¶
çļĦ è·¯çº¿
åı¯ æ¢¦
æĸĩ æĺĮ
è¯į è¯Ń
åĬĿ è¯´
åľ¨ æ°´
åľ¨ èģĮ
å¨ Ł
è¶ħ æĸ°æĺŁ
ç»ĦæĪĲ äºĨ
èĴĭ ç»ıåĽ½
éĵ¾ æİ¥
R ed
åĲİ è½¬
ä¸į è§ĦåĪĻ
åı¤ åŁĥåıĬ
é¥ ·
æŁĶ éģĵ
å¥³ åıĮ
å¼Ģå§ĭ æĹ¶
æĶ¶ çľĭ
åĻ¨ æĿĲ
è¾¹ éĺ²
åĨľ çĶ°
ä¿® è¯»
å¤©ä¸»æķĻ å¾Ĵ
188 1
çĪ¬ è¡Į
é²Ī äºļçĽ®
åĲİ ä¾¿
æ² Ĳ
æľĢ å¸¸è§ģçļĦ
éĺ³ éĥ¡
è§Ĥ çļĦ
åľŁ åı¸
åĨĻ ä¸ĭ
æĹ¥ åīį
è¯¥ é¡¹çĽ®
åŁº éĥ¨
å¤§åŃ¦ æł¡éķ¿
ãģ Ĭ
çŁ® æĺŁ
äºº éģĵ
çĽ¸ å·®
é¦ĸ åľº
ç²¾ éĢļ
å±ı ä¸ľåİ¿
æľĢ å¼º
æīĢ äº§çĶŁçļĦ
om as
ĠG irl
èĨ ³
äºĨ å¤§éĩı
ç½Ĺ æ±ī
èİİ æĭī
ãĢģ âĢľ
åĽ½ åºĨ
å¤§ åŀĭçļĦ
æ¡ ¢
ä¿Ŀ å¯Ĩ
æĺŁæľŁ åħŃ
æĿĨ èıĮ
ĠEnter tainment
çĽ İ
æĪĺ åĬŁ
ä¸¤ åı°
æµģ æĦŁ
è½® èĥİ
è¿¹ è±¡
åħ¬å®ī å±Ģ
çļĦ ä¿ĿæĬ¤
ãģ Į
æĺĨ å£«
æºĲèĩª äºİ
çİ ®
åĪ° è®¿
å¸Ī å¸Īéķ¿
åĨį ä¸Ģæ¬¡
çĮľ æµĭ
ä¿Ħäº¥ä¿Ħ å·ŀ
çİĽæł¼ä¸½ çī¹
ä¸Ģ å¹¶
æ³ £
er a
æĻ® æľĹ
re g
åĨĽäºĭ å§Ķåĳĺä¼ļ
æįį åį«
y d
æľº èĥ½
çº¦ åĲĪ
æīĭ åĬ¨
å¥¥ åħĭ
æ¥ ŀ
å¤± æķĪ
å¡ŀ åħĭæĸ¯
am b
éľ² å¤©
æ³ ¸
çĲĥ çļĦ
åĪ¶ è®¢
çº§ æķ°
çĸĳ ä¼¼
è§Ĥæµĭ åĪ°
S ch
æĺ¯ æĹł
åıĳ éħµ
ä¾ ®
in clude
å°ĳ äºİ
è¥¿éĥ¨ çļĦ
F A
å¹´ å¹´åºķ
å¹¶ éĢļè¿ĩ
å½¢æĪĲ ä¸Ģä¸ª
åĿł æ¯ģ
æľī åı²
éķ¿ éĩİ
æ¬§ äºļ
èŃ ¬
ç¾½æ¯ĽçĲĥ è¿ĲåĬ¨åĳĺ
æ°Ł åĮĸ
åĴ ½
æĸ° æĬĢæľ¯
è½¬ è®©
çļ® åŁĥå°Ķ
D on
P aul
ä¸ª è¡ĮæĶ¿æĿĳ
ä¸ĭ åĪĨ
ä¸ĭ è¾¾
éĩĮ å£«
åı¸ åı¸éķ¿
13 00
ĠR es
å¹´ çº§
åĽłä¸º åħ¶
åĵ¥å°Ķ æĳ©
ä¸Ģ åĲĳ
äºļ è¿Ĳä¼ļ
æİ¥ åĬĽ
åĴĮ ç»ıæµİ
ä¸į å¥½
ä¸İ éĻĪ
åıĳ æĢ§
åĪļ å¥½
M G
ãĢĬ -{
ç®¡ æ²»
åįĥ æĪ·
æ¤į è¢«
éº» çľģ
åĽŀå¿Ĩ å½ķ
çļĦ æķĻèĤ²
æĹ¥ åĲĳ
éķ¿ å¯¿
é¡¶ å°ĸ
æĸ ¡
æĺ¯ ä½¿çĶ¨
å¥¥ å§Ķä¼ļ
æīį æľī
è¿ĺæľī ä¸ĢäºĽ
åĮºåŁŁ çļĦ
ĠIn ternational
ç¡ ¼
è§Ħæ¨¡ çļĦ
åıĽ åıĺ
ä¸Ģ æŀļ
ä¸İ çİĭ
çĶ² åįĪ
æķĳ æĬ¤
åĸĢ ä»Ģ
çļĦ æĥ³æ³ķ
æĽ ¦
å¸ĥ æ´Ľ
åŁİ ä¹¡
å¥¥ åħĭåħ°
åĩ¯çĳŁ çĲ³
çļĦ æĢĿæĥ³
çļĦ ä½ľèĢħ
æīĢ ç¤º
åŁİ éļį
18 74
åı¯èĥ½ æľī
æµª è´¹
p le
å¤§ èµı
æĮ Ł
æ´² éĻħ
æ³¢ åĪ©æĸ¯
èĬ± åºı
at ch
è´§ è½¦
çĩĥ æ²¹
æĸ¯å¾· åĵ¥å°Ķæĳ©
äºº åıĬ
è½¦ ç¥¸
è¯¥ åłĤ
çĵ¦ å°Ķå¾·
ç´¢ é©¬éĩĮ
ä¸ª å±ħæ°ĳçĤ¹
æĢ» æķĻç»ĥ
è°ĥ çĶ¨
20 3
å®¶ åĽŃ
å®ŀ å½ķ
åıĹ åĳ½
æ¢ħ æĸ¯
çļĦåľ° çĲĨ
åĩºèº« çļĦ
éĻĢ ç½Ĺ
æĸ° åºĹ
æľº ç¿¼
ç«Ļ åĴĮ
æ¸¸ è¯´
çº¢ èī²çļĦ
ç¥Ń åı¸
ç¥ŀ åŃ¦éĻ¢
åħ¶ä¸Ń ä»¥
åī¯ æĢ»çĲĨ
å¹² è¾¾
æ¨ª åĲĳ
æ²ĥå°Ķ å¤«
äºļçī¹åħ° å¤§
éĿ ´
æĭī æĭī
ev er
æľª å©ļ
åįĥ ä»£
çŃ¾ç½² äºĨ
i Phone
æĹ¥ ä¸º
æĻ Ĵ
åŁº æĸ¯
ç§ĳç´¢ æ²ĥ
çļĦ æĸ¹åĲĳ
åĮº æīĢå±ŀ
ä¸ĭ è¡Į
å¥¹ åĴĮ
æĸĩåĮĸ ä¸Ńå¿ĥ
æķ£ éªĳ
æĬ¤ å£«
æľīä¸Ģ åĲį
ä¸Ĭå¸Ĥ åħ¬åı¸
åīª è¾ĳ
ç©¶ ç«Ł
æł¸ ç³ĸ
æĢ§è´¨ çļĦ
if ic
æ² ¥
åĩº åĽ½
å¤ª å¸¸
åĲ¬ ä»İ
å¸Ĥåľº ä¸Ĭ
å±¡ æ¬¡
æľĪ éĿ¢
åıĳ åħī
æĿĲ è´¨
ĠO n
åįĹ å²¸
åĮĸ èº«
ĠA nd
æŀª æīĺ
ãĤ ī
ç§ĳåŃ¦ çłĶç©¶
çİ°ä»Ĭ çļĦ
ä¸Ń åŀĭ
åıĺ è¿ģ
è¿ĳ äº²
æĿĥ éĻĲ
åºķ çī¹å¾ĭ
éļĨ åºĨ
un t
åĸ· æ³ī
ww w
7 37
B I
åı¯ åı¯
æīĢ è¯´
ä½¿ é¦Ĩ
æķĪ å¿ł
åģĩ å¦Ĥ
æīŃ æĽ²
ä¸º æŃ£
è·¯ ä¸İ
å¤© èĬ±
åħ¨ ä¼ļ
äººæ°ĳ åĨĽ
å¤§çº¦ åľ¨
æĸĩ äºº
æķĻ å£«
èĢģ å¹´
ç¬¬ä¸ī åŃ£
å°½ åı¯èĥ½
ä¸Ńåįİäººæ°ĳåħ±åĴĮåĽ½ æĶ¿åºľ
æĽ¾ è¿Ľåħ¥
è§Ĩ è§Ĵ
åı² ä¸¹
æ²Ļ ç¾¤å²Ľ
æ¸¡ è½®
ä¼° ç®Ĺ
åħ¶ä¸ĭè¾ĸ æľī
æĹ¶ è®¾ç½®çļĦ
å¯¹ åĨ³
é«ĺ åħ´
åıį ä¹ĭ
çĺ ¾
æĪĳ çĪ±
èĥľ è´Ł
å®Ŀ åı¯æ¢¦
ä»ĸ è¡¨ç¤º
ç»Ļ å®ļ
äºĮåįģ åħ«
åı¬ åĽŀ
A b
J ames
çļĦ åŃĲ
é© ¯
èµ· æĿ¥çļĦ
æĹł æīĢ
åģľ æ³Ĭ
äº§åĵģ çļĦ
å¹´ åĪĽç«ĭ
ä½ľ æ³ķ
13 1
åīįèº« æĺ¯
" ("
ä¸Ģ æĺ¯
ä»ĸ å°±
è´Ł äºİ
æķĻèĤ² å±Ģ
åĢ¼å¾Ĺ ä¸ĢæıĲ
Ġ x
çĶ± åħ¶
éĿ¢ åħ·
è·¯ å£«
åħ³ ä¸Ń
èĭı éĹ¨
å·¡ è§Ĩ
arl es
äºº è´¨
ç±³ æĭī
åı¯ä»¥ å¾ĹåĪ°
å®¾ é¦Ĩ
å· ³
çĶŁ åĮĸ
çļĦä¸Ģ æ¬¾
åį³ ä¾¿
æ²¡æľī è¢«
éĺ³ æĺİ
éª¨ å¤´
ĠI nd
å¤©æ°´ åĽ´
çļĦ è±¡å¾ģ
è¡Ĺ åºĦ
èĪĴ éĢĤ
ä¸įè¶³ ä»¥
é²· ç§ĳçļĦåħ¶ä¸Ńä¸Ģç§į
è¯¥å±ŀ åħ±æľī
å¹´ ä¸įè¯¦
éĩĳ å¸ģ
åį¡ æĻ®
æŃ¦ ä¾ł
é¹ Ń
åĬŁèĥ½ çļĦ
æľĪ äº®
ä¹ĭ çİĭ
åıĺ ä½ĵ
è®¤ å®ļä¸º
å¯º çļĦ
èµ« æ¢ħ
çĶļ ä¹Ī
ç¬¦ èħ¾åł¡
æ¿Ģ æĪĺ
ä¾µ åħ¥
å¸ĥèİ± åħĭ
åİĮ æģ¶
è¯¸èĳĽ äº®
åĮĹ çĪ±å°Ķåħ°
ä¸ī åĪĨä¹ĭä¸Ģ
æ¸¸ çİ©
å¸Ĥ åĴĮ
äºĮ èĢħ
å¥¥ ä¼ļ
åĤį æĻļ
ä¸Ģ å¾ĭ
å¤ļ æľī
çĶµè§Ĩ ç½ĳ
æĭ¥ ç«ĭ
å¥ł å®ļäºĨ
èİ Ĩ
éĩį å¿ĥ
å¤ª å¤ª
èĲ¥ åľ°
æī§å¯¼ çļĦ
å¿ĥèĦı çĹħ
æ¯Ķ å®ī
å¤ª å°ī
æł¡ åĨħ
åĮħæĭ¬ æľī
å¾ģ è®¨
if e
çī¹ æĽ¼
æĸ° æ³½è¥¿
ĠS e
H P
çļĦ é¢ľèī²
åĤ Ģ
åħ¬å¸ĥ ä¸º
çºµ è´¯
è¯ ħ
ç¾ ²
éĵ ²
Ġs h
æĲŀ ç¬ĳ
æ¸¯ çļĦ
æ±ī ä¸Ń
å·® ä¸įå¤ļ
å·¥ä¸ļ å¤§åŃ¦
å¹¼ å¹´
ä¸į åĩº
ä»ĸ äº¦
æĪĺ ä¹±
åı¯ä»¥ çĶ¨æĿ¥
ä½ľåĵģ æľī
50 1
æľĢè¿ĳ çļĦ
åľ¨ æķ´ä¸ª
å½ ¤
éĥ¨ å°Ĩ
åĬł è¾¾
å¤© å®Ŀ
ad a
åİ¨ æĪ¿
ä¸Ń åĮ»
åģľ æĪĺ
é¢Ŀ ä¸º
ä¸ª ä¹¡
æıĲ æĭĶ
å§ĭ åıĳ
æ²³ è¥¿
åķĨ èĪ¹
å¼ķ èĩ´
èĬŃ èķ¾
è¿ĲåĬ¨ åľº
å£° èªī
å¾® çĶŁçī©
åħį äºİ
æ¦ľ é¦ĸ
éĢĿä¸ĸ åĲİ
3 40
Ġ )
æµ· åľ°
è¿Ľ åº¦
åĪĻ ç§°
éĹ¨ æĪ·
çĻ¾ ä½Ļ
éĶĢåĶ® éĩı
s ur
èĳĹ æīĭ
å¥³æĢ§ çļĦ
å¼Ģ åı£
ä¸ĸ åŃĲ
ç±³ å¾·
æµģ å¤±
åħŃ åĲį
è¿ģ éĥ½
åıĶ åıĶ
æİ¢éĻ© å®¶
å§ĳ å¨ĺ
å®¶ çĿ£
æĮ ł
åį¡ éĩĮ
å¸Ŀ æ±¶
åĢ¼ çļĦ
ä¹Ķ æľ¨
ord s
åĺīä¹ī åİ¿
m o
ä¸Ń éĥ½
æĮī éĴ®
æıŃ å¹ķ
èĩªèº« çļĦ
S a
ä¸Ģ ä¸ĭ
åľ° è¯´
å¸Ĥ å§Ķä¹¦è®°
å¼Ģ ä¼ļ
å¼Ģ åĩº
ä½İ éŁ³
åĸĢ éº¦éļĨ
èĽĽ ç§ĳ
æŃ¤ æĽ²
æ°´ åĮº
è§£ éĽĩ
è®¿ è°Ī
çĶ±è¯¥ éģĵè·¯
åľ¨ ç¬¬ä¸Ģ
èĢĮ è¯¥
æĬ¥ ç¤¾
è¾¹ åĮº
è¿ĲåĬ¨ ä¼ļçļĦ
ç²¾ åį«
ä¹ĺ éĻį
èĥ½åĬĽ çļĦ
éķ¿åº¦ ä¸º
éħ¿ éħĴ
æĺ¯ è¶ĬåįĹ
åĿ ľ
çĥŃ çĪ±
åĵ¥ æľ¬
åģı é£Ł
æ·ĺæ±° èµĽ
æĢİ æł·
å¼Ģ å¤´
çº¢ æ¥¼
åºĵ å®¹
åĲ´ åĽ½
åĽŀåĽ½ åĲİ
åľ¨ å°ı
åĪĨ æ²»
ä¸ĭ æ»ĳ
å¤ĸ åŀĭ
éĵ ī
èĭ Ł
åĨħ å¿ĥ
çľģ çļĦä¸Ģä¸ª
æīĭ ä¸Ĭ
åı°æ¹¾ äºº
æ±ī ä»£
ç¼© åĩı
æį· å°Ķ
å¹¶äºİ åĲĮå¹´
åĪĽåĬŀ äºĨ
çĻ¾ç§ĳ åħ¨ä¹¦
åľ¨ åĲİ
åľ¨ é©¬
æľ¬ åĽ½
ä¸ī éĥİ
äºĮ æ¥¼
åĲĪ ä¼Ļ
18 63
å¢ŀ å¤ļ
éĻµ å¢ĵ
è·³ èĪŀ
çļĦåĲĮ åĲį
ä¸º å¦»
éĥ¨ æĹı
èĢĮ ä¸Ĭ
é¡¶ ç«¯
å¸ĥé²ģ å¡ŀå°Ķ
è¡Ļ éĹ¨
G u
åľ¨ å®¶
æ¡¥ éķĩ
åŁĥ éĩĮåħĭ
ä¹Ļ éħ¸
åĲīå°Ķ åĲīæĸ¯
åĨĽ æĶ¿åºľ
å¸ĥ æŀĹ
åı¸ ç©º
éĹ¨ ç¥¨
å¤į åİŁ
åŃĺ æĶ¾
éħį æľī
it a
æ¸´ æľĽ
A X
i en
å¤§ æĺİ
å¹¿ éĺĶ
15 3
14 7
ï¼ļ" "ï¼īï¼Į
çĲī çĴĥ
æĬĵ ä½ı
åĴĮ æ³ķåĽ½
ä»¥ åĲİçļĦ
å®ļ åĲįä¸º
æıĲ æĹ©
å¾Ī é«ĺçļĦ
ä¼¦ çī¹
å°¾ é³į
çļĦåİŁ å§ĭ
ç³» æķĻæİĪ
æĬ½ çŃ¾
Ġ ä¸Ń
ä»ĸ æĬĬ
å¼Ģå§ĭ å¯¹
åĩ» åĩº
23 5
ä¸ºäºĨ éģ¿åħį
åĲ¯ ç¤º
è§¦ åıĳ
éģ£ ä½¿
è´Ńçī© ä¸Ńå¿ĥ
åĲ µ
ä¸Ģ åħ±æľī
è¢« æİĪäºĪ
ç§į çļĦ
ç¬¬ä¸Ģ æĿ¡
åħ¬å¸ĥ çļĦ
åľ°éĵģ ç«Ļ
F S
ä»¥ èĩ³äºİ
ç½Ĺ å§Ĩ
åı¯ä»¥ è®©
æĿ¯ åĨłåĨĽ
èĩªåĬ¨ è½¦éģĵ
çº ¶
äºĨ å¾Īå¤ļ
èĢĮ è¡Į
æ²³ ä¸Ń
ç»Ń ä½ľ
è®¡åĪĴ äºİ
å©ļ åĲİ
éĶ¦ èµĽ
ä¸Ģå¸¦ çļĦ
è¯ °
ä»£ çī§åĮº
å¥ĸ å¾Ĺä¸»
ä¸Ńåįİ èģĮæ£Ĵ
ç©¿ çĿĢ
ens is
åľ¨ åĲĮå¹´
ä¸º ç¦¾æľ¬ç§ĳ
åĲĮ è¡Į
å¦ į
çİĭ åħ¬
éĺ¿ åħ¹
é¢Ħ éĢī
åĬ³ æĸ¯
æĥ¨ éĩį
è¾¾ç§ĳ ä»ĸå·ŀ
å¸Ĥ è®®ä¼ļ
æīĭ åĨĮ
æŃ» çļĦ
æĻĭ èº«
éĿĻ åĨĪ
åĲİåıĤåĬłä¼ļè¯ķ ç¬¬äºĮçĻ¾
ä»¥ åĨħ
ä¸ī çľģ
å·ŀ è®®ä¼ļ
æ¯Ľ éĩĮ
åģĩ éĿ¢
M ag
å¹ ¡
åº ¾
åĨĽ æ°ĳ
å°Ĩ æĪĲä¸º
å¼ł å½ķéŁ³å®¤ä¸ĵè¾ĳ
åĵĪ è¿Ī
è¯ķ åīĤ
åįĥ éĩĮ
ĠA ir
æĹ¥ åıĬ
ä¸ľ åįİ
å¹³ åģĩåĲį
çİ° èº«
æīĭ çļĦ
åŃĹ æł·
åĳ¨ åħŃ
åĩĨ è®¸
åĵ¥æľ¬ åĵĪæł¹
æŁ ł
èĲ¥ éĶĢ
èĲ½ éĢī
æ¤ °
æĸ½ æĶ¿
çº¬ åº¦
Al l
çīĻä¹° åĬł
p m
çļĦ æĿİ
åĩº éĿ¢
åĮĸ åĴĮ
åı¤ å°Ķ
ä»ĭ è´¨
çļĦ èĥ½éĩı
ä½ ¬
ä¸ī æĹ¥
åİ¿ å¢ĥåĨħ
æĻ® éĢī
æį·åħĭæĸ¯æ´Ľ ä¼Ĳåħĭ
w an
è¿Ļ ä»¶äºĭ
å¥¥ åĮĪ
æĸ°éĹ» åı°
å®ª ç«ł
æĸ© é¦ĸ
w ork
å¤§ ä¸ļ
ä»¥ ä¸Ģ
å¾· æ¯Ķ
00 1
åİŁ çĶŁ
èĭ± å®Ĺ
éº¦ éĩĳ
ç©ºåĨĽ åŁºåľ°
åı² åħĭ
è´Ŀ åĭĴ
å¸¸è§ģ äºİ
æĮĩæĮ¥ ä½¿
å°ıæĹ¶ åĢĻ
å¤§ä¼ļ ä¸Ĭ
ie w
ä¸İ ä»ĸçļĦ
èĩª ç«ĭ
å¼Ģ åħ³
æĢ§ åľ°
éŁ ¬
æ´¾ åĳĺ
æ±ī æĸ¯
åħ« è§Ĵ
æ°ĳå»º èģĶ
åĨĽ èĬĤåº¦ä½¿
çī¹ æľīçļĦ
éĩį å¤§çļĦ
ä¼Ĭ èĹ¤
æŀģ åĬĽ
æ£® çļĦ
è®¾è®¡ äºĨ
ç¨» çĶ°
ä¸Ģ å¥³
å¤§ æĢĴ
æł¡ åĿĢ
è°ĭ åıį
ç¡¬ ä½ĵ
æĽ¹ éŃı
éĩİçĶŁ åĬ¨çī©
è ĺ
æĭī åĽ¾
å·ŀ åĮº
çº³ çľģçļĦä¸Ģä¸ªå¸Ĥéķĩ
ä¸Ń ä¿¡
æ²» æīĢ
æĮĩ æ´¾
ä¸ªäºº ä¸ĵè¾ĳ
çļĦå°ı åŀĭ
ç»Īäºİ åľ¨
çĿ¡ çľł
éĿ ¡
å®ī å¹³
æµģ çļĦ
éĢł åĥı
çīĩ å¤´
åħ« åį¦
ä¹Ļ çĥ¯
ç¿»è¯ĳ æĪĲ
æĮĳæĪĺ èµĽ
ire ct
æ°Ķ çļĦ
å¾Ī å°ı
ic an
åİŁæľ¬ æĺ¯
è®²è¿° äºĨ
å¥¥åı¤ æĸ¯
æł ĵ
å¼Ģ æĭį
æ´»åĬ¨ ä¸Ń
å¤¸ åħĭ
åħĥ çļĦ
æĿĳ å§Ķä¼ļ
åľ£ äºº
æĬķ å¥Ķ
æķĪ çĽĬ
éĢļå¸¸ ä¸º
è®¤ çľŁ
éħį åģ¶
çĭŃ ä¹ī
éĺ¿æĭīæĸ¯ åĬł
éĻ Ľ
å°ı éĺŁ
é¦Ļ å±±
çħ İ
åĪĩ åī²
Int el
Ġ j
åľº ä¸Ĭ
18 72
æĹł æľº
å¾Ģ åĲİ
ç¥ĸ å¸Ī
æıĲä¾Ľ æľįåĬ¡
æĿĤ äº¤
çĨĬ çĮ«
å¸ĥé²ģ åħĭæŀĹ
P ar
å¾· æ¸©
æľĢ æĸ°çļĦ
è± ģ
å®ĪéĹ¨ åĳĺ
çļĦ B
ä¸º åīį
æľī åĲįçļĦ
æĸ° æµª
åıĪ æĺ¯
å®£ æĪĺ
çĵ¦ å°¼
ro ss
æĹ§ ç§°
å»ºç«ĭ äºİ
æĸĲ æµİ
ä¸İ å¼ł
åĽŀ åİ»
17 00
14 6
é±¼ çļĦ
çĥŃ åĨħ
åįĸ ç»Ļ
åĭĩ èĢħ
A lex
i la
åı¯ éĢļè¿ĩ
å°± ç®Ĺ
èĭı é»İ
åıĻ äºĭ
çłĶç©¶ ä¼ļ
è¯º ç»´å¥ĩ
è¿Ļä¸ª éĹ®é¢ĺ
çĹħ æĥħ
èĥŀ èĥİ
è·¨ åĽ½
æľīéĻĲè´£ä»» åħ¬åı¸
C V
çĽ¸ æİ¥
èĭ± èģĶéĤ¦
æĹł æĶ¿åºľ
åİĨ æĿ¥
åħµ åºĵ
æ§ Ĳ
ç¨Ģ å°ĳ
å¾· èĲ¨
åº· å¤į
éľį æĻ®
éĿĴå¹´ åĽ¢
M us
t r
æ°ĳ å±ħ
ç§ĳ æĭī
åĽ½å®¶ ç»Łè®¡
ç²¾ å½©
ev el
å¤ Ń
è¡ ¢
äºĮ ä¸ª
æģ ¤
ä¸¾ éĩį
æ°¸ åĴĮ
è½® æµģ
æĮģç»Ń åĪ°
Ġs p
çļĦ è´¨éĩı
æł¼ ä¼¦
è¯Ń æĹı
ä¸Ĭ è¯¾
è£ ĺ
åĦ ¡
éĨ ļ
é¤Ĳ é¦Ĩ
åĲİåıĤåĬłä¼ļè¯ķ ç¬¬ä¸ĢçĻ¾
å¹´ èµĽåŃ£
ãĢģ ãĢĮ
ä¸º é«ĺ
ä¸Ń æĭħä»»
æĦı çĶ²
ä¹Ŀ åįģ
èħ ¥
èĭ±åĽ½ æĶ¿åºľ
æĺ¾ å¾®
è´¯ éĢļ
é©³ åĽŀ
ä¸Ĭ çĸı
è¡Į ç»ı
in n
åħī åŃĲ
14 3
ç¼ĺ åħ³ç³»
åĪĨéĴŁ åĨħ
çļĦ ä¿¡æģ¯
ä»¥ éģ¿åħį
è¥¿ éĽħåĽ¾
æīĢ èĩ´
å®ī åºĨ
u la
Ġ '
åľ¨ ä¸įåĲĮ
20 8
å±± åįĹ
å°Ĩ çĶ±
åĪ¶ è£ģ
çºª å§Ķ
æ¸¸ è®°
çİ¯ ç¤ģ
åİĨåı² æĤłä¹ħ
æł¸ æŃ¦åĻ¨
ãĤ ·
P L
ç» «
ä¸Ģ ä¹Ŀ
è§Ĩ ä½ľ
èĲ½ çļĦ
åįĬ åĨ³èµĽ
å®ª åħµ
åĤĢ åĦ¡
ç» ®
ä¸Ń ç¾İæ´²
æ² ®
åŁ Ĺ
åıĳ åĪ°
çł ¸
æŃ¦ èŃ¦
æ¬§ æĭī
æī¿ åĬŀ
çĶ³ æĬ¥
å°ı å²Ľ
åķĨ è®®
åº· æĸ¯åĿ¦
è¾ī çħĮ
æĺ¯å¾·åĽ½ èİ±èĮµåħ°
ä¼ª éĢł
æĪĲ éĥ½å¸Ĥ
åŁĭ èĳ¬
2 28
çļĦ åħĥç´ł
èµ Ĥ
åĪĨ çº§
éĢļ åķĨ
æį Ĩ
ä¹Ŀ ä¸ª
èµĦæĸĻ åºĵ
å°¼åħĭ æĿ¾
è¾¾èµĸ åĸĩåĺĽ
åĩº è¡Ģ
è¡Į åĨĽ
è®® æ¡Ī
è§£ åīĸ
åºķ ä¸ĭ
é¼ ¬
æ±ª ç²¾åį«
åı²ä¸Ĭ æľĢ
O W
åĴĮ åľ£
æ± ´
åıĸ äºĨ
åĲī å§Ĩ
çĻ¾ åĪĨ
åŁºåĽł ç»Ħ
åħ¨ èĥ½
èĳ «
çĻ½ æ²Ļ
at es
å¥ĩ æĢª
èįĶ æŀĿ
å¤§ èĭ±
20 2
åĲį åŃ¦çĶŁ
åħ° ç§ĳ
ä»Ĭ æ²³åįĹçľģ
éļı æĦı
æł· åŃĲ
çĥŃ çĥĪ
èĩªçĶ± çļĦ
ä½Ľç½Ĺ ä¼¦
å¹´ èĲ½æĪĲ
å·¥ç¨ĭ éĻ¢
åķĨä¸ļ éĵ¶è¡Į
å°Ĭ æķ¬
è·³ è·ĥ
m on
é¾Ļ æ½Ń
æ¯ı ä¸ªäºº
é¦Ĩ éķ¿
ç¥¨ æķ°
éĺ´ éģĵ
è®¾ç½® äºĨ
ç¬¬åįģ åĽĽ
æıĲé«ĺ äºĨ
ä¸Ģ ä»¶
åĳ Ĩ
ä¸ī å®¶
åŁİ åįĹ
åĢ¼ ä¸º
å¹¼ èĻ«
å¦ĸ æĢª
åĲİ åįĬ
æķĳ æµİ
åįģäºĮ åİħ
åģı åĲĳ
è¿Ľä¸ĢæŃ¥ çļĦ
å¥ ļ
åħ¬ ä¿¡
åħ¬ é¦Ĩ
ä¸į å¿ħ
é©¬ çļĦ
éĩĳ èī²
åºĶ æĢ¥
èĥľåĪ© åĲİ
ç» ¶
åĴĮ S
ä¸Ĭ ä¹Ł
èĬ ĭ
åĸ Ĥ
æ¿ ł
å®ļä¹ī çļĦ
éŀ ĺ
æĳ©æīĺ è½¦
ä¸Ģ å¹´çļĦ
æĺ¯ åīį
æ·± çļĦ
èĵ Ł
è±Ĩ ç§ĳ
ang e
ä¸Ĭ å¥ı
å¤ĸ ä¾§
åħī èį£
æĪĴ ä¸¥
é©¬å°¼ æĭī
å¤§ å®ī
æĺ¾ç¤º åĻ¨
ç¾¤å²Ľ çļĦä¸Ģéĥ¨åĪĨ
çĨĶ å²©
çļĦ é£İéĻ©
åľ¨ çº½çº¦
ä¸» ä¿®
å°Ĩ å£«
æ· Ħ
çĻ½ èī²çļĦ
14 1
çļĦäºº æķ°
èĢ¶ç¨£ ä¼ļ
å®¶ åħ·
åĮĹ è¶Ĭ
æĶ¶ æķĽ
çģ« èį¯
å¡ŀ æµ¦
è´¥ äºİ
Q L
ä¸Ģ çĲĥ
å°Ĩ å®ĥ
ç»¿ åĮĸ
èĩ³ä»Ĭ ä»į
å¤ļæł· æĢ§
é©¬ å±±
åŁº çļĦ
äº¤ éħį
åĢŁ åĬ©
çŀ Ĵ
ç¦ħ å¸Ī
çŃ¾è®¢ äºĨ
çļĦåĽ½éĻħ èµĽäºĭ
ä¼ĬåĪ© è¯ºä¼Ĭ
æ²³ å²¸
åĩ» æºĥ
åĽ´ å¢Ļ
ä¸»ä¹ī åĴĮ
åĮ¹ éħį
æ»¥ çĶ¨
æ²Ļçī¹ éĺ¿æĭīä¼¯
å¼ĹæĭīåŁº ç±³å°Ķ
å®ŀ çļĦ
å¤« çī¹
çŁŃ ç¼º
æīİ å°Ķ
åı¸ä»¤ å®ĺ
æĦıä¹ī çļĦ
åľ¨ å·´é»İ
å¤§ ä½ĵ
å¤§åŃ¦ åŃ¦ä¹ł
æ¬§ æĸĩ
äºĮåįģ äºĶ
Î ³
å¹´ åĩºçīĪçļĦ
ĠL ive
I s
çī¹ è®¸
è¡Ĺ åĮº
æĿĢæŃ» äºĨ
ä¸Ģ æĪĺ
åľ¨ ä¸į
éĺ ±
åįĹ åİ¿
èĿ İ
M ichael
å¼Ģ çļĩ
èİ· éĢī
å¥¹ è¿ĺ
ä¿® å£«
å½±åĵį åĪ°
ĠG u
åıįå¯¹ åħļ
æ¹ĸåįĹ åį«è§Ĩ
ne y
åĢº åĪ¸
çŁ¥ å·ŀ
èĲ¥ æķĳ
é»ĳ æ£®
æĪ´ å°Ķ
å¹´ æĶ¹ä¸º
æ³ķ æĸĩ
åĬł çº³
ç¾İ å°Ķ
éĩĳ æ²Ļ
æīĵ åį°
è¿ĲåĬ¨ ä¸Ń
ĠS te
å®« åĨħ
ä¾§ éĿ¢
èĴĤ å°Ķ
æĺ¯ä¸Ģä¸ª ä½įäºİä¸ŃåĽ½
å»ī ä»·
A BC
G T
ä¸Ĭ è¡Į
è¥¿ æĭī
å¹¶ åıĳ
é©¬ æŀĹ
èĭ± åĲĭ
åħ¶ä»ĸ åĽ½å®¶
å³ ª
åĪ¶ä½ľ äºĨ
è¡Ģ åİĭ
åĴĮ æĿİ
17 3
é¼ł å±ŀ
i P
éķ Ģ
èĲ ±
æİ¥ è§ģ
åįĩ æł¼
ç½² éķ¿
åĭĭ çĪµ
ä¸ľè¥¿ åĲĳ
å¤§ æµ·
ä¸Ĭ å°ī
çĤ ¯
18 66
æĹħ éķ¿
çĤ® åĩ»
ä¼ ¶
çĤ «
èģĶ åĲĮ
åĬŁ å¤«
æİĴ æ°´
éĤ¦ èģĶ
åĳ¨åĽ´ çļĦ
æĻ Ł
æ±Ł éĻµ
åĽłä¸º ä»ĸä»¬
å½¢æĪĲ äºİ
ä¸ľéĥ¨ çļĦ
" >
Ġ he
ä¸į å®ļ
ä¸į éĢĤ
æ³¢ å¸Į
åįļçī© éĻ¢
Ï Ģ
æĸĩåĮĸ åĴĮ
æĮĤ çīĮ
èĩª åį«
åħ¬åı¸ äºİ
çĻ¾ å¼º
çĻ¾ æµİ
å¼Ĥ æŀĦ
æħ¢ æĢ§
çķľ çī§
15 1
åģľ æĴŃ
ĠF ran
ç©ºéĹ´ çļĦ
éĺ´ å½±
ç³ĸ å°¿
Ġ åıĬ
ä¸İ é¦Ļæ¸¯
åı¯ ä½¿çĶ¨
äºĮ æ®µ
ä¼ł æİĪ
çĹ ´
å¼ķ çĪĨ
éľĢè¦ģ åľ¨
æŃĮæĽ² çļĦ
æĲľ æŁ¥
æĮĩ ç§°
è®º è¯ģ
å¼º é£İ
å¸Į å¾·
éĥ¡ å¤ªå®Ī
éĢģ èĩ³
ra v
ä¸ºè¾Ĳé³įé±¼çº²é²Īå½¢çĽ® é²ĪäºļçĽ®
å²ģ ä»¥ä¸Ĭ
ãģ ¡
ĠL im
åıĳå°Ħ åĻ¨
åı¯ä»¥ åĪĨä¸º
æĶ¯ æŁ±
éģĹ æĨ¾
ç«¥ è¯Ŀ
æ¼«çĶ» ä½ľåĵģ
çļĦ T
åı¯ è¢«
åħ¨ åĲį
åı² åŃ¦å®¶
17 8
æ²ĥ æĢĿ
çīĽ èĤī
åĭĩ æ°Ķ
G M
ä¸Ģ ç¯ĩ
åĽ½ æ³°
å¼Ģ çģ«
å£« æ°Ķ
çĽ¸ çŃī
åİŁ èĳĹ
ĊĊĊĊĊĊĊĊ ĊĊĊ
æ¦ľ ä¸Ĭ
åĽ½ äº§
æ° ¦
er ry
èĤ² æľī
çŀ ©
æŃ¦æ±ī å¤§åŃ¦
éĢłèĪ¹ åİĤ
çħ½ åĬ¨
æī Ķ
æĹ¶ æĽ¾
å£« æŀĹ
çģ« çĤ¬
ç¬¬äºĶ æ¬¡
çļĦ èĩªçĦ¶
å¯¹ å³Ļ
åħ¥ ä¼į
æĺİ å¾·
æĭħ å¿§
æĿ° åĩºçļĦ
æĻļ æĬ¥
ï¼ī âĢĿ
11 00
åħ¶ä»ĸ åľ°åĮº
äºĮåįģ äºĮå¹´
éĽ¨ éĩı
ç½ĳç«Ļ ä¸Ĭ
ä¿¡ ä¸Ń
èĭı å°Ķ
çĻ½ éĵ¶
åĪĴ ä¸º
14 9
è¯Ńè¨Ģ åŃ¦
æĻ®æ³ķå°ĶèĮ¨ å·ŀçļĦä¸Ģä¸ªå¸Ĥéķĩ
æĭ ¢
èĭ± ç¾İ
è¿ĺ æľª
æ´¾ é©»
ĠA ward
æĹ¥åľ¨ ç¾İåĽ½
å¤§ æ»¡è´¯
éĵģè·¯ çº¿
è¡Ģ åŀĭ
åīĬ åĩı
æ·¹ æ²¡
â ĺ
æĺ¯ æ³¢åħ°
ä¹Ł æĹłæ³ķ
å¤© çº¿
äº¤ æīĢ
ä»ĸçļĦ åĲįåŃĹ
æ¹ Ħ
åħ¨åĽ½ ä»£è¡¨å¤§ä¼ļ
åĶĲ çİĦå®Ĺ
åħ¼ èģĮ
70 1
æ±Ł æ³½æ°ĳ
åį´ ä¸į
% ï¼ī
ä¸Ģ è¡Į
è¢« åĳ½åĲįä¸º
ä¸ľ éĹ¨
éļ ĺ
éĥ½ çĶ±
æīĺ æĸ¯
çº² é¢Ĩ
F e
æĸ½ åĬł
æ»¡ åĪĨ
å¹´ åı°æ¹¾
åĪ° ç¾İåĽ½
åĲĳ ä¸ľåįĹ
çļĦä¸Ģ èĪ¬
åĳ¨ äºĶ
çªģ åĽ´
æ²¹ çĶ»
éĢĥ åĩº
éĦ ŀ
b it
y th
ä¸Ĭ åİ»
ä¿¡ ä»¶
åī¯ åı¸ä»¤åĳĺ
å»ºéĢł äºĨ
å·§ åħĭåĬĽ
æ°ĳ æĿĥ
äºļ è¿°
æľº å¯Ĩ
åį« åħµ
æ³° ç±³å°Ķ
æ²¦ éĻ·
ä¸Ģ åŃĹ
åįİ ä¸½
è¯º å¨ģ
æ³° æĻ¤
èī¾ åĵĪè¿Ī
é¡º å¾·
æ¢ģ æĮ¯
æĬĳ éĥģ
å®ľåħ° åİ¿
èĳ« èĬ¦
ä¹ĭ é¦ĸ
åĲį å£°
çĶ² çĥ·
25 6
è¯į åħ¸
å¿ħ å®ļ
åħĭéĩĮæĸ¯ èĴĤå®ī
B B
çļĦ ç¬¬åĽĽ
æĹ¶ éĴŁ
æĸ¯ å¨ģ
æĶ¿ åĿĽ
çĽ® çĿ¹
åĽ½éĺ² åĨĽ
çº§è¡ĮæĶ¿åĮº åĪĴ
è·¯æĺĵæĸ¯å®ī éĤ£å·ŀ
D L
çļĦ èĳĹä½ľ
19 2
å¤Ħ ä»¥
é¢Ĩ åĨĽ
å¨ģ æĸ¯çī¹
ä¼¯ å°Ķ
äºĮåįģ ä¸Ģå¹´
ä½ĵèĤ² ä¼ļ
ra ph
æ³°æĻ¤ å£«
æĸĩ éĽĨ
æŁ ĳ
éķĩ æµ·
ç«ŀæĬĢ åľº
çļĦ æĸ°éĹ»
çļĦ çĶµåŃĲ
åķĨ è®¨
åħµ é©¬
åĿĩ ä»¥
åįĩ é«ĺ
åİĭ åĢĴ
çļ® äºļ
åĮĹ æľĿ
æĸ° åĽĽåĨĽ
åĽĽ éĿ¢
å¥¥ å·´é©¬
ç´¢ å¼ķ
åĩı ä½İ
æĺĨ ä»ĳ
èµĦäº§ éĺ¶çº§
åľ¨ éĩİ
ä¹Ł åĮħæĭ¬
åĪ¶ å®ļçļĦ
æĢ» åħ±æľī
ä¸¥ è°¨
éĴ¢ çŃĭ
éķĩåĮº äººåı£æľī
æİł å¤º
èįīæľ¬ æ¤įçī©
N ET
æĪ ®
ç§° åħ¶ä¸º
è·³ æ°´
æĶ¶å½ķ åľ¨
æŃ¥åħµ å¸Ī
åħĭç½Ĺ åŁĥ
ç½¹ æĤ£
é¦Ļæ¸¯ ä¸Ńæĸĩå¤§åŃ¦
åĤ¬åĮĸ åīĤ
å¤§ æ¸ħ
è½¦ æ¬¾
ç±³ åĵĪ
çº¢ çĻ½
ç¦ģ ä»¤
ul ar
çļĦ ä¸Ńå¤®
çļĦ åĲĦç§į
æĹ ·
ä¸Ń æī®æ¼Ķ
æĹł çķı
ç¿ ĺ
å¾ĹåĲį äºİ
ä¸ĸçºªä¸Ń åı¶
çļĦ P
æĸ¯ åł¡
18 69
çīĪ åĽ¾
é»Ħ æµ·
æĺ¯ ä»ĸçļĦ
å¤ļ å¾·
ä¼ł éģĵ
ç»ıè¿ĩ æľ¬åľ°åĮº
ĠE ng
åĴĮ æ¬§æ´²
æ¯ ¯
åĢ ©
äº¤ æĽ¿
çĲĥéĺŁ åľ¨
ç¿¼ é¾Ļ
å»¶ä¼¸ åĪ°
èĢĮ å°Ĩ
ä¿Ħç½Ĺæĸ¯ çļĦ
åĿļ å®Ī
çĥŁ åı°
å¿½ è§Ĩ
E A
ä¿Ħç½Ĺæĸ¯ èģĶéĤ¦
çļĦä¸» åľº
ist a
çĲ µ
ä½įäºİ åĽĽå·Ŀçľģ
åĭĴ å§Ĩ
ç»Łæ²» æĹ¶æľŁ
è½° åĬ¨
åĽ½ å¾½
åİ¿ ä»½
çľģ åĴĮ
åĪĹ å¤«
æł¡ å°ī
æ²ĥ æ´Ľ
åĵ¥ä¼¦æ¯Ķäºļ å¤§åŃ¦
èı© æıĲ
åīį åĪĹ
é£İ æ³¢
å°ĳ åį¿
ä¼Ĭ çĬģ
ĠG e
ä½Ĳ æ²»
çĸĳ éĹ®
o ch
æĮ £
ä¹Ł è®©
è¯´ åĩº
ä½Ľ éĻĢ
å·¨ èĽĭ
æĭĽ æłĩ
åħĭç½ĹåŁĥ è¥¿äºļ
åĪĨ æĭĨ
æľ¬ åĮº
è¡¨ æī¬
æ°´ æµģ
éĩĳ çĲĥ
éĴ µ
å¼ł æ°ı
ç»Ĩèĥŀ çļĦ
ç¦ıå°Ķ æĳ©æĸ¯
èĬľ æ¹ĸ
" "
S m
æĸĩ æķĻ
å¤ª å¤§
15 7
çıŃ ç¦ħ
åıĳå±ķ ä¸º
ç¡® å®ļçļĦ
ur n
èĩ³å°ĳ æľī
éĥ½çĿ£ åºľ
åıªåĪĹåĩº æĽ¾è¿Ľåħ¥
çļĦåĽ½éĻħèµĽäºĭ æĪĲç»©
M ark
çī¹ æĿĥ
ä¸ľ æ¶Į
ç±³ çī¹
æĺŁ çŃī
èĩ´ æķ¬
é¸ ¥
ï¼īãĢģ ãĢĮ
åºĨ éķ¿
ä¸ĢèĪ¬ èĢĮè¨Ģ
çºµ åĲĳ
ãĢı ãĢĤ
å®¢è¿Ĳ ä¸ĵçº¿
åľ¨ ä¸¤
éĩĳ æĹ¥
æĹł åı¯
of f
èµĦæł¼ èµĽ
Te am
çļĦ åħ³éĶ®
èİ« éĩĮ
ol y
æ·· éŁ³
å¹³åı° ä¸Ĭ
o e
å¤§ ä¹ĺ
ä¼ļ ä¸Ń
æĸ° åįĹ
éģĵ å°Ķ
èµ· éĻį
ä¸ĵ åĪ¶
é»Ħ èľĤ
ç®¡çĲĨ åŃ¦éĻ¢
åı·çº¿ çļĦ
èĳĽ æĭī
èĦĤé²¤ çĽ®
åĪ©æ²ĥ å¤«å·ŀ
è¯ħ åĴĴ
åħĭ çī¹
æĮĩ å®ļçļĦ
ä¸Ńåįİ åı°åĮĹ
éĥ½ä¼ļ åĮº
åĽ½ å¤§
èĴ ľ
è¡Ĺ å¸Ĥ
åĨĻ çľŁ
å¤«åį¡ åĮºè´Łè´£ç®¡è¾ĸ
èĽĽ å±ŀçļĦåĬ¨çī©
çļĦåĲİ è£Ķ
M TV
çļĦ äº¤éĢļ
è¿Ļ æī¹
æĸĩ æ³ķ
èĭ± æ³ķ
å°¼ ç½Ĺ
å¿ĥ ä¸Ń
ä¸¤ä¸ª æľĪ
å¹¶ä¸į èĥ½
éĤ® æĬ¥
ä»·åĢ¼ è§Ĥ
ä¸»æ¼Ķ çļĦ
du ction
3 10
ä½¿ äºº
èĢĥ çĶŁ
èĩª åı¤
ãĢį ï¼īãĢĤ
ãĢį ï¼Īï¼īï¼Į
ä¼ĺ è´¨
;}- ï¼Į
ä¸º æķ°
äºİ ä¸ŃåĽ½
ä»İ åīį
æŃ¦ èĹı
å·´å°Ķ å¹²
å®¶ åĴĮ
æĸ° å¸Ĥéķĩ
æīĢ èĳĹ
å¤© ä¸»
åĬĽ å£«
st er
å®ª æĶ¿
åĩĢ åľŁ
éĻ ĭ
åħ¨ ç§°
å¡ŀ åĨħ
é¢Ħ æĬ¥
éĻª å®¡
å¼łåŃ¦ èī¯
15 9
åĲī å®ī
èŀį èµĦ
Âł Âł
çĦļ æ¯ģ
" -
å¹´ åıĳè¡¨
åĪĿ åĽŀ
ä»¤ åħ¶
and er
ä½Ĳ èĹ¤
ä¸ºè¾Ĳé³įé±¼çº² èĦĤé²¤çĽ®
ç¤¾ä¼ļä¸»ä¹ī åħ±åĴĮåĽ½
æľĪåıĤåĬł å·¥ä½ľ
çļĦ è½¬
ä¸Ģ æĹı
æł¼ çº³
æ¦ Ī
op e
å±ķå¼Ģ äºĨ
é©¾ å´©
ä¸İ åįĹ
åįİ çļĦ
éĽ· åħĭ
åĪ¶ä½ľ åħ¬åı¸
é½¿ çĽ®
éĽĨä¸Ń äºİ
å¤ĸåĽ½ è¯Ń
éĹ¯ åħ¥
æī³ æľº
ä¹ĭ ä½Ļ
æ²¡æľī äºº
æİ¨ ç§»
é¢Ħ èµĽ
st e
åĩºçĶŁ çļĦ
rit ic
æĹ¶ å¹´
ä»ĸ ä»»
è¢« æīĵ
æŃ¤ é¡¹
å±± åĴĮ
å°ı éº¦
å¾ģ æĪĺ
éĨ ĭ
èĪį äºº
åĪ¶ èį¯
çĶŁäº§ äºĨ
æĪĪ æĸ¯
åĢĴ æķ°
æĺ¯ èĳ¡èĲĦçīĻ
å±± å§Ĩ
åıĺ æķ°
æĶ¶ å®¹
åħ« ä¸ĸ
å¢ŀ å¤§
å´ ģ
åĶĲ å¤ªå®Ĺ
åĩ¯ æģ©
åı¥ åŃĲ
å¹´è¢« åĪĹä¸º
æª ¬
å®¾å¤ķæ³ķ å°¼äºļå·ŀ
ä¼ļ åĴĮ
å¹¶ è®¾æľī
æĸĩ æŃ¦
å¾· é²ģ
çŁ «
åħī æ»ĳ
åĨ ī
å¾· æĽ¼
å¤ĸ å¢Ļ
ç½Ĺ ç´ł
å¥¹ äºİ
å¡Ķ çī¹
æİ§ åĳĬ
el s
çŁ¿ äº§
èģĺ ä¸º
æīĢ çĶŁ
åı· åħ¬è·¯
è®¤ä¸º è¿Ļ
èĪ° ä¸Ĭ
P I
æľŁ ä¸º
éĺ¿ çĳŁ
èİ± æ¯Ķ
é£ŀ é©¬
æ³¢å¤ļ é»İ
å¤ļ éĩį
ä¹¦ çļĦ
è¿ĳ åį«
çĭ¬ å®¶
éĿ© æĸ°
æ§ Ľ
åĵ¥ä¼¦ å¸ĥ
è½¿ è½¦
åľ¨ çĶµå½±
å¤§ çĶ²
ä¸ī åı¸
éĢļ è´§
æıĲ äºļ
åı¤ åħ°
ç§¯ ç´¯
å®ģ å¸Ĥ
èĭ¥ æĺ¯
é©¾é©¶ åĳĺ
ç¿ħ èĨĢ
ä¸į è¶ħè¿ĩ
ä¸¤ æĶ¯
é² ĳ
åĶĲ å±±
all y
ĠColle ge
o int
å¹´ èĭ±åĽ½
åĪĨ éĻ¢
åħ· ä½ĵçļĦ
è¡¨ç¤º ä¸º
æĺĤ è´µ
é¹¿ åĦ¿
å¤§æ°Ķ å±Ĥ
åľ¨ å¹¿å·ŀ
ä¸Ń åıĳçİ°
æ¸¸ çī§
äº¦ ä¸į
åĽ½éĻħ è±¡æ£ĭ
ç¨İ åĬ¡
åĲĮæĢ§ å©ļå§»
her e
åĩĨåĨ³èµĽ çļĦåĽ½éĻħèµĽäºĭæĪĲç»©
å¹¼ç¨ļ åĽŃ
åıªåĪĹåĩºæĽ¾è¿Ľåħ¥ åĩĨåĨ³èµĽçļĦåĽ½éĻħèµĽäºĭæĪĲç»©
L i
æµ· æĬ¥
èµ· å§ĭ
æŀĹ å½ª
æ¹ĸ åĮº
çļĦä¸» è§Ĵ
ä¹Ļ ç»Ħ
åłĨ ç§¯
æĺ¯ è¥¿
å¨ ´
è§£ è¯´
ic o
çĹħ ä¾ĭ
çļĦä¸»é¢ĺ æĽ²
çļĦ åģļæ³ķ
æľī åĪ©äºİ
èĤ Ľ
ä¼ł è¨Ģ
çĽ®åīį ä¸ºæŃ¢
è¯¾ é¢ĺ
å®ģæ³¢ å¸Ĥ
æľī éĥ¨åĪĨ
çĲ ¶
çī¹ å¿«
å±± èĦļ
ä¸ĵ è®¿
è§£ è¯»
çģ¯ åħī
å¤ªç©º èĪ¹
åħ¬ èģĮ
åĪ° å¤Ħ
æľ¬ åİ¿
æŀĦ æĢĿ
ä½Ľ å¯º
æĸŃ ç»Ŀ
çĤ¸ èį¯
æ²ī é»ĺ
åľ° æłĩ
åĮĹ éĹ¨
çº¿ åľ¨
æłĩ è¯Ń
åĨį äºİ
å¾·åĽ½ äºº
èİ« éĩĮæĸ¯
éĩĩçĶ¨ çļĦ
æķ°éĩı çļĦ
K BS
ä¸ľ å¾ģ
éĶ ļ
éĽ¨ æ°´
èĲ İ
çİĭ å»º
å°± æĺ¯åľ¨
æĽ´ å¿«
åı¯èĥ½ åľ¨
åŁºæľ¬ çļĦ
ĠJ ohn
è¯Ľ æĿĢ
èĭ£ èĭĶ
Ġ ãĢĮ
è¡¨ æĥħ
è¯º åħĭ
æı´ åĨĽ
Tw itter
çļĦ æĿ¥æºĲ
è¯´ ä»ĸ
äº¤ åĩº
èĲ¥ åĪ©
è´Ŀ å¤ļ
å·ŀéĻħ åħ¬è·¯
æĹ¥ çħ§
åħĭ åĭĴ
ä¹Ł ä»İ
ç¬¬åįģ ä¸ĥ
æĺ¯å¾·åĽ½ å·´ä¼ĲåĪ©äºļ
é¢ĩ æľī
é¢ģå¥ĸ ç¤¼
ä¸º ä¹ĭ
ä¸Ń å°ı
ç¾İ å¥³
ç³» æ¯ķä¸ļ
åİŁ æĺ¯
éĴ Ľ
æľ¨ åĦ¿
èİ« æĭī
ä¸¥ èĤĥ
ĠP r
ç¬¬åĽĽ å±Ĭ
åĪĨä¹ĭ äºĮ
ä¸º åĩĨ
åįİ å°Ķ
æĶ¹ ç§°ä¸º
ç¥ŀ æĺİ
åħ¶ä¸Ń æľĢ
å¤´ æĿĳ
åį³ ä»Ĭ
æķ´ è½¦
å¯Ł è§ī
çĩ ®
ç§ģ ä¸ĭ
çŃĶ èħĬ
æ¸ł éģĵ
åĬł åī§
æ¯ı éĽĨ
16 7
åĲī æĢĿ
æķ´ é¡¿
åįł çĶ¨
2 11
çļĦ ä¸ĵè¾ĳ
åı ±
ç»ı æĸĩ
å½± åŃĲ
èĳĹ éĩį
çĸ ¹
åĩł ä¸ªæľĪ
éĢĥ éģ¿
å±ħä½ı äºİ
ä¸ŃåĽ½äººæ°ĳ æĶ¿æ²»åįıåķĨä¼ļè®®
App le
ä½Ľç½Ĺä¼¦ èĲ¨
å°Ĩ ä»¥
å¹¿ ä¸ºäººçŁ¥
ç¬¬ä¸Ģ ä¹¦è®°
åĿĩ è¢«
é¹ «
ä¿Ŀå®Ī æ´¾
å®ĩèĪª åĳĺ
æľīåĪ« äºİ
è·¯ è½¨
åı£ çļĦ
åı¤ åĿŁ
èµ« é²ģ
èĮ¶ åı¶
d a
m s
åĲĮ èĥŀ
å²Ľ æ´¥
å½ĵæĹ¶ åľ¨
29 0
ãĤ «
ä¸Ľ æŀĹ
7 47
åĴĮ C
å®¶ çĶ¨
æ³ķ ä¾ĭ
è¿ĳ çİ°ä»£
çĻ½ é©¬
å®« çļĦ
è¡Ķ æİ¥
ç²¤ åī§
åº§ æłĩ
åįĬ èĩªåĬ¨
åģļ å¥½
åĨĪ å±±
åİ¿çļĦä¸Ģä¸ª éĿŀå»ºåĪ¶åľ°åĮº
èĢĮ èİ·å¾Ĺ
å·² å©ļ
æľª æĽ¾
åįĬ æķ°
ãĢĤ ï¼Į
èĩª åį«éĺŁ
åħĪè¿Ľ çļĦ
åľ¨ çİ°ä»£
è® ¶
èĥ ¥
å·² æĺ¯
èī¾ ç±³
å¤§å¤ļæķ° çļĦ
è´¿ èµĤ
æ¬º éªĹ
åı²åħĭ å¨ģå°Ķ
æ³¢å¤ļé»İ åĲĦ
åĴĮ çĶ°
éĩį çĶ¨
æŃ£å¼ı å®£å¸ĥ
æī§ æĶ¿åħļ
ĠA g
åĽ½éĺ² éĥ¨éķ¿
ç¨į å¾®
è®¾ æĥ³
æ®ĭ éª¸
åįĹå¼Ģ å¤§åŃ¦
20 6
è¢« çĶ¨æĿ¥
åĲĮ å±ŀ
åģļ åĪ°
æĺ¥ èĬĤ
ãĢģãĢģ ãĢģ
IV E
çļĦ è®°å½ķ
åľ¨ æĶ¿æ²»
æ· ¤
åıį åħ±
åĪ« çļĦ
ä½ı å®¿
æ²ĥ çī¹
å°Ķæĸ¯ æ³°åĽł
3 70
æī ¯
å°ı é¡¹
å®¢ äºº
èŃ¦ æĪĴ
ç¬¬åĽĽ åĲį
åĩ¤ å±±
è½¦è¾Ĩ æ®µ
åŁİ æ±ł
ç«Ļ åīį
äº¬ çķ¿
æ±ī åŁİ
æİĴ æĸ¥
ä»ģ å·Ŀ
> <
æĺ¯ ç»§
æĹ¥ ç»ĵæĿŁ
ä¸İ éĺ¿
æ°´ åĬĽ
æŃ» ä¼¤
å®¹ ç§¯
å¸ĥå°Ķ ä»Ģ
é©¬å£« éĿ©
ä¸Ĭ åıĳè¡¨
ç¾İåĽ½ ç©ºåĨĽ
èİ± å¾·
æ¤įçī© çļĦ
åĪ¶åº¦ çļĦ
æĲ¬ è¿ģ
æ£ķ æ¦Ī
è¢« å°ģä¸º
éĥ½ æĭīæĸ¯
åı¯åģļä¸º é£ŁçĶ¨é±¼
äºİ ä¸ĸ
å§ ¨
å¦Ĥ æĿ¥
åĪĻ ä¸İ
é¸ ¾
80 1
è¾¨ è¯Ĩ
æ¡Į éĿ¢
éĻ Į
éŁ³ é¢ĳ
16 2
åĽ´ åĽ°
è¿ĻäºĽ äºº
ç£ Ĭ
æ§Ł åŁİ
å¼ĹåĲī å°¼äºļ
å¹´ æĽ¾
åĮħæĭ¬ åľ¨
æŃ¤å¤ĸ è¿ĺæľī
æĢ¥ æĢ§
åľ¨ ç»ıè¿ĩ
ä¸Ń ç¾İ
ç¥ŀ ç¥ĩ
åĺ »
å¯¼èĩ´ çļĦ
å°¤åħ¶ æĺ¯åľ¨
ç»ĩçĶ° ä¿¡éķ¿
æİ ³
çĶµ ç¼Ĩ
äºĮ æĪĺåĲİ
ä»£è¡¨ æĢ§çļĦ
è®¡åĪĴ ä¸Ń
èĩª è´¡
å¼Ģ æĿ¥
ä¹ī åĴĮ
ä¼Ĭ åĬ¿
éĻĦ æľī
èį£ èĢĢ
èĭıé»İ ä¸ĸ
ä¹ĭ å¤ľ
ç½Ĺ å°Ķ
an o
ç½ĳ éĻħ
åº· ä¹Ĳ
ãģ Ĥ
çķª ç¦º
ä¼ļ ä½¿çĶ¨
å¾Ĺ çļĦ
åİ¿ ä»¤
å½¢ ç§ĳ
äºī éľ¸
al i
åģľ äº§
çŁŃ çŁŃ
å¼¥ è¡¥
ä½ ļ
åĪĨ åĮĸ
éģĵ åıĬ
ç¨ ·
åĽ¾ æĽ¼
æ´Ľ æŀĹ
çĥŃ çļĦ
è¯» åıĸ
å®īåħ¨ çļĦ
æļ± ç§°
Ġ 23
ç»Ļ åĩºäºĨ
äºĨä¸Ģ é¡¹
åĬ¨çĶ» çĶµå½±
Ġ 24
Ġ Qu
å¹´ å»ºç«ĭ
å¼Ģ æĪĺ
äºĶ è§Ĵ
å£° æı´
æľŁéĹ´ çļĦ
è½® å»ĵ
èĮĥåĽ´ ä¸º
äºı æįŁ
ä¸¤ ç»Ħ
ä¹¦ çĶ»
åı¯ä»¥ çľĭåĪ°
æ±ī åĨĽ
å¡Ķ åĲī
èĦĤé²¤ äºļçĽ®
æĬĴ æĥħ
åĽ½ èģĶ
æĢ§ äº¤
ic ode
æ°¸ æģĴ
ĠI t
æľ¬èº« çļĦ
ç¾İåĽ½åĽ½å®¶ é£ĵé£İä¸Ńå¿ĥ
éķ¿ ä¸º
å·²çŁ¥ çļĦ
å¨ģæĸ¯ åº·
ãĢģ -{
å¼Ģ æºĲ
å°ı æŀĹ
è·¯ è¡Ĺéģĵ
åŀ ®
18 30
åıį é©³
åįı çº¦
é»Ħ æĺı
åĵĪ å¸ĥæĸ¯
éĻĪ æĸĩ
è¯º çĵ¦
ĠT V
ä¼ģ é¹ħ
æ½ľ åĬĽ
ç¥ŀè¯Ŀ ä¸Ń
æ»ĭ çĹħ
åįĹæĬķ åİ¿
æĲģ ç½®
å¾·ç±³ çī¹éĩĮ
èĭıéĹ¨ çŃĶèħĬ
æ¢ģæĮ¯ èĭ±
I NG
å¹ Ĥ
æĭ Ĳ
ä¹Ĳ ç«ł
éĢģ åĽŀ
çİĦ æŃ¦
æ¼ı æ´ŀ
ä¸Ĭ æ°´
éķ¿ å¥³
å®ĺ éĤ¸
åħ¶ä¸Ń formula
èĩªçĶ± ä¸»ä¹ī
èĦļ æľ¬
20 4
èĢĮ åıĹåĪ°
æľ¬ æĿ¡çĽ®
æīĺ å°¼
æĸĩåĮĸ éĥ¨
ä¹Łæľī ä¸ĢäºĽ
æ³¨æĦı åĬĽ
UND AM
çļĦ æľĢåĲİä¸Ģ
æĺ¯ä¸Ģ æĶ¯
åįıä¼ļ çļĦ
åŃĶ éĽĢ
å¦Ĥä¸ĭ è¡¨
æķ´ æµģ
æİĪ è¯¾
æ½® æ±Ĳ
æģ¶ æĦı
èµ«æ¢ħ åĪ©å°¼
æı Ĩ
ç®¡çĲĨ å¤Ħ
å®ĹæķĻ ä¿¡ä»°
çļ ±
å¯ °
ä¸Ĭ çº§
ä¹ĭ éģĵ
ç¾İ å°ĳå¥³
è¿½ æįķ
çīµ è¿ŀ
å£ ķ
ä¸ĸ ç¥ĸ
åĲĪ æł¼
æ¯ı ä½į
çĲĨè®º çļĦ
éĺ® æľĿ
çªĹ æĪ·
åĵĪå¸ĥæĸ¯ åł¡
èµ«æ¢ħåĪ©å°¼ èĮ¨åŁº
ä¼ļ ç¨½
ãĢĮ -{
é»Ħ å¤§
èĪª æ¯į
åįĪ å¤ľ
p or
ä¸İ è¥¿
åįĹ äºļ
an i
è½¬ å¾Ģ
èĲ¨ åĪ©
ĠSt reet
æ¸¸æ³³ æ±ł
åŃ¢ åŃĲ
åį¡ çļĦ
ä¸ºäºĨ è®©
åı¦å¤ĸ ä¸Ģä¸ª
åĪ¶å®ļ äºĨ
Ã ¢
åĴĮ åħ¶å®ĥ
æ°ĳ è°£
éĩį åĽŀ
ç¦ı çĶ°
äº² æĪļ
ç¬¬äºĮ å¹´
ä¹Ŀ æ±Ł
åĿĩ è¡¡
å¸ķ æĸ¯
åĽĽå·Ŀ çŃīåľ°
è¯Ĭ æīĢ
åľ¨åľº ä¸ĬçļĦ
ä¸į æ¸ħæ¥ļ
å¯¹ éĿ¢
ä¹Ł ä¸įèĥ½
äº§ åĢ¼
ç§ģ èĲ¥
å·« å¸Ī
M on
P M
R E
èĭ ĩ
ĠM ag
re m
ä½© å¾·ç½Ĺ
90 1
éª¨ å¹²
åĲĦèĩª çļĦ
è£Ķç¾İåĽ½äºº æľī
èĶĵ å»¶
20 7
åħ¨ åľº
åŃĺ åıĸ
æĺ¥ å¤©
å·´å¡ŀ éļĨ
Ñ ĥ
æĺ¯ åı¯
æľĪ åĴĮ
ä¸ĭ è½¦
å±ŀ åĲį
ä¸»è¦ģ æĿ¥èĩª
è£ħ ä¿®
å±ŀäºİ åľ£
åĿĲèĲ½ åľ¨
å·¥åĨľ çº¢åĨĽ
ä¼ļ åľº
å¸ĥ åĲķ
åİĨ ç¨ĭ
äº¦ æĶ¹åĪ¶ä¸º
çĶµè§Ĩ é¢ĳéģĵ
åĨĻ æ³ķ
åĮĸåŃ¦ å¼ıä¸º
ç«ĭæ³ķ å±Ģ
æµĭéĩı åĴĮ
èµĮ åľº
çļĦ è°ĥæŁ¥
ä¸Ń åįĹéĥ¨
æĸ° ä¸ĸçķĮ
ä¸ī ä¸Ģ
æķĻ åĳĺ
ä¸¤ åĳ¨
åĽĽ åįģäºĮå¹´
æ¹¾ åĮº
å¤© é¡º
åĲĦ æł·çļĦ
éĴ± å¸ģ
åĩłä¹İ æ²¡æľī
åıĳæĺİ äºĨ
èķ¨ å±ŀä¸ĭçļĦä¸Ģä¸ªç§į
ä¸Ń èĭ±
åĪ° åľº
èĢĮ ä»£ä¹ĭ
è¿Ļ ä½¿
çŃī èģĮåĬ¡
ä»¤ ä»ĸ
ä»£è¡¨ äºĨ
åį°åº¦ æķĻ
éĿĻ æĢģ
åĭĥ åħ°
ä¼Ĺè®®éĻ¢ è®®åĳĺ
N o
ä¸ļ çļĦ
ï¼Ľ ï¼īï¼Į
éĢī çĶ¨
18 53
äºĮåįģ åħŃå¹´
åĶ¯ æľī
åľ¨è¿Ļ æ¬¡
æµ® éĽķ
ç« ¿
åĩº çº¿
ç¬¬ å¤§åĮº
æľº çİĩ
é¦ĸ æ¼Ķ
èĮ¨ åł¡
åĭĥ èī®
éĴ¥ åĮĻ
éĵ ł
è´Ł è½½
ãģ ¦
re w
é²¤ é±¼
ä¹ĭæĪĺ ä¸Ń
è½¬ç§» èĩ³
ä¸»äºº åħ¬
æĺ¯ å¾Ī
åĴĮ åīį
åĴĮ formula
æµ· å¾·
åĲĳ ä¸ĭ
å¤Ħ ç½®
é¦Ļæ¸¯ äºº
å¼Ģå§ĭ çļĦ
æŀģ å°ĳ
åľ°æĸ¹ çļĦ
ç¬¬åįģ ä¹Ŀ
åľ¨ åİŁ
æľī æ¯Ĵ
æĭ ·
ç«Ļ ä¸º
æĻ¯ æ³°
æĶ¯æĮģ ä¸ĭ
åĢŁ åı£
ç¹ģå¿Ļ æĹ¶éĹ´
æ¡ ħ
è½¬ æĪĺ
ç»§ èĢĮ
çĭ± ä¸Ń
æ»ļ çŁ³
æ¨± èĬ±
W ii
çĶŁ è¿ĺ
çĶ¨ åĪ°
çī¹ çº³
æĶ¹ åĬ¨
åı¤ éģĹåĿĢ
é£ĵé£İ åŃ£
å¹´ æ¯ķä¸ļ
ä¸ī èĹı
ç³ ¯
çĽ¸ ä½į
åħ¶ä¸Ń ä¹ĭä¸Ģ
å¥½ åĥı
åĭĴ åĨĪ
ä»»ä½ķ äºº
å½Ĵç±» äºİ
æ¿Ĵ ä¸´
è¯¸å¡ŀ å·ŀ
ä¸º çĽ®æłĩ
åĴĮ å¤ļ
ä¸į å±ŀäºİ
ä¹ĭ åŁİ
ãĢĭ ï¼ļâĢľ
çĶ± å¤§
è¿Ľ é£Ł
çı Ĥ
çĻ½ çŁ³
é¡¿ çļĦ
çī§ åľº
ç»Łä¸Ģ çļĦ
åħĭéĩĮæĸ¯ æīĺ
çĶ²å£³ ç±»
æĸ¹ åĿĹ
ä¸ĭ çĽ®
è· ª
æĿĳ éķĩ
è®º èĢħ
è·Ŀç¦» åľ°çĲĥ
åħĥç´ł çļĦ
æ·±æ°´ åŁĹ
æľīåı² ä»¥æĿ¥
ä¸į ç¡®å®ļ
æ¯ ĺ
æ±Ĥ åŃ¦
åģļ è¿ĩ
èīºæľ¯ åĵģ
åĲ¬ éĹ»
æĺ¯åĲ¦ æľī
ä»¥ å¤§
èµĽ åĴĮ
ç§° è°ĵ
åŃĺ æľī
æķ¦ çħĮ
åį ī
å¼ Ī
ç¬ ĭ
åĽĽ çĻ¾
éľ °
å¹½ çģµ
å· ħ
çİ° çĬ¶
éĺŁ ä»¥
éĿĴ èĹı
æŀģ é«ĺ
ä»·åĢ¼ çļĦ
ä¸Ĭä¸ĭ è¡Į
çļĦ æĹ¶ä»£
åľ¨ åİĨåı²ä¸Ĭ
åĴĮ åıĳå±ķ
åĮĹ è§Ĵ
é©¬ æŃĩå°Ķ
æĦı åį³
ä¸ĩ çļĦ
èİ± æĸ¯çī¹
åī¯ æĢ»è£ģ
çº¢ å¤ĸçº¿
å¾½ ç«ł
èµ¦ åħį
A p
åĩº çĭ±
çļĩ æĹı
æī¿ åĮħ
éŁ© è¯Ń
æľĢç»Ī è¢«
èİī èİİ
å¤ĸäº¤ éĥ¨éķ¿
åıł çºª
èĴ¸æ±½ æľºè½¦
çļĦ æĦŁè§ī
åı°æ¹¾ åºľ
æľª æĪĲå¹´
çĶ» åĥı
åįĩ ä¸Ĭ
å¢ĥ å¤ĸ
åıĳçĶŁ åĨ²çªģ
éº¦ è¿ª
èĩª æ°ĳåħļ
æķĻ åĬ¡
åħĪ å¤©
ä¿® é¥°
åį´ åĽł
å¾Īå¤ļ äºº
å°Ķæĸ¯ åŁº
åĨ¶ éĩĳ
N H
ä¼Ĭ èİİ
æ¡ĥ èĬ±
ä¸»åĬŀ çļĦ
å¼łå®¶ åı£
å¤§ æ²³
åı· åıĬ
æīĺ æ´Ľ
æ¿Ģ æ´»
é¼ĵ æ¥¼
æĺ¯ä¸Ģä½į ç¾İåĽ½
è¾ĸåĮº æĢ»äººåı£
ç§ĳç½Ĺæĭīå¤ļ å·ŀ
ä¸ª ç¤¾åĮº
å±± çĶ°
æ¸¸ è§Ī
çīĮ åĿĬ
åİĤ æĪ¿
ä¼¯æĺİ ç¿°
2 26
çļĦ S
æĺ¯ ç§į
åĴĮ ä¸ī
ä¸į åħģè®¸
æ¸ ²
èĭ Ľ
ç±³ æŃĩå°Ķ
éĹ¨ åīį
ç¿ Ĭ
æł· åĵģ
ä¾¿ åľ¨
çľĭ ä¼¼
åıĤè°ĭ éĥ¨
åĲİ æĶ¹ä¸º
ä¹ĭ è¯´
éĥ½ å¾¡åı²
æ¶ §
èķ Ļ
åĩıå°ĳ äºĨ
è´¨éĩı çļĦ
ä¸Ńå±± å¤§åŃ¦
æĹ¶ èĩ³
ç«Ļ èĪį
éĢī åĩºçļĦ
åĲĳ è¥¿åįĹ
18 58
16 9
at or
ĠA s
èĵĿ æľ¬
Ch rist
B ill
l us
è¯¥ ç³»ç»Ł
åĽŀ é¡¾
é¦Ļæ¸¯ çĶµåı°
æİ¨ åĬĽ
D M
ä¸Ń è¥¿éĥ¨
åĴ İ
åĬł å¾·
è¾¾ å§Ĩ
é¦Ļæ¸¯ çī¹åĪ«è¡ĮæĶ¿åĮº
éŁ¦ æģ©
æĶ¿çŃĸ çļĦ
æľīäºĽ äºº
åĨ²éĶĭ æŀª
ä¼ıå°Ķ åĬł
åħ¨ åī§
éĥ½ å°Ĩ
åı² åīį
æĿ¡ è§Ħå®ļ
çĶ° çº³è¥¿
at ed
ĠS m
ä¸Ńå¤® å¤§åŃ¦
é²ľ åįĳ
as on
éĥĳ æĪĲåĬŁ
èĭĹæłĹ åİ¿
ç µ
çļĦ å¨ģèĥģ
èĩ ¼
èİ Ĵ
å®ŀéĻħä¸Ĭ æĺ¯
æĭī æĻ®
ä¸ĩ çŁ³
äºĶ æĺŁ
äºĮåįģ åĽĽå¹´
æĿľ çĪ¶
éĻ¶ åĻ¨
2 23
äºļ æĭī
äººæ°ĳ æĹ¥æĬ¥
äºķ ä¸Ĭ
è§Ħæ¨¡ æľĢå¤§çļĦ
æĤŁ ç©º
å¹´ åĩºçĶŁäºİ
éĺ¶ æ¢¯
å¥ĭ æĸĹ
çļĦ ç§ĺå¯Ĩ
ä¸ª æ¡Ī
åĮº åĿĹ
åħ³ æĢĢ
å·´ å°ĶçļĦ
ä½įäºİ åĮĹäº¬å¸Ĥ
ä¸ĸçķĮ æİĴåĲį
16 4
å±ħ çķĻ
èĭ¥ çĳŁ
è¥¿åįĹ éĿ¢
åĪĨéĴŁ çļĦ
é¢Ī éĥ¨
8 50
åľ¨ åľ£
èĩª è¾¾
åĬł æĹ¶
è¿ĩ æķı
æıĲä¾Ľ ç»Ļ
æ¤įçī© åĽŃ
çī©è´¨ çļĦ
åŃ©åŃĲ ä»¬
åĿŁ å¢ĵ
åĥµ å°¸
åĮºæīĢå±ŀ çļĦä¸Ģä¸ª
T om
Ġ ||
ä¸į ç¬¦åĲĪ
è¥¿ è¾¹
é¦ĸ åıĳ
çļĦä¸Ģ å¤Ħ
ä»ĸçļĦ ä½ľåĵģ
g o
Ġ ne
åľ¨ ä¸ľäº¬
åĨħ çĩĥ
è¡¨ æł¼
æ¬² æľĽ
ä½įäºİè¯¥åĽ½è¥¿éĥ¨ åĪ©æ²ĥå¤«å·ŀ
å¼ĹéĽ· å¾·éĩĮåħĭ
ĠRo ad
æľ ½
åľ¨ æİ¥åıĹ
ä¸º åįķ
èĩ´ æŃ»
æĺ¾ çİ°
æĩ Ĵ
æ®´ æīĵ
G L
æ± ²
å®ŀ æĹ¶
åıį åĿ¦åħĭ
16 3
çİĽ æĸ¯
id ge
å°Ĩ è¿ĻäºĽ
çĤ ½
æĤ į
åı¦å¤ĸ è¿ĺæľī
è·¯å¾· ç»´å¸Į
å¹¿ çĶµ
åıĺ èº«
æŃ¦ åĪĻ
çĻ½ è¯Ŀ
èį· å°Ķæĸ¯æ³°åĽł
çº¿çļĦ éĵģè·¯è½¦ç«Ļ
æĹ¶ æľº
ä¹ĭ ç±»çļĦ
å¾· æ£®
ä½Ĩ å½ĵ
åĮĸ åİ¿
å°ĳ æł¡
å·¥ç¨ĭ ç³»
åĪº å®¢
èİ±æ¯Ķ éĶ¡
T un
æĸĩ çĲĨ
ç»ĵ ä¸º
æľīä¸Ģ å¤©
æ³Ľ æĮĩ
å¥Ĺ ä»¶
2 15
A g
çļĦ åİĭåĬĽ
æĹ¥ æīĺ
åı¯ ä¸İ
ç§į ç±»çļĦ
æ¬¡ éķ¿
åįİ çī¹
åıĺ å¼Ĥ
éĽ· çī¹
æľĢé«ĺ äººæ°ĳæ³ķéĻ¢
çĶļèĩ³ åľ¨
æĺ¯ä¸Ģ éĹ´
èĥ¡ å¿Ĺæĺİ
çĦ¶åĲİ åľ¨
æİĴè¡Į ç¬¬
ä¸¥æł¼ çļĦ
çļĦ èĥľåĪ©
ä¸Ń æıĲåĪ°
ä¸ŃåĽ½ æ°ĳä¸»
è¯Ń ä¹ī
18 59
å¯Ĩ çī¹
è¿ŀ éĢļ
ĠP ar
åĸľ å¥½
éĿĻ èĦī
è¯ ¡
ä¸Ĭ éĥ½
æīĢ ç»ĦæĪĲçļĦ
åŁİ ä¸»
åħµ å½¹
åĲī åĪ©
æĦŁ åıĹåĪ°
èĴĻ åĵ¥
å¼Ĥ æ¯į
æ£ĭ æīĭ
åĲİ æĶ¹
ä»Ĭ å¹´
çļ® çī¹
åĲ¸ çĥŁ
éľĩ åĬ¨
_ _
çĤ¹ åĩ»
çŀ ¿
éĵº è®¾
åĪĨ åħ¥
æĸ° å¼ı
é©¬ åĪĹ
éĺ´ èĮİ
èĢħ ä»¬
å¥¥ éĩĮ
éĢĢ ä½į
äººåĳĺ çļĦ
æ¶² æĢģ
é¢ģåıĳ çļĦ
mer ican
çĽ¸éĤ» çļĦ
n y
åĴĮ é»ĳ
è¡¨ æĢģ
æĪĸ åľ¨
åħļ ä¸»å¸Ń
æĤ ĸ
å·¦ æīĭ
éĢĤå½ĵ çļĦ
çĥŃåĨħ åį¢
u z
åĴĮ æŃĮ
å¼Ģ å¿ĥ
åı£ å¤´
åıĺ éĿ©
èĻ ±
åĵĪ èµ¤
å°Ħ ç®Ń
ä¾¿ åı¯
æĸ°ç«¹ å¸Ĥ
å¸Ĥ å§Ķ
å¤ĸ è¡ĮæĺŁ
å¥³ çľŁ
ä¹Ĳ éĺŁçļĦ
ä¸Ńå¤® çłĶç©¶éĻ¢
ä¹Ļ éĨĩ
å®¿ ä¸»
æ² ¾
éķ¿ ä¹Ĳ
å¹³ åľ°
17 6
ä½ķ å¡ŀ
ç¬¬åħŃ æ¬¡
å¹´é¾Ħ ä¸Ńä½įæķ°ä¸º
æ¸ħ æ²³
æĬ¤ éĢģ
æĹħ é¡º
å¹´ å°ĳ
èĢĮ æĹł
æ¼ ķ
æīĭ ç»Ń
éŁ³ è¯ĳ
æ°Ķ åĳ³
ç¯ Ĩ
éĺ¿æĭī è´¡
ç»Łæ²» çļĦ
æŁł æª¬
ä½Ĩ è¿ĻäºĽ
ç»Ĩ å°ı
å®¡ æł¸
èĪį å°Ķ
åĪ¶çīĩ åİĤ
ä¸ĵçº¿ å°ıå·´
åľ »
æĢ» æĮĩæĮ¥
èµ· äºĭ
18 3
é£İ è²Į
åĪĿ ä»£
èĬ± æł·
åįģäºĮ çłģ
çķĻä¸ĭ äºĨ
éĩĮçº¦ çĥŃåĨħåį¢
åıĸ ç¼Ķ
åĩ» æ¯Ļ
è´§è¿Ĳ ä¸ļåĬ¡
æĨ ©
ä¸Ģ ä¹¦ä¸Ń
è¯¥ èĬĤçĽ®
åĪ¶ å¼ı
çĽ¸ å®¹
14 2
çĶµåĬĽ åĬ¨è½¦ç»Ħ
å¤§æŃ£ ä¹Ŀå¹´
é©¬ èĴĤ
å¤© ç¥ŀ
é¾Ļ å¤´
èµµ åĽ½
åľ°è´¨ è°ĥæŁ¥å±Ģ
èŃ¬ å¦Ĥ
Ġ 30
èİ· éĢīä¸º
è®º çļĦ
éħį å±ŀ
ç®¡çĲĨ åĳĺ
éĺ¶æ®µ çļĦ
çŃī å¤Ħ
ä½Ļ ä¸ĭ
ä¸ľåįĹ éĿ¢
éĩĳåŃĹ å¡Ķ
R T
æĺ Ļ
è¿Ļ åľ¨
åŃĹ åħ¸
èĭı çĽĬ
17 9
çĶ±äºİ å½ĵæĹ¶
æİĴ åľ¨
å»ºçŃĳ çļĦ
ç»ıæµİ çļĦ
è½¦ç«Ļ çļĦ
um p
åīĤ éĩı
æľīäºº è®¤ä¸º
éĢĴ äº¤
å¿ĺ è®°
Met ac
N S
éĩ ī
åĬł é¾Ļ
ä¸ī æ°ĳ
å² Ĥ
å§ĭ çļĩ
å¹´ è¯¥
æ°ĳ éĢī
åį¡ èĲ¨
é¢ĺ çĽ®
éħį ä»¶
ĠA m
èĶ ĳ
ä¸ľåĮĹ éĿ¢
è¿Ī åħĭ
çĨŁ çŁ¥
çļĦ èģĮä¸ļ
æĺ¯ åħ¨
æİ £
å·Ŀ å´İ
è¯ «
ä»ĸ ä¸į
ä»Ĭ æ²³åįĹ
å¼ķ äºº
ç³»ç»Ł åĴĮ
å¡ŀ çĲī
ĠP art
éĵľ åĥı
çİ©å®¶ åı¯ä»¥
å±¿ å±±
æĿ°åħĭ æ£®
L ove
åĩº å¾ģ
ä»ĸ èĩªå·±
é¢Ĩ åħµ
ro l
åĿĳ åºķ
åĩłä¹İ æīĢæľī
çļĦå½±åĵį åĬĽ
æ°¨åŁº éħ¸
æĪĲ ä¸Ģä¸ª
è½¦ ä¸Ĭ
è½¦ éĹ¨
åįİ æĸĩ
å¸Ī åĤħ
ä½Ľ å±±
ĠD ay
çıį è´µ
ç²Ĵ åŃĲçļĦ
æĬ¥éģĵ ç§°
èµĽé©¬ ä¼ļ
å¹¶ è¡Į
éķĩ åı¯ä»¥æĮĩ
ent s
åŃ© åŃĲçļĦ
ç° ĩ
æ¸² æŁĵ
ð ª
åĲİ åº§
æĭī ç½ķ
å°Ĩ è¦ģ
æĺİ æĹ¥
æľīéĻĲ çļĦ
ub lic
å§Ĭ å§Ĭ
èĮħ æĸ¯
èģ Ĩ
èº« æĿĲ
æĿİ æĸĩ
åĽ½éĻħ çĶµå½±èĬĤ
å¤ı å°Ķ
çİ¯å¢ĥ ä¸Ń
çĩķ äº¬
ãĥ³ ãĥ
æĺ¯çĳŀå£« çļĦåŁİéķĩ
æĺ §
ä¸ª åłĤåĮº
å¼Ģ åŀ¦
åı°æ¹¾ æ¸ħæ²»
åĪ¶éĢł åİĤ
æ¸¡ è¾¹
çļĦ åı¦ä¸Ģ
åī ĥ
å¼Ģ èĬ±
éĩį å·¥ä¸ļ
è´¹ åĪ©
éĩįè¦ģ æĢ§
æģĲ æħĮ
i u
å®ī ä¹Ĳ
åĨį ä»¥
çĶµå½± å¯¼æ¼Ķ
æĤ Ħ
æµĭ éªĮ
åĶĲ äºº
éĺµ åĪĹ
å¨ĥ å¨ĥ
åį¡ç½Ĺèİ± çº³å·ŀ
å¤© å®«
çŁ³ åĮĸ
ä»į ä»¥
èĴĤ å¨ľ
å®¡ è®¯
Î »
ä¸Ģ æĬĬ
ä¸Ń å¯¹
åĴĮ B
ä½Ĩ ä»įçĦ¶
æ¼Ķ ä¹ī
çļĦä¸» å¼ł
é©¬éĩĮ å¥¥
ç§ĺé²ģ çļĦä¸Ģä¸ªåĮº
L ED
y r
ä¸ĭ è·Į
æĢ» æĬķèµĦ
è¾ĸ ä¸ĭ
ĠC ity
èĽ ±
åĪĹå®ģ æł¼åĭĴ
éĹ ·
èµ· äºİ
æ±ī è¯ºå¨ģ
åİĨåı² æĸĩåĮĸ
å¸ķ é½Ĳ
åĲĪä½ľ ä¼Ļä¼´
çĸĹ åħ»
éĶģ å®ļ
ä½¥ äºĭ
l t
åľ¨ äºĮæĪĺ
çĶ± åı°æ¹¾
éĵ ¬
æ²³ åĴĮ
å¥¹ ä¹Ł
æŃĮ è°£
ä¾¿ å¼Ģå§ĭ
åį¢ åį¡æĸ¯
ä¾į åį«
å±ķç¤º äºĨ
ä¸ºè¾Ĳé³įé±¼çº²èĦĤé²¤çĽ® èĦĤé²¤äºļçĽ®
åľ¨ èĭıèģĶ
æĸ¯ éĢļ
ä¸İ ä¸ľ
18 57
åıĸ æĿĲ
ç¬¬ä¸Ģ ç§į
æĺ¯ä¸Ģ é¦ĸ
åĮĹæ´ĭ æĶ¿åºľ
äºļå½ĵ æĸ¯
åĲİ å°±
é¦Ļ èķī
æľīä¸Ģ ä½į
åĿļ åĽº
è¾ħ ä½Ĳ
çĺ «çĹ
èĳµ æ¶Į
çĺ«çĹ ª
Ã ī
åľ¨ æ¸¸æĪı
å¸ §
çī¹ æĢ¥
æ¸¯ å¸ģ
æ® ¡
å¤ª åı¤
åĽ½éĻħ å¤©æĸĩåŃ¦
il y
èģĶèµĽ ä¸Ń
æĪĳä»¬ åı¯ä»¥
ç´§ éĤ»
æ®Ĭ èį£
çļĦ éķ¿åŃĲ
äºº ä¸Ń
åĪ© é©¬
éĽħ åĬłè¾¾
ot e
åįģä¹Ŀ ä¸ĸçºª
çļĦ ä½İ
çļĦ åĬ¨ä½ľ
è¿Ļ å¼ł
é«ĺ èĢĥ
èģĶ æĴŃ
18 54
æŃĮ ä»Ķ
é¢ĺ ä¸º
çĶ· æŃĮæīĭ
ç»´ èİ±
17 1
åİħ åİħéķ¿
åª ļ
è´µ éĺ³
eg ory
ä¸º éĩĳ
åĲĮ ä¹¡
æĹ¥æľ¬ æµ·åĨĽ
åıĸ èĢĮä»£ä¹ĭ
åī§ çĥĪ
åī¯ çľģéķ¿
çİ¯å¢ĥ çļĦ
æĦıå¤§åĪ© è¯Ń
æĭīä¸ģ åŃĹæ¯į
å¹´ å»º
ä¸º éŁ©åĽ½
ä¸º ä¸Ńåįİæ°ĳåĽ½
åŃ º
å¸ĥ éĩĮäºļ
æĢ» åı¸ä»¤éĥ¨
åĬŁ ç»©
ä¼ª è£ħ
a ut
ä¸º èĥĮæĻ¯
æľī çº¦
åıĳ è½¦
å¸Ĥ åĮºçļĦ
åı¯ çŁ¥
ç¬¬ä¸Ģ å¼ł
æİ¨ å¯¼
ãĢįï¼Ī ï¼īãĢĤ
Ã §
èĢĮ äºİ
èĩª åıĳ
ç»Ł ç§°
éĺ¿ çī¹
åıĺ çļĦ
åĨ¯ çİī
c ess
v ille
æľī å¤§éĩı
é¢ į
å®Į å¤ĩ
he m
éĺ¿å°Ķ ä¼¯çī¹
åľ¨ æīĢæľī
æĹ¶ å°±
ä»ĸ åĽł
åĽĽ åĪĨä¹ĭä¸Ģ
å¸¸ åľ¨
å¤ª çĽĳ
éĻµ åİ¿
äººå¤§ ä»£è¡¨
è½¬ä¼ļ è´¹
é Ĭ
ä¸º çĶŁ
æĪĲ æķĪ
æľº åĬ¡æ®µ
åı£ åĳ³
æĪĸ ä»¥ä¸Ĭ
åıª éľĢè¦ģ
åį³ çĶ¨
åħ« åı·
è¨Ģ ä¹ĭ
è¶ħ å¸Ĥ
åĲĮæĹ¶ è¿ĺ
æĤ ļ
åĨł åĲį
ä¸¤äºº åľ¨
åĪĩå°Ķå°¼ æĪĪ
20 9
å¯¹ æĸ¹çļĦ
ãĢĮ ãĢįï¼Į
18 2
æºª åİ¿
çĶ ¬
è¡Į äºĭ
èµ· åĪ°
é¦ĸ æĶ¯
è¶ħ åĩº
é¥ ª
å´ Ń
et y
æĢ»ç»Ł çļĦ
HT ML
çŁ³åĭĴ èĭıçĽĬ
çļĦ æııè¿°
è¾ ķ
çĲ °
å±± ä¸Ń
çĿ Ĳ
æĮģ ä¹ħ
æ³¢ çī¹åħ°
æīį å¾Ĺä»¥
æľºè½¦ è½¦è¾Ĩ
åĽ½ç«ĭ å¤§åŃ¦
å¡ŀæµ¦ è·¯æĸ¯
æ³¢å¸Į ç±³äºļ
äºĨ ä¸įå°ĳ
ä¸ī ä»£
åº¦ ä¸º
é©¬ æł¼
åĪĿ éĢī
ç´¢ æĸ¯
ä¼ĳ æĸ¯
ç»į å°Ķ
çłĶè®¨ ä¼ļ
æľ¬ èĲ¥
ä¸¤ éĺŁ
ç»Ĩ äºļ
èī¾ æ£®
ear ch
ãĢĤ (
åĽ½ åı²
ä¹Ł åıĹåĪ°
18 4
ä¸ĩ ä½Ļäºº
Ġc on
å¼ĹæľĹ ç´¢çĵ¦
æ°Ľ åĽ´
çļĦ æľĢä½³
æĸ¹ ç´¢
æĸĩ åı²
er c
åĨį çĶ±
å¡Ķ çĵ¦
æ¥¼ éĿ¢
ãģ ĺ
çļĦä¸» æĮģ
Ġ èĢĮ
æĪĲ åĲīæĢĿ
éĢļ ç¼ī
è´¨ ç´ł
æĸ© æĿĢ
å§¿ åĬ¿
çĭ¸ èĹ»
Ð ²
çļĦ æĢ§
ä¸Ģ æ¥¼
åľ¨ åĲĦ
å¤§ åħ¸
ç±³ æł¼
èº« å¿ĥ
åıĮ æīĭ
22 2
éĥ½æĺ¯ ä»¥
é¥¥ é¥¿
æĹ¥æīĺ ç±³å°Ķ
äºº ä»¥
åĨħ ç½®
éĩį æķ´
ç½Ĺ åħ°
åĲĳ åĲİ
åı² æıĲ
16 1
ä½ı æĮģ
çĥ¹ é¥ª
ä½ĵ ä¸Ńæĸĩ
æĦ ģ
æ°´ ä½į
é¦ĸ åįķæĽ²
è®® äºĭ
ç¬¬äºĮ æľŁ
åŃ© ç«¥
æ¸ħæľĿ å®ĺåĳĺ
çļĦåĲİ ä»£
ĠAss oci
è§Ĵèī²æī®æ¼Ķ æ¸¸æĪı
è¾Ĺ è½¬
Metac ritic
ä¸İ ä¼ļ
ä¸İ é«ĺ
åĪĹ æĹ¥
çĪ± çŁ¥åİ¿
åľ°åĽ¾ ä¸Ĭ
éĽĩ ä¸»
Ġ et
å¤§ èĥĨ
äºĮ ç»´
è¯¥ æ¬¡
ä¸įåĲĮ æĦı
el le
äº¤éĢļ å±Ģ
ä¹Ķ ä¸¹
ä¾Ŀèµĸ äºİ
åºķæłĸ æĢ§é±¼ç±»
ä¾® è¾±
çļĦ æľĭåıĭ
éĩĮ å¤«
è¢« åĬ¨
æĿ¥ åĽŀ
æĶ¿åºľ éĥ¨éĹ¨
éĿŀ æŃ£å¼ı
çĶ° æĿĳ
åĲĽ åŃĲ
äººç±» åŃ¦
é²¸ é±¼
æŀ¢å¯Ĩ éĻ¢
çļĦ æĿ¡ä»¶
æĺ¯ åĬłæĭ¿å¤§
ä»¥ æ±Ĥ
åŃ¦ æľŁ
ä¹ĭ å¦»
ä¸İ ç¤¾ä¼ļ
åħ¶ èĮĥåĽ´
çĶ± ä¸Ģä¸ª
åįĹ è¾¹
å»º åº·
èĲ½ åı¶
åĨ³èµĽ åĳ¨
æľ¬é±¼ ä½ĵ
ç½ĳéĻħ ç½ĳè·¯
I O
ä¸Ģ æĹł
åĲİ ä»¥
ä»ĸ æĽ¾åľ¨
ä¾ ĥ
éĿ¢ è²Į
åį« éĹ¨
è¯Ŀ åī§
è¿Ļç§į æĥħåĨµ
æĿĤå¿Ĺ çļĦ
åĨľæĿĳ å±ħæ°ĳ
æ©Ļ èī²
çļĦ èµĽäºĭ
åĲİ ä¸İ
éĺ¿ è¯º
æĶ¶ åħ»
çĪ± ä¸½ä¸Ŀ
åŃ¦éĻ¢ éĻ¢éķ¿
ãĥ Ń
è¿½ æĿĢ
éĽ¨ æŀĹ
é£ŀæľº çļĦ
å±ħä½ı çļĦ
åŃĹ å¹ķ
å¼Ģå§ĭ ä½¿çĶ¨
å®īè£ħ äºĨ
èħĲ èļĢ
åĽ½ åĲĽ
æľī è½¨çĶµè½¦
åĴĮ æµ·
éķ¿ åı²
éĴ °
ä½ı éĻ¢
å¢ŀåĬł èĩ³
è®Ńç»ĥ çıŃ
ä¼½ åĪ©
Ù Ħ
å¹´ ä¸ºæŃ¢
ç«ĭ çļĦ
ä¿¡ çļĦ
è°ĥ åĪ°
çº¢ è¢ľ
è®¾è®¡ åĴĮ
è®¤è¯Ĩ äºĨ
man n
åĬªå°Ķ åĵĪèµ¤
b a
ä¸Ĭ åı¤
è½¦ è·¯å£«
åħ¨ æĺİæĺŁ
èİ· éĩĬ
æĭ¬ åı·
è¯º å·ŀ
é»ĳ å¸®
äºĮåįģ äºĶå¹´
ur ch
æķĸ å¾·èĲ¨
U T
i os
åĿ į
å¾· åľ¨
åķ ¶
åĶĲ ä¹¦
æĿľ å°Ķ
é©¬æĭī éĽħ
çĦĬ æİ¥
u le
ä¸Ĭ å±Ĭ
å¹³ åĩ¡
æīĭ ç¨¿
åıį éĿ©åĳ½
åº§ è°Ī
17 2
èĥľ åľ°
ç¿°æŀĹéĻ¢ åº¶åĲīå£«
éĺ¿æĭīæĸ¯ åĬłå·ŀ
ä¾Ħ åŃĲ
æķ£éªĳ å¸¸ä¾į
æĺ¯ åįĹ
è¾¾ åħĭ
è½® èĪ¹
æ¿ ®
æĢ¥ åī§
åįıåĬ© ä¸ĭ
å®¢è¿Ĳ ä¸ļåĬ¡
ä¸Ńåħ±ä¸Ńå¤® æĶ¿æ²»å±Ģ
èĬ¯ çīĩ
W e
æ³ ·
æĶ¿ å±Ģ
é© ¸
è° ¤
æĽ² é£İ
ä¼Ĭ æĸ¯åĿ¦
ç¬¬ä¸ī æĸ¹
æŀ¶ ç©º
ĠG o
éĺ» åĬĽ
ç¬ Ļ
å¹³ å¸¸
ç¥ŀ æĺŁ
å¥½ å¤Ħ
éĺ² æ²»
åįķä½į çļĦ
çŁ³åĭĴèĭıçĽĬ æł¼
çĶ ¥
éĻ Ĥ
åĲĮ äºº
ä¸ī åįģäºĮå¹´
æŃ¤ æĹ¶çļĦ
æĭī èµ«
å¤© ç«º
ç§° åħ¶
äºĶ æ¬¡
åĪĨåĪ« çĶ±
éĢı éķľ
æ¿Ģ åĬ±
æī§è¡Į å®ĺ
ç¿»è¯ĳ ä¸º
è¥¿ çļĦ
æ³ķ åħ¸
æĭī è¶Ĭ
åĢ¼å¾Ĺ æ³¨æĦıçļĦæĺ¯
u a
åħ¶ æĹ¶
é¦ ı
èĩª å¼º
éª ĩ
å³ ĩ
åıįåºĶ çļĦ
æ¶ħ å¤«
åįİçĽĽé¡¿ å·ŀ
ĠIn c
âĨ Ĳ
å¤§å¸Ī èµĽ
é³ŀ çīĩ
ç¼ª å°Ķ
åĢĻè¡¥ å§Ķåĳĺ
ä¸ľ å¹³
è½¦ èĩ£
çĽ¸ è·Ŀ
çŁ¥ äºĭ
çªģ åĩºçļĦ
èĪªç©º èĪªå¤©
çļĦæĶ¯æĮģ èĢħ
åº§çļĦä¸Ģä¸ª æĺŁç³»
æľĪ æİ¨åĩº
åĦ¿ å¥³
å¼ķåħ¥ äºĨ
Ġ Q
ä»ĸ æĽ¾ç»ı
ä¼Ĭ åĩ¡
åĬŁ åĬ³
23 8
å½Ĵ åħ¥
ç¾İæ´² åİŁä½ıæ°ĳ
åĽ½åĬ¡éĻ¢ æī¹åĩĨ
å¤§ äºĭ
ä¸ľ éģĵ
æĸ° æ¸¯
ä¸Ģä¸ª æĸ°çļĦ
å¼º ç¡¬
åģľ åĪĬ
å·¥ç¨ĭ äºİ
ç¾½æ¯ĽçĲĥ åħ¬å¼ĢèµĽ
åħ¨æĹ¥ åĪ¶
æī¹å¤įåĲĮæĦı æĴ¤éĶĢ
çļĦ è¡¨æ¼Ķ
åŁ ķ
åı¯ ä¹Ĳ
18 7
on ly
çļĦä¸Ģ å¤§
åº§ èĲ½
åħµ è´¥
æİ¨ å´ĩ
åĲī ç±³
èµ° åĪ°
A F
æĹ¥ æ¸ħæĻ¨
çİ° æĹ¶çļĦ
å½ĵ ä¸»
çĤ Ģ
å¸¸ æľī
åĬ¿ åĬĽçļĦ
æī§è¡Į éķ¿
å°ıç»Ħ èµĽ
ä¸Ń å°ī
è¡Į éģĵ
å¾· åİ¿
er r
æ±ī å¯Ĩ
æŁĶ ä½Ľ
åĪĨéħį åĪ°
æ¢µ èĴĤ
ç³Ł ç³ķ
Ġ ä¸ª
ä¸Ń æĺ¯
å¤ļ ç½Ĺ
ç«ĭ äº¤
åıĸ åĲįä¸º
åıĪ ä½ľ
æ³¨ éĩĬ
æ·ĭ å·´
æĪĲåĲīæĢĿ æ±Ĺ
ç» Ľ
èĢĮ ä»¥
å±± ä¸ĺ
æ±¡ æ°´
åĺ» åĵĪ
åħļ åĽ¢
åĽ½æ°ĳ è®®ä¼ļ
éĶ¡ éĩĳ
çĻ»è¿Ľå£« ä¸īçĶ²
æĿ ŀ
æĸ° å¹´
åºĶ å¤©åºľä¹¡è¯ķ
éĻĲ éĩı
èĢĥ éªĮ
åıªèĥ½ åľ¨
éļ¶å±ŀäºİ åı°ä¸Ń
åĩĿ èģļ
ç¬¬äºĮæ¬¡ä¸ĸçķĮå¤§æĪĺ æľŁéĹ´
b all
å¾· åĴĮ
ä¹ī åĭĩ
éŁ³ çļĦ
å®£ å®Ĺ
åıĮ åŃĲ
æł¸ åĩĨ
éĿ©åĳ½ å§Ķåĳĺä¼ļ
åĲİ å°Ĩ
åĮĹ æĸĹ
å¤ĸ åľ°
åįķ äºİ
åıĹ è®¿
æĬ¥ æĺ¥
è§ģ è§£
ä¸´ æµ·
é¡» è´º
éĿĻ æŃ¢
è¡° ç«Ń
åİŁåŃĲ æł¸
OV A
çº¢åįģåŃĹ ä¼ļ
åı¤åħ° ç»ı
ä¸Ģ åħ«
åıĬ å¤§
æĢ» åĴĮ
è¾¾ æĭīæĸ¯
æ¼Ķ ç®Ĺæ³ķ
å¯¼ åĲĳ
è¾ĥ éķ¿
å¤©ä¸»æķĻ ä¼ļ
çº· äºī
é©¬éŀį å±±
çļĦ éĻĪ
äºİ åħ¶
äºļ éĤ£
æľº åĮ£
å°ı é¾Ļ
åı¤ æĸ¯å¡Ķå¤«
å¹³åĿĩ æ¯ı
ç»ĺ åĽ¾
æħĪ ç¦§
åĮºæĺ¯ ç§ĺé²ģçļĦä¸Ģä¸ªåĮº
åĴ ¤
å¹³ ç«ł
æīĢ ä¸º
ç»ĵ æĪĲ
æķ´ ç¼ĸ
æķĳ çģ¾
åľ¨æŃ¤ æĹ¶
åħ¶åĲİ åľ¨
éĦĤ åĽ¾æĽ¼
äººåı£å¯Ĩåº¦ä¸º æ¯ıå¹³æĸ¹åħ¬éĩĮ
æľĿ æĶ¿
çļĦä¸Ģä¸ª åŁİå¸Ĥ
et a
æķ£ å°Ħ
æĹĭ åį³
åĢ¼å¾Ĺä¸ĢæıĲ çļĦæĺ¯
â ī
å¤ļ æĺ¯
äº¤ ä»£
ä¸ĸçķĮ åĲĦåľ°çļĦ
åĥ ĸ
ç¬¬åįģ åħŃ
AM D
è´ ®
éĺ¿ åħ°
æĶ¿åºľ å®ĺåĳĺ
æĶ¶ åĪ°äºĨ
è°ĥ åº¦
ĠM y
å¤§æ´ĭ æ´²
M BC
ä¸Ģ æĸĩ
ç»ı è´¸
èµŀ åĲĮ
æ¯įäº² çļĦ
èĢĥåı¤ åŃ¦å®¶
å¸ĸ æľ¨åĦ¿
èĩª æĹĭ
é©¬ èĩªè¾¾
æ¯Ķ åħ¶ä»ĸ
åĽ½å®¶ åħĥé¦ĸ
æıĴ åĽ¾
èĽ± èĿ¶
åį¡ åĪ©
èĻİ å°¾
è¤ ļ
æĶ¹ç»Ħ ä¸º
N BC
æīĢ çĶ¨çļĦ
çº¿ æĿ¡
18 56
çı ª
è¿ŀ çİ¯
åħĪ åľ¨
åħŃ è§Ĵ
ĠD r
ad y
åħ¬åħ± æ±½è½¦
æ¯ıå¹´ å¹³åĿĩ
åŃ¦æľ¯ çķĮ
A nt
äºº ç§į
åıĬ æĸĩåĮĸ
äºļ è¶³èģĶ
å¼Ģåıĳ åķĨ
æ²¿æµ· åľ°åĮº
è°¨ æħİ
å¹¶ æıĲä¾Ľ
å½± éŁ³
æĿĢ ä¼¤
èµ« çī¹
å¡« è¡¥
å±±ä¸ľçľģ æĸĩçī©ä¿ĿæĬ¤åįķä½į
å¸ĥå°Ķä»Ģ ç»´åħĭ
æ¢µèĴĤ åĨĪ
èĢĮ æľª
è¿Ļ ä¸İ
æľĢ éĩįè¦ģ
éĥ½ çģµ
è¯´ è¿ĩ
è½» éĵģ
æķ£ é¦Ĩ
èİİ å£«
éĵ¸å¸ģ å±Ģ
å¤įæĹ¦ å¤§åŃ¦
å·´å°ĶçļĦ æĳ©
çŃī åĽłç´ł
çĤ¹ çĩĥ
æİ¨ è®º
æºĲ åľ°
è·Ŀ ä»Ĭ
çİ¯å¢ĥ ä¸ĭ
åħĭæŀĹ é¡¿
ä¸º éħįåĲĪ
äºº æĢ§
æĹ¥ æĸ¹
åı° è¯į
å·¥ å§Ķ
é©¬ åĪ©äºļ
åºĶ åĬĽ
æĶ¿åºľ åĴĮ
èİ·å¾Ĺ åĨłåĨĽ
ä¼¯ åĪ©
ä¿ĺ èİ·
çļĦ æī¹è¯Ħ
çļĦ çľŁå®ŀ
ä¸ī åĨĽ
éĥ½ ä¸İ
åŁº åľ°çļĦ
éĿĴ çĿĲ
åĨľ ä½ľçī©
å¼Ĥ è®®
æĥĬ è®¶
åº·çĨĻ å¸Ŀ
æľī å¤ļç§į
æĹ¥ åĽł
ä¸į æĦ¿æĦı
æµ· éĩĮ
æĹł äº§éĺ¶çº§
æľĿ åĲĳ
åĩ» çł´
åľ£ åłĤ
æ³ķåĽ½ å·´é»İ
åħ±åĴĮåĽ½ çļĦ
æ³¡ æ²«
è¡ ®
éģĵ å£«
æĺİ çıł
åī¯ å¤Ħéķ¿
å·Ŀ å¸Ĥ
ä½³ ç»©
ĠP lay
çļĦé¦ĸ ä¸ª
åĪĽå»º äºĨ
èĥļ èĥİ
ä»ĸ æľī
åı¦ ç±»
è¡¡ éĺ³
ĠTe chn
çļĦ æĹ¶æľŁ
ä¸Ń èį¯
æł¼ éĻµ
çłĤ æĭīè¶Ĭ
è¸ı åħ¥
èµ«å°Ķ è¾Ľ
çĦļ çĥ§
è¯ķ é£ŀ
å£° æľĽ
åĤ »
è´Ŀå¤ļ èĬ¬
l ing
å¹¶ è¿Ľè¡Į
æĹł æķĮ
åį¡ åĨħ
åĽ¾ æĭī
è£ħ ä¸Ĭ
æĦŁ çŁ¥
æĳ© çº³
åħ¹ åł¡
èĩ »
éļ ¼
æĶ¹ æŃ£
åħ¬éĩĮ åĴĮ
è½¬ åıĺæĪĲ
è´¢ çī©
åĶ¯ä¸Ģ ä¸Ģä¸ª
éĵ¶æ²³ ç³»
ä¸į ä¸º
è°ĥ åĴĮ
æĴŃ éŁ³
ĠM od
åı³ ä¾įéĥİ
æĹ§ çļĦ
ç³ĸå°¿ çĹħ
A ng
M M
åľ° çĽĺ
åĪĻ ç§°ä¸º
èĬĤ çļĦ
éĺ² çģ«
ç¤¾ä¼ļ ç§ĳåŃ¦éĻ¢
ç´ł è´¨
ä¸´ çķĮ
æİ§åĪ¶ ç³»ç»Ł
åĦĴ åŃ¦
å¤ļå¹´ çĶŁ
æµ·åįĹ çľģ
å¤ĸ ä¼ł
éĥ½ ç»Ł
æ´» åĮĸ
å®¢ æµģ
æľīä¸Ģ æ¬¡
èĭ±æĸĩ åĲįç§°
èī° éļ¾
èİİå£« æ¯Ķäºļ
åľ° è²Į
ç»´ äº¬
æĻ® äº¬
åıĪ è¢«ç§°ä¸º
çļĦä¸Ģ ä»½
æ´Ľ ä¼¦
é±¼ ç§ĳ
çļĦ åŃ¦æł¡
è¿Ļ å¥Ĺ
æıĲ æĸ¯
17 4
åĩ¯ æĹĭ
æĮ¯ åĬ¨
åıĪåĲį CD
åįĹåĮĹ åĲĳ
æ²¦ ä¸º
æĺ¾å¾® éķľ
ä¸Ń ä¸º
ä¸Ń åĿľ
ä¸Ĭ éĩİ
çī© ä½ĵçļĦ
è¾¾ æŀĹ
åį¡ å¡Ķå°Ķ
æ´» æ³¼
ĠC ent
è¥¿åĮĹ éĿ¢
çīŁ å°¼
åİŁå£° å¸¦
åı¯ è°ĵ
å°ı åĲĥ
æĽ¾ åħĪåĲİ
ä¸ĥ äºº
æ·± éĢł
æµ·æĭĶ ä¸º
ä¿Ħç½Ĺæĸ¯ å¸ĿåĽ½
ä¸įæĸŃ çļĦ
è¨Ģè®º èĩªçĶ±
åħīç¦Ħ å¤§å¤«
G E
æĺİ äº®
18 47
æĿĥ åĬĽçļĦ
es e
éģ¿ å¼Ģ
NA SA
IC E
Un icode
ä¸Ń ä¸¾
çĶ· åįķ
åŃĻ å¥³
ç©¿ ä¸Ĭ
åįĸ åĩº
çĹĩ çļĦ
æĥħæĬ¥ å±Ģ
N E
f e
å¹´ å®Įå·¥
éķ Ĳ
èĢĮ å¯¹
äºĮ åº¦
ä½Ĩ äºİ
çİĭ èİ½
éª ģ
çħ§ å°Ħ
æĿ° å¤«
æĿ° å¿Ĺ
è¿½ å°ģ
å®ª å®Ĺ
éªĳ å¸Ī
åĢĴ éĹŃ
æĬ¥åĳĬ ä¸Ń
æĺ¯æĹ¥æľ¬ çļĦ
æıĴ æĽ²
æĶ¿åįı åī¯ä¸»å¸Ń
I E
äºº æľī
ç»§ç»Ń åľ¨
ç¬¬äºĮæ¬¡ åĽ½åħ±åĨħæĪĺ
æĪĬ æĪĮ
S w
åĩº ä¸Ģä¸ª
åŁº åºķ
åĵĪ æ¯Ķ
Cat egory
n o
æµ· éĿ¢
æĸ° æ°ĳ
çĸ Ł
am a
ä¼ĺ è¶Ĭ
æ·· åĲĪçī©
Â ±
ä¸į éĢĤåĲĪ
çĶ± ç§ĳ
éĵģ çŁ¿
å¤± æİ§
æ¡¥ å¤´
åĨľ äº§åĵģ
ä¼ĺ ç¾İ
å¹¿æĴŃ çĶµè§Ĩåı°
æ½ľ åħ¥
çļĦåİŁ åŀĭ
å·¡åĽŀ èµĽ
S BS
Ġ it
ä¸Ń å¤§
ä½Ĩ å¯¹
ç¼ĸ æİĴ
26 4
æľĢé«ĺ å³°
å°¾ éĥ¨
äºĨä¸Ģ åĲį
ä¸Ģå®ļ è¦ģ
åıĹæ¬¢è¿İ çļĦ
å¥¥åı¤ æĸ¯çī¹
2 24
ä¸Ģ åĽ½
ä¸º æľ¬
å¤§ å°ıçļĦ
ä¸Ģä¸ª ç½Ĺé©¬å¤©ä¸»æķĻ
éĵ ¨
ä¸ŃåĽ½ åĨħåľ°
ä¾Ľ æ°´
ç»ķ éģĵ
åĲŀ åĲĲ
åĺīä¹ī å¸Ĥ
r ay
ĊĊ ãĢĢ
ä¸į æĿ¥
æĸ° æ½Ł
éĩĳ éĵ¶
åħ¸ èĮĥ
æĢĿ æ½®
å¢ĵ ç¢ĳ
æµ·æ°´ é±¼
åĮĹ èµ·
å¼º åĬĽ
å¸Į çī¹
åıĮ èĥŀèĥİ
ä¸įæĸŃ åľ°
our n
c i
çļĦ çħ§çīĩ
çļĦ è¯ģæį®
åĵ Ĩ
çī¹ åħĭ
é©¬ åį¡
æĢ» å·¥ä¼ļ
ä¸¤ éĿ¢
åįİ å¤ı
æĴ ĥ
äº¤ éĶĻ
å¥¹ è¢«
çģ« çĥ§
æ¯ģ äºİ
Ġd i
ä¸į ä¸ĭ
èĢĮ å®ļ
èĩª åĪ¶
éĺ¿ ä»Ģ
äº¬ æ²ª
è¿ŀ ç»ľ
åĳ¨ éģŃ
çİ¯ é£Ł
æĶ» åŁİ
éģĩ å®³
é£İæĻ¯ åĮº
æ¡ §
èĲ¨ éĩĮ
è´Łè´£ ç®¡çĲĨ
å½ĵåľ° æĹ¶éĹ´
ä¹¦è®° å¤Ħ
å¯Įå£« çĶµè§Ĩåı°
æł¼éĻµ åħ°
åľ¨ ä½¿çĶ¨
èĢĮ ä½¿
å¤ļ ä¸ĩ
å¦ Ĵ
æĽ¾ èİ·å¾Ĺ
æ±Ł å®ģ
å±ŀäºİ å®ī
åĪĺ æ°ı
éĿĴå¹´ éĺŁ
è½´ å¿ĥ
åľ°äºļ åĵ¥
èĢĮ åİ»
åįĹ éĹ¨
åĬł èĹ¤
åīį åį«
é©¬ ä¿®
é¦Ļ æĸĻ
ä¼ļ çĶ¨
ä»» ä¸º
å¤© é¾Ļ
åĽ½æ°ĳ å°ıåŃ¦
è½¨ è¿¹
è¯¯ è§£
ç¥Ŀ ç¦ı
ä¸Ģ è´¯
æľĪ æľŁéĹ´
æĹ¥ æīį
ä¹ĭ æīĭ
é«ĺ æīĭ
å°Ĩ ä»ĸä»¬
ä¸¤ å±Ĭ
éĿĴ æ£®
èĪ¹ éĺŁ
é²ľ æĺİ
å¹¸åŃĺ èĢħ
çĽ ¼
ä¾Ŀ éĻĦ
å®Ŀ åº§
æľ« æĹ¥
åĲĪå¹¶ èĢĮæĪĲ
å¾·å·Ŀ å®¶åº·
äºĮ äºĮåħ«
éĢī å®ļ
å¤´ çĽ®
èĢĥ åıĸ
am i
åŃĺåľ¨ çĿĢ
åĩºçīĪ çī©
å»ºè®¾ çļĦ
é¢ģ æİĪ
å¡ĳ åĥı
å¸¦é¢Ĩ ä¸ĭ
æ°ĳ è°ĥ
èģ ĭ
ä¸ľ ç«¯
éŁ³ åĵį
ä»»ä½ķ ä¸Ģä¸ª
æĸĩåŃ¦ ä½ľåĵģ
æĿİé¸¿ ç«ł
æĺ¯å¾·åĽ½å·´ä¼ĲåĪ©äºļ å·ŀçļĦä¸Ģä¸ªå¸Ĥéķĩ
åĽ½éĻħå¤©æĸĩåŃ¦ èģĶåĲĪä¼ļ
D B
çļĦ åĬ¨çī©
ä¸Ģ å¿ĥ
ä¸İ æ³ķåĽ½
éĹ¨ æ§Ľ
å®´ ä¼ļ
æĸ¯èĴĤ èĬ¬
åĨ¯çİī ç¥¥
ä¸ľ è¾¹
çŃī åĢĻ
æĺİ åĨĽ
ä¹ĺ æĲŃ
æıĴ çĶ»
æĿ¥ åĪ°äºĨ
èĩª å°ı
ç¬¬ä¸Ģ å¤§
çĵ ®
æŃĮ å£°
ä½İ çļĦ
é¡¶ å³°
æ¨ª æī«
éĻ· éĺ±
çł² å¡Ķ
åĮ¿ åĲį
å¤ļ éĹ´
çł ·
èµ· çĶ¨
å»¶ æľŁ
å¹¶ä¸į ä¼ļ
çĽ´éļ¶ å·ŀ
æ¿ĢçĥĪ çļĦ
Ġ 100
è¦ģ ä¹Ī
æķĻ åĮºçļĦ
18 1
æĥħ çļĦ
ä¹Į å¹²è¾¾
æĿ° æĺİ
åĨĽäºĭ è¡ĮåĬ¨
æĻ®éĢļ çļĦ
åĪĽåĬŀ çļĦ
èĭĹ æĹı
çĥĤ çķªèĮĦ
æĸ¼ ä¼¦æķ¦
Ġ 2000
æ¯ ĭ
ä¹ĭ å¤ļ
å®¢ å®¶äºº
èĲ½ å·®
è´Ŀ éĩĮ
å¤ı ä¾¯
ag ue
åľ¨ åįĹäº¬
é«ĺ éŁ³
åİ¿ åĨħ
çĽ¸ äº¤
åºĶ ä¸º
åĮ» ç§ĳå¤§åŃ¦
ç§¦ å§ĭçļĩ
çĮ© çĮ©
4 80
å¹´ æĪĲç«ĭçļĦ
éĩĳ çīĽ
éĺ¿ çº³
èģĶèµĽ æĿ¯
åĩº æ²¡
éĥ½ æŁıæŀĹ
åĲī æĭī
åįł è¾ĸåĮºæĢ»äººåı£
ä¸ĢäºĽ äºº
è¿Ļä¸Ģ æĹ¶æľŁ
æĢ¥ è¡Į
å¹¿æĴŃ åī§
è¯Ħè®º åĳĺ
åĲįäºº åłĤ
éĩĳæĽ² å¥ĸ
ä¸Ń æĿĳ
ä¸Ĭ æĹ¬
åĩº åĲį
ãĢĭ ï¼īï¼Į
ç»ĵ æł¸
æ¥¼ å±Ĥ
å¥ī çĮ®
åĬŀåħ¬å®¤ ä¸»ä»»
A B
çļĦ æľ¨
å¹´ åĨį
ä»¥ ç¡®ä¿Ŀ
è° Ĵ
æ¯Ķ åĸ»
æ±Ł åı£
å¼ķ æĿ¥
ä¸Ńå¤® æĶ¿æ²»å±Ģ
æīĢæľī äºº
å¾® æ³¢
åĽ½çİĭ çļĦ
Ġ ï¼Īï¼ī
ä¸Ģ ä¾§
æĺ¯ ç¬¬ä¸Ģä¸ª
è· Ĩ
æ³ķ èĢģ
æĭī æĸĲ
å®ī æĿ¡
æĹł å¥Ī
èŃ¦ å®ĺ
æľįåĬ¡ ä¸Ńå¿ĥ
ä¹Ŀé¾Ļ å·´å£«
åī² æį®
æĳ§æ¯ģ äºĨ
èĲĿ åįľ
æĸ¹æµİ åĲĦ
è¥¿ ç±³
åĨĽ æľº
æ°ĳ æŃĮ
æĸ° çº¦
å¤ª è¿ĩ
éĽ· å°Ķ
çİ¯ çº¿
ä¸Ńå±± è·¯
D an
v a
ç¬¬äºĮ æī¹
å¸Ń æ¬¡
åıĤåĬł åħīç»ª
æĹĹ äºº
æ²ĥ å°Ķçī¹
äºĴ éĢļ
éĽª å±±
éĩĮæĸ¯ æľ¬
æĹ¥æľŁ ä¸º
æĺı è¿·
åİ¿çº§ æĸĩçī©ä¿ĿæĬ¤åįķä½į
çĶ± æĸ°
å¹³ éĿĻ
æĪĺ åīį
æĬĹ ä½ĵ
æľĿé²ľ çİĭæľĿ
èĴ¸ æ°Ķ
c a
åħ¨ æĿĥ
é¾Ļ çİĭ
äº² å¯Ĩ
ç®Ĺ åŃĲ
éĢĢ åĮĸ
å½Ĵ çº³
åį¢ åį¡
us e
ä¸ŃåĽ½åħ±äº§åħļ åħļåĳĺ
éĻĽ ä¸ĭ
å¹´ åıĸå¾Ĺ
ä¸Ń æĢ§
åħĭ ä»Ģ
ä¸¤ éĻ¢
18 55
é¦Ĩ èĹı
ä¼Ĺ çĶŁ
æĥ³ è±¡
åĪ· æĸ°
E r
æĭī æĽ¼
æ¹¾ éģĵ
èĭı åĮº
æ¯į åħ¬åı¸
å¹´çļĦ æĹ¶éĹ´
è½¦ç«Ļ ç¼ĸåı·
åĲķ å®ĭ
å¹´èµ· æĭħä»»åħ¨åĽ½äººå¤§ä»£è¡¨
ä¼Ĭæĸ¯åħ° åĽ½
' t
H S
æĶ ¸
ä¸¤ å¹¿
é¦ĸ è¦ģ
å¥³ ä¼ĺ
å¯¼ å¼ķ
ç¦ı å·ŀå¸Ĥ
æīĵ åĢĴ
ç¡« åĮĸ
èµĮ åįļ
è¾£ æ¤Ĵ
åĲİ ä¼ļ
å¹¶ æľĢç»Ī
èĬ ·
è¯¥ è®¡åĪĴ
å®ĺ ç½ĳ
åħ¨åĽ½ äººæ°ĳä»£è¡¨å¤§ä¼ļ
å¸ķ æ´Ľ
èĥ¡ æ¤Ĵ
ä»Ļ åı°
èĽĭ ç³ķ
ãĢī ãĢĤ
æľīæķĪ åľ°
å·¥åķĨ ç®¡çĲĨ
æĸ°åįİ ç¤¾
p ro
çļĦ é«ĺåº¦
æľĪ åıĳè¡Į
è¥¿ çĶ²
è° ļ
17 7
æŃ£å¼ı æĪĲä¸º
æ³¨ çĽ®
æĿŁ ç¼ļ
åĸĦ èī¯
çĶŁäº§ åķĨ
æ¹ĺ æ½Ń
B en
çļĦ æłĩå¿Ĺ
åĲĮ ä¼´
ä¸ĸ åĺī
æĢ§ æĦŁ
å¹¿ åıĹ
éĽ· å°Ħ
èĪª éģĵ
æīĺ è¿Ĳ
æĺĵ äºİ
çĿĢ æīĭ
åĽº éĨĩ
M ont
ä¸Ĭ éĥ¨
ç¬¬ æĸ¯
èĭ ĵ
ä½¿ ä»ĸä»¬
æ²³ ä¸Ĭæ¸¸
æ±ī å§Ĩ
åıĳå±ķ æĪĲä¸º
äºĮåįģ äºĮ
çĶµåŃĲ éĤ®ä»¶
è¿Ļæł· åģļ
ç§Ł éĩĳ
æĬĺ å°Ħ
äºİ ä¸Ģ
ãĢĬ "
å®ī çļĦ
åĪĺ å°ĳ
éĻĦ è®¾
æ¯ģ åĿı
ä»² è£ģ
D OS
r ing
åĮĹ ä¸ľ
è¿ĺ å°Ĩ
åģļ æĪĲ
ĠH ar
è±ª æ£®
æıĲåįĩ èĩ³
è¶ĬæĿ¥è¶Ĭ å¤ļ
ä¸Ģ ä¸ģçĽ®
ä¸ī ç«ĭ
è®® ä¼ļè®®åĳĺ
åı¤ æĭī
äº² è¿ĳ
åĲī çĶ°
è¯ģ äºº
çĳŀ æĸ¯
å»ºç«ĭ èµ·
èĤ¯ å°¼äºļ
èĩ³ä»Ĭ æĹ¥
èĹ» ç±»
Ge orge
æĹ¥æīĺç±³å°Ķ å·ŀ
æĺ ±
è°Ī è®º
è¸ ©
è´¹å°Ķ åįĹ
ĠCl ub
ä¸Ń æł¡
é©¬ éĩĮäºļ
le d
Ġ 2010
æĹ¥ å¤ľ
æĹł åĲį
æĬ¤ æ³ķ
æīĺ ç®¡
åİĨåı² åįļçī©é¦Ĩ
ä»ĭ ä¹İ
æı¡ æĬĬ
åį¡ç½ĹæĿ¥ çº³å·ŀ
R ichard
ä¸º èĩªå·±
ä¾ Ĺ
18 51
ä½įäºİ ä»Ĭ
æĴ ¼
é¢Ĩå¯¼ ä¸ĭ
å¢ĵ åĽŃ
å¹´ æĶ¹
ä¼ļ æĺ¯
åĽĽ æĿ¡
æµģ å½¢
å¤§åŃ¦ æ¯ķä¸ļ
at s
æ°¸ ç¦Ħ
æľīä¸Ģ åŃĲ
æłĩåĩĨ åĮĸ
èĲ§ æĿ¡
ph a
åİŁå§ĭ çļĦ
æĻ®ç½Ĺ æĹº
åľŁåºĵ æĽ¼
å¤§ ä¸¾
æ³ķ ç§ŁçķĮ
æĮ ļ
çŃī å¤ļç§į
åĨħ çī¹
éĩį çĶ³
ï¼īãĢģ ï¼Ī
éľ¸ çİĭ
å¸¸åĬ¡ å§Ķåĳĺ
4 20
å¹´ éĿĴ
éĽ ī
æĸĩ åŃ¦å®¶
ä¹Ł éļıä¹ĭ
æīĢ èĥ½
åĽ¢ åĽ¢éķ¿
é¡¹ ç¾½
çĶ² çĬ¶
é³ ļ
åľ¨åľºä¸ĬçļĦ ä½įç½®æĺ¯
æŃ¦åĪĻ å¤©
å¯¹ ä¸Ĭ
å¼Ģ åľº
å¼Ģ ç½Ĺ
æ® Ĩ
åºĶ éĤĢ
é¾Ļ æ³ī
al s
è¯ķ çĤ¹
èİ± åħĭ
ä»ĸçļĦ å¦»åŃĲ
éĩİ å¿ĥ
æ³Ľ æ»¥
è¥¿æĸ¹ åĽ½å®¶
æĺ¯ä¸Ģä¸ªä½įäºİ ç¾İåĽ½
å¡ŀçĲī åı¤
æĳ©çº³ åĵ¥
æĪĲ ç¥ĸ
åįĹ éĢļ
èĩª è½¬
åįĬ ä¸ª
äºĮåįģ ä¹Ŀå¹´
ä¸ĭ æĶ¾
ï¼Ľ ãĢĬ
ç»´ å°¼
å±ħ å£«
èµ° ç§ģ
ç£¨ æįŁ
åĪĺ è£ķ
è¾ĵ ç»Ļ
èº ģ
çĶ» å»Ĭ
æŀģ åħ·
ä¸Ńå¤® éĵ¶è¡Į
is p
ç²¾ åĵģ
ĠM ac
èģĶåĲĪ æĶ¿åºľ
ad io
çĶ³ èĬ±
ĠN et
æĴŃæĶ¾ çļĦ
åħ¨éķ¿ çº¦
åı¬å¼Ģ çļĦ
2 27
çķ ¸
éĢī åħ¥
18 6
é¦Ļæ¸¯ å¤©æĸĩåı°
èı² æĸ¯
èľ ´
åĲįåįķ ä¸Ń
èĳĽæĭī æ±ī
ä¸º å°ı
ç¾ §
æŃ¤ æ¡Ī
ç«ĭ èĬ±
å¤ĸ åĩº
åįİ è¾¾
or m
æľĿ åľ£
æŀľ çĦ¶
å¥³åŃĲ åĽ¢ä½ĵ
è¡¨éĿ¢ ä¸Ĭ
æĤ² ä¼¤
è°£ è¨Ģ
å©Ĩç½Ĺ æ´²
æľ¬ å½±
æľ¬ èĪ°
æĪĺ åľ°
ç¦» éĺŁ
æİĪ ç¿°æŀĹéĻ¢
ä¸į åĴĮ
å±± éºĵ
åı°åĮĹå¸Ĥ ç«ĭ
å¹¶æŃ¢äºİ çľģéģĵåı°
çīĩå°¾ æĽ²
åĮº åıĬ
æ°´ æ±ł
ä¹Į å¸ķé½Ĳ
éŃĶ å¥³
å¥ī ç¥Ģ
ä¸Ń çļĦä¸Ģ
ä¸ĩ æĪ·
è¡¨è¾¾ å¼ı
G l
Î ¿
èĢ ¦
æĿ¥ å®¾
éĵ µ
åİ¿ ç«ĭ
ç½Ĺ åħĭ
è¡Ĺ ä¸Ĭ
åıĮ è¾¹
åįĥ åħĭ
ot her
ä½Ĳ å¤«
ä¾¯ çĪµ
äºīè®® çļĦ
2 12
Î µ
æľĢ æİ¥è¿ĳ
çĽ¸ å¤Ħ
æ°´ è´¨
åķĨ åľĪ
us h
M r
å¹´ åīįçļĦ
æĸ° æľĪ
çĶµ ç¦»
èħ »
æİĴ æ°Ķ
å°ģ åį°
ĠG ames
ä»Ļ äºº
å¥¥æŀĹåĮ¹åħĭ å§Ķåĳĺä¼ļ
M a
çī¹ å·¥
è¯¥ æĬ¥
åĽ½åĬ¡ åį¿
åĶ®ç¥¨ æľº
ä¸Ńçº§ äººæ°ĳæ³ķéĻ¢
åĲĮ ç±»
åĬ¨ ä¹±
æĹł çĸĳ
ç»´ çº³
åı¯ä»¥ çĶ±
éŁ³ä¹Ĳ ä¸ĵè¾ĳ
èĢ¶ ç»´å¥ĩ
ur a
æĢ¥ éĢŁ
æµ© çī¹
çİĭ æĿİ
èĭ±åĽ½ åĽ½ä¼ļ
èµĲ äºĪ
æĶ¶è´Ń äºĨ
B o
g er
åľ° åºķ
ä½ľä¸º ä¸Ģç§į
æĿ¿ ä¸Ĭ
çĥĪ é£İ
æĥ¯ æĢ§
ä¸Ģçº§ æĸ¹ç¨ĭå¼ı
çº§è¡ĮæĶ¿åĮºåĪĴ åįķä½į
I K
Ġ 2008
å¹´ åĨ¬
éĺ¿ å·´
å®ŀ åľ°
çĥ ĺ
ä»¥åıĬ å¯¹
ç¦» ä¸ĸ
åĿĩ åľ¨
åħ¨åĽ½ æĢ§
åĭĥåħ° çĻ»åł¡
æ¸¯ çĿ£
åı¤ æĸ¯
çĵ¦ çī¹
åħ´ åĮĸ
çĻ¾ äºº
çº¢ æµ·
æķħäºĭ çļĦ
å·´å£« æľįåĬ¡
é¢ł è¦Ĩ
æķĻ çļĦ
è°ĥ å¾Ģ
è¿ª çº³
æ°¸ åİĨ
èµı èµĲ
ç»ħ å£«
ä¸Ń é£İ
éģ ı
çŃī è®¾æĸ½
å¤© çĶŁ
åıĪ åĽł
çĹħ æŃ»
ç»ıæµİ æ´»åĬ¨
ä¸¹ å¨ľ
ĠB ro
æķĳ çĶŁ
æĭĵ å®½
ell o
ä¸ľ ä¸İ
æĿİ ç»´
ä¸»è¦ģ ä»İäºĭ
å¤§éĻĨ çļĦ
un e
ap an
çĤĢ å¸Ŀ
çļĦ åºĶçĶ¨
æĹ¥ åĩºçĶŁäºİ
èĢĮ å¾Ĺ
å¸¸ å·ŀ
å¡ŀ æĸ¯
æľ± å¾·
ç¾Ł åŁº
çļĦ æĢ§è´¨
äºĨ è¿Ļä¸Ģ
é¢Ĩ åıĸ
èĴĻçī¹ åĪ©å°Ķ
M in
ï¼ī ãĢĭ
ä¾ Ī
ä¸ŃåĽ½ æĸĩåĮĸ
åħ³ å²Ľ
ä¹¦ ä¿¡
è°ĥ åĬ¨
26 5
å·® çĤ¹
ap e
ĠLim ited
ä¸Ń è¡¨ç¤º
æŃ ª
ä»ĸ åĪ°
è¿ĩ æµ·
åĨħ åľ¨
è¯Ń åı¥
çĵ¦ è¥¿
å²ģ æľĪ
æĿ¾ å¹³
æ¢¦ å¹»
èµł éĢģ
ç¾İä¸½ çļĦ
æ¼Ķèīº åľĪ
éĩĳéĴŁ å¥ĸ
âĹ ĭ
çļ Ī
ä¸į æĹ¶
ä¸¤ èĢħçļĦ
èº« ç©¿
åĨĻ åĩº
ãĤ ¸
æ¿ ¬
åĸľ é©¬æĭīéĽħ
ĠH igh
ä»Ķ ç»Ĩ
æ£ĴçĲĥ éĢīæīĭ
ä¹Įå¸ķé½Ĳ æĭī
ä¸Ń æ²¡æľī
åĴĮ éĿŀ
çģ ¼
åĪĽ ä¼¤
åŃ£ çļĦ
æºª éķĩ
å·¥ä¸ļ éĥ¨
ag on
ort s
è¤ ¶
åħ¬æĸ¤ çº§
çŁŃæļĤ çļĦ
S R
ãĢ ĩ
çĶŁ åįĴ
ä½įäºİ æľ¬åľ°åĮº
æ¯Ĵ ç´ł
ä¸Ń è¯´
ä½Ĩ å½ĵæĹ¶
å·´ å°¼
å¼ł æĸĩ
åĵĪ éĩĮæĸ¯
é²ģ çī¹
éŃ Ħ
çĲĥéĺŁ ä»¥
æĺ¯ä¸Ģæ¬¾ çĶ±
è¶³åĪ© ä¹ī
C y
å¹´ è®¾ç«ĭ
äºĨä¸Ģ æ®µ
ä¸ĭè¾ĸä»¥ä¸ĭ æĿĳ
ra in
ä¸ºä¸Ģ è¡ĹåºĦ
ç½ĳçĲĥ åħ¬å¼ĢèµĽ
à ¦
çİĭ ä¸ĸ
èĭ± åĭĩ
å¤ª åĤħ
ç¼ĸ å¹´
èĪ° è½½
çŃīåľ° çļĦ
èĦ¸ ä¹¦
éĶ¯ é½¿
S am
çĥŃ åĬĽåŃ¦
æıŃ ç¤º
L ive
å¹´ åħ¥
æĺ¯ åĽĽ
å¸ĥ åĪ©
åı°æ¹¾ å²Ľ
æ¨ µ
ä¸»è¦ģ åĮħæĭ¬
éĻĪ åĽ½
çĶµè§Ĩ è¿ŀç»Ńåī§
çľŁå®ŀ çļĦ
çļĦ åĮĹ
å±± æĺ¯åįĹæŀģæ´²çļĦå±±å³°
æĥħ æĻ¯
çĶµå½± åŃ¦éĻ¢
å½Ĵ éĻĦ
è¿Ŀ è§Ħ
æ°´ åĿĿ
æĺŁ æĺŁ
æ¤ ¿
ä½© éĩĮ
å®ĺæĸ¹ è¯Ńè¨Ģ
æľĢå¤§ æ°´æ·±
ç§Ł çĶ¨
è½¬æį¢ æĪĲ
æľĪéĿ¢ åĿĲæłĩä¸º
çļĦ é»Ħ
èµ Ī
å¹¶ ä½¿çĶ¨
é«ĺ çº¦
èĥ½ åĲ¦
å¸ĥ èµĸ
ä¼¯ ç½Ĺ
æī¹ åıĳ
ä¸Ńåįİäººæ°ĳåħ±åĴĮåĽ½ é©»
èĢ³ æľµ
éģ¿ åŃķ
çļĦç¬¬ äºĶ
ç§ĳåŃ¦éĻ¢ éĻ¢å£«
åį°ç¬¬å®ī çº³
åı°æ¹¾æ¸ħæ²» æľ«æľŁ
Ġ #
åĪĻ å°Ĩ
éŁ³ æķĪ
è¨Ģ è¯Ń
åħ´ å®ī
ä¸ĭè¾ĸçļĦä¸Ģä¸ª éķĩ
Ch arles
âĢĭ âĢĭ
éĩĬè¿¦ çīŁå°¼
åľ¨ ä¸ĸ
æĹ¥ æĴŃåĩº
åıĳ è§ī
å¹³ æ»ĳ
èĲ½ åľ°
çĥŃ å°Ķ
åĽ´ åŁİ
åĵ¥ ç½Ĺå¾·
çĶļ å°ĳ
è¡¡ éĩı
ä»İæĿ¥ æ²¡æľī
H en
ç» ¯
äºº ä¹Ł
æīĭ çĲĥ
ĠM on
æ£Ģ æł¡
ĠW e
çĵľ åĪĨ
æģ° å¥½
çĮľ æĥ³
æĺİæ²»ä¸īåįģ åĽĽå¹´
Ġ km
çİĭ å®«
äº¬ åħĨ
æ´» åĬĽ
è¿ĳ è·Ŀç¦»
åįĥ å²ģ
æī¿ è½½
é¢Ħ æĸĻ
è¯¦ è§ģ
æłı çĽ®
èĭĶ èįī
æĺ¯åįĹæŀģæ´²çļĦ åĨ°å·Ŀ
åıĹ è¿ĩ
åıĺ åİĭ
çĤ¹ æķ°
æŃ¦ å®Ĺ
ä¸īåįģ åħŃ
åĲı éĥ¨å°ļä¹¦
åľ¨ä½į æľŁéĹ´
GN U
å¤§ éĽĦ
è¥¿ ç«¯
çİĭ å¦ĥ
éĹ® ä¸ĸ
æ¼« å¨ģ
çº¹ ç«ł
èĬ±å²Ĺ å²©
æĪĲ ä¹¦
çŃī åľ°åĮº
ç»ı åķĨ
ä¸ĩ ä»½
é³ Į
um b
x y
çļĦ èµĦæł¼
æĶ¹ çīĪ
30 5
22 9
æĪĺäºī ç»ĵæĿŁåĲİ
é»İ åĬł
å¹ķ åĥļ
éĻµ åĽŃ
æĬĺ è¿Ķ
ä¹³ æĪ¿
èľ¥ èľ´
æĬ¤åį« èĪ°
å¹´ çĶŁäºİ
åħ¬ çīĽ
çĲ Ĳ
é¦Ļæ¸¯ å²Ľ
å¼Ģå§ĭ åĩºçİ°
éĵģè·¯ ç»ıè¿ĩ
éŃı åĽ½
ä¸ľ å°¼
åı° ä¸ľåİ¿
çĶ· çĶŁ
èĢĥ åħĭ
ä½Ľ æ³ķ
ç¥¨ åı£
ç¬¬ä¸ī ä½į
ä¸ŃåĽ½äººæ°ĳè§£æĶ¾åĨĽ æĢ»
åįĩçº§ ä¸º
ä½įäºİè¯¥åĽ½åĮĹéĥ¨ æĹ¥æīĺç±³å°Ķå·ŀ
èĲ¨å°Ķçĵ¦ å¤ļ
éº¦è¿ª éĢĬ
çļĦ è¶ħ
åĮĹ ä¸İ
åħĭ éļĨ
èĳ Ĩ
å·² è¾¾
é£İ çĲĥ
åĿĩ åı¯
ĠS erv
ec k
éĩĩè®¿ æĹ¶
æ±īå¯Ĩ å°Ķé¡¿
G a
çļĦ F
åĮº éķ¿
è¢« å®³
åİŁ ç±į
èĮ ī
åºĦ éķĩ
è¾ŀ åħ¸
çĦ¶åĲİ åĨį
åĹ£ å¾·
æļĳ åģĩ
åĮħ å¤´
åĽŀ æĹĭ
åħ¬åı¸ åĴĮ
æĬ¥ ä»ĩ
çŁ³ çªŁ
è¿ª å¥¥
çĬ¯ äºº
çļĦæĦı è¯Ĩ
åľ¨ åĬłæĭ¿å¤§
è¯¥ åĨľæĿĳå±ħæ°ĳ
åĽ¾ ä¸Ń
è£ħ è½½
åºŃ éĻ¢
å¢ĵ å¿Ĺ
ç¬¬äºĶ å±Ĭ
è½¬æį¢ ä¸º
çĤ¹çļĦ äººåı£ä¸º
è¯¥åĨľæĿĳå±ħæ°ĳ çĤ¹çļĦäººåı£ä¸º
ï¼ī ,
è¥¿ åĳ¨
è¿ĩ å¤§
æĢ» åĬ¡
å¸¸ ç»¿
å¤Ħ å¢ĥ
åķĨ çĶ¨
å¾Ī éķ¿
è¯º åŁºäºļ
ä½© æĪ´
èĢ¶ç¨£ åŁºçĿ£
æĹ¥ å¼ĢéĢļ
åĲį æ¬¡
çĽ´ ç«ĭ
åıĪ å°Ĩ
åħµ éĥ¨å°ļä¹¦
id ae
ä¸¾è¡ĮçļĦ ä¸ĸçķĮ
è¯ı ä¹¦
èĴ¸ åıĳ
ä¼ļ æĬĬ
æĸ° ä¸ĵè¾ĳ
é©¬ å¾·
éĺ¿ åĪ©
è®¤ä¸º è¿Ļæĺ¯
è¶³çĲĥ ä¹Ļçº§èģĶèµĽ
åħħ çĶµ
ç±³å°Ķ é¡¿
èĭ¹æŀľ æĹ¥æĬ¥
èĤº çĤİ
çŀĦåĩĨ éķľ
çļĦ ç©º
çļĦ è®¸å¤ļ
çķĮ éĻĲ
çĵ¦ èİ±
æ·± åĮĸ
æľįåĬ¡ ä¸ļ
èī¾ åĪ©æĸ¯
åģĩ å®ļ
æ±ĩ çİĩ
åįĳ è¯Ĺ
å°ĺ åŁĥ
S ol
å¸ĥ åĭĴ
å²Ľ æĺ¯
æ¡¥ ç«Ļ
è§ī éĨĴ
éĤ» åĽ½
åı¦ä¸Ģ åĲį
çİ°ä»» æķĻåĮºä¸»æķĻ
tern et
2 21
ä¹ĭ åĳ½
éĢļ ä¿Ĺ
é»Ħ å¸Ŀ
ä»ħ èĥ½
è¯į æĽ²
æĪĺäºī åĲİ
æĺ¯ä½įäºİ æĹ¥æľ¬
ä¸Ģ éĹ¨
ä¹ĭ æ¯į
å¤© èµĭ
ç¾İåĽ½ åľ°è´¨è°ĥæŁ¥å±Ģ
æ´¾ åĪ«
æŃ¥ éģĵ
çľĭ åĪ°äºĨ
èī¾ å¾·
åĪĬ è½½
å¤ºå¾Ĺ åĨłåĨĽ
ä¸ĭè¾ĸä»¥ä¸ĭæĿĳ çº§è¡ĮæĶ¿åĮºåĪĴåįķä½į
çļĦ å¾·åĽ½
çļĦ æ¬§æ´²
çļĦ çĶŁçī©
è¥¿ éŃı
ä¹Ł éĹ¨
æ¬¡ åºı
åĨ³ æĸĹ
è½» å°ıè¯´
çº½ ä¼¦åł¡
çİ°åľ¨ æĺ¯
ex t
èľĢ æ±ī
èµ«å°Ķ æĽ¼
åħļç»Ħ æĪĲåĳĺ
ĠComp any
ä¸ºè¾Ĳé³įé±¼çº²é²Īå½¢çĽ®éļĨå¤´é±¼äºļçĽ® æħĪ
å¥¥åĮĪ å¸ĿåĽ½
Ġ i
çļĦ é£Łçī©
è´ »
åħ¶ å¼Ł
æķĻ å®ĺ
é¦Ļ æ§Ł
åı¤ ä»Ĭ
çĻ¾ æħķ
çĥŃ åĪº
è¯¸ åĨĽäºĭ
æīİ åħĭ
éĻķ çĶĺ
è®¡ç®Ĺæľº ç§ĳåŃ¦
éĩıåŃĲ åĬĽåŃ¦
åħĭæĭīæĸ¯ è¯º
Ġ ï½ŀ
åŃ¦ éĹ®
è¥¿ åį¡
åĲĮ æŀĦ
é© ´
çĽ¸ ç»ĵåĲĪ
æ¥ Ķ
èīº æĸĩ
åĽ´ åī¿
è±Ĩ èħĲ
çĶ²ç»Ħ è¶³çĲĥèģĶèµĽ
èĻĶ è¯ļ
é¡ºä½į è¢«
Y P
g ram
åı ¡
åľ¨ ä¸ĭ
æĺ¯ çĶ¨æĿ¥
ä½ľ èµĽ
ä¹Ł ä¸įæĺ¯
ä»ĸä»¬ å¯¹
la m
ä½ı æ°ĳ
å»ºçŃĳ é£İæł¼
24 9
éŃĶ çİĭ
æ²Ł æĿĳ
M D
æµ Ĵ
ä½ľ é£İ
é¢ Ĭ
å¤ļ çĳĻ
çº¿ åıĬ
åŁİ å¤ĸ
æ³¢ åıĬ
æ·± æ·±
ĠL td
åħ±åĲĮ ä½ĵ
os p
èĬ³ é¦Ļ
èİĨ çĶ°
ä¸º äºĶ
æľī å¦Ĥ
èĵĿ è°ĥ
æĺŁæľŁ æĹ¥
G UNDAM
ç» ¢
å¼ ©
ç¾İ åŃ¦
çĵ ¯
æĹ¥åľ¨ æĹ¥æľ¬
Ï ĥ
å¹´ æ³ķåĽ½
èĢĮ ä¸ĭ
æľ¬ å²Ľ
åı¯ä»¥ çĽ´æİ¥
åħī åįİ
å¥¹ ä¸º
æīĵ å·¥
ol f
ĊĊĊĊĊĊĊĊ ĊĊĊĊ
æĪĪ çĻ»
æĪĺåľº ä¸Ĭ
ä¾¦å¯Ł æľº
åŁİéĻħ éĵģè·¯
En v
éĩĳæĹ¥ æĪĲ
çļĦ æŃ»
18 52
éŁ³ æºĲ
ä¿¡ å¿µ
é»ĳ å±±
è¿Ļç§į æĸ¹æ³ķ
ĠL i
æĮģç»Ń äºĨ
éģ¥ æİ§
Ġ äºİ
ä¸į æĪĲ
èĢĮ å½ĵ
æ°ĳ è§Ĩ
æľĢ ä¼Łå¤§çļĦ
âĢĿ (
åįł æĺŁ
æĳĦ åĥı
æķĳ åĬ©
åºŁ å¢Ł
å¹³åĿĩ æ°´æ·±
æŁ¯ åįĹ
å®¾å¤ķæ³ķ å°¼äºļ
æľĪ ä¸İ
ä¸Ĭ è¡¨
æĸĩ å°¼å¯Ł
18 49
æĽ² éĿ¢
å¤ĩ å¿ĺ
å¢ŀ æ·»
åĵ¥ æĸ¯è¾¾
é¡º å¤©åºľä¹¡è¯ķ
æķĳ åĽ½
å²Ĺ ä½į
ä¸İ ä¸ĸçķĮ
å¹¶ åĽłæŃ¤
åīį æīĢ
å»º æŃ¦
æ¯Ķ çİĩ
åİŁ çīĪ
18 41
25 5
it z
çĤ¸ æ¯ģ
çĪĨåıĳ äºĨ
è£ħçĶ² å¸Ī
only include
æĺ¯ åĽł
åĪĨ ç«Ļ
éĥ½ å¿ħé¡»
å·² çģŃç»Ŀ
æĽ´ æĹ©
ç©¿ æ¢Ń
ä¸įä¹ħ ä¹ĭåĲİ
è§£åĨ³ äºĨ
çİ°å®ŀ ä¸»ä¹ī
æĺ¾èĳĹ çļĦ
è½¬ä¼ļ èĩ³
çĲµ çĲ¶
éĢļè´§ èĨ¨èĥĢ
2 13
u th
çļĦ åįķæĽ²
åŃ¦ å¾Ĵ
çĶ± æĿİ
å¤ļ ç¦Ħ
ä¼Ĭ æľ¬
åĽº æĢģ
ä»ĺ åĩº
ç²Ĺ ç³Ļ
ä¸ª å¸Ĥéķĩ
éĥ¨ é¦ĸ
æµ· éĺ²
æĶ¾ åĩº
äººæ°ĳ æ£Ģå¯ŁéĻ¢
æīĺ åĪ©äºļ
æĪ· åı£
36 5
å¢¨è¥¿åĵ¥ æ¹¾
ç»ıçºª äºº
åīį ç«¯
å®ī çĲĨä¼ļ
è®¡ æĹ¶
èµ· æŃ¥
è¯Ńè¨Ģ ä¸Ń
èĩªçĦ¶ ä¿ĿæĬ¤åĮº
åĪĨéĴŁ åĲİ
ä¸ºè¾Ĳé³įé±¼çº²é²Īå½¢çĽ®éļĨå¤´é±¼äºļçĽ®æħĪ é²·ç§ĳçļĦåħ¶ä¸Ńä¸Ģç§į
æĸ° ä¸ĸ
æĸĹ åħŃ
è¡Ģ èħ¥
åįļå£« çĶŁ
èĩĢé³į è½¯æĿ¡
äºļä¼¯ æĭīç½ķ
æ³ķ åĴĮ
æĢ» éĩı
åĲĦ å¤Ħ
å®£ å¾·
å®£ åĪ¤
æĿ¿ ä¸Ĭå¸Ĥ
æµĻæ±Ł å¤§åŃ¦
æĹħæ¸¸ æĻ¯çĤ¹
åħ¬å®ī éĥ¨
æĬĦ è¢Ń
2 16
å¥³ åįķ
èĲ¨ å§Ĩ
æ°¸ åħ´
çļĦ èģĮåĬ¡
ç¾İ æĭī
è¯¥ å·ŀ
åįİ å±±
ç»´ èĢ¶
è®º çĤ¹
æŃ¦ å®ĺ
å¼ķ è¿°
èĪª ç¨ĭ
ãĥ ¬
å¹¶ä¸Ķ æĺ¯
åĲĽ çİĭ
ä¼ģä¸ļ çļĦ
ç²ī å²Ń
æĴ° æĸĩ
åĵĪå°Ķç§ĳå¤« å·ŀ
éķ¿ å°¾
æĭī èĴĻ
æĺĵ åĲįä¸º
åºĹ éĵº
ç§ĺé²ģ çļĦå±±å³°
ä¸Ģ æĽ²
ä¸Ģ å¤ľ
åĪ° ä¸Ģä¸ª
æīĭ å·¥
éĢł å°±
ç¬¬ä¸ī è½®
ãģ ¤
åºĶçĶ¨ åľ¨
éĺĶ åı¶
è¶ĭ åĲĳ
æ³ķæĭī åĪ©
ĠRec ords
C T
ä¸Ģ çķª
æľĪ äºİ
åı¯ çĪ±
å®ļ åŀĭ
åĪ¶ æŃ¢
ä¼ł æĦŁ
çº³ çĵ¦
åĽŃ èīº
è½¦ç«Ļ å»ºäºİ
ac he
åı¦å¤ĸ åľ¨
ç¡®å®ļ äºĨ
æ°¢ æ°§åĮĸ
é¢Ħè®¡ äºİ
åı¬éĽĨ äºº
E V
F O
t y
è¶ Ł
é¢Ħ ç§ĳ
æ²¹ çĶ°
åĩ¯ åĪ©
åĲĮçĽŁ åĽ½
çŃ ł
åĪĨ èĪ°éĺŁ
æīĢ çĶ¨
è½¬ å½ķ
èĴĻ å¤§
ä½Ĩæĺ¯ ä»ĸ
åħµåºĵ åİ¿
A c
P eter
ä¸Ń åı¤
åŁº åº§
ä¿¡ ä¼Ĺ
åıĪ ä¸İ
éĥ¨éĹ¨ çļĦ
æĹħå®¢ ä¹ĺéĻį
L uc
åľ¨ åĮĹç¾İ
æĢ§ ä¸İ
éĩĳ åŁİ
re y
äº¤éĢļ è¿Ĳè¾ĵ
éĿł èĳĹ
å¥Ī å°Ķ
æĺ¯ä¸Ģåº§ ä½įäºİ
å¥ł å®ļ
äºĮ åŃĹ
æ°´ åĴĮ
å®ŀ ä¸º
éĢł ä»·
æŁ¥ çľĭ
ä»ħ æľīçļĦ
åıĳçĶŁ è¿ĩ
æł¸ éħ¸
ä¸ĵè¾ĳ æ¦ľ
èĪªç©º çļĦ
å®½ çº¦
æ¶Į åħ¥
ä¸Ĭ åŃ¦
åıį æģĲ
ä»ħ æĺ¯
äº¿ ç«ĭæĸ¹ç±³
å·¨ é¢Ŀ
ä¸¥éĩį çł´åĿı
æĭĨ è§£
è¥¿èĹı çŃīåľ°
æĭ³ éģĵ
æľī å¾Īå¤§çļĦ
æ¯Ķ éĩį
å·² ä¸į
åī§ ä½ľå®¶
æ¨¡ åŀĭçļĦ
å¹´åº¦ çļĦ
åİ¿åĲį çºªå¿µ
å²Ľå¼ı ç«Ļåı°
åį ħ
è¥¿ å¥¥
éŁ³ä¹Ĳ åİħ
ä¸Ń ä¸İ
åĪ© æĸĩ
è¯¥ ä¸ĵè¾ĳ
äº§ åľ°
åŃĹ åŀĭ
èĬ± åįī
æ°¸ æĺĮ
ä¸ĢèĪ¬ æĺ¯
è¥¿çıŃçīĻ çļĦ
è¶ħçº§ èµĽ
æµ¸ ä¿¡
éľ° å¼¹
åľ¨ åı°åĮĹ
åĪ° é¦Ļæ¸¯
åı¯ æĮģç»Ń
è¿ĺ è®¾æľī
åħ¶ä¸Ń ä¸Ģç§į
åį° æľī
äººå£« çļĦ
AC ç±³åħ°
lat ion
äºĨ çļĦ
æ¬¡ ä¼ļè®®
åħ± è®¾
æºĲ åİ¿
äººçī© çļĦ
é»ĺ è®¤
èµ´ ç¾İåĽ½
é¼İ çĽĽ
æĬĦ æľ¬
æĹ¥ æĬµè¾¾
åı° ä¸Ĭ
ä¸¤ ç±»
é¦ĸ å¼łä¸ĵè¾ĳ
18 46
ç²¾ åĬĽ
å®ľ æĺĮ
çĽ´æµģ çĶµ
éºĴ éºŁ
2 17
ä¸į å·²
åĽł ä¸İ
åĨħ æµģ
å°ı åŃĲ
å¤ĸ åĬ¡
åĪĻ æĺ¯çĶ±
èĬ± çĶŁ
çº¢ æĺŁ
ç²¾ èĩ´
è¢« çĶ¨ä½ľ
åĢ ¦
éĶ °
ä¸ĵ èĳĹ
27 5
æł¸ èĥ½
BS D
åı¯ è¯´æĺ¯
äº¤ è°Ī
åİ» å¹´
çķĻ è¨Ģ
å°ģ ä¿¡
å«ģ ç»ĻäºĨ
æİĢ èµ·
å¤§ èĤĨ
ä»¥ ä¾Ľ
æľº éķ¿
å¤© æ²³
åŁº å¤«
åĪĳ ç½ļ
ç§ĭ çĶ°
æĬĺ ç£¨
å¨¶ äºĨ
å·¥ç¨ĭéĻ¢ éĻ¢å£«
çļĪ ä¾Ŀ
B ig
äºİ æ°ĳåĽ½
ä¸į ä½ı
åı° çĭ¬
åħ± åĪĨä¸º
èİ± å§Ĩ
ĠA b
äº¤éĢļ å·¥åħ·
åĳĪçİ° åĩº
ä¹¡éģĵ äºĳ
è´¢åĽ¢ æ³ķäºº
çĶµè§Ĩå¹¿æĴŃ æľīéĻĲåħ¬åı¸
4 30
Ã º
è¿Ļ å°±
éĢļ éī´
ä¸¤ éĹ´
ç½² çĲĨ
æĴĴ åĵĪæĭī
ĠAl l
ä¼½åĪ© çķ¥
çĶ²çĬ¶ èħº
æµ· äºĭ
çº¦ ä¼ļ
è®¡ éĩı
åħŃ äºº
å¢ŀ å»º
26 2
ob e
ä¸ĭåįĬ åľº
r ich
çŃī åħ¶ä»ĸ
å¼ł ä¼¯
è¾ĸ æľī
ãĥ ŀ
åģĩéĿ¢ éªĳå£«
æĺ¯ åĽ½éĻħ
å¤§ äºº
åħ¶ æ¯į
çī¹ é¦ĸ
âĢľ "
ä½įäºİ ç»´å¤ļåĪ©äºļ
å¯¼ åħ¥
æĺ¯ä¸Ģ åľº
æ®µ èĲ½
çĳŀ å®ī
å¾ģ ä¼Ĳ
æľĢç»Ī æ³¨åħ¥
é¹¿ æ¸¯
NBA èģĶçĽŁ
çĵ· åĻ¨
æ¼Ķ åıĺæĪĲ
ä¸ĩ çī©
å¹² æµģ
å¤ªå¹³ å¤©åĽ½
å»ºæĪĲ åĲİ
åĵª éĩĮ
åŃµ åĮĸ
ä¸º éĿŀ
ä¸ľ æ´ĭ
ä¾¿ è¢«
æĳ© è¥¿
åįĹäº¬ å¤§åŃ¦
æĥĬ æĤļ
St ar
Tun es
ä¸Ń è®°è½½
æĹ¶ æīį
åı° å±±
æīĢ éĥ¨
æľº éĺŁ
åľ°åĮº ä¸ºä¸Ģè¡ĹåºĦ
æķħ åĲį
åĲĮæĹ¶ æľŁ
æ¢ģ åĲ¯
è¾¾å°Ķ æĸĩ
A v
äºļ è¿Ĳ
ä½Ĩ æŃ¤
éĩİ å¤ĸ
æĿľ é²ģ
éĺ® æĸĩ
çĽĪ åĪ©
å¹´é¦Ļæ¸¯ åĮºè®®ä¼ļéĢīä¸¾
èĥĮé³į è½¯æĿ¡
æł ī
é¦ ħ
æĽ´ è¢«
æ²Ļ å·´
äºĭä»¶ åıĳçĶŁ
åľĨ çİ¯
ä¼ĳ åħ»
ç¥Ń åħ¸
ç¢ĳ æĸĩ
ç²Ĺ ä½ĵåŃĹ
åīį ç§°
å·ŀ ä¸º
åħ¨ æł¡
ç¬¬ä¸Ģ æīĢ
æľª å¿ħ
Ġ( "
èĩ´ çĶµ
åĩºçİ° è¿ĩ
éĥĳ åĽ½
ãĢįï¼Ī "
è®°å½ķ äºĨ
ç«ŀäºī åĬĽ
çļĦå¥³ åŃ©
çĺŁ çĸ«
f ield
çļĦ è§£éĩĬ
çļĦ å½¢çĬ¶
åľ¨ åĲĮ
ä¸ª åĮº
ä¸į é«ĺ
æ²Ļ æīĺ
èĢĥ çī¹
ç»Ħç»ĩ åĴĮ
å·²ç»ı å¼Ģå§ĭ
èįī ä¸Ľ
å¼Ĺ å°Ķ
ç½ķè§ģ çļĦ
ä¸İ åħ¶å®ĥ
åħĭ ä¼¦
è¾¾ çļĦ
æŃ£ æ®¿
æĪĲä¸º å½ĵæĹ¶
éĢĢ åĽŀ
é¦ĸæ¬¡ ä»£è¡¨
åį± åľ°é©¬æĭī
çŃ¹ æ¬¾
åģ¶åĥı åī§
åĪĺå°ĳ å¥ĩ
èĢĮ åıĪ
æĸĩ åºĻ
æĸ° ä¼ļ
ä¸ĵ èĲ¥
åŃĺ æ¬¾
åĨĻ åħ¥
èĢĥ æł¸
od y
æ£ĭ åŃĲ
å¼ºçĥĪ çĥŃå¸¦é£İæļ´
æī©å±ķ åĪ°
2 18
A çº§
Ġ 2012
åĲİ åĶĲ
ä¸ī éĿ¢
çī© ä»·
ç§ĳ å¨ģçī¹
æģ ³
åįķ ä¸ª
éĽĨ æķ°
åıª åī©
èĦ ¾
æ±ī éĺ³
æīĵ æŃ»
æĳĦå½± æľº
éĬ ®
åľ ©
èĢĮ äº§çĶŁ
æ¡ Ķ
çİ¯ è·¯
å¹´ä»£ èĩ³
ä½Ļ å§ļ
çĦ¦ èĻĳ
row n
å¹´ åįİ
åĲİ å®«
æ³ķ æ²»
éķ¿ ç¯ĩ
ï¼ļ ãĢİ
åħ³ ç¾½
ä½įäºİ å±±ä¸ľçľģ
é£İ çĲ´
å¤´ é¢ħéª¨
åľ£ åľ°äºļåĵ¥
ç»Ĩ å°ıçļĦ
èĵ¬ åĭĥ
ä½įäºİè¯¥åĽ½ä¸ľéĥ¨ åĵĪå°Ķç§ĳå¤«å·ŀ
å±±æĺ¯ ç§ĺé²ģçļĦå±±å³°
C M
å¹´ åĩºçĶŁ
ä¸Ń ç¬¬
ä¸Ń è¿Ľå£«
å¤§ éĽ¨
åıĬ åľ¨
å¹¶ è´Ń
èº« çļĦ
æĻ® åħ°
ar m
ä¸ĸçķĮ å¤§èµĽ
ç»ıæµİ éĥ¨
æĿ¨ æ°ı
å¸ķ çī¹éĩĮ
æ²ĥ å¾·
è¡¥ ä¹ł
æĭįæĳĦ äºĨ
æ¸Ķ æ¸¯
A çļĦ
Ġ( )
éĺµ é£İ
æĭĽ åķĨ
é¢Ħå¤ĩ éĺŁ
æ²»æīĢåľ¨ ä»Ĭ
çļĦ å£«
ä¸Ń æŀ¢
æ² ħ
åħ¶ å®ĥçļĦ
çĽ¸ å£°
å¥³ æİĴ
éĽĨ éķĩ
ä½¿çĶ¨ äºİ
ç¤¾ä¼ļ æ°ĳä¸»åħļ
è¯· è¾ŀ
ĠR ob
éº» éĨī
æģĭ æĥħ
èŀºæĹĭ æ¡¨
å¹´ æİ¥æĽ¿
ä¸į ä¸Ĭ
åıĳ ä½ľ
èĢĮ åħ¶ä»ĸ
æĶ¿ ä½ĵ
é©¬ ç¥ĸ
ç«Ļ åıĬ
åĸ ĥ
æłĳ ç«ĭ
åľĨ é¡¶
è¾ĵåħ¥ æ³ķ
çĪµå£« ä¹Ĳ
åĵĪéĩĮ åıĳ
ĊĊ ĠĊ
åħ¶ ä¸ĭ
æĸĩ åįİ
åĳĺ æŀĹ
åŁİ åħ³
ä»¥åıĬ ä¸ŃåĽ½å¤§éĻĨ
éĻĪ å®¶
çĽ®åīį åľ¨
å¼Ģåıĳ äºĨ
åĵĪå°Ķæ»¨ å¸Ĥ
é©¸ é©¬
O ne
i h
åŃĲ éĩĮ
ãĢĮ ãĢįãĢĤ
æ¯ı ç»Ħ
æľĢåĲİ ä»¥
åª ³
éħ¸ æĢ§
æįķ é±¼
ä¸į æ¸ħ
çĶŁ æĪĲçļĦ
ç¾ ¡
æĪĺ çģ«
ç¬¬ä¸Ģ åľº
åĳ¨ æĹ¥
ç»Ŀ æľĽ
}- ãĢĤ
çīµ æ¶ī
æĮĩå¯¼ ä¸ĭ
èĲ¨æĳ© äºļ
èĩª å®¶
å»º åįİ
ä¸¤ åįĥ
åı· æľºè½¦
éĺ¿ éģĵå¤«
çĽ´ éĢī
æģ¶ æĢ§
ç²ī èıĮ
ä»ĸä¹Ł ä»£è¡¨
å®īæĿ¡ åħĭ
å¤ĩå¿ĺ å½ķ
Ï ģ
çļĦ èĳĹåĲį
å¹´ æİ¨åĩºçļĦ
ä¼ļ å½±åĵį
åįĹ å®ī
äºĮ åŃĲ
æ¯Ķ çļĦ
æĽ¾ ä»£è¡¨
èįī å±ŀä¸ĭçļĦä¸Ģä¸ªç§į
æĸ¯çī¹ æĭīæĸ¯
ĠH all
çļĦåľ° éľĩ
ä¹Ķæ²»äºļ å·ŀ
ä¸Ĭä¸ĭè¡Į åĮºéĹ´
çļĦ ç¨ĭåº¦
åı¯ è¿½æº¯èĩ³
æĸ° æŃĮ
å¥³ éħįè§Ĵ
é£İ åĪĩ
å¡Ķ çº³
ä¸ºäºĨ çºªå¿µ
ir d
èĥİ åĦ¿
ç»ıçĲĨ äºº
åįµ å½¢
att le
åĲĪ åĬĽ
å¼º åĬ²
åĪ¤ å®ĺ
ä¼ļè®® çļĦ
è®¨ åİĮ
æĻ®ç½ĹæĹº æĸ¯
è¦ģ åĪ°
æŃ£ æķĻä¼ļ
çļĦæĸ° çĸĨ
æ´Ĺ æīĭ
æĺ¯ä¿Ħç½Ĺæĸ¯ çļĦä¸Ģä¸ªåĮº
çļĦ åĲĪä½ľ
æīĢ éĢłæĪĲçļĦ
éĩĳ æ£®
çĤ¹ çĲĥ
è¿ĳ ä¹İ
çĥŃ è¡·
åį¢ è¥¿äºļ
èīºæľ¯ ä¸Ńå¿ĥ
æī§è¡Į å§Ķåĳĺä¼ļ
æµ® æ¸¸
å±ı èĶ½
åĬ² æŃĮ
M I
å¹´ èĢģ
ä¸º ä¸Ńå¿ĥçļĦ
è¿ĩ å¢ĥ
è£ħ å¡«
éĽ· æĭī
ç»Ħç»ĩ äºĨ
èį·åħ° äºº
ri b
çļĦé¦ĸ å¸Ń
æľī å®³
åŃ¦ ç¤¾
ä¼ļ èĢĥ
ä¹ĭ äºī
è¿Ļ çĤ¹
å°ı éĩİ
é©¬ èĢ³
å·´ æł¼è¾¾
æµģ æ°´
æİĴ åĩº
çł´ è§£
et s
éĵŃ æĸĩ
èµŀåĬ© åķĨ
éªĨ é©¼
åĢĻè½¦ å®¤
çº¢æ¥¼ æ¢¦
èī¾åĵĪè¿Ī å¾·
å¤§ éĥ¨
å¸ĥ è¢ĭ
æĽ² æ£į
è½¬ èĩ³
ä¿® éĻ¢
åĬ© æķĻ
æ¢ħ éĩĮ
åħ±äº§ åĽ½éĻħ
è®®ä¼ļ éĢīä¸¾
è¾ĥä½İ çļĦ
é²¨ é±¼
T BS
å¹´ åĨįæ¬¡
ä¸º åĽ½
æĶ¿åºľ å¯¹
åľŁ åľ°çļĦ
æ¡£ çļĦ
åįľ åĭĴ
ect ion
åį°ç¬¬å®ī äºº
èµ«å°Ķè¾Ľ åŁº
E m
S ony
Ġ 40
ä¸į åºĶè¯¥
è¢« åıĸæ¶Ī
æ³ķ åĬ¡
èĩª åĬ©
è½¦ è½®
ç½Ĺ æĭī
æŃ£ äº¤
åĽŀ ä¹¡
ä»ĸä»¬ å°Ĩ
éĽ· å¾·
åĩł åįģ
çĶ·åŃĲ åįķæīĵ
å¹´ éĢĿä¸ĸ
åľ° æ®µ
ç¾İ åĪ©
å¤© åĨħ
ä½¿ èĬĤ
æĪĸ çĥŃå¸¦
å¤ª æ¹ĸ
äº¬ å¹¿
èĭı çıĬ
å¾Ī ä¹ħ
çĻ» åľºçļĦ
é»ĳ æµ·
åħ¸ ç±į
çªģ åıĳ
ĠA t
å¤§ä¼ļ åłĤ
ose ph
ä¸İ é»Ħ
æľ¬ ä½ĵ
åħļ æĶ¿
æ¯ı éĢ¢
ä¸»è¦ģ åĪĨå¸ĥåľ¨
æģ© æĸ¯çī¹
æ¸¡ æ²³
çŃīä¸º é£Ł
ĠCom m
éģĵ çĲĨ
åľº åĿĩ
æīĭ èĩĤ
ç¬¬ä¸Ģ æ¬¾
æīį åįİ
è¿½ éĢĲ
ç½ª æģ¶
ä¹ĥ æĺ¯
ç¼ĵ åĴĮ
éĽĩ çĶ¨
è¯¥ ç§į
æĦı æĦ¿
å¯Ĩ å°Ķ
éĤ® è½®
æĹ¥å¸¸ çĶŁæ´»
åıĺéĢŁ ç®±
P R
çļĦ æŃ£å¼ı
ä¸» çĤ®
åĽł äºİ
æķ° ç§į
éĢī åĿĢ
æľ¨ åĪ¶
é¡º å¤©åºľ
äºĨä¸Ģ ä½į
éªĳ é©¬
èµ¢å¾Ĺ åĨłåĨĽ
ç¬¬åįģä¸Ģ å±Ĭåħ¨åĽ½äººæ°ĳä»£è¡¨å¤§ä¼ļ
18 44
åħļ å§Ķåī¯ä¹¦è®°
éĽ· éľĨ
æĶ¿æ²» åŃ¦
åİŁä½ı æ°ĳæĹı
æ³Ħ éľ²
å½ĵäºĭ äºº
çİ°ä»»æķĻåĮºä¸»æķĻ ä¸º
Ġ 2011
ä¸į è®¡
ä¸į åĩĨ
åĩº èµ°
éĩį éķĩ
çĤ ľ
ç¾İåĽ½ åĴĮ
æĮģ èĤ¡
è°ĥ åĳ³
ç¬¬äºĮ éĥ¨
åī¯ ä½ľçĶ¨
å®¤ å¤ĸ
çĽ®åīį æľī
åĩ¤ ç¿Ķ
éľī ç´ł
ä¼ļ è®©
æľ¬ æ¸¸æĪı
ä¹Ł éĢĲæ¸Ĳ
åĲĦ åĽ½çļĦ
åľ°åĮº åĴĮ
çıŃ è½¦
åģľ çģ«
æĿ¾ æľ¬
çİĽ ä¸¹å¨ľ
è¶ħçº§ èĭ±éĽĦ
ob ile
æ¸Ķ èĪ¹
u an
ä¸Ģ ç±»
éĺ¿ æĸ¹ç´¢
è¾ĥ å¤ļçļĦ
è¿Ļä¸ª åĲįç§°
é³ İ
æľįåĬ¡ äºİ
éĻ¤äºĨ åľ¨
æķĮ äººçļĦ
çĮª èĤī
æīģ å¹³
å¤§åŃĹ äº¦æĶ¹åĪ¶ä¸º
æ¼³ å·ŀ
åľ¨ äºĨ
å¤ļ éĿ¢ä½ĵ
å¯¹ çħ§
å®ļ åĲĳ
åıĺ æĺŁ
å¯¼ æķ°
èĬĤ è½¦åİ¢
æĸ½ çĵ¦
ç²¾ å¯Ĩ
å»¶ å¹³
èĤĿ èĦı
éº¦å½ĵ åĬ³
çļĦ åħ¬
å¤§ æºª
æĸ° è®¾
æīĢ è¯´çļĦ
å°Ĩ æĺ¯
éĢł åıį
è¿ĳ éĥĬ
è¾ĸ å¸Ĥ
æ·± å¤Ħ
éĵ¶ å¹ķ
æŃ£å¼ı åĩºéģĵ
å¼± åĬ¿
çĢ ļ
å¦ĵ å¥³
åľ¨ åįİ
ä¸»è¦ģ è´Łè´£
éĿĴ è®Ń
çĻ¾ å®¶
è¥¿çıŃçīĻ äºº
èļ ľ
åŁĶ éĩĮ
åħ¬ä¿¡ æ¦ľ
åŃ¦ åºľ
é¾Ļ èĥĨ
ç¬¬äºĮ éĺ¶æ®µ
åĿĩ æľª
é¢Ĩå¯¼ èĢħ
çļĨ ä»¥
IU CN
é¢ĦéĢī èµĽ
d er
çļĦ ç»ıéªĮ
åľ¨ å¤©æ´¥
åľ¨ æķ°åŃ¦
ç¾İ æµĵ
åı· å·ŀéĻħåħ¬è·¯
æĮģ èĬĤ
æĮģ æľīçļĦ
åİĨ å±Ĭ
åĵĪ æĸ¯
çİĽ åĪ©
å¾·åħĭ èĲ¨æĸ¯
é»Ħå¤§ ä»Ļ
F ire
çļĦ R
ä¸į æŃ»
æĸ¯ åłª
ãĢĭ ï¼Īï¼Į
æķĻ è®Ń
éĥ½ æĽ¾
åĪĿ æĹ¶
ç¬¬äºĮ å¼ł
ç¦ģ åĮº
æįķ é£Ł
ç§¦ çİĭ
ä¸ĵä¸ļ æ¯ķä¸ļ
éĤ®æĶ¿ç¼ĸçłģ ä¸º
åĲİ æŀľ
éķ¿ åŃĻ
ä¹Ł å¸¸
çĶµ åľº
å·´ è¿ª
æĶ¹ å±ŀ
åıĹ è´¿
ä¼ł åĪ°
äºĶ ç§į
çĪ± ä¸Ĭ
å¯Ł åĵĪå°Ķ
å°¤ éĩĮ
ç¾İæľ¯ åŃ¦éĻ¢
èĦĤé²¤ ç§ĳçļĦåħ¶ä¸Ńä¸Ģä¸ªç§į
çļĦ è§Ĵåº¦
å¹´ åĮĹäº¬
å¾Ģ åįĹ
è°ĥ è§£
éĹ®é¢ĺ ä¸Ĭ
ãģ ł
ãĤ ¿
æłª æ´²
çī¹åĮº æĶ¿åºľ
å¹´äºļæ´² è¿ĲåĬ¨ä¼ļ
çŃīåĲĮ äºİ
èĴĻå¤§ æĭ¿
çļĦ åĨĽ
çĶµ å®¹
æĻ¯ èī²
æłĳ çļĦ
è¥¿çıŃçīĻ è£Ķ
ç»ıå¸¸ åľ¨
ä»£è¨Ģ äºº
çī¹æľĹ æĻ®
çļĦ ç¡®
åħ¨ èģĮ
ç¢ ī
èĹı åĵģ
ä½İåİĭ åĮº
åľ¨ æĹ¥
ä»¥ éĺ²æŃ¢
ãĢĭ ï¼īãĢĤ
è· ¤
åīį æĢ»ç»Ł
ä¸ī åŃĲ
äºĮ åħĥ
ç½Ĺ æ°ı
éŁ³ ç¬¦
åħī éĢŁ
ç§» åĪ°
æ°¸ å¹³
æ°¸ å®ļ
ĠL in
ä¹¦æ³ķ å®¶
æµ· ä¸Ń
çŃī é¢ĨåŁŁ
èģĶ è°Ĭ
å°¼ åĬłæĭī
çĦ ĺ
äº§ åįµ
å¹¿ åŁŁ
åĪĺ å®¶
ç®Ĺ æľ¯
åŃŁ ä¹°
é¥® çĶ¨
è¶ĭ äºİ
æĥ¨ è´¥
åĭ¾ ç»ĵ
c es
19 1
ä¸į è®©
ä¹ĭ æĹ¥
å¹¶ åı¯
åĮĹ æĬķ
æİ¥ èİ·
ä½įäºİ èĳĽæĭīæ±ī
åĽ½éĻħ è´¸æĺĵ
ç´¢ å§Ĩ
æ¢ħ å·ŀ
è¯Ĺ è¯į
ĠH ouse
æģĲ åĲĵ
éģį åıĬ
åĲ¹ è¢Ń
F i
æĭ Į
çĶ± åİŁ
è¢« éĢ®æįķ
éĩı åĮĸ
ä¸ĩ äº©
ç¬¬ä¸Ģ ä¸ŃåŃ¦
æĿİ åħī
ä¿Ħ åĭĴåĨĪ
åĤ £
çĭ¬ç«ĭ è¿ĲåĬ¨
å¨ģå»ī æĸ¯
ĠIn ter
ä¸¢ å¤±
æľī çĽ¸å½ĵ
å°± æ²¡æľī
å®ŀ ä¾ĭ
åĪĻ åı¯ä»¥
æĿİ åĽ½
30 8
çĵ¦ çº³
å£° åĲį
åĪĺ æĺĵ
æ¬¾ é¡¹
ä¸° åİŁ
åĪĨå¸ĥäºİ ä¸ŃåĽ½
å·ħ å³°
èİ ĺ
åİ¿ åİħ
æ´Ľ æ¡ĳ
åĽ½éĻħ åħ³ç³»
å±Ĥ çº§
æĿĢ éĿĴ
ĠP e
ä»ª åĲĮ
èĳ¡èĲĦ ç³ĸ
U P
å¹´ æĺ¯
å¹¶ åıĸå¾Ĺ
åįĹ æ¸¯
åĬ¨ èĥ½
æµ· æ·Ģ
å°¼ åį¡
æł¡ èĳ£
åıĪ äºİ
æŃ» åīį
å®¢ åº§
æĸŃ äº¤
ä¸ĢèĪ¬ åľ¨
åŃ¤ çĭ¬
ç¼ĸè¯ĳ åĻ¨
é«ĺ éĺ¶
å¾· å®Ĺ
éĥ½ ä¸º
åİĨ å®ĺ
æ¯Ľ èĮ
æĤ£ ä¸Ĭ
å¤ªå¹³æ´ĭ å²Ľ
æ·® æ²³
å¾Īå¤§ ç¨ĭåº¦ä¸Ĭ
k s
æĹ¥ éĢļè¿ĩ
çī¹ æķĪ
æĪĲä¸º è¯¥
èĭı å·ŀå¸Ĥ
ç²¾ ç»Ĩ
åĩı éĢŁ
ir a
çĳľ ä¼½
å¤§çĲĨ çŁ³
å¾®åĪĨ æĸ¹ç¨ĭ
çļĦ éĢīæĭ©
åľ¨ ç½Ĺé©¬
åŃĲ ä¸Ĭ
æķ° åįģå¹´
è§£ èĦ±
æ²Ļ éĹ¨
çĶµè§Ĩ åħ¬åı¸
è·ĳ é©¬
ip p
ä½įäºİè¯¥çľģ ä¸Ńéĥ¨
ç¾İåĽ½ åĽ½ä¼ļ
ä¼¤ åı£
åĿļ å°¼
çļĦä¸» æĿĥ
äºļçĥŃå¸¦ æĪĸçĥŃå¸¦
ä¸Ģ æľĪ
åľ¨ æĭī
å¤§ æĿĥ
å¤§ çº²
æľĢ çŁŃ
åİ¿ æĺ¯
æ°´ çĶŁ
åı· è·¯åı£
èī² ç´ł
æ´¾ åĪ°
åħ« çĻ¾
å¸Į å§Ĩ
å½Ĵ æĿ¥
æī¾ ä¸įåĪ°
æĶ¿æĿĥ çļĦ
åİŁåŃĲ å¼¹
è¯± å¯¼
çļĦ å¸®åĬ©ä¸ĭ
åĴĮ åĮĹ
æŃ¤ çīĩ
èĩ³ æĹ¥æ²»
çİĭ å®ī
æ¯ı å½ĵ
ä¸ĥ å¤§
å®Ŀ å±±
åĨħå®¹ åĮħæĭ¬
ç¬¬åįģ äºĶ
æŀĦæĪĲ äºĨ
ĠAssoci ation
çĲ ®
æł¼ æ´Ľ
å¦Ĥ åľ¨
åħµ åıĺ
éĵģè·¯ è¿Ĳè¾ĵ
çļĦäºº çĶŁ
ç§ĺä¹¦ å¤Ħ
éº¾ ä¸ĭ
T H
è¾ į
åĨĽ åĨĽéķ¿
æĿ¥ ä¸´
èĩª å°½
é«ĺ ä½İ
ä¹¦ å±Ģ
æ°Ķ çĲĥ
æĬĢ èīº
éĢĲ åĩº
è¿Ļé¦ĸ æŃĮæĽ²
åĲīç¥¥ çī©
Ã ł
ä¸Ģ åį·
èĢ į
èĥ ±
è¥¿ ä¹Ŀé¾Ļ
å·¥ åľº
éĹ¨ å¸Ĥ
ï¼Īï¼ī ï¼Ī
ä¿® å»ºäºİ
å®¤ çĶº
æ¸¸æĪı ä¸ŃçļĦ
èİ« å¤«
çĭ¬ç«ĭ åĲİ
æĺ¯æĮĩ åľ¨
ĠU p
éĺ¿æĭīä¼¯ äºº
æĻ®éģį çļĦ
ç»Ħå»º äºĨ
å¿§ éĥģ
åľ¨ çĶ·åıĮ
åĲį åı¸éĵİ
æľº çĶµ
é£ Ļ
åľº æ¯ĶèµĽä¸Ń
å·´ æīĺ
åħ´ åĽ½
èĩªçĶ± è´¸æĺĵ
åį³ä½¿ æĺ¯
æ»¤æ³¢ åĻ¨
çļĦ é¢ĨåľŁ
å¹´ éĢĢä¼ĳ
ä¸º éģ¿åħį
æľĪ é£Ł
åıĳ çĹħ
ä¹Ł åĲĮæĹ¶
å°ı åŀĭçļĦ
å¤© å®īéĹ¨
æ°´ çĶµ
çº³ å¤ļ
çĽ¸å¯¹ åºĶ
æĤ¬ å´ĸ
V al
åŃĲ å®«
æĺİ åı²
18 15
åı¤ è£ħ
å¤į è¾Ł
äºĨä¸Ģ æĿ¡
é¢Ŀ å®ļ
æĶ¶åħ¥ ä¸º
å¿ĥçĲĨ åŃ¦å®¶
æĺİç¡® çļĦ
ç¥Ī æ±Ĥ
IG N
å¹´ ç»Ī
ä¹ĭ éĹ¨
åı° åľ°
ä½Ĩ ä¸İ
è§£ çłģ
æ¬§ åĨł
çª ľ
èĹı äºİ
æĬĹ åİŁ
100 00
ç½ĳè·¯ ä¸Ĭ
èĥ° å²Ľ
åĲĮ å±ħ
ä¸ľ å¸Ŀæ±¶
æį £
åı¯ä»¥ è¯´
å»ºç«ĭ åĲİ
Ġ3 60
åĻ¶ çİĽ
Ġ Î
æľī åĬĽ
ä¸ŃåĽ½ å·¥åĨľçº¢åĨĽ
çĽ¸ è¯Ĩ
äº¤ æİ¥
æ³¢ éĩĮ
æĿİ å¾·
ä»Ĭ å·Ŀ
30 7
æ²Ļ æ²³
é½Ĳ é½Ĳ
éĻª ä¼´
ä¸º æ¯ı
ä¸ª è½¦ç«Ļ
ç§ĳ ä¸ĭçļĦä¸Ģä¸ªå±ŀ
æ°´ è§£
ç»Ł æĪĺ
18 20
çº³ åħĭ
åį³ åľ¨
èĥ¸ éĥ¨
æĬ± æĢ¨
ç»ĵè¯Ĩ äºĨ
æľĪ å®ĮæĪĲ
ä¸ī åħĥ
å¤ĸ å£³
åı· äºİ
ä¹ĭéĹ´ æľī
æĳĦ åıĸ
èĭ¹æŀľ åħ¬åı¸
åİŁåħĪ çļĦ
çļĦ ä»ĸ
çī¹ çĤ¹æĺ¯
ä¸ĵ å¿ĥ
åħµ èĲ¥
å±ħ æīĢ
æ¾ Ī
å·²ç»ı æĺ¯
èģļ çĦ¦
éª¨ çģ°
æĺŁæľŁ äºĶ
å¼¥ æĴĴ
äº¿ç¾İåħĥ çļĦ
å¼Ģè®¾ äºĨ
åħ¶ ä¸İ
åħ± è¾ĸ
éĩĳ çļĦ
åĸ ĺ
ä¸ĥ æĺŁ
âĢĿãĢĤ ãĢĬ
é¹ Ĭ
ç³»åĪĹ ä¸Ń
å®ĥä»¬ æĺ¯
äººä»¬ çļĦ
æĻ®éģį è®¤ä¸º
è´§çī© åıĳåĪ°
i Tunes
åĮ Ĩ
ä¸Ń éĥİ
è¥¿ æĸ¯ç§ĳ
çī¹ æ´Ľä¼Ĭ
ä¸ī è·¯
æĮĩ å®ļä¸º
é¸¡ èĽĭ
è¥¿å®ī å¸Ĥ
çļĦ è¯Ħè®º
è¡Į éķ¿
èĩ³ å¤§
é©¬ åħŃçĶ²
å®Ĺ æ´¾
ä»£è¡¨ äººçī©
é²ģ éģĵå¤«
å°ģ åı·
çİĽ èİī
å¸ĿåĽ½ å¤§åŃ¦
å¨ģå»ī å§Ĩæĸ¯
åľ°çĲĨ ä½įç½®
ç¥ł åłĤ
å¯¹ç§° æĢ§
åĪĹæĸ¯ èģĶ
. ,
A I
F R
æľī ä¸º
ä¸į éľĢ
è¿Ľ åĩºåı£
ç¥ŀ çģµ
æĪĳ åĽ½
åįļ æł¼
æİĮ æĿĥ
åĪĿæľŁ çļĦ
çļĦä¸Ģåº§ æ°´åºĵ
æĺ¯ ä¸ŃåĽ½å¤§éĻĨ
ä¹ĭ æŃ»
é«ĺ å°Ķ
å°Ĩ èĩªå·±
çľģ çķ¥
æĺİ å¤ªç¥ĸ
åħ¶ä½Ļ çļĦ
éĢ¼ è¿«
å¹¼åĦ¿ åĽŃ
æ¸¸ä¹Ĳ åľº
çļĦåľ°éĿ¢ è½¦ç«Ļ
çļĦ å½¢æĪĲ
ç±» æ¯Ķ
æĽ´ è¿Ľä¸ĢæŃ¥
æ³ķåĽ½ äºº
ç²¾ å¿ĥ
23 9
æĸ°ä¸Ģ ä»£
d en
ä¸ĭ èĲ½
èº« ä½ĵçļĦ
è·ĳ è½¦
æ®ĸæ°ĳ èĢħ
æĭĸ å»¶
çĪ¬è¡Į åĬ¨çī©
å¤§ æĢ»ç»Ł
åĴĮ å¾·åĽ½
æ´ ®
ä¸ĭ èĲ¨åħĭæ£®
çĶ± éĻĪ
å¹¶ è®©
èĤ ´
åįı å¥ıæĽ²
çĹĩ åĢĻ
é¥® éħĴ
æĺ¥ç§ĭ æĹ¶æľŁ
aur us
åºĵå®¹ ä¸º
åľ° è¢«
ä¸Ĭ è½¦äººæ¬¡
å¹¶ ç»§ç»Ń
æ³ķ ç½Ĺ
åĵ ĳ
è®¡ æķ°
åħ¶ä¸Ń ä¸Ģä½į
åī¯ å°Ĩ
èĹı åľ¨
è½® æ¸¡
ä¼ļè®® ä¸Ń
éĢīä¸¾ åĮº
åįłæį® äºĨ
Ġ æľĪ
çļĦ éķ¿åº¦
åħī æºĲ
æīĵ åİĭ
éĻį ä¸´
æµĻæ±Ł ä¹¡è¯ķ
æĸĳ çº¹
æ£®æŀĹ åħ¬åĽŃ
å¿ĹæĦ¿ èĢħ
Sc ript
å°¼åĬłæĭī çĵľ
æĹ¶ å·²
ä¸į æĸĻ
åĵ Ĺ
å¤´ ä¸Ĭ
æĬķ å°Ħ
æ·± å±Ĥ
åŁĥ å°Ķæĸ¯
ãĤ Ħ
éĥĳ æ°ı
è¡Įä¸º çļĦ
ç¥Ń æĭľ
æĭĨ æ¯ģ
ä¼łè¯´ ä¸Ń
åı²èĴĤ å¤«
æŃĮä»Ķ æĪı
3 25
èĩ³ å°Ĭ
åį¡ æ¢ħ
åĽŀ éģ¿
åĲĮæĹ¶ äº¦
è¯Ĺ ä½ľ
å¢ĵ ç¾¤
US B
Com p
ç¤¼æĭľ åłĤ
åħĳ æį¢
èµ«æ¢ħåĪ©å°¼èĮ¨åŁº å·ŀ
åľ ĥ
ä¸Ģ æīĭ
å¤§ åĿĿ
åĨį è§ģ
éĿ¢ç§¯ è¾¾
é»ĳ èī²çļĦ
å© ¢
çĶĺ èĶĹ
èĨ º
å®£ä¼ł éĥ¨
åĮħè£¹ æīĺè¿Ĳ
åľ¨ åħ¨
å¹¶ ä½¿
åı¯ æĢķ
æĦ §
å±ħ å¤ļ
æĥ³ èµ·
le v
è½® æľº
å¹ħ åº¦
è¿ĲèĲ¥ åķĨ
eg a
" .
ä¸º è±Ĩç§ĳ
åĩº æµ·
å±Ģ éĻĲ
æĥħ ä¾£
çĻ¾ å¤§
åĿļ å®ļ
çºµ çģ«
çºµ æ¨ª
ä¸ºè¾Ĳé³įé±¼çº²é² ī
çļĦ èµ·æºĲ
æĹ¥ çĶŁäºİ
åĲİ ç»ı
ä¸ĭ éĿ¢çļĦ
é«ĺ ç©º
æīĢ ä½¿çĶ¨
éĩį éĩĳå±ŀ
è¾ĥ å·®
ä¾Ŀ æŀĹ
è½® æ¤ħ
æļ´ é¾Ļ
ä¹Łæľī äºº
çīĪæľ¬ ä¸Ń
im a
æµ·åįĹ å²Ľ
18 45
æĽ´ äºİ
åıĸ åĩº
èĢģ è¡Ĺ
è´Ŀ èĴĤ
æĸĹ å£«
il m
åºŁ é»ľ
ĠW ar
åıĳåĬ¨ äºĨ
èº«ä»½ è¯ģ
å¤§ çĶ°
ä¸ī åº¦
èĢħ æľī
åħ« éĩĮ
çĪ± ä¹Ĳ
åİĤ çļĦ
æ¿ Ĥ
art in
åĪ ģ
åľ¨ è¶ĬåįĹ
ä¸ī åĪĨä¹ĭäºĮ
åı£ éķĩ
è¯¥ åŁİ
å¹³æĸ¹ ç±³çļĦ
èµ° åĩº
ion al
èĩªçĦ¶ çļĦ
åĮ¹ åħ¹åł¡
æĺŃ å®Ĺ
åħ¨åĽ½äººå¤§ å¸¸å§Ķä¼ļ
ä¸ºè¾Ĳé³įé±¼çº²é²ī å½¢çĽ®
è¿Ļ æĦıåĳ³çĿĢ
çĶµ çİ©
æŃ£ éĿ¢çļĦ
la sh
åŃĺ çļĦ
åĨĻ åŃĹ
ç¥¨ çļĦ
èĥ¡ éĢĤ
çļĨ æĺ¯
èİī èİī
æĤ£ èĢħçļĦ
çļĩå¸Ŀ çļĦ
çĩĥ æ°Ķ
åĽ½åŃĲ çĽĳ
S ir
ä¸Ģ äºĮ
æĹ¶ åįĬ
çŃī å¤ļ
æ°´ å¡ĺ
åıĹ å½±åĵį
åħī çĶµ
çª ¥
çĥŃ éĩı
å¤ĸæĺŁ äºº
æ¢ģåĲ¯ è¶ħ
ä¸º èıĬç§ĳ
åĮĹ è¾¹
æŃ¤ éķĩåĮº
å¤© å±±
æ°´ æĺŁ
in c
å¹³æĸ¹ åħ¬å°º
è¿Ľè¡Į è¿ĩ
å¡Ķ å°¼äºļ
å¥ĩ çļĦ
æĲ ħ
çĽĳ æĬ¤
id th
æĭīæĸ¯ ç»´
ä¸ĵéĹ¨ åŃ¦æł¡
ä¸ľæµ· éģĵ
èľ¥ èĦļ
ï¹ Ĳ
Ġ ä»¥åıĬ
ä¸Ģ æĿ¥
æĺ¯ ä¸Ńåħ±
ä¼ļ åĲĮ
åľ° ä¸º
åĽł æŀľ
å±± éĹ¨
å¥³ å©¿
å¤ª å¸Ī
è°ĥ æİ§
åĪĩ éĻ¤
ed er
ä¾µ åįł
ĠK ong
åĸ· æ°Ķ
æ°´åºĵ æŃ£å¸¸
4 40
çļĦ é£Ł
è¿ ¥
åĴĮ åı°æ¹¾
èĩ³ æŃ£
å¥³ å·«
åıĸ åĲĳ
æŃ¦ çİĭ
ç¦ı å²Ľ
ä¼¯ å¾·
å®¤ çļĦ
æīĢæľī æĿĥ
å®½ é¢ĳ
èĤ¯ çī¹
æĺ¯ åĵ¥ä¼¦æ¯Ķäºļ
åħ¬ åºĻ
åħ¬ åĲ¨
ä¸Ĭ è®®éĻ¢
è½¦ å¤´
å¸ĥ éļĨ
åħĥ æĹ¦
æ²³ ä¸İ
ä¼Ĭ æģ©
è¶Ĭ éĩİ
æ½ į
æ´»åĬ¨ å®¶
å°ıè¯´ ä¸Ń
è¡ĮåĬ¨ ä¸Ń
4 10
åľ¨ åħ¶ä¸Ń
ç±³ åĪ©
ä¸ĩ å²ģ
çĥŃ å¿ĥ
èİ± æĽ¼
åĿĩ æĺ¯
è½½ åħ·
ãĤ ¨
æ¯« ä¸į
åĨ» ç»ĵ
èĹī èĳĹ
åĮºæīĢå±ŀçļĦä¸Ģä¸ª åĨľæĿĳå±ħæ°ĳçĤ¹
Env iro
Ġ 2013
æľĪ æĪĲç«ĭ
å¤ļ åħĭ
å±± å½¢
ä¸ĸ åįļ
åĪĹ å¼º
å¹´ä»£ æľ«æľŁ
èĪ¹ èĪ°
ï¼į ï¼īï¼Į
æī§è¡Į èĳ£äºĭ
æ²Ī éĺ³å¸Ĥ
å£¬ è¾°
Ġ un
çļĦ ç¼ĺæķħ
ä¼ļ çĶ±
ä¸į åĸľæ¬¢
åīį éĢĶ
18 43
éĽĨ éĽ¨
å®£ å¸Ŀ
çĭ¬ç«ĭ äºİ
èµŀ èªī
åħĭèİ± å°Ķ
ï¹ ĳ
J ack
ä¸º çĽ®çļĦ
åħ¬ æĬ¥
åı° åĲİ
å¹³ éĺ³
è£ ³
å¹¿ æ·±
æĪĲä¸º ä¸ĢåĲį
äºĮåįģ ä¸ĥå¹´
èĵĿ åħī
å¯¼æ¼Ķ çļĦ
æ°´åºĵ æĺ¯ä¸ŃåĽ½
è¯Ī éªĹ
è·Ĩ æĭ³éģĵ
A æ¢¦
çļĦ æĶ¿åºľ
18 12
åĪ« ç§°
ar ch
åĪĽ æł¡
äººæ°ĳ å¹¿æĴŃçĶµåı°
é»Ħ æµ¦
æīį åı¯
å¤ı æ´Ľçī¹
å¤ı æľĹå¾·
èī¾ èİī
æĢ¥ æķĳ
å¯¹ åĲĳ
å¯¹ å¥¹
åĬł éĢŁåº¦
äºĮ æŀģ
åĪ¶ ç³ĸ
è¯ķ æĴŃ
åıĳå±ķ åķĨ
èĢģ å¤§
æ³ī æ°´
ç±»åŀĭä¸º åı¤å»ºçŃĳ
ãĢĤ ãĢįãĢĤ
æĹ¶ ç§°
åľ° æĿ¿
æµ· æ£ł
åı£ è¯Ń
åħ¶ä»ĸ ç§įæĹı
ãĤ Ĥ
æĸ¯çī¹ éĩĮ
æ´ª éĥ½æĭīæĸ¯
æ²ī æ·Ģ
çŀ ³
ï¼ļ" "ï¼ī
æĸĲ è¿ªåįĹ
æ¸©å¸¦ æ°ĶæĹĭ
åı¯éĿł æĢ§
ì Ŀ
ï¼Ī ãĢĮ
èĢĮ å½ĵæĹ¶
æıĲ åĲįçļĦ
la ce
ä¸° åİ¿
èĵĿ çĶ°
å¿ł äºİ
iv al
åħ¬åħ± è¿Ĳè¾ĵ
çĬ¹å¤ª äººçļĦ
åı¤åħ¸ ä¸»ä¹ī
ĠAr t
V er
çļĦ åĮĸåŃ¦
ä¸Ģ åĨį
ä¸İ ä¸Ń
çŃī å¼ı
ä¸ŃåĽ½ ä¸Ńå¤®çĶµè§Ĩåı°
å®ī åĮº
èĭ± ç§ŁçķĮ
çłĶç©¶ åĴĮ
åĵĪ ç»´
æ½ ŀ
æľ¨ æĿĳ
è¶³çĲĥ åľº
èĪ¹ åĿŀ
æŁı æĭīåĽ¾
v ent
Î ½
çļĦ åįĬ
è§ Ĳ
ä¸Ĭ ç½ĳ
ç¤¾ åĮºçļĦ
ä¼Ĭ å¤«
å¥ĸ æĿ¯
åĿĩ å·²
è¡¥ è´´
å½¢å®¹ è¯į
æµ·åºķ éļ§éģĵ
åįİçº³ åħĦå¼Ł
çļ®åį¡ ç¬¬å¤§åĮº
M ax
çļĦ æ¼Ķåĳĺ
åľ¨ äºļæ´²
æĹ¶ éĴĪ
å»º ç½®
åĽŀ åĵį
çŁ³ å·Ŀ
çº³ æ£®
è½¦ç«Ļ è·Ŀç¦»
è½¯ ç¦ģ
èĮĥåĽ´ çļĦ
æ±ĩ éĽĨ
åŁ¼çİī åİ¿
C G
åľ¨ ä»ĸä»¬
æľ¬ èĬĤçĽ®
ä½ĵ èī²
é©¬ åĭĴ
æİ¥ ç»Ń
å·¥ä½ľ å§Ķåĳĺä¼ļ
ç¤¾ä¼ļ ç¦ıåĪ©
ĠD es
å»ºåĪ¶ æ´¾
èĬŃèķ¾ èĪŀ
s g
å¤§ å±±
åħ¬ åŃ¦
è½ Ń
åıĬ çĽ¸åħ³
æľ¬ å±ŀ
éķ¿ æ´²
æĸĩ å®Ĺ
è·¯ è¾¹
å£« æīĵ
å·² ä¹ħ
23 2
æ¯ĶèµĽ äºİ
åľĨ éĶ¥
è·Ł ä»İ
ç¬¬åĽĽ ä»£
Ġcom p
å¦¨ ç¢į
æīĢ èĳĹçļĦ
åħ¥ æľĿ
åĪ¶ å®ª
è¿ĺ è¢«
åıª ä¸įè¿ĩ
è§Ĵ å·Ŀ
æ¡Ī ä¸Ń
ou d
æķħäºĭ ä¸Ń
åĪĨå¸ĥäºİ æĹ¥æľ¬
èµŀ ç¾İ
çŃ¹ åĬŀ
ĠSc i
å¼ĹåĲī å°¼äºļå·ŀ
r pm
çļĦ é£ŀæľº
è¥¿ æĿĳ
åı£ èħĶ
å¸ĥ å®ľ
æ¯Ķ ä¸ĺ
ç«Ļ æĺ¯ä¸Ģä¸ª
çĽ´ ç³»
ä¸ĩ å¤ļ
æ±Ł åĮĹ
ç¿ İ
æ°¸ åĺī
åħ¶åĲİ äºİ
è¢ģ ç»į
å¿½ å¿ħ
å¤§ çł´
åıĬ æĸ°
é«ĺ æ£ī
æ¬¡ è¦ģ
æ°´ ç¨»
å½± éĻ¢
æĪĲä¸º ç¾İåĽ½
åħĪ æĺ¯
åĽłæŃ¤ ä»ĸ
ä¸Ńåįİ åħ¨åĽ½
çļĦäºĭ çī©
éŁµ æ¯į
æ¯ıå¹´å¹³åĿĩ éĻįéĽ¨éĩı
ä¹ Ĥ
ä¸º åĽ½å®¶
äºº ä¹ĭä¸Ģ
ä¸İ äºº
å¸ĥ æĭīæĸ¯
ä¿Ŀ åħ»
ç©º ç¼º
çĻ½ å±±
æ¹ĸ äºº
åŁĥ æĸ¯çī¹
el y
è¿½ ç©¶
èĢĮä¸Ķ åľ¨
å®ŀéĻħ çļĦ
çļĩå®¶ é©¬å¾·éĩĮ
ug h
æ¬ł ç¼º
å¤Ħå¥³ ä½ľ
åı¯ å°Ĩ
ä»İ ä¸Ģä¸ª
å¨ ±
å¥¥ æĭī
ä¸ĵ ä¸º
æĹ© å°±
å±ŀäºİ èĴĻ
èĢĥ å®ĺ
ä»Ģ åı¶
èīºæľ¯ åįļçī©é¦Ĩ
77 7
æī¶ æ¢¯
æĸ¥ èµĦ
åī¥ åīĬ
ð«ļ¥ èĻİ
S u
å¤§åŃ¦ æ¯ķä¸ļåĲİ
éĻį çıŃ
ä¸ĢèĪ¬ ä¸º
ä¸īå¹´ åĲİ
æŃ¦è£ħ åĬĽéĩı
i y
å¤§ çīĩ
å¤§ ä¸»æķĻ
æ¸ İ
æĿ¥ åĨ³å®ļ
ï¼ļ ï¼Ī
åĬŁ æķĪ
æİĴ æ°´éĩı
çł´ ç¢İ
æĸĩçī© éģĹåĿĢ
åľ°çĲĥ çī©çĲĨ
çĸ¾çĹħ çļĦ
åģ· è¢Ń
çıįçıł æ¸¯
Ġy ou
åķ¦ Aæ¢¦
æ°´åºĵæŃ£å¸¸ åºĵå®¹ä¸º
è¿Ļ ä¸īä¸ª
å¸¸ ä»»
åı¯ä»¥ éĢīæĭ©
ä¹¡ åİ¿
ãģ §
å¾½ å®Ĺ
çĥŁ èĬ±
ak er
ä¿®å»º äºĨ
C an
ä¸º åįĹ
ä¹ĭ æīĢ
å¹¶ åĬłåħ¥
ä½Ĩ ä¹ĭåĲİ
çļĦä¸Ģä¸ª éĩįè¦ģ
åĪĽ è®¾
ä¸ĸçķĮ å¤§åŃ¦
ä¸ĸçķĮ åį«çĶŁ
ãĢĭï¼Ī ï¼īãĢĤ
ä½Ĳ æķ¦
åĽ½åĬ¡éĻ¢ æĢ»çĲĨ
ä¸īåĽ½ å¿Ĺ
èļĮ åŁł
åı± åĴ¤
æ³ķ çİĭ
çī¹ è´¨
æīĢ å¸¦æĿ¥çļĦ
éĵģ è¾¾å°¼
è¯Ĺ æĸĩ
æ½® éĹ´
çļĦ å¦¹å¦¹
èµĽ åīį
éĩĳ å±ŀçļĦ
çĭ ł
æĿĳ äºº
æĿİ å®¶
è¿ª çĵ¦
ç»ıæµİ æĬĢæľ¯
æł¸ åŃĲ
çĽĽ ä¸ĸ
åĲ¸ åħ¥
è¯¯ ä»¥ä¸º
çļĦä¸» ä½ĵ
ç´« å¤ĸçº¿
å¼Ģå·¥ å»ºè®¾
å¹´ å¾·åĽ½
ä¸º å¥¹
æľº åĴĮ
éĺ¿ ä¼¦
åĲĦ éĥ¨
æĪĳ è¦ģ
çķĻ æĦı
çĹħ åİŁ
æ°¸ å®ģ
ä¸´ æ²Ĥ
åģı ç¦»
ä¹Ļ æľª
çļĦ æĸĩä»¶
æĪĲ åĵģ
éģ ģ
åħ¨ èµĦ
å¤į èĭı
èİ·å¾Ĺ èĢħ
åıĳçİ° èĩªå·±
è¡ĮæĶ¿ æĢ»è£ģ
å»¶ è¯¯
æ§ ĥ
ä¿ĥè¿Ľ äºĨ
è¥ Ł
åĬ¨ çĶ¨
å°¼ æīĺ
åįİ å·ŀ
çŁ³ åĿĹ
è§£ æķĳ
é²ģ åĽ½
åģľ çĶ¨
ç»ĵæŀľ æĺ¯
çºªå¿µ æĹ¥
ç¡®ç«ĭ äºĨ
M k
çļĦ å»ºè®¾
çĶ± ä¸ľ
éĥ½ è®¤ä¸º
åľŁ åį«
éĻĪ æľĿ
åĳ¼ åºĶ
æ¨¡å¼ı ç§į
åį³ä½¿ åľ¨
å¿½å¿ħ çĥĪ
èĢ ¸
æµ· æ¸¯
åĳĺ çļĦ
éĿ¢ éĺĶ
èµ· ä¼ı
é£İ æ½®
å¡ŀ ç»´
ĠC ont
ĠP er
é£ŀè¡Į åĻ¨
æįĲ åĬ©
å¤§å¤ļ æĺ¯
ä½įäºİè¯¥åĽ½è¥¿éĥ¨ èµ«æ¢ħåĪ©å°¼èĮ¨åŁºå·ŀ
ric k
çıĢ æĸ¯
ä»¥ éĺ²
è¥¿ åİ¿
è¥¿ æ¹¾
å§ ª
èĢĮ ä»İ
å·ŀ æĶ¿åºľ
èº º
å¯Ĩ éĴ¥
çĵ¦ åĪ©
æĿ¨ å®¶
çĶļèĩ³ æľī
è®¢ ç«ĭ
å¹´è½» æĹ¶
å¸ĤæĶ¿ å±Ģ
å¯ĦçĶŁ åľ¨
åħ¶åĲįç§° åıĸèĩª
W in
åĴĮ ä¸ľ
å¹¶ ä»»
18 42
éĹ¨ å¾Ĵ
å°ĳ è§ģ
çļĦä¸Ģ éĿ¢
èĢģ åŁİ
ä¾¿ ä»¥
ĠI II
å¥ı è¯·
å¤§éĺª å¸Ĥ
å¼ĹæľĹ è¥¿æĸ¯
åĭĥèī® ç¬¬
æĹ¥ é¦ĸæĴŃ
èĩª æĿ¥
åħĭ é²ģæĸ¯
éĥ½ å·²
é¦ĸ å®¶
å£° ä¹Ĳ
èŃ¦ ç½²
æĭ¥æľī ä¸Ģä¸ª
æľĢåĪĿ æĺ¯
ä¸Ńæĸĩ ç³»
Ġm e
æķħå®« åįļçī©éĻ¢
Ã ´
çļĦ åı¯èĥ½
çİ° æķĪåĬĽäºİ
æĻ ¦
ç½Ĺ èĲ¨
æ²» æĦĪ
ç´¢ å¤«
ĠM edia
éĢģ åħ¥
åķĨä¸ļ åĮº
ä¸įä¼ļ æľī
ç½ĳç«Ļ çļĦ
ç¬¬åħŃ å±Ĭ
ç²Ĺ ä½ĵ
éĩį åĲ¯
æĹł æĿ¡ä»¶
çĽ´ èĲ½
è±¡ çīĻ
24 5
å¯Į å°Ķ
è¯¯ ä¼ļ
éļĲ ç§ģ
å¤«åį¡ åĮº
æ¤İ åĲį
Ï Ħ
åĴĮ T
åĴĮ ä¸į
ç«ĭ æ¡Ī
èº« ä¸ĬçļĦ
æ³¢ æĹģ
å¤´ çĹĽ
ä¸¹ å°¼æĸ¯
æłĳ èĦĤ
æĺ¯æ³ķåĽ½ çļ®åį¡ç¬¬å¤§åĮº
CE O
æĸ¯ éº¦
è¿ĺ æĽ¾
èµ° ä¸Ĭ
ãĥ Ł
è´§ æŁľ
ç»¿ åľ°
å¥³åŃĲ åįķæīĵ
ä»ĩ æģ¨
åŁºéļĨ å¸Ĥ
è¢«éĢīä¸º åħ¨åĽ½äººå¤§ä»£è¡¨
åįĥåı¶ åİ¿
æµ ľ
æ¸ħ åįķ
éĺ³ äºº
èĬ± å¼ı
æģ© çļĦ
åľ¨è¿Ļ æ®µ
å±± èĦĬ
æĢ§ åĳ½
ä¸Ķ åľ¨
ä¸Ķ æľī
æĬķ æİ·
éĩįè¦ģ ä½ľçĶ¨
èīºæľ¯ ä¸İ
åĬ¨çĶ» çīĩ
è£ģ æĴ¤
ç¥Ŀ åľ£
å®ģå¤ı åĽŀ
å¸ĥè¾¾ ä½©æĸ¯
c is
äºº å®¶
ç½Ĺ å¾·éĩĮ
æıĲ åĪ°äºĨ
æ²¡ æĥ³åĪ°
èĭı åħ±
ä»Ĭ æ²³åĮĹçľģ
æĽ¼ åĬª
åĳ¼ åĴĮ
éĽĨéĽ¨ éĿ¢ç§¯ä¸º
F l
çļĦ èº«ä½ĵ
æĭ Ĥ
ä»ĸ åĲĳ
é¢ ¤
å·ŀ åİ¿
çº³ çī¹
è½¬ éĢŁ
åįļ ç½Ĺ
åįļ æ´Ľ
æķ£ çĥŃ
è¿ŀæİ¥ åĪ°
å¤ Ķ
ä¸Ń ç§°
æĹ¥ äº§
åĳ ķ
ç¨ĭ è½¦
åį³ ä»¥
åħ´ éļĨ
è¯º æ²ĥ
23 3
éª¨ æŀ¶
æģĴ å¤§
å°ĸ éĶĲ
æ¶© è°·
éĹ´ è·Ŀ
å°Ĩ å¥¹
ç¦ Ģ
å¢ĥ çķĮ
å²ģ å¼Ģå§ĭ
éĵģè·¯ ç®¡çĲĨå±Ģ
å®¡ æī¹
æĻº åĬĽ
ç»´åĲī å°¼äºļå·ŀ
çĲĥ æīĭ
åİŁ åŃĲçļĦ
ä¾ĭ è¡Į
å»ºç«ĭ åľ¨
æľ« ä»£
ä½ĵèĤ² ä¸Ńå¿ĥ
èĬĻ èĵī
å¸ĥå®ľ è¯ºæĸ¯
åŃ¦ è´¹
çĶŁ çĹħ
åį¡ å°¼
åĽ¾ çļĦ
çŁ³ çļĦ
é²ģ çĵ¦
éļĶ å¤©
æŃ»äº¡ äººæķ°
åĪĨåŃĲ çļĦ
å¥¥æĸ¯ æ±Ģ
éĻįä½İ äºĨ
é³Ħ é±¼
ç©ºè°ĥ å·´å£«
åĩºç§Ł è½¦
Y O
åľ¨ æĸ°åĬłåĿ¡
åħ¶ å¦»
åıª æĺ¯ä¸Ģä¸ª
äº¦ ä»¥
åıĮ æºª
æľ¨ ç»ĵæŀĦ
åĬ³ åĬ¨åĬĽ
æī¶ æīĭ
æĳ©å°Ķ å¤ļçĵ¦
ä¸į æĥľ
èĩª ç§°ä¸º
åħ¥ ä½ı
ä¸ŃåĽ½ å®¶
æ¸¯ æ¹¾
å¸Ī å¤§
æĿİ æĪĲ
el f
èĮĥåĽ´ åĨħçļĦ
æ±ĩ åĲĪ
åĪ¶éĢł äºĨ
ç²ī ç¢İ
çļĦæĥħ èĬĤ
åī©ä½Ļ çļĦ
å¥¢ ä¾Ī
9 11
P N
æĿ¥ æııè¿°
é£İ æ°Ķ
æ¯ı äºº
ä¾µ è¢Ń
æ·±æµ· é±¼ç±»
. "
Ġ li
å°ı çĨĬ
åľº èµĽäºĭ
åľ£ æĪĺ
è£ħ ç®±
çĳ ķ
åħ´å»º çļĦ
ç»ĵåĲĪ äºĨ
æĥĬ äºº
æ³Ħ æ¼ı
ä¼ļ å±ķ
åħĭ æľĹ
éģĵ å¥ĩ
éĵ Ĥ
éĤ ķ
é¦ĸ åľĪ
äºĶ åĽĽ
æĬ¥ ä¸ļ
å®ĥ çļĦä¸Ģçº§
éĤ£ ç§į
æŀģ é«ĺçļĦ
æ´ª çģ¾
åĨħå®¹ çļĦ
è¿· å®«
è¶ĬæĿ¥è¶Ĭ å¤ļçļĦ
% ï¼īãĢĤ
ä¸İ åĪĺ
åıĳ åħµ
è¯Ń æĶ¯
åŀĭ å®¢è½¦
æĶ¯ éĺŁä¼į
æµĭ å¾Ĺ
ter s
âĢĿï¼Ī ï¼īãĢĤ
ä¸°èĩ£ ç§ĢåĲī
æĹ¥ éĢļè½¦
èĥ½ è®©
å¤ĸ äºĭ
å¤ĸ æ±ĩ
éĩį çİ°
ç¾İåĽ½ èģĶéĤ¦
ä¿Ŀ ç®¡
æĿİ èĩªæĪĲ
æ¹ĸ æ°´
æľĢåĲİ è¢«
èī¾ å°¼åħĭæĸ¯
å¿ł ä¹ī
åįļå£« åĲİ
æģĭ äºº
æĭ¼ åĨĻ
ä¸Ń æ®µ
è¯¥ æ¸¸æĪı
éĥ½ å±ŀäºİ
èį ļ
èİ· åĪ©
èº« éķ¿
å¨ģ åħĭ
çĶ· éħįè§Ĵ
æĥł å·ŀ
èĥ¸ é³į
èĥĮé³į ç¡¬æ£ĺ
çļĦ å¤§åŃ¦
å¹¶ æĪĲåĬŁ
éĤ£ äºļ
åįĥ ç¦§
çĿĢ éĻĨ
åĽ½æ°ĳ ä¸ŃåŃ¦
æ»ĳ ç¿Ķ
æĬļ é¡º
ç¬ĳ è¯Ŀ
åįĹæĸ¹ çļĦ
äºĮçº§ æµģåŁŁä¸º
å®īå¤§çķ¥ çľģ
åīį çĶ°
æľº çĤ®
æ¬¡ çº§
çļ® å°Ķæĸ¯
ç¼º å¤±
å¤ĸäº¤ æĶ¿çŃĸ
ä¸ºè¾Ĳé³įé±¼çº²é²¤ å½¢çĽ®
åĩ¡å°Ķ èµĽ
æİ£ çŃ¾
å®ĥçļĦä¸Ģçº§ æµģåŁŁä¸º
çļĦ çĶ·åŃĲ
çļĦ å¹¿åĳĬ
ä¸į æī¿è®¤
è¥¿ åŁİåĮº
å¼Ģ æľº
å¯¼ è½¨
äº² åį«éĺŁ
å¿« çº¿
çļĦå¤§ è§Ħæ¨¡
å·¥ä¸ļ åĮĸ
å®Įåħ¨ æ²¡æľī
èŁ Ĵ
è¾¨ è®¤
æİ¢éĻ©éĺŁ åıĳçİ°
çļĦ ç»ĦåĲĪ
ä¸į å¹³
åįĹ å²Ľ
åĪĹ ä¼ł
è¶³çĲĥ ä»£è¡¨éĺŁ
è¯Ĺ ç»ı
éĵ¶è¡Į çļĦ
éĴ¢ å¼¹
æŃ»äº¡ çİĩ
F ree
S ky
æľĪ ä¸ĬæĹ¬
ä¸į ä¸Ģæł·
ä¸İ åĲ¦
åĽĽ åįĥ
å·´ å¡ŀå°Ķ
å®ĺ åºľ
æŃ¦ æŀĹ
ä¼Ĭ æĭī
çĮ ·
çī¹åĪ« å¸Ĥ
æĴ¤ åĨĽ
å°Ĭ ä¸¥
ä½įäºİè¯¥åĽ½ä¸Ń åĮĹéĥ¨
æĭīæĸĲ å°Ķ
æĸĩå°¼å¯Ł å·ŀ
é ¯
ä»ĸ è¿ĺæĺ¯
åħ¶ åĲį
æµ· è¿Ĳ
18 14
åħµ å·¥åİĤ
æ½ ¢
è°· çī©
ç´§ åĩĳ
è¥¿åĮĹ å¤ªå¹³æ´ĭ
è¾½ æľĿ
æŁ³ å·ŀ
äº¤æµģ çĶµ
çļĦ èĭ±æĸĩ
åĲ ¼
è¾ Ļ
å¹¶ æĽ¾
ä¹Ł åı«
å¤ĸ æµ·
éĩį èĩ£
ä¸ĩ å¯¿
åľ£ å¾Ĵ
åįı ä½ľ
ou ch
å¸ĿåĽ½ ä¸»ä¹ī
èļ Ĥ
ä¸Ľ ä¹¦
åģ· åģ·
åĴĮ æĬĢæľ¯
åĲĪ ä¼Ĺ
éĺŁ åı²
17 89
ä¸ĥ æĹ¥
è¿Ļä¸ª è§Ĵèī²
çĨ µ
åĩºçīĪ åķĨ
38 6
è¿Ĳè¡Į çļĦ
;}- ï¼Ī
é¥± åıĹ
Ġ ĊĊĊ
åĲį æĪĲåĳĺ
åĲį ä¹ĺå®¢
æĢ» ç§ĳ
ç«Ļ ä¸İ
é¾Ļ åį·
çľŁ ä¸»
åģľ è¿Ĳ
æİ¥åıĹ çļĦ
ä»įçĦ¶ åľ¨
å½ĵéĢī ç¬¬åįģä¸Ģå±Ĭåħ¨åĽ½æĶ¿åįıå§Ķåĳĺ
é«ĺä¸Ń çĶŁ
o is
ä¸Ĭ éĿ¢çļĦ
å±± éļ§éģĵ
é£İ åĳ³
å¼Ģå§ĭ åīį
ä¹Łæĺ¯ ä¸Ģä¸ª
ç§ģ å®¶
æľīåħ³ éĥ¨éĹ¨
é¢ľ èī²çļĦ
å·¥äºº åħļ
Ġv on
èĲİ ç¼©
åĴĮ ä¸Ģ
ãĢĭ ï¼ļ
æīĢ å»º
æķ° æľĪ
è½½ å®¢
éĻķ åĮĹ
ä»»èģĮ äºİ
æĹ¥æ²» æĺİæ²»ä¸īåįģåĽĽå¹´
ä¸Ģç³»åĪĹ çļĦ
Je an
çļĦ åĬ¿åĬĽ
éĿ ³
åıĳ å£°
éģ ´
å¤ļ åĪ©
å¼Ģ è½¦
ä½Ĩ ä»ĸçļĦ
èµĽ å°Ķ
åŃĹ èĬĤ
æĬĹ è¡¡
å®¾ å®¢
ç»¿ åħļ
ç¬¬åĽĽ åŃ£
å»ī æĶ¿
æĦıä¹ī ä¸ĬçļĦ
æĬ« å¤´
æĳĶ è·¤
ä¸ «
çļĦ éľĢè¦ģ
ãĢĤ âĢ¦âĢ¦
ç± ½
èĩ³ ç¬¬
æĽ¾ ç¥ĸ
æ¸ħ åħīç»ª
å¾® åŀĭ
èĩªçĶ± æ³³
35 00
æĢ»éĥ¨ è®¾åľ¨
å®ı è§Ĥ
èł ķ
æĻ®æľĹ åħĭ
çļĦ å¼ł
åı² åŃ¦
è´¹ ç±³
äºĮä¸ĸ çļĦ
è¯ŀ è¾°
çļĦå¤ĸ è§Ĥ
æ¯ĽèĮ Ľ
åĲ ł
åľ¨ åĽ½åĨħ
ãĢĮ ãĢįï¼Ī
æİ¥ åħ¥
èĭı æľ¨
äººæ°ĳ è§£æĶ¾åĨĽ
çĶµå½± åĪ¶çīĩåİĤ
è°· æŃĮ
åĬŀçĲĨ æĹħå®¢ä¹ĺéĻį
æŃ¥åħµ åĽ¢
ä¾¨ æ°ĳ
Ph il
Th omas
æľī åŃĲ
ä¹ĭ èģĮ
å¸Ĥ å§Ķåī¯ä¹¦è®°
éķ¿ çĶŁ
å¼Ģ åºľ
åģ ĥ
åĲī å¸ĥ
æĻ¯ è±¡
ä¸ĸçºª ä¸ŃæľŁ
çªģ å°¼æĸ¯
ä¸´ ç»Ī
åħ¬åĽŃ åĨħ
ur al
èģĮä¸ļ åŃ¦æł¡
ay a
æµª æ½®
åłª ç§°
éĩĮç¨ĭ ç¢ĳ
K ing
å¹´ æıĲåĩº
ä¸Ģ çļĦ
è¯ ½
åĨĽ åĬ¡
æ±Ł éķĩ
çº³ è¾¾
å°½ åĬĽ
æĢ»ç»Ł å¤§éĢī
æĤ£ çĹħ
æŃ£å¸¸ çļĦ
å½±è¯Ħäºº åįıä¼ļ
w ood
çļĦ åĲĦ
åľ¨ ä»»ä½ķ
åľ¨ ä¸įåĲĮçļĦ
ä¸İ åıĳå±ķ
å»º æł¡
åı£ éŁ³
æ¨¡ æł·
åĨĻ äºĨä¸Ģ
æ£® çī¹
ç´ł æĿĲ
ĠA ct
è¡Ģ æ¸ħ
çİ°ä»£ åĮĸçļĦ
æ¨ª é¡»è´º
æĭĽ çīĮ
å®ģå¤ıåĽŀ æĹıèĩªæ²»åĮº
ä¸Ĭ æ¶¨
éĩĩ çŁ¿
äºĳ å±±
æĹģ éģ®
æĩĤ å¾Ĺ
é® ¨
çļĦ å®ī
äºİ åīį
çĶµ æŀģ
æĭī çİĽ
è®® è®º
èĲ¨ åĵĪ
æĪĳ æĥ³
ä»Ģ èĴĤ
ç½Ĺé©¬ äºº
åĳ¨è¾¹ åľ°å½¢
å¤©åĲİ å®«
iss ion
P ower
åľ¨ åŃ¦æł¡
è¦ģ å°Ĩ
éĺ¿ çĵ¦
ä¿Ŀ åħ¨
åĽ¾ æŀĹæł¹
çłĶç©¶ æľºæŀĦ
çĭ¬ å¥ı
åıĺåĮĸ çļĦ
å¼ºçĥĪ åıįå¯¹
è¿¦ å¤ª
C BS
ä¸į ç¬¦
æ´ Ļ
ä¸İ åĽ½éĻħ
çī¹ åĪ©
å¾· æŀĹ
ä¹Ł ä½¿
å¦ ³
è¯¥ èĪ°
æĽ¾ çĶ¨
æ²³ åİ¿
æĪĲä¸º é¦Ļæ¸¯
ãĤ Į
å¤ľ å¸Ĥ
å« ī
ç§¯æŀģ åıĤä¸İ
çĹħéĢĿ äºİ
å½Ŀ æĹı
åŃĲ åľ¨
æŃ£ éĹ¨
åįķ ç¨ĭ
åįķ èº«
æ±Ł åĮº
æĻ¯ å¾·
åŁİå¸Ĥ è§ĦåĪĴ
éĺ¿å°Ķ å¼ĹéĽ·å¾·
é²į å°Ķ
æĹ¥ æĹ¥é£Ł
æŀĹ å®¶
çķĮ åĪ«
æĻ® èİ±
ä»ĸä»¬ ä¹Ł
æ³¨ æĺİ
èĭ¥ æľī
ç§Ģ æīį
åĪĽç«ĭ çļĦ
ä¸ĩåħĥ äººæ°ĳå¸ģ
æĸ¯æīĺ åħĭ
ä¸Ģ èĤ¡
åĨ Ĺ
æī Ī
åŃ¦ åĪ¶
åĮĸ åĲį
åĭ Ĳ
éĻĨ è·¯
ä¹Ŀ ä¸ĸ
éĿĴ é¾Ļ
ä»£è¡¨ ä¸ŃåĽ½
è´Ł ä¼¤
ãĥ ķ
éĶ¦ æ¶Ľ
èĪį åĪ©
è£Ĥ åıĺ
éĢŁåº¦ ä¸º
çĶŁåĳ½ çļĦ
æ¶¦ æ»ĳ
æµ·å³¡ ä¸¤å²¸
è®¤è¯Ĩ åĪ°
á »
çļĦ å·¥åħ·
è¢« æ·ĺæ±°
åŃĲ èįī
ãĢĮ "
åŁİ ç«Ļ
ä¸ĩ ä¸ª
å¸ĮèħĬ äºº
çģ¯ ç¬¼
çļĩå®¶ æµ·åĨĽ
æŃ¦è£ħ éĥ¨éĺŁ
ĠCh rist
åĳ¨è¾¹ åľ°åĮº
å¿į åıĹ
ock et
åĴ¨è¯¢ å§Ķåĳĺä¼ļ
CC TV
èł ¢
Ġ 2007
çĶŁ äºĨ
åīį æıĲ
è·¯ ç½ĳ
è¯¥ åºĻ
åŁİ ä¸ĭ
éĴ ´
åħ« æĹĹ
éĵ¶ èī²
éĩįæĸ° è®¾è®¡
æĺ¾ç¤º äºĨ
ä»ĺ æ¬¾
çļĦåīį æıĲ
åĲŀåĲĲ éĩı
â ĳ
æĺ¯ æ²¡æľī
ï¼ī ï¼ī
æľĪ å®£å¸ĥ
å¯¹ å²¸
åįģ åĩł
ç§ĳ é©¬
çº§ å¸Ĥ
çĥŃ æ½®
äººä»¬ å¯¹
çĸ« æĥħ
ä»»æķĻ äºİ
æĹģéģ® æĻ®
å¹´ ä¸ĭåįĬ
ä¸º åħ¨
æľº ç§į
æĪĺ åĬĽ
åĲĳ åħ¬ä¼Ĺ
éĢł è®¿
å®Ī æģĴ
å¹³åĿĩ æ°Ķæ¸©
ĠN ational
ç¦ħ å®Ĺ
ä¿ĥè¿Ľ ä¼ļ
ide o
èĬ±èİ² åİ¿
ener al
åľ¨ æĦıå¤§åĪ©
æĺ¯ formula
æĹ¥ åįĩä¸º
è¿ĩ é«ĺ
ä½Ĩ çİ°åľ¨
æµģ åĩº
ä»£è¡¨ çļĦ
å°Ħ æĿĢ
ĠM ark
åı³ è¾¹
æ¦Ĥ æĭ¬
os a
ä¸ĵä¸ļ çļĦ
çĶº çļĦ
ç«ĭæ³ķä¼ļ éĢīä¸¾
ä¹Įåħ¹åĪ« åħĭ
M od
ï¼Į ãĢĤ
å¹´ å°±
äºļ ç»Ĩäºļ
ä¸ĸçķĮ æĹ¶
å®īåħ¨ æĢ§
å¥Ĺ è£ħ
åĩ½ é¦Ĩ
ä¸»æĮģ çļĦ
ç²ī æľ«
è±ģ åħį
3 90
éĢ µ
éĿ¢ ç²ī
ä½ĵ åĬĽ
å¥³ éĥİ
é¾Ļ åįİ
at ive
ãĤ Ń
80 2
æĮģç»Ń é£İéĢŁ
åĤ¨ èĵĦ
å¼ķæĵİ çļĦ
éĥĬ éĩİ
è¦ĨçĽĸ äºĨ
âĢĻ ï¼Į
ä¸º æł¸å¿ĥ
åĪĨ å±ŀ
ç½Ĺ ä»Ģ
ä¸¾ æĬ¥
åıĳå±ķ åĴĮ
æĬĢæľ¯ åĴĮ
å¤º ä¸ĭ
ç©¿ éĢı
å¼ĢæĶ¾ å¼ı
å°Ĩåħ¶ éĻįæł¼ä¸º
åŃĿ å®Ĺ
æİł è¿ĩ
ä¾ı ç½Ĺ
ç§ ½
ä¸Ĭ å±ŀäºİ
å¸Ĥ éĥĬ
çĽ¸ çīĩ
éĺ¿ éĽ·
åıĺ æĽ´ä¸º
çĳŀ å°Ķ
åĨ² ç§¯
äº¤éĢļ æŀ¢çº½
å®ĥä»¬ åľ¨
è®°è½½ äºĨ
å¯ĵ æĦı
ä¸Ńä¹¦ çľģ
è¥¿åħĥ åīį
è¶³çĲĥçĶ²çº§èģĶèµĽ çĲĥéĺŁ
æľ¬ è·¯çº¿
åīį èĭıèģĶ
èĭ± çī¹å°Ķ
åı· æĺ¯
æĶ¹ åħĥ
ç¬¬ä¸Ģ éĺ¶æ®µ
ç¼ĸ æĴ°
å²ģ çļĦæĹ¶åĢĻ
ä½Ļ ä¸ĭçļĦ
éº¦ åħĭæĸ¯
åĪ¤ å®ļä¸º
äºĴ æį¢
ä¸ĭä¸Ģ ä»£
æĹ¥å¹³åĿĩ ä¸Ĭä¸ĭ
éĵģè·¯ç»ıè¿ĩ è¯¥ç«Ļ
M R
äºİ å¤§
ä¸į å®Įåħ¨
é«ĺ åį¢
è´Ł èį·
æĶ¿æ²» å¤§åŃ¦
æ¸© å®¤
ç²¾ éĶĲ
å¾® ç¬ĳ
ä»»åĬ¡ æĺ¯
æĺ¯ä½įäºİ ä¸ŃåĽ½
åĪĨå¸ĥäºİåįĹç¾İæ´² å·´è¥¿
åĲĪéĢĤ çļĦ
Ġ ac
ä¸º é¢ĺ
å¼ ĭ
è¥¿ ä¹¡
åĨħ åįİè¾¾
åĽĽ éĥİ
èµ· çģ«
æ±Ł ä¸ľ
æīĵ çĶµè¯Ŀ
åģı å¥½
çļĦ æ³ķåĽ½
ä½Ĩ éļıèĳĹ
æŁ ¿
å¼Ģå§ĭ åĲİ
åĵ¥ å¾·
ä½Ľ ç»ı
23 1
åģľ æ»ŀ
å·¦ è¾¹
åħħæ»¡ äºĨ
åĪĩå°Ķå°¼æĪĪ å¤«å·ŀ
çļĦ åħŃ
åĴĮ åĲİ
ä¸į åıª
åħ¶ å¯¹
åŃĲ éĽĨ
æĽ´ åħ·
è½¬ ä¸ĸ
æ¥¼ æĪ¿
éĩİ æīĭ
èģĶèµĽ çļĦ
åĪĹè½¦ åľ¨
åĨ° çĲĥ
ä¾µ å®³
ä¹ĥ æľ¨
å¼łåŃ¦ åıĭ
u ild
çŃ Ŀ
åĲĮ æºĲ
èĥ½ ä¸İ
å·¥ åķĨä¸ļ
åı· ä¸İ
å¸¸ é©»
éĺ¿ å¡Ķ
ä¹ĭåĲİ è¢«
èŃ¦ éĺŁ
éĴ± å¡ĺ
ç§¦ æľĿ
çĸĨ åŁŁ
è¿Ĳè¾ĵ æľº
è§Ĥä¼Ĺ çļĦ
æģĲæĢĸ ä¸»ä¹ī
åŁĭ ä¼ı
çļĦæĶ¯æĮģ ä¸ĭ
åºĲ å±±
ä¸Ń åħ¨ä¼ļ
äºº äºº
æµ ĩ
éĹ ¾
ä¹ĭ ä¸ĭçļĦ
æīĢ ä½ľçļĦ
æį® æŃ¤
æŀģ åľ°
ç¤¼ éĥ¨å°ļä¹¦
åıĳåĬ¨ æľºçļĦ
æĹ¥èµ· æĶ¹ä¸º
çĥ¦ æģ¼
èĢ¦ åĲĪ
ä¸¤ æĹģ
ä¹ĭåĲİ ä»ĸ
al t
éĹŃ å¹ķ
åĩºçīĪç¤¾ åĩºçīĪ
èĤĩ åºĨ
è§ħ é£Ł
N ational
P e
a o
ä¹ĭ å·®
ä¿ ¨
å¹¶ åĲĮæĹ¶
ä½Ĩ ä»¥
ä½Ĩ åĲĮæĹ¶
åħ° æĸ¯
å¸¸ è®¾
çº§ åįķä½į
å®ĥ ä¹Ł
æīĵ äºĨ
åį° æ¬§
ç¤¾ä¼ļ ä¸Ń
æī¾ å¯»
ç»ķ è¿ĩ
æĹģ çĻ½
ä¼ı åĩ»
å¼Ģå¹ķ å¼ı
ä¸º åħ°ç§ĳ
åıĬ åı°æ¹¾
èĥ½ ä»¥
ä¸ĸ éĶ¦èµĽ
æĺİ æĪĲç¥ĸ
åı¤ ç±į
æī§ ä¸ļ
28 5
åĨ° æ´ĭ
åıĳå¸ĥ ä¼ļ
åľ°ä¸ĭ ä¸Ģå±Ĥ
ç£ģ æĢ§
ä¼ļè®¡ å¸Ī
çļĦ é¡¹çĽ®
çĶŁ çĲĨåŃ¦
è¥¿ ç»ı
é«ĺ ç§ĳæĬĢ
å¤© ä¸Ĭ
éĥ½ åı¯
æĹł é¡»
ç¥ŀ èģĮäººåĳĺ
è¶ħ éŁ³éĢŁ
åıĳå±ķ è®¡åĪĴ
ãĤ ª
éĢļå¸¸ è¢«
åĲĪä½ľ ç¤¾
èĤī ç±»
IN E
èŃ¦åĬ¡ å¤Ħ
WW E
C F
æİ ĸ
è¿Ļ çīĩ
åŃĲ ä¸İ
é«ĺ å°Ħ
æĹł è§Ĩ
åįķ å±Ĥ
23 4
å®Ŀ èĹı
æį¢ æĪĲ
ou is
ãĢĤâĢĿ âĢľ
åĪĨå¸ĥäºİ è¥¿
åįģåħŃ åĽ½
Ġ 50
çļĦ çī©è´¨
ä¸ī åıī
åĽĽ èĤ¢
åıĹ çģ¾
åħ¶ä»ĸ åľ°æĸ¹
åį¢ æĸ¯
å¹´è¢« åĽ½éĻħå¤©æĸĩåŃ¦èģĶåĲĪä¼ļ
åħ¨ä½ĵ ä¼ļè®®
ç®¡å¼¦ ä¹ĲåĽ¢
éĶ» çĤ¼
S an
çļĦ åıĳçİ°
åĴĮ R
åĴĮ é»Ħ
åĲĮ å¿ĥ
é«ĺ åĥ§
å¾· ç´¯
åĨħ è®¾
æıĲ éĢŁ
æĬ¥ éħ¬
åı¯èĥ½ å¯¼èĩ´
æĪĺäºī ç»ĵæĿŁ
è´¢æĶ¿ éĥ¨éķ¿
sh ip
W i
ä¹ĭ åĬĽ
æŃ¤ æ¸¸æĪı
ç¾İ åĪĨ
åĮĸ åĲİ
æĬĹ çĶŁç´ł
èİ« æ¡ĳ
id a
èĦ± èĲ½
å¢Ļ ä¸Ĭ
éħ· åĪĳ
æ¢ħåħĭ ä¼¦åł¡
å¡ŀåĨħ åĬłå°Ķ
è¥¿ å®ģ
çķ ĳ
å°Ĩ æ£ĭ
åĨľ æŀĹ
è¥¿éĩĮ è¥¿äºļ
åı¸èģĮ åīįéĶĭ
æĹ¥åħ¬å¸ĥ ä¸º
åįİå°Ķ è¡Ĺ
é£İåĪĩ åıĺ
S I
Ġ ro
å¹´ éĢļè¿ĩ
ä¼ļ åıĳçĶŁ
ä¸į åĲ¬
å¹³ æĿ¿
å¤ĸ èĴĻåı¤
åįģ åĽ½
ä¸ŃåĽ½ é©»
æĸĩåĮĸ ä¸Ń
ç»Ŀ åľ°
ä¹ĺ æ³ķ
æ°ĳæĹı çļĦ
æŁ´ æ¹¾
å¥¥æĸ¯åį¡ éĩĳåĥıå¥ĸ
æīŃ è½¬
ĠIs land
j a
è¿Ļ è®©
ç¾İ ç±į
åĲĪ æ³ķçļĦ
éĢļ èĪª
ä»ĸçļĦ æ¯įäº²
æľ¨ è´¨
å¹´ä»£ æĹ©æľŁ
ç²¾ åĩĨ
ur es
æľĿé²ľ åĬ³åĬ¨åħļ
æģ¶ æĲŀ
æ´¾åĩº æīĢ
çº³ç²¹ åħļ
åĨħæµģ åĮº
åĬ¨ è®®
åĪĹ åĩºäºĨ
åħµ åį«
å®Į ç¾İçļĦ
ä¸¹ ä½Ľ
å¼Ĥ å½¢
ä¸»å¸Ń åĽ¢
ç¨³ åĽº
çĬ¹ ä»ĸå·ŀ
çĲ ¥
ä¸ī éĹ¨
åİŁ ç§°
æĹł éļľç¢į
äº¬ éĥ½å¸Ĥ
çŁ³ æ¡¥
ç¬¬ä¸Ģ åı°
ä½ľä¸º åħ¶
è¯Ńè¨Ģ åŃ¦å®¶
å¤§éĥ¨åĪĨ åľ°åĮº
ä¹Ŀé¾Ļ æ¹¾
ç½¹ éļ¾
C OM
g en
Ġ è¯¥
çĶ± åįĹ
è®¡ æľī
éª ł
å¡Ķ æ¥¼
æĴŃ æĬ¥
26 3
ä¸Ńåįİäººæ°ĳåħ±åĴĮåĽ½ æĪĲç«ĭ
åľ°çĲĨ åŃ¦
C a
æĺ¯ åĽ½å®¶
åĽ½ åºľ
ä»ĸ ä¼ļ
å·¥ åĮł
ç±³ çº³æĸ¯
åį¡ å®¾
åı¯ä»¥ éĢıè¿ĩ
åİĨ æ³ķ
ç®Ĺ ç¬¦
çļ® éĿ©
çļĦåľ° éĵģ
åľ°ä¸ĭ äºĮå±Ĥ
çļĦ åıĳçĶŁ
ç§ĳ éĻ¢
æĢ» å¹²äºĭ
ä¸ĵ æĶ¿
åĳ¼ åı«
ä¸Ģä¸ĸ çļĦ
æĹ¢ çĦ¶
æī« èį¡
å°¼å°Ķ æ£®
åį¢çĵ¦å°Ķ çľģçļĦä¸Ģä¸ªå¸Ĥéķĩ
æĦī å¿«
P O
çļĦ æ¨¡å¼ı
å¹´ èĢĥåħ¥
æĹ¶ å°Ĩ
ä¸ľ éĤ»
ä»£ åı·ä¸º
æ²³ è¾¹
è¿ĺ æ²¡
åħŃ æĹ¥
åıĮ åıĮ
æĿ° æ£®
æ£Ģ ç´¢
ä¸ĢçĽ´ æ²¡æľī
éĻĦè¿ĳ æľī
çĶ·åŃĲ åĽ¢ä½ĵ
ä¸² èģĶ
åĮĹæĸ¹ çļĦ
å¸Ĳ æĪ·
B lack
u f
æľī ç½ª
æĪĲ å¸Ŀ
æĺİ å·ŀ
on es
æŀģ éĢŁ
il i
çķ¥ æľī
ç»ıè¿ĩ äºĨ
ĠE l
æĲ¬ è¿ģèĩ³
æĺ¯ é©¬
åıĳ æĸĩ
å¸Ĥ éģĵ
è° Ľ
è¯¥ å±Ĭ
éĩį åĪ¶
ä»İ ç¾İåĽ½
æĿİ åĺī
æ±¤ æĻ®æ£®
é©¬éĩĮ åħ°å·ŀ
èŁ¹ ç§ĳ
å¾·ç´¯ æĸ¯é¡¿
M el
è¯ Ģ
å°± åı¯
ä¸ĩ å¹³æĸ¹åħ¬éĩĮ
ç² ¥
çłĶç©¶æīĢ æīĢéķ¿
äº¬éĥ½ åºľ
åİ¨ å¸Ī
å°ı åŃ¦æł¡
åħ¨ å¤©
åįĩ åħ¥
ä»ħ ä»¥
èİ« çĳŀ
æĺ¥ æĹ¥
ãĤ Ĵ
åĲ¸ èĻ«
æĸ¯åĿ¦ ç¦ı
æĥĬ äººçļĦ
ä¸Ń å²Ľ
æŀ ĭ
ä»» çĶ¨
å¾· æĢĢ
åħ± éĢļ
èģĶ åĲį
å¯Ĩ è°ĭ
[...]
