{
  "version": "1.0",
  "truncation": null,
  "padding": null,
  "added_tokens": [
    {
      "id": 0,
      "content": "<|endoftext|>",
      "single_word": false,
      "lstrip": false,
      "rstrip": false,
      "normalized": false,
      "special": true
    }
  ],
  "normalizer": null,
  "pre_tokenizer": {
    "type": "ByteLevel",
    "add_prefix_space": false,
    "trim_offsets": true,
    "use_regex": true
  },
  "post_processor": {
    "type": "ByteLevel",
    "add_prefix_space": true,
    "trim_offsets": false,
    "use_regex": true
  },
  "decoder": {
    "type": "ByteLevel",
    "add_prefix_space": true,
    "trim_offsets": true,
    "use_regex": true
  },
  "model": {
    "type": "BPE",
    "dropout": null,
    "unk_token": null,
    "continuing_subword_prefix": "",
    "end_of_word_suffix": "",
    "fuse_unk": false,
    "vocab": {
      "<|endoftext|>": 0,
      "!": 1,
      "\"": 2,
      "#": 3,
      "$": 4,
      "%": 5,
      "&": 6,
      "'": 7,
      "(": 8,
      ")": 9,
      "*": 10,
      "+": 11,
      ",": 12,
      "-": 13,
      ".": 14,
      "/": 15,
      "0": 16,
      "1": 17,
      "2": 18,
      "3": 19,
      "4": 20,
      "5": 21,
      "6": 22,
      "7": 23,
      "8": 24,
      "9": 25,
      ":": 26,
      ";": 27,
      "<": 28,
      "=": 29,
      ">": 30,
      "?": 31,
      "@": 32,
      "A": 33,
      "B": 34,
      "C": 35,
      "D": 36,
      "E": 37,
      "F": 38,
      "G": 39,
      "H": 40,
      "I": 41,
      "J": 42,
      "K": 43,
      "L": 44,
      "M": 45,
      "N": 46,
      "O": 47,
      "P": 48,
      "Q": 49,
      "R": 50,
      "S": 51,
      "T": 52,
      "U": 53,
      "V": 54,
      "W": 55,
      "X": 56,
      "Y": 57,
      "Z": 58,
      "[": 59,
      "\\": 60,
      "]": 61,
      "^": 62,
      "_": 63,
      "`": 64,
      "a": 65,
      "b": 66,
      "c": 67,
      "d": 68,
      "e": 69,
      "f": 70,
      "g": 71,
      "h": 72,
      "i": 73,
      "j": 74,
      "k": 75,
      "l": 76,
      "m": 77,
      "n": 78,
      "o": 79,
      "p": 80,
      "q": 81,
      "r": 82,
      "s": 83,
      "t": 84,
      "u": 85,
      "v": 86,
      "w": 87,
      "x": 88,
      "y": 89,
      "z": 90,
      "{": 91,
      "|": 92,
      "}": 93,
      "~": 94,
      "¡": 95,
      "¢": 96,
      "£": 97,
      "¤": 98,
      "¥": 99,
      "¦": 100,
      "§": 101,
      "¨": 102,
      "©": 103,
      "ª": 104,
      "«": 105,
      "¬": 106,
      "®": 107,
      "¯": 108,
      "°": 109,
      "±": 110,
      "²": 111,
      "³": 112,
      "´": 113,
      "µ": 114,
      "¶": 115,
      "·": 116,
      "¸": 117,
      "¹": 118,
      "º": 119,
      "»": 120,
      "¼": 121,
      "½": 122,
      "¾": 123,
      "¿": 124,
      "À": 125,
      "Á": 126,
      "Â": 127,
      "Ã": 128,
      "Ä": 129,
      "Å": 130,
      "Æ": 131,
      "Ç": 132,
      "È": 133,
      "É": 134,
      "Ê": 135,
      "Ë": 136,
      "Ì": 137,
      "Í": 138,
      "Î": 139,
      "Ï": 140,
      "Ð": 141,
      "Ñ": 142,
      "Ò": 143,
      "Ó": 144,
      "Ô": 145,
      "Õ": 146,
      "Ö": 147,
      "×": 148,
      "Ø": 149,
      "Ù": 150,
      "Ú": 151,
      "Û": 152,
      "Ü": 153,
      "Ý": 154,
      "Þ": 155,
      "ß": 156,
      "à": 157,
      "á": 158,
      "â": 159,
      "ã": 160,
      "ä": 161,
      "å": 162,
      "æ": 163,
      "ç": 164,
      "è": 165,
      "é": 166,
      "ê": 167,
      "ë": 168,
      "ì": 169,
      "í": 170,
      "î": 171,
      "ï": 172,
      "ð": 173,
      "ñ": 174,
      "ò": 175,
      "ó": 176,
      "ô": 177,
      "õ": 178,
      "ö": 179,
      "÷": 180,
      "ø": 181,
      "ù": 182,
      "ú": 183,
      "û": 184,
      "ü": 185,
      "ý": 186,
      "þ": 187,
      "ÿ": 188,
      "Ā": 189,
      "ā": 190,
      "Ă": 191,
      "ă": 192,
      "Ą": 193,
      "ą": 194,
      "Ć": 195,
      "ć": 196,
      "Ĉ": 197,
      "ĉ": 198,
      "Ċ": 199,
      "ċ": 200,
      "Č": 201,
      "č": 202,
      "Ď": 203,
      "ď": 204,
      "Đ": 205,
      "đ": 206,
      "Ē": 207,
      "ē": 208,
      "Ĕ": 209,
      "ĕ": 210,
      "Ė": 211,
      "ė": 212,
      "Ę": 213,
      "ę": 214,
      "Ě": 215,
      "ě": 216,
      "Ĝ": 217,
      "ĝ": 218,
      "Ğ": 219,
      "ğ": 220,
      "Ġ": 221,
      "ġ": 222,
      "Ģ": 223,
      "ģ": 224,
      "Ĥ": 225,
      "ĥ": 226,
      "Ħ": 227,
      "ħ": 228,
      "Ĩ": 229,
      "ĩ": 230,
      "Ī": 231,
      "ī": 232,
      "Ĭ": 233,
      "ĭ": 234,
      "Į": 235,
      "į": 236,
      "İ": 237,
      "ı": 238,
      "Ĳ": 239,
      "ĳ": 240,
      "Ĵ": 241,
      "ĵ": 242,
      "Ķ": 243,
      "ķ": 244,
      "ĸ": 245,
      "Ĺ": 246,
      "ĺ": 247,
      "Ļ": 248,
      "ļ": 249,
      "Ľ": 250,
      "ľ": 251,
      "Ŀ": 252,
      "ŀ": 253,
      "Ł": 254,
      "ł": 255,
      "Ń": 256,
      "ï¼": 257,
      "ä¸": 258,
      "ãĢ": 259,
      "ï¼Į": 260,
      "äº": 261,
      "çļ": 262,
      "çļĦ": 263,
      "ãĢĤ": 264,
      "åı": 265,
      "åħ": 266,
      "æľ": 267,
      "ä»": 268,
      "å¹": 269,
      "å¤": 270,
      "åľ": 271,
      "åĲ": 272,
      "åĪ": 273,
      "åĽ": 274,
      "å®": 275,
      "ä½": 276,
      "çĶ": 277,
      "æĺ": 278,
      "åį": 279,
      "å¹´": 280,
      "æĹ": 281,
      "æĸ": 282,
      "è¿": 283,
      "ä¹": 284,
      "å°": 285,
      "ãĢģ": 286,
      "ç»": 287,
      "ä¸Ģ": 288,
      "åľ¨": 289,
      "ä¸º": 290,
      "åŃ": 291,
      "åĬ": 292,
      "æĪ": 293,
      "ä¼": 294,
      "å¸": 295,
      "æĺ¯": 296,
      "åĮ": 297,
      "ä¸Ń": 298,
      "åĽ½": 299,
      "è¯": 300,
      "åĨ": 301,
      "äºº": 302,
      "è®": 303,
      "æĿ": 304,
      "åº": 305,
      "å·": 306,
      "éĩ": 307,
      "å¼": 308,
      "ï¼Ī": 309,
      "ï¼ī": 310,
      "å¾": 311,
      "äºİ": 312,
      "ç§": 313,
      "çī": 314,
      "å¤§": 315,
      "è¡": 316,
      "çº": 317,
      "æľī": 318,
      "å±": 319,
      "æī": 320,
      "åĩ": 321,
      "æĶ": 322,
      "éĢ": 323,
      "æŃ": 324,
      "éĥ": 325,
      "åĴ": 326,
      "èĢ": 327,
      "æķ": 328,
      "æ°": 329,
      "éĻ": 330,
      "åĴĮ": 331,
      "åİ": 332,
      "å¯": 333,
      "å½": 334,
      "èµ": 335,
      "çĽ": 336,
      "ä»¥": 337,
      "æĭ": 338,
      "çİ": 339,
      "20": 340,
      "æľĪ": 341,
      "èĩ": 342,
      "å¥": 343,
      "æĹ¥": 344,
      "æ³": 345,
      "åĲİ": 346,
      "æł": 347,
      "éĺ": 348,
      "è¾": 349,
      "æµ": 350,
      "äºĨ": 351,
      "19": 352,
      "åŃ¦": 353,
      "âĢ": 354,
      "æ²": 355,
      "æĹ¶": 356,
      "ä¸ª": 357,
      "åĳ": 358,
      "æĢ": 359,
      "è§": 360,
      "ä¼ļ": 361,
      "è´": 362,
      "ç«": 363,
      "åľ°": 364,
      "æĪĲ": 365,
      "éķ": 366,
      "ĊĊ": 367,
      "éĹ": 368,
      "åŁ": 369,
      "åħ¬": 370,
      "è½": 371,
      "ä¸Ĭ": 372,
      "éĿ": 373,
      "ä¸į": 374,
      "çĲ": 375,
      "åĩº": 376,
      "åī": 377,
      "è¡Į": 378,
      "æ´": 379,
      "ä»ĸ": 380,
      "æ¯": 381,
      "éĥ¨": 382,
      "æĸ¯": 383,
      "æŀ": 384,
      "æ¸": 385,
      "æĬ": 386,
      "ä¹ĭ": 387,
      "ä¸İ": 388,
      "åĮº": 389,
      "ç¬": 390,
      "åĲį": 391,
      "æĽ": 392,
      "åıĳ": 393,
      "åħ¶": 394,
      "ä¸»": 395,
      "çŃ": 396,
      "æİ": 397,
      "ä½ľ": 398,
      "éģ": 399,
      "ç½": 400,
      "çĶŁ": 401,
      "å°Ķ": 402,
      "åĪĨ": 403,
      "èĥ": 404,
      "ä¿": 405,
      "æĸ¹": 406,
      "è¢": 407,
      "è¥": 408,
      "ä¸ĭ": 409,
      "è¥¿": 410,
      "çĶ¨": 411,
      "åĪ°": 412,
      "å§": 413,
      "ç¬¬": 414,
      "å¿": 415,
      "ãĢĭ": 416,
      "ãĢĬ": 417,
      "ä½į": 418,
      "èĢĮ": 419,
      "å®¶": 420,
      "æ±": 421,
      "åĨĽ": 422,
      "çĶ±": 423,
      "åıĬ": 424,
      "éĩĮ": 425,
      "ç¾": 426,
      "å»": 427,
      "é¢": 428,
      "è·": 429,
      "æ¬": 430,
      "è¢«": 431,
      "å¹¶": 432,
      "æľ¬": 433,
      "æ°ĳ": 434,
      "æ³ķ": 435,
      "é¦": 436,
      "åįĹ": 437,
      "æĮ": 438,
      "éĽ": 439,
      "èĭ": 440,
      "è¿Ļ": 441,
      "å¸Ĥ": 442,
      "æĿ¥": 443,
      "éķ¿": 444,
      "Â·": 445,
      "ä¾": 446,
      "åĲĮ": 447,
      "åı¯": 448,
      "å¤ļ": 449,
      "æĶ¿": 450,
      "å¯¹": 451,
      "åŃĲ": 452,
      "ç±": 453,
      "åĵ": 454,
      "èĩª": 455,
      "ï¼ļ": 456,
      "ä»»": 457,
      "çľ": 458,
      "åĬ¨": 459,
      "é©": 460,
      "èģ": 461,
      "å¼Ģ": 462,
      "çī¹": 463,
      "æĸĩ": 464,
      "åĮĹ": 465,
      "é«": 466,
      "201": 467,
      "åĿ": 468,
      "é«ĺ": 469,
      "åĬł": 470,
      "ä¸ľ": 471,
      "å¾·": 472,
      "ãĢĮ": 473,
      "ãĢį": 474,
      "æľĢ": 475,
      "æµ·": 476,
      "æĸ°": 477,
      "åħĭ": 478,
      "åı°": 479,
      "å£": 480,
      "åĳĺ": 481,
      "200": 482,
      "ä¹Ł": 483,
      "åīį": 484,
      "ä»£": 485,
      "¦ģ": 486,
      "çŃī": 487,
      "åĪ©": 488,
      "äºļ": 489,
      "å¹³": 490,
      "èī": 491,
      "æīĢ": 492,
      "ä¸Ģä¸ª": 493,
      "ä¸ī": 494,
      "éĿ¢": 495,
      "ç»ı": 496,
      "åº¦": 497,
      "éģĵ": 498,
      "çĶµ": 499,
      "åĽł": 500,
      "çİ°": 501,
      "æŃ¤": 502,
      "èİ": 503,
      "æĻ": 504,
      "èĪ": 505,
      "å¾Ĺ": 506,
      "å»º": 507,
      "ç¾İ": 508,
      "è¿Ľ": 509,
      "çī©": 510,
      "å²": 511,
      "ç¤": 512,
      "è¿ĩ": 513,
      "è¦ģ": 514,
      "âĢľ": 515,
      "âĢĿ": 516,
      "æľº": 517,
      "çŁ": 518,
      "å¦": 519,
      "éĹ´": 520,
      "åĨħ": 521,
      "æķĻ": 522,
      "ç¥": 523,
      "å±±": 524,
      "çķ": 525,
      "èĩ³": 526,
      "äºĭ": 527,
      "ç©": 528,
      "ï¼īï¼Į": 529,
      "å°ı": 530,
      "ç«ĭ": 531,
      "è·¯": 532,
      "æĭī": 533,
      "åı£": 534,
      "è½¦": 535,
      "å½ĵ": 536,
      "åħ¥": 537,
      "æĪĺ": 538,
      "ä½ĵ": 539,
      "èĥ½": 540,
      "ç®": 541,
      "å°Ĩ": 542,
      "é¡": 543,
      "ä¸ĸ": 544,
      "äºĮ": 545,
      "è°": 546,
      "èĲ": 547,
      "çĲĨ": 548,
      "éļ": 549,
      "å·¥": 550,
      "èĬ": 551,
      "è¡¨": 552,
      "åĲĪ": 553,
      "é©¬": 554,
      "å¤ĸ": 555,
      "å¤©": 556,
      "å·ŀ": 557,
      "é£": 558,
      "è¯¥": 559,
      "å®ļ": 560,
      "è¶": 561,
      "åįģ": 562,
      "çĲĥ": 563,
      "æľŁ": 564,
      "ç§į": 565,
      "ä½Ĩ": 566,
      "æı": 567,
      "éĵ": 568,
      "åĮĸ": 569,
      "èµĽ": 570,
      "ä¸ļ": 571,
      "ä½¿": 572,
      "ç§ĳ": 573,
      "åĪ¶": 574,
      "æĦ": 575,
      "ç³": 576,
      "æ¬¡": 577,
      "åħ¨": 578,
      "çĻ": 579,
      "å¸ĥ": 580,
      "ç§°": 581,
      "æĢ§": 582,
      "åľº": 583,
      "éĢļ": 584,
      "éĺŁ": 585,
      "æĢ»": 586,
      "æ¹": 587,
      "èĤ": 588,
      "æĥ": 589,
      "èĢħ": 590,
      "çº¿": 591,
      "æį": 592,
      "ä¸ŃåĽ½": 593,
      "åħ±": 594,
      "è®¾": 595,
      "åİ¿": 596,
      "éŁ": 597,
      "çĪ": 598,
      "å¼ı": 599,
      "æķ°": 600,
      "éĩį": 601,
      "éĥ½": 602,
      "00": 603,
      "ç³»": 604,
      "æģ": 605,
      "ä¸¤": 606,
      "ç½Ĺ": 607,
      "éĤ": 608,
      "åĬĽ": 609,
      "ç¦": 610,
      "æŁ": 611,
      "å®ī": 612,
      "å£«": 613,
      "æ¡": 614,
      "ç¨": 615,
      "çł": 616,
      "çĤ": 617,
      "æ¼": 618,
      "èģĶ": 619,
      "æ¯Ķ": 620,
      "çİĭ": 621,
      "çĽ¸": 622,
      "åİŁ": 623,
      "åŁº": 624,
      "åŁİ": 625,
      "éĻ¢": 626,
      "ç«Ļ": 627,
      "è¾¾": 628,
      "ï¼Ľ": 629,
      "çľģ": 630,
      "å±ŀ": 631,
      "æĺİ": 632,
      "é»": 633,
      "è¿Ĳ": 634,
      "çĽ®": 635,
      "ç¼": 636,
      "æ°´": 637,
      "åı¸": 638,
      "åģ": 639,
      "æŃ£": 640,
      "éĩĳ": 641,
      "æ²»": 642,
      "ç±³": 643,
      "èĭ±": 644,
      "å¢": 645,
      "èĳ": 646,
      "æł¼": 647,
      "å°¼": 648,
      "éķĩ": 649,
      "åı·": 650,
      "ç»Ł": 651,
      "åįİ": 652,
      "åºľ": 653,
      "åħ°": 654,
      "çº¦": 655,
      "åħ³": 656,
      "ç»Ħ": 657,
      "çĦ": 658,
      "ä»¬": 659,
      "åĽĽ": 660,
      "å¡": 661,
      "çģ": 662,
      "å¦Ĥ": 663,
      "æĪĸ": 664,
      "åĪĹ": 665,
      "åħĥ": 666,
      "å·´": 667,
      "éĢī": 668,
      "è®¡": 669,
      "èį": 670,
      "æ¸¯": 671,
      "èµ·": 672,
      "10": 673,
      "æĺŁ": 674,
      "å½±": 675,
      "è¯Ń": 676,
      "ä»İ": 677,
      "äº§": 678,
      "åŀ": 679,
      "é¦ĸ": 680,
      "å¸¸": 681,
      "å¥³": 682,
      "æıĲ": 683,
      "äººåı£": 684,
      "éĺ¿": 685,
      "åĢ": 686,
      "æĶ¹": 687,
      "åĶ": 688,
      "æ¼Ķ": 689,
      "æŀĹ": 690,
      "éĩı": 691,
      "æ®": 692,
      "å¿ĥ": 693,
      "çĦ¶": 694,
      "åĲĳ": 695,
      "18": 696,
      "å°±": 697,
      "éħ": 698,
      "éĶ": 699,
      "å§ĭ": 700,
      "æİ¥": 701,
      "ä¹Ĳ": 702,
      "è®®": 703,
      "è£": 704,
      "ä½įäºİ": 705,
      "éľ": 706,
      "å®ŀ": 707,
      "æĹł": 708,
      "çķĮ": 709,
      "åıĤ": 710,
      "ä¹¦": 711,
      "åĬ¡": 712,
      "åħ¬éĩĮ": 713,
      "æ¶": 714,
      "ç¾İåĽ½": 715,
      "çº§": 716,
      "æĽ¾": 717,
      "æĦı": 718,
      "er": 719,
      "åĪĻ": 720,
      "12": 721,
      "ä¹ī": 722,
      "å¹¿": 723,
      "ç®¡": 724,
      "é²": 725,
      "æ·": 726,
      "åįķ": 727,
      "è¯´": 728,
      "æ²³": 729,
      "åį¡": 730,
      "çĥ": 731,
      "æīĭ": 732,
      "åıĹ": 733,
      "æĴ": 734,
      "å§Ķ": 735,
      "ç¨ĭ": 736,
      "å¨": 737,
      "å½¢": 738,
      "an": 739,
      "èī²": 740,
      "è§Ĩ": 741,
      "ä¿Ŀ": 742,
      "ç´": 743,
      "äº¤": 744,
      "æĮĩ": 745,
      "éĹ¨": 746,
      "åĮħ": 747,
      "åĽ¢": 748,
      "ç»´": 749,
      "ç»ĵ": 750,
      "æµģ": 751,
      "æ£": 752,
      "æ¹¾": 753,
      "åŀĭ": 754,
      "å·²": 755,
      "éĴ": 756,
      "å¤Ħ": 757,
      "éŁ³": 758,
      "ä¼ł": 759,
      "èº": 760,
      "äºĽ": 761,
      "é¦Ļ": 762,
      "çĽ´": 763,
      "åł": 764,
      "ç±»": 765,
      "åħļ": 766,
      "å¤ª": 767,
      "éĽĨ": 768,
      "èİ·": 769,
      "åı²": 770,
      "åıĺ": 771,
      "èº«": 772,
      "ä¸ĩ": 773,
      "åĭ": 774,
      "199": 775,
      "å¤«": 776,
      "çĤ¹": 777,
      "çĭ": 778,
      "æ¢": 779,
      "ï¼īãĢĤ": 780,
      "åºĶ": 781,
      "é¾": 782,
      "åŃĹ": 783,
      "äºĶ": 784,
      "å¯¼": 785,
      "æº": 786,
      "è®¤": 787,
      "å²Ľ": 788,
      "åĵģ": 789,
      "å¤§åŃ¦": 790,
      "åı¯ä»¥": 791,
      "or": 792,
      "æł¡": 793,
      "ç©º": 794,
      "æľĿ": 795,
      "11": 796,
      "èĻ": 797,
      "é¢Ĩ": 798,
      "åĽŀ": 799,
      "in": 800,
      "æĽ´": 801,
      "èĮ": 802,
      "æ±Ł": 803,
      "è¿ĺ": 804,
      "å±ķ": 805,
      "åı¤": 806,
      "ç¤¾": 807,
      "çı": 808,
      "ç§¯": 809,
      "éĵģ": 810,
      "ç¤º": 811,
      "åħ¬åı¸": 812,
      "å¼ł": 813,
      "èĴ": 814,
      "on": 815,
      "æ»": 816,
      "å¸Ī": 817,
      "æĮģ": 818,
      "æĹ¥æľ¬": 819,
      "å¹³æĸ¹": 820,
      "åĲĦ": 821,
      "åľ°åĮº": 822,
      "åĽ¾": 823,
      "çļĦä¸Ģä¸ª": 824,
      "æ´²": 825,
      "å¸¦": 826,
      "å¥¥": 827,
      "èĳĹ": 828,
      "å®ĺ": 829,
      "åıª": 830,
      "æĶ¿åºľ": 831,
      "åıį": 832,
      "ĊĊĊĊ": 833,
      "åĪ«": 834,
      "éª": 835,
      "åĳ½": 836,
      "ä½¿çĶ¨": 837,
      "ä¸ĵ": 838,
      "çºª": 839,
      "é£İ": 840,
      "æĪĲä¸º": 841,
      "åķ": 842,
      "æ¸¸": 843,
      "çĿ": 844,
      "äº¬": 845,
      "åıĸ": 846,
      "æ´»": 847,
      "èĦ": 848,
      "èµĦ": 849,
      "æį®": 850,
      "ç²": 851,
      "é¦Ļæ¸¯": 852,
      "éĢł": 853,
      "åħī": 854,
      "å¼Ģå§ĭ": 855,
      "æĬ¥": 856,
      "ä¸¾": 857,
      "åĩ»": 858,
      "ä¿¡": 859,
      "å°ĳ": 860,
      "æľ¯": 861,
      "çŁ³": 862,
      "æĶ¯": 863,
      "æĹı": 864,
      "åİĨ": 865,
      "ç¥ŀ": 866,
      "è¿ĳ": 867,
      "æĽ²": 868,
      "æĻ®": 869,
      "æ²¡": 870,
      "ç¡": 871,
      "æ¸ħ": 872,
      "å±Ģ": 873,
      "çº³": 874,
      "æĿĳ": 875,
      "åĽ½å®¶": 876,
      "æłĩ": 877,
      "è§£": 878,
      "è½¬": 879,
      "å®ĥ": 880,
      "åī§": 881,
      "åıĪ": 882,
      "æĥħ": 883,
      "éĻħ": 884,
      "éĿŀ": 885,
      "èĬĤ": 886,
      "é¾Ļ": 887,
      "æ¯ı": 888,
      "åı°æ¹¾": 889,
      "çļĦä¸Ģ": 890,
      "è®º": 891,
      "åĻ": 892,
      "èĭı": 893,
      "çłĶ": 894,
      "ç¿": 895,
      "ç¬¬ä¸Ģ": 896,
      "è®°": 897,
      "æ³¢": 898,
      "æĿĥ": 899,
      "ä»¶": 900,
      "æĿ¡": 901,
      "åĸ": 902,
      "15": 903,
      "è§Ĵ": 904,
      "æ°Ķ": 905,
      "çĬ": 906,
      "æĶ¾": 907,
      "åĨ³": 908,
      "åħ¶ä¸Ń": 909,
      "ä¹¡": 910,
      "ä»¥åıĬ": 911,
      "è¾ĸ": 912,
      "çīĩ": 913,
      "å¹³æĸ¹åħ¬éĩĮ": 914,
      "æŃ¦": 915,
      "è±": 916,
      "å¤´": 917,
      "åį³": 918,
      "å¯Ĩ": 919,
      "çīĪ": 920,
      "ä¼Ĭ": 921,
      "çĵ": 922,
      "è¿ŀ": 923,
      "åķĨ": 924,
      "å¥¹": 925,
      "ï¼Īï¼ī": 926,
      "æ¨": 927,
      "æĿİ": 928,
      "åħĪ": 929,
      "æĭ¬": 930,
      "åĳ¨": 931,
      "æĳ": 932,
      "èģĮ": 933,
      "æĶ¶": 934,
      "è¿Ľè¡Į": 935,
      "ar": 936,
      "çŁ¥": 937,
      "åº§": 938,
      "åĻ¨": 939,
      "å¾Ģ": 940,
      "çĸ": 941,
      "åİ»": 942,
      "çĻ½": 943,
      "ç¦»": 944,
      "æľª": 945,
      "198": 946,
      "åĪĽ": 947,
      "å¼º": 948,
      "æŀľ": 949,
      "ä¸»è¦ģ": 950,
      "åĮħæĭ¬": 951,
      "ä¸ĸçķĮ": 952,
      "æł¹": 953,
      "æŃĮ": 954,
      "åĨį": 955,
      "16": 956,
      "åĪĿ": 957,
      "éĿ¢ç§¯": 958,
      "ç¦ı": 959,
      "en": 960,
      "äººæ°ĳ": 961,
      "è¶³": 962,
      "éĻĨ": 963,
      "åĬŀ": 964,
      "ç©¶": 965,
      "åħŃ": 966,
      "17": 967,
      "çĹ": 968,
      "æ²¡æľī": 969,
      "ä¸Ķ": 970,
      "ä»Ĭ": 971,
      "ä»ĸä»¬": 972,
      "æ´¾": 973,
      "åľ£": 974,
      "äº²": 975,
      "æ±ī": 976,
      "åħµ": 977,
      "å¤į": 978,
      "å¼ķ": 979,
      "æĺ¯ä¸Ģ": 980,
      "éĺ³": 981,
      "è°ĥ": 982,
      "å±ħ": 983,
      "éĥ¨åĪĨ": 984,
      "äº¦": 985,
      "å®Į": 986,
      "æīĵ": 987,
      "çłĶç©¶": 988,
      "åĪĴ": 989,
      "åŁŁ": 990,
      "å¸Ŀ": 991,
      "è§Ĥ": 992,
      "è£ħ": 993,
      "èĹ": 994,
      "è®¸": 995,
      "Ġ(": 996,
      "çĳ": 997,
      "å¡Ķ": 998,
      "å®Ĺ": 999,
      "åŃ£": 1000,
      "la": 1001,
      "è´¨": 1002,
      "ç½ĳ": 1003,
      "æļ": 1004,
      "éĻ¤": 1005,
      "æĴŃ": 1006,
      "èı": 1007,
      "äºī": 1008,
      "ç¼ĸ": 1009,
      "é¢ĺ": 1010,
      "å¨ģ": 1011,
      "éļı": 1012,
      "ç»Ń": 1013,
      "æ®µ": 1014,
      "å¾Ī": 1015,
      "èĬ±": 1016,
      "æľį": 1017,
      "è¾ĥ": 1018,
      "å¥ĸ": 1019,
      "ä»¤": 1020,
      "æ¥": 1021,
      "åħ«": 1022,
      "èĤ²": 1023,
      "ç»Ļ": 1024,
      "æŀĦ": 1025,
      "è¨": 1026,
      "éĢŁ": 1027,
      "è¨Ģ": 1028,
      "çĶ±äºİ": 1029,
      "åįı": 1030,
      "åĽŃ": 1031,
      "çĪ±": 1032,
      "è®¤ä¸º": 1033,
      "è§ģ": 1034,
      "å§Ķåĳĺ": 1035,
      "æĪı": 1036,
      "åľŁ": 1037,
      "åĦ": 1038,
      "åĬŁ": 1039,
      "åı¦": 1040,
      "ä¿®": 1041,
      "æŃ»": 1042,
      "é»Ħ": 1043,
      "ç½®": 1044,
      "ç¬¬äºĮ": 1045,
      "å¸Į": 1046,
      "èĲ¨": 1047,
      "14": 1048,
      "æĭħ": 1049,
      "éĹ®": 1050,
      "çĪ¶": 1051,
      "åŃĺ": 1052,
      "å¥½": 1053,
      "åĥ": 1054,
      "å®¢": 1055,
      "æİ¨": 1056,
      "èĲ¥": 1057,
      "30": 1058,
      "è§Ħ": 1059,
      "æŁ¥": 1060,
      "ç»Ī": 1061,
      "è¶ħ": 1062,
      "æ¬§": 1063,
      "å®£": 1064,
      "çİĩ": 1065,
      "åħ¶ä»ĸ": 1066,
      "çĮ": 1067,
      "éĽ·": 1068,
      "æ´Ľ": 1069,
      "æł·": 1070,
      "é¡¹": 1071,
      "èİ·å¾Ĺ": 1072,
      "å½ķ": 1073,
      "çĶ»": 1074,
      "æĪĳ": 1075,
      "åĲī": 1076,
      "ä¾Ľ": 1077,
      "æĬ¤": 1078,
      "ä¹ĭåĲİ": 1079,
      "åĽłä¸º": 1080,
      "åħ·": 1081,
      "æĬķ": 1082,
      "åĵĪ": 1083,
      "ä¹Ŀ": 1084,
      "æºĲ": 1085,
      "åį«": 1086,
      "çıŃ": 1087,
      "è¡Ĺ": 1088,
      "åĩĨ": 1089,
      "é¦Ĩ": 1090,
      "åįļ": 1091,
      "é±": 1092,
      "çĵ¦": 1093,
      "åĽłæŃ¤": 1094,
      "éĿĴ": 1095,
      "ä»£è¡¨": 1096,
      "åħ´": 1097,
      "ä¼¦": 1098,
      "é±¼": 1099,
      "æ¯į": 1100,
      "æ±Ĥ": 1101,
      "13": 1102,
      "åĽ½éĻħ": 1103,
      "al": 1104,
      "è´Ł": 1105,
      "çĻ¾": 1106,
      "æ¹ĸ": 1107,
      "çİ¯": 1108,
      "åį°": 1109,
      "çĶµå½±": 1110,
      "çĶ°": 1111,
      "è¾¹": 1112,
      "çĶ·": 1113,
      "æµİ": 1114,
      "ä¼¯": 1115,
      "é¥": 1116,
      "è´£": 1117,
      "è¯ķ": 1118,
      "ä¾ĭ": 1119,
      "æ¡Ī": 1120,
      "èħ": 1121,
      "éĻĪ": 1122,
      "æĶ»": 1123,
      "æķħ": 1124,
      "å·±": 1125,
      "çģ«": 1126,
      "çª": 1127,
      "éĤ£": 1128,
      "åĭĴ": 1129,
      "èĲ½": 1130,
      "æ²Ļ": 1131,
      "åĬ©": 1132,
      "ä¼Ĺ": 1133,
      "å¤ĩ": 1134,
      "åĦ¿": 1135,
      "èĩ´": 1136,
      "çļĩ": 1137,
      "ä»½": 1138,
      "èĪª": 1139,
      "å½ĵæĹ¶": 1140,
      "æŀģ": 1141,
      "çĥŃ": 1142,
      "èİ±": 1143,
      "è¯º": 1144,
      "194": 1145,
      "æĹ©": 1146,
      "æĬĢ": 1147,
      "éº": 1148,
      "æĶ¿æ²»": 1149,
      "æķ´": 1150,
      "èīº": 1151,
      "197": 1152,
      "é²ģ": 1153,
      "å·¥ä½ľ": 1154,
      "å®¹": 1155,
      "ç³»ç»Ł": 1156,
      "åĿĩ": 1157,
      "è¿ĲåĬ¨": 1158,
      "å¢ŀ": 1159,
      "åī¯": 1160,
      "å¿Ĺ": 1161,
      "æ¨¡": 1162,
      "åįĩ": 1163,
      "ä¸Ńåįİ": 1164,
      "åĲĮæĹ¶": 1165,
      "åįĬ": 1166,
      "çĻ»": 1167,
      "ç¾¤": 1168,
      "çĶµè§Ĩ": 1169,
      "çº¢": 1170,
      "ä¸Ńå¿ĥ": 1171,
      "å±Ĥ": 1172,
      "ä¸ĥ": 1173,
      "at": 1174,
      "es": 1175,
      "åĽ´": 1176,
      "ä½ľä¸º": 1177,
      "é£ŀ": 1178,
      "å·Ŀ": 1179,
      "è¶Ĭ": 1180,
      "åłĤ": 1181,
      "ä¹ĭä¸Ģ": 1182,
      "èĩªå·±": 1183,
      "ç»§": 1184,
      "å¤±": 1185,
      "æīĺ": 1186,
      "çħ": 1187,
      "ä¸ŃçļĦ": 1188,
      "åıĮ": 1189,
      "åĳĬ": 1190,
      "æĺĵ": 1191,
      "åĨĻ": 1192,
      "é£Ł": 1193,
      "ç¢": 1194,
      "ä»ĸçļĦ": 1195,
      "æ°ı": 1196,
      "195": 1197,
      "è¯Ħ": 1198,
      "å¢ĥ": 1199,
      "æ·±": 1200,
      "èĭ±åĽ½": 1201,
      "çĭ¬": 1202,
      "åıĳå±ķ": 1203,
      "å®¤": 1204,
      "é»ĳ": 1205,
      "å°Ħ": 1206,
      "æİĴ": 1207,
      "å¡ŀ": 1208,
      "éľĢ": 1209,
      "è¯ģ": 1210,
      "éĻĲ": 1211,
      "æĭħä»»": 1212,
      "ĊĊĊ": 1213,
      "åı¯èĥ½": 1214,
      "çŃĳ": 1215,
      "æĹ¶éĹ´": 1216,
      "é¸": 1217,
      "ic": 1218,
      "å£°": 1219,
      "çĶ²": 1220,
      "æĪĲç«ĭ": 1221,
      "å±ŀäºİ": 1222,
      "åŃ¦éĻ¢": 1223,
      "åĥı": 1224,
      "è±¡": 1225,
      "ç»ĩ": 1226,
      "ä¸įåĲĮ": 1227,
      "å¤®": 1228,
      "èĢģ": 1229,
      "25": 1230,
      "çľŁ": 1231,
      "åįł": 1232,
      "åĵį": 1233,
      "åĮ»": 1234,
      "ä½ķ": 1235,
      "è´¹": 1236,
      "æīį": 1237,
      "éĩĩ": 1238,
      "196": 1239,
      "æ½": 1240,
      "æĿĢ": 1241,
      "ä»į": 1242,
      "è®©": 1243,
      "ï¼Īï¼īï¼Į": 1244,
      "ï¼īãĢģ": 1245,
      "ĠS": 1246,
      "æľ¨": 1247,
      "ç§°ä¸º": 1248,
      "éŃ": 1249,
      "æĤ": 1250,
      "ä¾¿": 1251,
      "æ£®": 1252,
      "æ´ĭ": 1253,
      "æŃ¥": 1254,
      "å¸Ń": 1255,
      "çĽŁ": 1256,
      "å¥ĩ": 1257,
      "è®¾è®¡": 1258,
      "åıĳçİ°": 1259,
      "çīĻ": 1260,
      "æ¤": 1261,
      "èĪ°": 1262,
      "èĢĥ": 1263,
      "æĥ³": 1264,
      "ãĢįï¼Į": 1265,
      "æĸ½": 1266,
      "ä¸Ńå¤®": 1267,
      "æ¥¼": 1268,
      "æĦŁ": 1269,
      "éħį": 1270,
      "éĢļè¿ĩ": 1271,
      "æħ": 1272,
      "æ³ķåĽ½": 1273,
      "éĺ²": 1274,
      "è¿Ļä¸ª": 1275,
      "åĵ¥": 1276,
      "ä½İ": 1277,
      "å²ģ": 1278,
      "æ¸¸æĪı": 1279,
      "åĺ": 1280,
      "è¡ĮæĶ¿": 1281,
      "æ¾": 1282,
      "åĪĺ": 1283,
      "é¡¿": 1284,
      "ä½ı": 1285,
      "ä¹Į": 1286,
      "âĢĶ": 1287,
      "æķĪ": 1288,
      "æ¡¥": 1289,
      "æŃ¢": 1290,
      "è´Ŀ": 1291,
      "å±Ĭ": 1292,
      "çķĻ": 1293,
      "å§Ĩ": 1294,
      "å¾ĭ": 1295,
      "èĮĥ": 1296,
      "åĩł": 1297,
      "æĬĬ": 1298,
      "ç¤¾ä¼ļ": 1299,
      "åĨľ": 1300,
      "åįĥ": 1301,
      "éĵģè·¯": 1302,
      "åºķ": 1303,
      "èŃ": 1304,
      "çĹħ": 1305,
      "âĢĿãĢĤ": 1306,
      "åŁĥ": 1307,
      "æ³°": 1308,
      "æĽ¼": 1309,
      "æĸĻ": 1310,
      "ä½Ľ": 1311,
      "is": 1312,
      "for": 1313,
      "åĨł": 1314,
      "è¾ĳ": 1315,
      "è¿ĻäºĽ": 1316,
      "å»ºçŃĳ": 1317,
      "éĵ¶": 1318,
      "å³": 1319,
      "æģ©": 1320,
      "åıĤåĬł": 1321,
      "çĬ¶": 1322,
      "èŃ¦": 1323,
      "éŁ³ä¹Ĳ": 1324,
      "æ¦": 1325,
      "äºĳ": 1326,
      "éĻį": 1327,
      "èĴĻ": 1328,
      "åºĵ": 1329,
      "è¯Ŀ": 1330,
      "çľĭ": 1331,
      "æĻ¯": 1332,
      "å®ģ": 1333,
      "èĥľ": 1334,
      "è¿ª": 1335,
      "æģ¯": 1336,
      "ä»ħ": 1337,
      "æµĭ": 1338,
      "ä¿Ħ": 1339,
      "åĶ±": 1340,
      "è¡¨ç¤º": 1341,
      "è´Łè´£": 1342,
      "å¯Ł": 1343,
      "ç§»": 1344,
      "ç´ł": 1345,
      "ç¥ĸ": 1346,
      "åħ±åĴĮ": 1347,
      "æī¹": 1348,
      "çĿĢ": 1349,
      "ĠC": 1350,
      "è´¥": 1351,
      "éĿ©": 1352,
      "åĩºçİ°": 1353,
      "æĺ¾": 1354,
      "å¹´çļĦ": 1355,
      "æĸĩåĮĸ": 1356,
      "åº·": 1357,
      "le": 1358,
      "åİĨåı²": 1359,
      "å§Ķåĳĺä¼ļ": 1360,
      "ç»Ħç»ĩ": 1361,
      "å¿µ": 1362,
      "ç®Ĺ": 1363,
      "21": 1364,
      "å¹´ä»£": 1365,
      "æ¶Ī": 1366,
      "mu": 1367,
      "æī¿": 1368,
      "å¹²": 1369,
      "ç´¢": 1370,
      "æ¸©": 1371,
      "å¸Ĥéķĩ": 1372,
      "åįķä½į": 1373,
      "ä¸ĸçºª": 1374,
      "å©": 1375,
      "æİĪ": 1376,
      "æİ§": 1377,
      "è¯į": 1378,
      "åħ¸": 1379,
      "èĹı": 1380,
      "ãĢįãĢĤ": 1381,
      "ä¸ĬçļĦ": 1382,
      "24": 1383,
      "åĲİæĿ¥": 1384,
      "ç¥¨": 1385,
      "è¿ľ": 1386,
      "it": 1387,
      "åŃ¦æł¡": 1388,
      "å´": 1389,
      "å¼¹": 1390,
      "è½½": 1391,
      "éŁ©": 1392,
      "ä¸»ä¹ī": 1393,
      "æĢĿ": 1394,
      "è½¦ç«Ļ": 1395,
      "æł¹æį®": 1396,
      "he": 1397,
      "ä¹ł": 1398,
      "æĪ·": 1399,
      "ç»ıæµİ": 1400,
      "ç®¡çĲĨ": 1401,
      "åģļ": 1402,
      "åıĭ": 1403,
      "å®Ī": 1404,
      "ç¡®": 1405,
      "æīĢæľī": 1406,
      "ä½Ļ": 1407,
      "é½": 1408,
      "å½±åĵį": 1409,
      "æľĢåĲİ": 1410,
      "æľŁéĹ´": 1411,
      "æĢģ": 1412,
      "ç²¾": 1413,
      "æ»¡": 1414,
      "çĳŀ": 1415,
      "æŃ£å¼ı": 1416,
      "åı¶": 1417,
      "æıĲä¾Ľ": 1418,
      "âĢĿï¼Į": 1419,
      "è®¡åĪĴ": 1420,
      "å®«": 1421,
      "ä¹Łæĺ¯": 1422,
      "çĿ£": 1423,
      "éĻĦ": 1424,
      "æľĽ": 1425,
      "åĪ©äºļ": 1426,
      "ä¾Ŀ": 1427,
      "åıĳçĶŁ": 1428,
      "èĽ": 1429,
      "ä»·": 1430,
      "193": 1431,
      "23": 1432,
      "æ³¨": 1433,
      "é¢Ħ": 1434,
      "åĮĹäº¬": 1435,
      "ä¸ĭè¾ĸ": 1436,
      "å¾ģ": 1437,
      "å·²ç»ı": 1438,
      "2009": 1439,
      "çħ§": 1440,
      "æĪ¿": 1441,
      "ä½ľåĵģ": 1442,
      "è¿°": 1443,
      "é¹": 1444,
      "è®¸å¤ļ": 1445,
      "å¤ı": 1446,
      "æĭĶ": 1447,
      "å¾·åĽ½": 1448,
      "æĲ": 1449,
      "åħ±åĴĮåĽ½": 1450,
      "å¤§çļĦ": 1451,
      "æ¯Ľ": 1452,
      "æĹ¶æľŁ": 1453,
      "ç«ł": 1454,
      "è¯·": 1455,
      "ä¸ĢäºĽ": 1456,
      "æĵ": 1457,
      "åŁİå¸Ĥ": 1458,
      "ä¹ĭéĹ´": 1459,
      "æĬĹ": 1460,
      "æī§": 1461,
      "èįī": 1462,
      "mula": 1463,
      "000": 1464,
      "åį´": 1465,
      "åİĭ": 1466,
      "èĻ½": 1467,
      "formula": 1468,
      "2010": 1469,
      "ãĢĭï¼Į": 1470,
      "28": 1471,
      "ç®Ģ": 1472,
      "æ´»åĬ¨": 1473,
      "éĢĢ": 1474,
      "åħ¨åĽ½": 1475,
      "åģľ": 1476,
      "ç¬¬ä¸ī": 1477,
      "å°ģ": 1478,
      "å¯Į": 1479,
      "é³": 1480,
      "æ°¸": 1481,
      "æ¾³": 1482,
      "èĪ¬": 1483,
      "ä»¥ä¸ĭ": 1484,
      "çĽ®åīį": 1485,
      "å·¦": 1486,
      "ro": 1487,
      "ä¸¹": 1488,
      "è¶³çĲĥ": 1489,
      "ĠM": 1490,
      "æķĻèĤ²": 1491,
      "2011": 1492,
      "åĢ¼": 1493,
      "26": 1494,
      "äººçļĦ": 1495,
      "åĶĲ": 1496,
      "ä¸ģ": 1497,
      "çīĮ": 1498,
      "åł¡": 1499,
      "éĹ®é¢ĺ": 1500,
      "ä¸½": 1501,
      "æĸĹ": 1502,
      "éªĮ": 1503,
      "çĨ": 1504,
      "å¿«": 1505,
      "æĭ¿": 1506,
      "åĬ¿": 1507,
      "åĢĻ": 1508,
      "åĿ¦": 1509,
      "el": 1510,
      "50": 1511,
      "å®Ŀ": 1512,
      "ä¾§": 1513,
      "èĪ¹": 1514,
      "ãģ": 1515,
      "çł´": 1516,
      "27": 1517,
      "éļĨ": 1518,
      "åºĦ": 1519,
      "è¡ĮæĺŁ": 1520,
      "ä½Ĩæĺ¯": 1521,
      "æ¢ħ": 1522,
      "éĤ¦": 1523,
      "è¿Ľåħ¥": 1524,
      "æ¯ĶèµĽ": 1525,
      "æľįåĬ¡": 1526,
      "å¯º": 1527,
      "éļ¾": 1528,
      "ä¸Ĭæµ·": 1529,
      "æ¤į": 1530,
      "æ°ĳåĽ½": 1531,
      "åĲ«": 1532,
      "åºĨ": 1533,
      "éĥ¡": 1534,
      "èİ«": 1535,
      "å°¼äºļ": 1536,
      "re": 1537,
      "æĸŃ": 1538,
      "åİĤ": 1539,
      "è¯Ĩ": 1540,
      "ä¼¼": 1541,
      "ç»Ĩ": 1542,
      "çªģ": 1543,
      "çļ®": 1544,
      "åĲįä¸º": 1545,
      "çĽĳ": 1546,
      "å¿ħ": 1547,
      "22": 1548,
      "éĹ»": 1549,
      "åĨµ": 1550,
      "ãĢģãĢĬ": 1551,
      "ç¤¼": 1552,
      "æĪĲåĳĺ": 1553,
      "éĩįè¦ģ": 1554,
      "å°ļ": 1555,
      "æĹħ": 1556,
      "èĴĤ": 1557,
      "å¯Ĩåº¦": 1558,
      "ä¸¤ä¸ª": 1559,
      "èµ°": 1560,
      "am": 1561,
      "åĪĨå¸ĥ": 1562,
      "æĭ¥": 1563,
      "çĶŁæ´»": 1564,
      "ä¹ħ": 1565,
      "é¼": 1566,
      "åĺī": 1567,
      "è¯»": 1568,
      "st": 1569,
      "æĪĺäºī": 1570,
      "å²¸": 1571,
      "ç»Ŀ": 1572,
      "åĪĩ": 1573,
      "åºĹ": 1574,
      "2012": 1575,
      "å»¶": 1576,
      "å·¥ç¨ĭ": 1577,
      "åı³": 1578,
      "ä¸ºäºĨ": 1579,
      "äººçī©": 1580,
      "æľĹ": 1581,
      "æľĢç»Ī": 1582,
      "éº¦": 1583,
      "æ¯ķ": 1584,
      "ĠA": 1585,
      "ãĥ": 1586,
      "2013": 1587,
      "èĵ": 1588,
      "åħ³ç³»": 1589,
      "åİħ": 1590,
      "æĸ¹éĿ¢": 1591,
      "æį¢": 1592,
      "æŀ¶": 1593,
      "éĩİ": 1594,
      "è½®": 1595,
      "æĿ°": 1596,
      "å¼Ł": 1597,
      "æł¸": 1598,
      "åıĳè¡Į": 1599,
      "åĶ®": 1600,
      "èĬĤçĽ®": 1601,
      "æĺ¥": 1602,
      "ä¸´": 1603,
      "åĪ°äºĨ": 1604,
      "æĹ§": 1605,
      "äº¡": 1606,
      "ä¼ĺ": 1607,
      "ç½Ĺæĸ¯": 1608,
      "æĿ¾": 1609,
      "ol": 1610,
      "èģĶåĲĪ": 1611,
      "åŃ¦çĶŁ": 1612,
      "il": 1613,
      "ä¸¥": 1614,
      "å½Ĵ": 1615,
      "29": 1616,
      "æ²¹": 1617,
      "åĨ³å®ļ": 1618,
      "å¹¶ä¸Ķ": 1619,
      "åĪ¶ä½ľ": 1620,
      "ç¯": 1621,
      "èī¾": 1622,
      "æĶ¯æĮģ": 1623,
      "å¼Ĺ": 1624,
      "æĬĢæľ¯": 1625,
      "åĪ¤": 1626,
      "æŀª": 1627,
      "ä½³": 1628,
      "2008": 1629,
      "2016": 1630,
      "æĿ¨": 1631,
      "å¼Ĥ": 1632,
      "æµ·æĭĶ": 1633,
      "éĽĦ": 1634,
      "2014": 1635,
      "zh": 1636,
      "èĻ½çĦ¶": 1637,
      "ion": 1638,
      "åŃ¦åĲį": 1639,
      "ou": 1640,
      "éģĹ": 1641,
      "åĪĨåĪ«": 1642,
      "ç«¯": 1643,
      "åŃ¦å®¶": 1644,
      "çŁŃ": 1645,
      "åŃĻ": 1646,
      "ä¸¾è¡Į": 1647,
      "çłģ": 1648,
      "åĲ´": 1649,
      "ä¼¤": 1650,
      "åĬłåħ¥": 1651,
      "èĤ¡": 1652,
      "çģµ": 1653,
      "èĢ¶": 1654,
      "ä¸ĢèĪ¬": 1655,
      "äººåı£å¯Ĩåº¦": 1656,
      "ãĢĭãĢģãĢĬ": 1657,
      "2001": 1658,
      "2015": 1659,
      "éģŃ": 1660,
      "åıĤä¸İ": 1661,
      "å¤§éĻĨ": 1662,
      "ç»ĥ": 1663,
      "åĨłåĨĽ": 1664,
      "çŃĸ": 1665,
      "éľĢè¦ģ": 1666,
      "åį°åº¦": 1667,
      "ç³»åĪĹ": 1668,
      "æ¬§æ´²": 1669,
      "åľ°æĸ¹": 1670,
      "éĢĲ": 1671,
      "ä¿ĿæĬ¤": 1672,
      "èµ«": 1673,
      "åĮĹéĥ¨": 1674,
      "è½»": 1675,
      "èŀ": 1676,
      "äºĭä»¶": 1677,
      "åºı": 1678,
      "ĠB": 1679,
      "å¸ķ": 1680,
      "ĠP": 1681,
      "é¡º": 1682,
      "ï¼Īï¼Į": 1683,
      "å½¹": 1684,
      "çļĦäºº": 1685,
      "è·Ŀ": 1686,
      "ä¸ĵè¾ĳ": 1687,
      "æĹĹ": 1688,
      "æĳ©": 1689,
      "å»ºç«ĭ": 1690,
      "é¡»": 1691,
      "èı²": 1692,
      "ï¼ļï¼ī": 1693,
      "åĲĮå¹´": 1694,
      "æĺ¯åľ¨": 1695,
      "æĭ¥æľī": 1696,
      "ç±į": 1697,
      "å°ıè¡ĮæĺŁ": 1698,
      "æłĳ": 1699,
      "éħĴ": 1700,
      "éĢģ": 1701,
      "ac": 1702,
      "åįĹéĥ¨": 1703,
      "èĭ¥": 1704,
      "å®ĭ": 1705,
      "æĻļ": 1706,
      "é«ĺåº¦": 1707,
      "ä¹ĺ": 1708,
      "éĽħ": 1709,
      "Ġt": 1710,
      "éĶĢ": 1711,
      "2007": 1712,
      "æľĢé«ĺ": 1713,
      "40": 1714,
      "ä¼ļè®®": 1715,
      "æľ«": 1716,
      "æļ´": 1717,
      "æĿĤ": 1718,
      "æĿŁ": 1719,
      "å¾®": 1720,
      "ä¾ĭå¦Ĥ": 1721,
      "éĺµ": 1722,
      "ä»Ģ": 1723,
      "çİĽ": 1724,
      "éĴŁ": 1725,
      "-{": 1726,
      "}-": 1727,
      "et": 1728,
      "æ³½": 1729,
      "ç»ĦæĪĲ": 1730,
      "ä¸»æķĻ": 1731,
      "æĳĦ": 1732,
      "ä½įäºİè¯¥": 1733,
      "æĺ¯ä¸Ģä¸ª": 1734,
      "è¾ĵ": 1735,
      "è¯Ĺ": 1736,
      "ç§Ģ": 1737,
      "æĪĲåĬŁ": 1738,
      "èĥ¡": 1739,
      "èģĶèµĽ": 1740,
      "æĢ»éĿ¢ç§¯": 1741,
      "å®ĮæĪĲ": 1742,
      "åĨ²": 1743,
      "é½Ĳ": 1744,
      "åį¢": 1745,
      "è¯ĳ": 1746,
      "èī¯": 1747,
      "åħ¼": 1748,
      "å°±æĺ¯": 1749,
      "åĤ": 1750,
      "åĽ½æ°ĳ": 1751,
      "çĭ¬ç«ĭ": 1752,
      "äº¿": 1753,
      "ãĤ": 1754,
      "æĸ¯çī¹": 1755,
      "èĩªçĶ±": 1756,
      "ç£": 1757,
      "å®£å¸ĥ": 1758,
      "ĠT": 1759,
      "éĺ¶": 1760,
      "æīĢä»¥": 1761,
      "æĸ¹å¼ı": 1762,
      "è¡Ģ": 1763,
      "ç½²": 1764,
      "åª": 1765,
      "2006": 1766,
      "åºŃ": 1767,
      "çķ¥": 1768,
      "æ²ĥ": 1769,
      "æľīä¸Ģ": 1770,
      "æ¬¾": 1771,
      "èį¯": 1772,
      "å°¾": 1773,
      "é¢ĳ": 1774,
      "èį£": 1775,
      "å¯¹äºİ": 1776,
      "åıĹåĪ°": 1777,
      "åĸĦ": 1778,
      "çĲĥéĺŁ": 1779,
      "ç®¡è¾ĸ": 1780,
      "ä¸°": 1781,
      "é©»": 1782,
      "éĢļå¸¸": 1783,
      "çĽĸ": 1784,
      "é¥°": 1785,
      "åŃĺåľ¨": 1786,
      "æ´¥": 1787,
      "åĬ³": 1788,
      "çĶļ": 1789,
      "æ¿": 1790,
      "è¦ģæ±Ĥ": 1791,
      "æķ£": 1792,
      "è´µ": 1793,
      "åĲ¯": 1794,
      "å¼Ģåıĳ": 1795,
      "åħį": 1796,
      "å©ļ": 1797,
      "äººæ°ĳåħ±åĴĮåĽ½": 1798,
      "2017": 1799,
      "äº§çĶŁ": 1800,
      "æĭį": 1801,
      "å°½": 1802,
      "æĢ»ç»Ł": 1803,
      "å³°": 1804,
      "çļĦå¤§": 1805,
      "å·®": 1806,
      "çº½": 1807,
      "èīºæľ¯": 1808,
      "åĩºçīĪ": 1809,
      "åģĩ": 1810,
      "äºĨä¸Ģ": 1811,
      "é¡¶": 1812,
      "æ¯ķä¸ļ": 1813,
      "çĶŁäº§": 1814,
      "çŃ¾": 1815,
      "é²ľ": 1816,
      "åĸľ": 1817,
      "äºĮåįģ": 1818,
      "äºĪ": 1819,
      "åĪĹè½¦": 1820,
      "éĽĨåĽ¢": 1821,
      "èĩ£": 1822,
      "æĿľ": 1823,
      "è¿ģ": 1824,
      "æĿ¿": 1825,
      "åĩı": 1826,
      "æĻĭ": 1827,
      "60": 1828,
      "åı¦å¤ĸ": 1829,
      "æľ±": 1830,
      "çļĦæĺ¯": 1831,
      "çļĦä¸Ģä¸ªå¸Ĥéķĩ": 1832,
      "è¿Ļç§į": 1833,
      "çĩ": 1834,
      "æĿ¥èĩª": 1835,
      "ä¸įè¿ĩ": 1836,
      "çī¹åĪ«": 1837,
      "è¿½": 1838,
      "èľ": 1839,
      "åħ¹": 1840,
      "è°·": 1841,
      "å½¢æĪĲ": 1842,
      "çĪ¶äº²": 1843,
      "æĿ¯": 1844,
      "è´¢": 1845,
      "om": 1846,
      "æĥħåĨµ": 1847,
      "as": 1848,
      "çĦ¶èĢĮ": 1849,
      "çĥĪ": 1850,
      "ing": 1851,
      "è´Ń": 1852,
      "éĩĩçĶ¨": 1853,
      "æĹ¶çļĦ": 1854,
      "æıĲåĩº": 1855,
      "æĹ¶ä»£": 1856,
      "åīįå¾Ģ": 1857,
      "åıĺåĮĸ": 1858,
      "ä»ģ": 1859,
      "åħ»": 1860,
      "ç§ĺ": 1861,
      "èĥĮ": 1862,
      "2005": 1863,
      "æ¤įçī©": 1864,
      "å®³": 1865,
      "çİ°åľ¨": 1866,
      "åĩ¯": 1867,
      "çĪĨ": 1868,
      "å®¾": 1869,
      "ä¸Ńåįİäººæ°ĳåħ±åĴĮåĽ½": 1870,
      "ĠĊ": 1871,
      "ãĢĭãĢĤ": 1872,
      "èĪŀ": 1873,
      "ä¸Ńåħ±": 1874,
      "æ²¿": 1875,
      "çĽĽ": 1876,
      "ï¼į": 1877,
      "ch": 1878,
      "ĠL": 1879,
      "è¿Ļä¸Ģ": 1880,
      "ãĢĭï¼Ī": 1881,
      "æ¸Ĳ": 1882,
      "å¤º": 1883,
      "ä¼ģ": 1884,
      "å½ĵåľ°": 1885,
      "æ¢ģ": 1886,
      "å»·": 1887,
      "éĻ©": 1888,
      "äºĴ": 1889,
      "éĩĬ": 1890,
      "é»İ": 1891,
      "éŁ¦": 1892,
      "ä»ĸåľ¨": 1893,
      "éħ¸": 1894,
      "è®Ń": 1895,
      "çİī": 1896,
      "çĶŁäºİ": 1897,
      "å¾ĹåĪ°": 1898,
      "31": 1899,
      "çĶ¨äºİ": 1900,
      "è®¯": 1901,
      "æķĳ": 1902,
      "çīĽ": 1903,
      "èĪªç©º": 1904,
      "å¹´äººåı£": 1905,
      "ç½Ĺé©¬": 1906,
      "æı´": 1907,
      "åħ·æľī": 1908,
      "è´§": 1909,
      "ç½ª": 1910,
      "æİ§åĪ¶": 1911,
      "åªĴ": 1912,
      "å¯¼èĩ´": 1913,
      "æ°ĳä¸»": 1914,
      "è½¨": 1915,
      "åĲĪä½ľ": 1916,
      "ä¸Ģç§į": 1917,
      "åľĨ": 1918,
      "æĺĮ": 1919,
      "æ£Ģ": 1920,
      "æľºåľº": 1921,
      "åıªæľī": 1922,
      "è½¯": 1923,
      "2000": 1924,
      "åĲįçļĦ": 1925,
      "å¤Ł": 1926,
      "å°º": 1927,
      "è°¢": 1928,
      "èĶ": 1929,
      "å¥³æĢ§": 1930,
      "è¯Ńè¨Ģ": 1931,
      "éĻ¤äºĨ": 1932,
      "ä»ĭ": 1933,
      "è¡¥": 1934,
      "å±ĭ": 1935,
      "åĬ¨çī©": 1936,
      "éĢı": 1937,
      "éĢłæĪĲ": 1938,
      "åĲĽ": 1939,
      "åĿĢ": 1940,
      "å®¡": 1941,
      "éĢīä¸¾": 1942,
      "ä¿Ħç½Ĺæĸ¯": 1943,
      "æĺł": 1944,
      "ç»ĵæĿŁ": 1945,
      "æºª": 1946,
      "åĿ¡": 1947,
      "å¸ģ": 1948,
      "80": 1949,
      "åºĻ": 1950,
      "åıĸå¾Ĺ": 1951,
      "ä»ª": 1952,
      "æµ·åĨĽ": 1953,
      "è¥¿çıŃ": 1954,
      "è¥¿äºļ": 1955,
      "è¥¿çıŃçīĻ": 1956,
      "éĿ©åĳ½": 1957,
      "æľīéĻĲ": 1958,
      "ç§ĳåŃ¦": 1959,
      "æĿ¥çļĦ": 1960,
      "æĹłæ³ķ": 1961,
      "of": 1962,
      "èĸ": 1963,
      "æī©": 1964,
      "æĮ¥": 1965,
      "ä½įäºİè¯¥åĽ½": 1966,
      "è®²": 1967,
      "ĠR": 1968,
      "ä¸»å¸Ń": 1969,
      "2018": 1970,
      "èį·": 1971,
      "ï¼ļâĢľ": 1972,
      "èģĶçĽŁ": 1973,
      "ç»ıè¿ĩ": 1974,
      "æĻº": 1975,
      "æĿĲ": 1976,
      "æŃ¤å¤ĸ": 1977,
      "è¶ħè¿ĩ": 1978,
      "ed": 1979,
      "æİ¥åıĹ": 1980,
      "ç»§ç»Ń": 1981,
      "è®¿": 1982,
      "æĮī": 1983,
      "±ä¹Ĳ": 1984,
      "ä¸ĢçĽ´": 1985,
      "ãĢĤâĢĿ": 1986,
      "å·¨": 1987,
      "è¿Ľå£«": 1988,
      "å¾Ĵ": 1989,
      "äº¤éĢļ": 1990,
      "ä»»ä½ķ": 1991,
      "ä¼łç»Ł": 1992,
      "é¢Ĺ": 1993,
      "and": 1994,
      "éĢĤ": 1995,
      "äººåĳĺ": 1996,
      "æĸ°éĹ»": 1997,
      "æķħäºĭ": 1998,
      "us": 1999,
      "ä¹Ķ": 2000,
      "éŁ©åĽ½": 2001,
      "åı°åĮĹ": 2002,
      "å¤§åĪ©": 2003,
      "å¦Ĥæŀľ": 2004,
      "æķ¦": 2005,
      "éļ¶": 2006,
      "è§Ĵèī²": 2007,
      "ĠG": 2008,
      "æĺ¯çĶ±": 2009,
      "éĥİ": 2010,
      "èĩªå·±çļĦ": 2011,
      "190": 2012,
      "æķĮ": 2013,
      "100": 2014,
      "ç«¥": 2015,
      "ä¸Ńåįİæ°ĳåĽ½": 2016,
      "çİ©": 2017,
      "æĭľ": 2018,
      "çĽĬ": 2019,
      "éĥĳ": 2020,
      "é¢Ĩå¯¼": 2021,
      "å¸ĿåĽ½": 2022,
      "åĨ°": 2023,
      "å·¡": 2024,
      "id": 2025,
      "é¦ĸæ¬¡": 2026,
      "æ··": 2027,
      "å¾Ħ": 2028,
      "å¢ŀåĬł": 2029,
      "è¾Ĩ": 2030,
      "åįģäºĮ": 2031,
      "èĵĿ": 2032,
      "æİ¢": 2033,
      "å®½": 2034,
      "ç¿°": 2035,
      "ĊĊĊĊĊĊĊĊ": 2036,
      "æŁĲ": 2037,
      "å»ºäºİ": 2038,
      "éĢĶ": 2039,
      "éĥ¨éĺŁ": 2040,
      "å¹¶åľ¨": 2041,
      "un": 2042,
      "éĿŀå¸¸": 2043,
      "å·¥ä¸ļ": 2044,
      "ĠD": 2045,
      "è¯¸": 2046,
      "ĠH": 2047,
      "ç»ĵæŀĦ": 2048,
      "ç»ĵæŀľ": 2049,
      "ç¦ģ": 2050,
      "çĽ¸åħ³": 2051,
      "éĻĦè¿ĳ": 2052,
      "ent": 2053,
      "å¤ľ": 2054,
      "ç©Ĩ": 2055,
      "è®¨": 2056,
      "æĹĭ": 2057,
      "åĪĨå¸ĥäºİ": 2058,
      "æŃĮæĽ²": 2059,
      "ow": 2060,
      "é¡¹çĽ®": 2061,
      "è§ī": 2062,
      "éľį": 2063,
      "æľºæŀĦ": 2064,
      "æĽ¿": 2065,
      "åĪ»": 2066,
      "çľ¼": 2067,
      "çĮ®": 2068,
      "é¢Ŀ": 2069,
      "ä¹Łæľī": 2070,
      "æµ·æĭĶé«ĺåº¦": 2071,
      "æłĩåĩĨ": 2072,
      "éĶ¦": 2073,
      "éĥ½æĺ¯": 2074,
      "åĪº": 2075,
      "70": 2076,
      "ä¹ĭåīį": 2077,
      "æ®¿": 2078,
      "çļĨ": 2079,
      "åĨĽäºĭ": 2080,
      "èµµ": 2081,
      "æıı": 2082,
      "è·Ł": 2083,
      "åĲ¸": 2084,
      "åŁ¹": 2085,
      "å¹¶ä¸į": 2086,
      "åħ¬åĽŃ": 2087,
      "å²©": 2088,
      "éģĩ": 2089,
      "åħ±äº§": 2090,
      "åĪĬ": 2091,
      "åĢŁ": 2092,
      "å¸®": 2093,
      "åħ¬è·¯": 2094,
      "è¿ĺæľī": 2095,
      "ç¬¦": 2096,
      "ä¸ŃåĽ½å¤§éĻĨ": 2097,
      "2004": 2098,
      "35": 2099,
      "ä¹±": 2100,
      "ä½ł": 2101,
      "åĨħçļĦ": 2102,
      "æī¾": 2103,
      "ä½©": 2104,
      "æĴ¤": 2105,
      "ad": 2106,
      "ç«ŀ": 2107,
      "èģļ": 2108,
      "æ¬¢": 2109,
      "åįĪ": 2110,
      "ĠF": 2111,
      "ä¸ªäºº": 2112,
      "çĤ®": 2113,
      "çīĪæľ¬": 2114,
      "è¡Ĺéģĵ": 2115,
      "çĪµ": 2116,
      "ä¸ŃåŃ¦": 2117,
      "èĦĳ": 2118,
      "çĥŃå¸¦": 2119,
      "åħħ": 2120,
      "ç¾½": 2121,
      "å°ıè¯´": 2122,
      "èĩªæ²»": 2123,
      "è¿ĩç¨ĭ": 2124,
      "å®ĩ": 2125,
      "ç§ģ": 2126,
      "ä¼ĳ": 2127,
      "èĢ³": 2128,
      "å±ħæ°ĳ": 2129,
      "éŃĶ": 2130,
      "æĪĳä»¬": 2131,
      "åĽº": 2132,
      "å¥ī": 2133,
      "éĤ»": 2134,
      "çİ°ä»£": 2135,
      "ig": 2136,
      "æĢ»äººåı£": 2137,
      "æł¼åħ°": 2138,
      "è¢Ń": 2139,
      "å¹ķ": 2140,
      "åıĳè¡¨": 2141,
      "è¡ĮåĬ¨": 2142,
      "æ´ª": 2143,
      "åĶ¯": 2144,
      "åĪĨä¸º": 2145,
      "æ¼«": 2146,
      "è´Łè´£ç®¡è¾ĸ": 2147,
      "éĺ¿å°Ķ": 2148,
      "è¿Ķ": 2149,
      "è®¾æľī": 2150,
      "90": 2151,
      "æ¯Ĵ": 2152,
      "åĿĳ": 2153,
      "æĪĪ": 2154,
      "åĨħå®¹": 2155,
      "éª¨": 2156,
      "éĽ¨": 2157,
      "èĿ": 2158,
      "ur": 2159,
      "åĩºçļĦ": 2160,
      "æ¼Ķåĳĺ": 2161,
      "åĲ¦": 2162,
      "éĢĥ": 2163,
      "å°ĨåĨĽ": 2164,
      "éĩįæĸ°": 2165,
      "åĿĲ": 2166,
      "æĸ¹æ³ķ": 2167,
      "çĶµåŃĲ": 2168,
      "åºŁ": 2169,
      "èĮ¨": 2170,
      "çĶļèĩ³": 2171,
      "æģĴ": 2172,
      "éĽª": 2173,
      "æĵį": 2174,
      "éĿł": 2175,
      "æľīåħ³": 2176,
      "å¿ł": 2177,
      "æ¿Ģ": 2178,
      "åį·": 2179,
      "ç«¹": 2180,
      "ç»ľ": 2181,
      "å¤§éĩı": 2182,
      "æĶ¹ä¸º": 2183,
      "åı¬": 2184,
      "èµŀ": 2185,
      "æĭ©": 2186,
      "æ°ĳæĹı": 2187,
      "èĭıèģĶ": 2188,
      "ä¹İ": 2189,
      "çĽ´æİ¥": 2190,
      "èµ¤": 2191,
      "ä¸ºä¸»": 2192,
      "åĮºåŁŁ": 2193,
      "æĸ°çļĦ": 2194,
      "æłĸ": 2195,
      "ç¼º": 2196,
      "ç©¿": 2197,
      "éĴ±": 2198,
      "ä¸Ŀ": 2199,
      "æįķ": 2200,
      "å«": 2201,
      "éľĩ": 2202,
      "çºªå¿µ": 2203,
      "æľĿé²ľ": 2204,
      "è·Ŀç¦»": 2205,
      "æĢĢ": 2206,
      "çĽĺ": 2207,
      "èĮĥåĽ´": 2208,
      "éľ²": 2209,
      "å¾¡": 2210,
      "åĲİçļĦ": 2211,
      "æ±ĩ": 2212,
      "çĸĹ": 2213,
      "ç»¿": 2214,
      "åıįå¯¹": 2215,
      "å®ª": 2216,
      "ä¹Ī": 2217,
      "å®Įåħ¨": 2218,
      "åĪĳ": 2219,
      "45": 2220,
      "çģŃ": 2221,
      "å¹³åĿĩ": 2222,
      "å¹´èĩ³": 2223,
      "åı¦ä¸Ģ": 2224,
      "åĨĽéĺŁ": 2225,
      "å¤ĦçĲĨ": 2226,
      "çĬ¯": 2227,
      "ä¸ľåĮĹ": 2228,
      "å¤ªéĺ³": 2229,
      "åĲįç§°": 2230,
      "èĤ¯": 2231,
      "å¿ħé¡»": 2232,
      "çľģçļĦä¸Ģä¸ªå¸Ĥéķĩ": 2233,
      "ä¹¦è®°": 2234,
      "å¨ľ": 2235,
      "æķĻæİĪ": 2236,
      "æľĢä½³": 2237,
      "éķľ": 2238,
      "éªĳ": 2239,
      "å°¤": 2240,
      "è´¡": 2241,
      "è¯ī": 2242,
      "åħĦ": 2243,
      "çĶŁçī©": 2244,
      "åŃ¦ä¹ł": 2245,
      "å¾Ĳ": 2246,
      "Ġof": 2247,
      "è¯¾": 2248,
      "ç¬¬åĽĽ": 2249,
      "å¦»": 2250,
      "äºİæĺ¯": 2251,
      "ä½įç½®": 2252,
      "ç¿»": 2253,
      "çİ¯å¢ĥ": 2254,
      "é¡¾": 2255,
      "è°ĥæŁ¥": 2256,
      "åĪļ": 2257,
      "äºļæ´²": 2258,
      "çº²": 2259,
      "è¿«": 2260,
      "å§ĵ": 2261,
      "åĲ¬": 2262,
      "åĮºçļĦ": 2263,
      "æįŁ": 2264,
      "çĲĨè®º": 2265,
      "å»ºè®¾": 2266,
      "æĪĺæĸĹ": 2267,
      "æĬµ": 2268,
      "åĿļ": 2269,
      "å¾ħ": 2270,
      "èķ": 2271,
      "å¹¿ä¸ľ": 2272,
      "ä¸Ģèµ·": 2273,
      "é³į": 2274,
      "æĸĩåŃ¦": 2275,
      "çĶ³": 2276,
      "æĢ§çļĦ": 2277,
      "éĨ": 2278,
      "åıįåºĶ": 2279,
      "å¸Ĥåľº": 2280,
      "ç¾İåħĥ": 2281,
      "ä¸»ä»»": 2282,
      "æ¡ĳ": 2283,
      "éĻµ": 2284,
      "48": 2285,
      "æ¯ģ": 2286,
      "å¤ļæķ°": 2287,
      "æŁı": 2288,
      "éĵ¶è¡Į": 2289,
      "ĠI": 2290,
      "ä¸ĭè¾ĸçļĦä¸Ģä¸ª": 2291,
      "åįıä¼ļ": 2292,
      "2003": 2293,
      "æ³ķéĻ¢": 2294,
      "ä¼ģä¸ļ": 2295,
      "æµĻ": 2296,
      "åħĭæĸ¯": 2297,
      "èĢĮä¸Ķ": 2298,
      "è®¢": 2299,
      "å¤ªå¹³": 2300,
      "åĮħåĲ«": 2301,
      "ç§ĭ": 2302,
      "èĥŀ": 2303,
      "ï¼ļãĢĮ": 2304,
      "åĪ©çĶ¨": 2305,
      "han": 2306,
      "ä¸ĭçļĦ": 2307,
      "ä¸įèĥ½": 2308,
      "å½¢å¼ı": 2309,
      "æĺ¾ç¤º": 2310,
      "ĠW": 2311,
      "éĢīæĭ©": 2312,
      "åĳ¼": 2313,
      "æĦ¿": 2314,
      "ä¾µ": 2315,
      "æĶ¿æ²»äººçī©": 2316,
      "çĤ¸": 2317,
      "è°ĭ": 2318,
      "åŃ©": 2319,
      "åĪĽä½ľ": 2320,
      "å¹´éĹ´": 2321,
      "åªĴä½ĵ": 2322,
      "æ±½": 2323,
      "èª": 2324,
      "çĽ´åĪ°": 2325,
      "æ¨ª": 2326,
      "åĪ¶éĢł": 2327,
      "èĦī": 2328,
      "åħ±åĲĮ": 2329,
      "æ³Ľ": 2330,
      "å®īåħ¨": 2331,
      "ç¯ĩ": 2332,
      "åħ±æľī": 2333,
      "è°Ī": 2334,
      "è¥¿éĥ¨": 2335,
      "æīİ": 2336,
      "æĶ»åĩ»": 2337,
      "ä¸¾åĬŀ": 2338,
      "æ½®": 2339,
      "çĽ¸å½ĵ": 2340,
      "é¸Ł": 2341,
      "æĥł": 2342,
      "æģ¶": 2343,
      "æĮĩæĮ¥": 2344,
      "èĩªçĦ¶": 2345,
      "çļĦåľ°": 2346,
      "èĳ£": 2347,
      "ç»©": 2348,
      "éŃı": 2349,
      "æľīéĻĲåħ¬åı¸": 2350,
      "æ³ī": 2351,
      "çĶĺ": 2352,
      "æĽ¾ç»ı": 2353,
      "ä½ĵèĤ²": 2354,
      "åŁºæľ¬": 2355,
      "od": 2356,
      "åŃĶ": 2357,
      "è¿Ļæĺ¯": 2358,
      "èŀį": 2359,
      "ä¸īå¹´": 2360,
      "è§£æĶ¾": 2361,
      "åĨ³èµĽ": 2362,
      "èµĽäºĭ": 2363,
      "ot": 2364,
      "å®ŀéĻħ": 2365,
      "å°ıæĹ¶": 2366,
      "å¾Īå¤ļ": 2367,
      "è¡Įä¸º": 2368,
      "èģĶéĤ¦": 2369,
      "èĥ½å¤Ł": 2370,
      "ä¹°": 2371,
      "ç»į": 2372,
      "æĦıå¤§åĪ©": 2373,
      "èħĬ": 2374,
      "åģı": 2375,
      "æĪ´": 2376,
      "è®¾ç«ĭ": 2377,
      "è¾Ľ": 2378,
      "è®®ä¼ļ": 2379,
      "èĪį": 2380,
      "åħĭåħ°": 2381,
      "èĨ": 2382,
      "æī§è¡Į": 2383,
      "è®¡ç®Ĺ": 2384,
      "æľºè½¦": 2385,
      "ir": 2386,
      "èĥ½åĬĽ": 2387,
      "äººç±»": 2388,
      "åıĳå¸ĥ": 2389,
      "2002": 2390,
      "ãĢįï¼Ī": 2391,
      "éĺ¿æĭī": 2392,
      "éģ¿": 2393,
      "èĬ¬": 2394,
      "é»ĺ": 2395,
      "ç¼©": 2396,
      "åŁºç¡": 2397,
      "å®ĥä»¬": 2398,
      "åĬ¨çĶ»": 2399,
      "ç±»ä¼¼": 2400,
      "åįģä¸Ģ": 2401,
      "æĢ¥": 2402,
      "å¥ı": 2403,
      "åħ³äºİ": 2404,
      "ĠE": 2405,
      "èĦ±": 2406,
      "âĢĶâĢĶ": 2407,
      "çŃīåľ°": 2408,
      "åģ¥": 2409,
      "ä½Ĳ": 2410,
      "æĺ¯ä¸Ģç§į": 2411,
      "èĴĻåı¤": 2412,
      "éļıåĲİ": 2413,
      "36": 2414,
      "çĸĳ": 2415,
      "åŁºç¡Ģ": 2416,
      "å¤§ä¼ļ": 2417,
      "ä½¿å¾Ĺ": 2418,
      "åĬŁèĥ½": 2419,
      "èģĮä¸ļ": 2420,
      "ä¸įæĺ¯": 2421,
      "åĬª": 2422,
      "è¾¾åĪ°": 2423,
      "iv": 2424,
      "å¥Ĺ": 2425,
      "å¹¿å·ŀ": 2426,
      "ä¸įåĲĮçļĦ": 2427,
      "åĨįæ¬¡": 2428,
      "Ġd": 2429,
      "å°Ķæĸ¯": 2430,
      "åį±": 2431,
      "è¯¯": 2432,
      "æ¦Ĥ": 2433,
      "ç¿¼": 2434,
      "èĤī": 2435,
      "æĹ¥åľ¨": 2436,
      "è¡¨çİ°": 2437,
      "åĳĪ": 2438,
      "å¢¨": 2439,
      "éĥ¨éķ¿": 2440,
      "è¡£": 2441,
      "åħ±äº§åħļ": 2442,
      "æĸĩçī©": 2443,
      "å¢ĵ": 2444,
      "èİī": 2445,
      "å¸ĮæľĽ": 2446,
      "æĹ¶åĢĻ": 2447,
      "çº§è¡ĮæĶ¿": 2448,
      "æ¦ľ": 2449,
      "åĿĹ": 2450,
      "å®ļçļĦ": 2451,
      "åĩºèº«": 2452,
      "éĴĪ": 2453,
      "æİ¨åĩº": 2454,
      "è¿Ļæł·": 2455,
      "38": 2456,
      "è·¯çº¿": 2457,
      "è®®åĳĺ": 2458,
      "åħ¬å¼Ģ": 2459,
      "âĢ¦": 2460,
      "çļĦä¸»": 2461,
      "æ³ķå¾ĭ": 2462,
      "ä¹¡éķĩ": 2463,
      "å®ľ": 2464,
      "ç´§": 2465,
      "äºķ": 2466,
      "ä¸Ģæ¬¡": 2467,
      "br": 2468,
      "ä½ľçĶ¨": 2469,
      "åĿı": 2470,
      "os": 2471,
      "å¥³åŃĲ": 2472,
      "å·´å£«": 2473,
      "äººåı£ä¸º": 2474,
      "æ®ĸ": 2475,
      "è£ģ": 2476,
      "åı«": 2477,
      "ç§¦": 2478,
      "åĨ·": 2479,
      "è¿İ": 2480,
      "æķ°æį®": 2481,
      "èĭ±æĸĩ": 2482,
      "ç©ºéĹ´": 2483,
      "æī¬": 2484,
      "è¿ĲåĬ¨åĳĺ": 2485,
      "å¯»": 2486,
      "Ġ\"": 2487,
      "èµĸ": 2488,
      "37": 2489,
      "æ¯«": 2490,
      "ä¸īä¸ª": 2491,
      "ia": 2492,
      "ä¸ľåįĹ": 2493,
      "ä¸ĭè¾ĸä»¥ä¸ĭ": 2494,
      "åįķæĽ²": 2495,
      "æĺ¯æ³ķåĽ½": 2496,
      "æŁĵ": 2497,
      "im": 2498,
      "æ¼Ķåĩº": 2499,
      "ç¦»å¼Ģ": 2500,
      "èĻİ": 2501,
      "éļĶ": 2502,
      "åľĪ": 2503,
      "ç¼ĺ": 2504,
      "çıł": 2505,
      "åĲĦç§į": 2506,
      "æĶ¿çŃĸ": 2507,
      "ç»Łæ²»": 2508,
      "æ¶ī": 2509,
      "æĸ¹åĲĳ": 2510,
      "è¿·": 2511,
      "æµĻæ±Ł": 2512,
      "æį·": 2513,
      "åķĨä¸ļ": 2514,
      "åĽ½çİĭ": 2515,
      "åĽ¢ä½ĵ": 2516,
      "è¿¹": 2517,
      "çºªå½ķ": 2518,
      "å»ī": 2519,
      "ä¸ľäº¬": 2520,
      "æ¸¡": 2521,
      "éĺ»": 2522,
      "çº¦ç¿°": 2523,
      "éĺ´": 2524,
      "æĭįæĳĦ": 2525,
      "åĵ²": 2526,
      "å±±ä¸ľ": 2527,
      "ä¸Ģæł·": 2528,
      ")ï¼Į": 2529,
      "å¹¿æĴŃ": 2530,
      "å½©": 2531,
      "äº®": 2532,
      "è¸": 2533,
      "èµĦæĸĻ": 2534,
      "ä¸ĵä¸ļ": 2535,
      "ä»įçĦ¶": 2536,
      "åīĳ": 2537,
      "ä¾¯": 2538,
      "æŀĲ": 2539,
      "éĶ¡": 2540,
      "æ±ł": 2541,
      "ä»Ļ": 2542,
      "è´¸": 2543,
      "ä»ĺ": 2544,
      "åĶ¯ä¸Ģ": 2545,
      "èĳ¡": 2546,
      "èĻ«": 2547,
      "æģĲ": 2548,
      "å¼ĥ": 2549,
      "å®ĺæĸ¹": 2550,
      "è¾ħ": 2551,
      "åįĸ": 2552,
      "æ°§": 2553,
      "Ġthe": 2554,
      "æĺ¯ä¸ĭè¾ĸçļĦä¸Ģä¸ª": 2555,
      "åĩ½": 2556,
      "åŁºçĿ£": 2557,
      "34": 2558,
      "æļĹ": 2559,
      "ï¼ĮãĢĬ": 2560,
      "åŁİéķĩ": 2561,
      "ation": 2562,
      "æ¯ıå¹³æĸ¹åħ¬éĩĮ": 2563,
      "æĭĽ": 2564,
      "ç¾¤å²Ľ": 2565,
      "çĶ·æĢ§": 2566,
      "äº§åĵģ": 2567,
      "è¥¿åĮĹ": 2568,
      "å®ŀéªĮ": 2569,
      "åĽĽå·Ŀ": 2570,
      "åĳ³": 2571,
      "åĦ¿åŃĲ": 2572,
      "åĩ¤": 2573,
      "ãĢĢ": 2574,
      "ç»ķ": 2575,
      "çļĦçī¹": 2576,
      "åĮ»éĻ¢": 2577,
      "æĪĸèĢħ": 2578,
      "æ¨¡å¼ı": 2579,
      "ä¸»æĮģ": 2580,
      "çĽ¸åĲĮ": 2581,
      "çĲ´": 2582,
      "éĥ¨ä»½": 2583,
      "ag": 2584,
      "è¥¿åįĹ": 2585,
      "å¹¶äºİ": 2586,
      "åĬłæĭ¿": 2587,
      "ter": 2588,
      "ä¸¥éĩį": 2589,
      "åľ°çļĦ": 2590,
      "ä¹Įåħĭåħ°": 2591,
      "ä¹ĭéĹ´çļĦ": 2592,
      "æĹ©æľŁ": 2593,
      "ç¬¬ä¸Ģæ¬¡": 2594,
      "éĢĲæ¸Ĳ": 2595,
      "é£ŀæľº": 2596,
      "å¤©ä¸»æķĻ": 2597,
      "åĮ¹": 2598,
      "å¯¿": 2599,
      "å°Ĭ": 2600,
      "ä»»åĬ¡": 2601,
      "æ»¨": 2602,
      "ä¸ĭè¾ĸä»¥ä¸ĭåľ°åĮº": 2603,
      "éĶĻ": 2604,
      "æ¢¦": 2605,
      "åħ¨çĲĥ": 2606,
      "å®ĹæķĻ": 2607,
      "åľ¨æŃ¤": 2608,
      "æ´ŀ": 2609,
      "æĸ¯åĿ¦": 2610,
      "ãĢįãĢģ": 2611,
      "ç»ĺ": 2612,
      "ä¿Ĺ": 2613,
      "è§Ħæ¨¡": 2614,
      "éĴ¢": 2615,
      "éº»": 2616,
      "¤Ĳ": 2617,
      "æľĢå¤§": 2618,
      "çĹĩ": 2619,
      "çº½çº¦": 2620,
      "è¢«ç§°ä¸º": 2621,
      "75": 2622,
      "ä¼į": 2623,
      "å¦¹": 2624,
      "äº«": 2625,
      "èĦļ": 2626,
      "æĺ¯ä¸ŃåĽ½": 2627,
      "ç¹": 2628,
      "å¸ĮèħĬ": 2629,
      "ç¡¬": 2630,
      "èµ¢": 2631,
      "æłĸæģ¯": 2632,
      "åħ¶åĲİ": 2633,
      "çĴ": 2634,
      "ä¸ĭçļĦä¸Ģä¸ª": 2635,
      "é«ĺéĢŁ": 2636,
      "éģĵè·¯": 2637,
      "ç®Ģç§°": 2638,
      "ãĢĤãĢį": 2639,
      "åįļçī©": 2640,
      "æ¸ħæľĿ": 2641,
      "é¢ģ": 2642,
      "å¹´åľ¨": 2643,
      "çº§è¡ĮæĶ¿åįķä½į": 2644,
      "è±ª": 2645,
      "åİŁåĽł": 2646,
      "å¥¹çļĦ": 2647,
      "æĭīæĸ¯": 2648,
      "39": 2649,
      "çĳŁ": 2650,
      "ä»¥æĿ¥": 2651,
      "å±ŀçļĦ": 2652,
      "çĶº": 2653,
      "ç¬Ķ": 2654,
      "ä¹¡éķĩçº§è¡ĮæĶ¿åįķä½į": 2655,
      "um": 2656,
      "è¾Ĳ": 2657,
      "åĢĴ": 2658,
      "189": 2659,
      "ç§Ł": 2660,
      "éĿĴå¹´": 2661,
      "èĭ±è¯Ń": 2662,
      "å´ĩ": 2663,
      "ç»ª": 2664,
      "é©¬æĿ¥": 2665,
      "åĨ¬": 2666,
      "çŃīäºº": 2667,
      "ä¸įä¹ħ": 2668,
      "åĩ»è´¥": 2669,
      "è¿ŀæİ¥": 2670,
      "æĺİæľĿ": 2671,
      "åľ°çĲĥ": 2672,
      "ç¹ģ": 2673,
      "æĪª": 2674,
      "å½ĵéĢī": 2675,
      "åħ¨éĥ¨": 2676,
      "è¶ĬåįĹ": 2677,
      "ç»¼": 2678,
      "æľĢåĪĿ": 2679,
      "æŃĮæīĭ": 2680,
      "æ¶²": 2681,
      "é©±": 2682,
      "ĠN": 2683,
      "çŁ¿": 2684,
      "å¾½": 2685,
      "èªī": 2686,
      "æĽ¹": 2687,
      "åįļå£«": 2688,
      "ä»ĸä»¬çļĦ": 2689,
      "å®¶åºŃ": 2690,
      "æĺ¯ä¸ĭè¾ĸçļĦä¸Ģä¸ªä¹¡éķĩçº§è¡ĮæĶ¿åįķä½į": 2691,
      "å¥Ī": 2692,
      "è½¨éģĵ": 2693,
      "éĿĻ": 2694,
      "éĢĬ": 2695,
      "åįĹäº¬": 2696,
      "å¤§éĥ¨åĪĨ": 2697,
      "æ¥ļ": 2698,
      "åºĶçĶ¨": 2699,
      "65": 2700,
      "ç¨³": 2701,
      "éĵľ": 2702,
      "åĨĪ": 2703,
      "åĪĻæĺ¯": 2704,
      "äººåı£å¯Ĩåº¦æ¯ıå¹³æĸ¹åħ¬éĩĮ": 2705,
      "te": 2706,
      "å®ļä¹ī": 2707,
      "æĺĤ": 2708,
      "å¯¼æ¼Ķ": 2709,
      "æĬ¥åĳĬ": 2710,
      "çī©çĲĨ": 2711,
      "åıĳåĬ¨": 2712,
      "1999": 2713,
      "åı·çº¿": 2714,
      "åĬłæĭ¿å¤§": 2715,
      "32": 2716,
      "å¦ĩ": 2717,
      "éĢĿ": 2718,
      "çĬ¹": 2719,
      "æĴŃåĩº": 2720,
      "ç»Ĩèĥŀ": 2721,
      "éĺģ": 2722,
      "åĲĪå¹¶": 2723,
      "æĺŃ": 2724,
      "ä¸ľéĥ¨": 2725,
      "åĲķ": 2726,
      "æĮĩåĩº": 2727,
      "äºĭåĬ¡": 2728,
      "åĪĹè¡¨": 2729,
      "çĲĥåĳĺ": 2730,
      "èĽĭ": 2731,
      "æİĮ": 2732,
      "åħ¬åħ±": 2733,
      "æŁ±": 2734,
      "æ¯Ķè¾ĥ": 2735,
      "ç½ĳç»ľ": 2736,
      "æĬķèµĦ": 2737,
      "ç¥ĸçĪ¶": 2738,
      "é½¿": 2739,
      "ä¼°": 2740,
      "å¤©æ´¥": 2741,
      "1990": 2742,
      "ay": 2743,
      "èļ": 2744,
      "ä¼Ĳ": 2745,
      "ä¹Ļ": 2746,
      "æ¼ĶåĶ±": 2747,
      "å¢Ļ": 2748,
      "Ġc": 2749,
      "æ¯įäº²": 2750,
      "è¾ŀ": 2751,
      "å¹´åĲİ": 2752,
      "æµ¦": 2753,
      "è®Ńç»ĥ": 2754,
      "æķ´ä¸ª": 2755,
      "55": 2756,
      "åİ»ä¸ĸ": 2757,
      "é£İæł¼": 2758,
      "äººå£«": 2759,
      "èĲĦ": 2760,
      "åı¸ä»¤": 2761,
      "æĮģç»Ń": 2762,
      "ä¸įä¼ļ": 2763,
      "èĳ¡èĲĦ": 2764,
      "çļĦæĸ°": 2765,
      "è¾½": 2766,
      "éĹŃ": 2767,
      "éĥŃ": 2768,
      "ç¾İæ´²": 2769,
      "è½´": 2770,
      "æ½ľ": 2771,
      "åĽ¾ç¤º": 2772,
      "æĮ¯": 2773,
      "æ·¡": 2774,
      "èĢħçļĦ": 2775,
      "è®°è½½": 2776,
      "å²Ń": 2777,
      "æŃ»äº¡": 2778,
      "è£Ĥ": 2779,
      "ä¹ĥ": 2780,
      "çº¸": 2781,
      "è¯¥å¸Ĥéķĩ": 2782,
      "éĢŁåº¦": 2783,
      "åĪ¶åº¦": 2784,
      "åĲįåŃĹ": 2785,
      "å¹¼": 2786,
      "æ¡£": 2787,
      "éĤĢ": 2788,
      "å¼±": 2789,
      "ä¸Ńæĸĩ": 2790,
      "åĪĨéĴŁ": 2791,
      "åĮĸåŃ¦": 2792,
      "å¹´æĹ¶çļĦ": 2793,
      "å®ĥçļĦ": 2794,
      "å¹¿åľº": 2795,
      "æļĤ": 2796,
      "æııè¿°": 2797,
      "åħ¬å°º": 2798,
      "çĽĲ": 2799,
      "å¤§æĪĺ": 2800,
      "å¤Ħäºİ": 2801,
      "çĽ®æłĩ": 2802,
      "æĭŁ": 2803,
      "åħ¬å¸ĥ": 2804,
      "éĽ¶": 2805,
      "1998": 2806,
      "ä¼¦æķ¦": 2807,
      "åĨĮ": 2808,
      "47": 2809,
      "èµı": 2810,
      "å¤ļçļĦ": 2811,
      "é¼ĵ": 2812,
      "è£Ķ": 2813,
      "éĢıè¿ĩ": 2814,
      "åĽĽå¹´": 2815,
      "æĭĴ": 2816,
      "æ¼«çĶ»": 2817,
      "è§Ħå®ļ": 2818,
      "éĻ¶": 2819,
      "33": 2820,
      "äººåı£åıĺåĮĸ": 2821,
      "em": 2822,
      "è·¨": 2823,
      "åįļçī©é¦Ĩ": 2824,
      "åħĪåĲİ": 2825,
      "äººåı£åıĺåĮĸåĽ¾ç¤º": 2826,
      "èĳĹåĲį": 2827,
      "æµª": 2828,
      "åĩºçĶŁ": 2829,
      "æ»ĳ": 2830,
      "è§¦": 2831,
      "%ï¼Į": 2832,
      "èİİ": 2833,
      "éĩĮæĸ¯": 2834,
      "ec": 2835,
      "æģ¢": 2836,
      "ĠK": 2837,
      "æĺĨ": 2838,
      "æĽ¾ä»»": 2839,
      "ç»ıå¸¸": 2840,
      "æľĢæĹ©": 2841,
      "ç²ī": 2842,
      "å°½ç®¡": 2843,
      "ç§ĳæĬĢ": 2844,
      "å¹¸": 2845,
      "å¼ĢæĶ¾": 2846,
      "çĶµè§Ĩåı°": 2847,
      "è¿ŀç»Ń": 2848,
      "èĹ¤": 2849,
      "èµĽåŃ£": 2850,
      "æ²³åįĹ": 2851,
      "ä¸įå°ĳ": 2852,
      "éĻ·": 2853,
      "åĽ°": 2854,
      "èıľ": 2855,
      "æĹģ": 2856,
      "çļĦç¬¬": 2857,
      "åīĤ": 2858,
      "ï¼ĮâĢľ": 2859,
      "è®¾ç½®": 2860,
      "ä¼Ł": 2861,
      "ç¦ıå»º": 2862,
      "çģ¾": 2863,
      "åģ¶": 2864,
      "Ġs": 2865,
      "46": 2866,
      "èıĮ": 2867,
      "æľīçļĦ": 2868,
      "è§Ī": 2869,
      "æĿĤå¿Ĺ": 2870,
      "åŃ¦èĢħ": 2871,
      "å¹´åº¦": 2872,
      "èĶ¡": 2873,
      "æĤ£": 2874,
      "æĶ¹åıĺ": 2875,
      "åĳ½åĲį": 2876,
      "çĪĨåıĳ": 2877,
      "çİ©å®¶": 2878,
      "çĦ¶åĲİ": 2879,
      "å¹´èµ·": 2880,
      "åľŁåľ°": 2881,
      "å¤ªå¹³æ´ĭ": 2882,
      "æĶ¹éĿ©": 2883,
      "å¸®åĬ©": 2884,
      "æ¾³éĹ¨": 2885,
      "ç»ıèĲ¥": 2886,
      "éļľ": 2887,
      "ä¸¤äºº": 2888,
      "å¤§çº¦": 2889,
      "æĪĺå½¹": 2890,
      "åĬŀåħ¬": 2891,
      "ãĢįãĢģãĢĮ": 2892,
      "op": 2893,
      "æľĢå¤§çļĦ": 2894,
      "é¢ľ": 2895,
      "th": 2896,
      "åĽ½çļĦ": 2897,
      "1997": 2898,
      "æķĻåłĤ": 2899,
      "å¹´æĹ¶çļĦäººåı£ä¸º": 2900,
      "åĲĮæł·": 2901,
      "ä½ľå®¶": 2902,
      "æģ¢å¤į": 2903,
      "çī§": 2904,
      "ä½Ĩåľ¨": 2905,
      "ä¿±ä¹Ĳ": 2906,
      "ä»¥ä¸Ĭ": 2907,
      "æķĻåĮº": 2908,
      "æ®ĭ": 2909,
      "æ¶ħ": 2910,
      "é©¶": 2911,
      "çļĦä¸»è¦ģ": 2912,
      "å½¼": 2913,
      "æĪĲç»©": 2914,
      "å¼ķèµ·": 2915,
      "å¤ĸäº¤": 2916,
      "ä¿±ä¹Ĳéĥ¨": 2917,
      "ra": 2918,
      "ç½ĳç«Ļ": 2919,
      "å±ŀä¸ĭçļĦä¸Ģä¸ª": 2920,
      "ç³ĸ": 2921,
      "Ġ-": 2922,
      "éĻĨåĨĽ": 2923,
      "%ãĢĤ": 2924,
      "åħĥå¹´": 2925,
      "å®¶æĹı": 2926,
      "çº¯": 2927,
      "æ²Ī": 2928,
      "å®¿": 2929,
      "ĠO": 2930,
      "å¤©æĸĩ": 2931,
      "è¿ĺæĺ¯": 2932,
      "åĪĨåŃĲ": 2933,
      "å£ģ": 2934,
      "åĬłä¸Ĭ": 2935,
      "ä¸Ńéĥ¨": 2936,
      "çī©ç§į": 2937,
      "49": 2938,
      "500": 2939,
      "ä¸ĺ": 2940,
      "æŃ¤åĲİ": 2941,
      "çİ°æĹ¶": 2942,
      "ç¨İ": 2943,
      "ï¼Īï¼Įï¼īï¼Į": 2944,
      "é£ŀè¡Į": 2945,
      "ä¸īåįģ": 2946,
      "ç¥Ń": 2947,
      "èĴĭ": 2948,
      "è´¸æĺĵ": 2949,
      "éĤ®": 2950,
      "çĶ·åŃĲ": 2951,
      "çĭ±": 2952,
      "æ±½è½¦": 2953,
      "ä¼´": 2954,
      "åĭĩ": 2955,
      "æľĪåı°": 2956,
      "çĶŁéķ¿": 2957,
      "æ¯Ķäºļ": 2958,
      "åı¯è¾¾": 2959,
      "ï¼ģ": 2960,
      "åįĹæŀģ": 2961,
      "åıĸä»£": 2962,
      "åľ°ä¸ĭ": 2963,
      "æ¯ıå¹´": 2964,
      "èµ¢å¾Ĺ": 2965,
      "èĢĮåľ¨": 2966,
      "å½ĵä¸Ń": 2967,
      "éļĲ": 2968,
      "å±ħä½ı": 2969,
      "æŁ¯": 2970,
      "åı¥": 2971,
      "äº¨": 2972,
      "ä¿¡æģ¯": 2973,
      "æ±Ĺ": 2974,
      "ç§ĳçļĦ": 2975,
      "çļĩå¸Ŀ": 2976,
      "åŀĭçļĦ": 2977,
      "ç«ĭæ³ķ": 2978,
      "ä»Ķ": 2979,
      "æķı": 2980,
      "åİ¦": 2981,
      "ä»¥åĲİ": 2982,
      "ä¼ļçļĦ": 2983,
      "1980": 2984,
      "æ¡ĥ": 2985,
      "çĨĻ": 2986,
      "é¾Ħ": 2987,
      "è¡¡": 2988,
      "çģ¯": 2989,
      "è¡¨æ¼Ķ": 2990,
      "éĶ®": 2991,
      "æĲŃ": 2992,
      "èĩ³ä»Ĭ": 2993,
      "ä¸ļåĬ¡": 2994,
      "ç¬¬äºĶ": 2995,
      "äººä»¬": 2996,
      "è´Ŀå°Ķ": 2997,
      "éģį": 2998,
      "éĿ¢çļĦ": 2999,
      "æ®Ĭ": 3000,
      "åħģ": 3001,
      "æ±¤": 3002,
      "çĩĥ": 3003,
      "éĥ¨éĹ¨": 3004,
      "çıį": 3005,
      "ç¬¬äºĮæ¬¡": 3006,
      "è§£æĶ¾åĨĽ": 3007,
      "ä½ĵçļĦ": 3008,
      "çŃĶ": 3009,
      "çĸĨ": 3010,
      "å»ºè®®": 3011,
      "æŃ¦åĻ¨": 3012,
      "æµģåŁŁ": 3013,
      "åŁĶ": 3014,
      "å°Ĩåħ¶": 3015,
      "æĿ¡ä»¶": 3016,
      "æ²ī": 3017,
      "ul": 3018,
      "åĽŀåĪ°": 3019,
      "éĩįè¦ģçļĦ": 3020,
      "èĩªåĬ¨": 3021,
      "ä¿ĥ": 3022,
      "åįıåĬ©": 3023,
      "og": 3024,
      "åŃŁ": 3025,
      "æģĭ": 3026,
      "Âł": 3027,
      "å®ħ": 3028,
      "çļĦä¸Ģç§į": 3029,
      "åĩłä¹İ": 3030,
      "é¢ĨåŁŁ": 3031,
      "ä¹ĭå¤ĸ": 3032,
      "åħ¬åĪĨ": 3033,
      "å·¦åı³": 3034,
      "å°Ķå¾·": 3035,
      "åĪĨæŀĲ": 3036,
      "åĬłåĿ¡": 3037,
      "èį·åħ°": 3038,
      "å»ºéĢł": 3039,
      "å¤ļæ¬¡": 3040,
      "çĬ¶æĢģ": 3041,
      "ĠJ": 3042,
      "å§ĭå»ºäºİ": 3043,
      "æĺ¯æĮĩ": 3044,
      "åİŁæľ¬": 3045,
      "çĽ¸å¯¹": 3046,
      "è¶ħçº§": 3047,
      "64": 3048,
      "çĥ§": 3049,
      "ä¸ĢåĲį": 3050,
      "èĮ¶": 3051,
      "å¥´": 3052,
      "éĺ¶æ®µ": 3053,
      "èº«ä»½": 3054,
      "å¹ħ": 3055,
      "åı¯ä»¥æĮĩ": 3056,
      "æĭĨ": 3057,
      "åĩºçĶŁäºİ": 3058,
      "âĢĿï¼Ī": 3059,
      "è¿Ī": 3060,
      "åĩºä»»": 3061,
      "è§ĦåĪĴ": 3062,
      "ä¾į": 3063,
      "éģŃåĪ°": 3064,
      "èĭ±æł¼åħ°": 3065,
      "ç´«": 3066,
      "éķ¿çļĦ": 3067,
      "åĩºäºĨ": 3068,
      "è®¾å¤ĩ": 3069,
      "åĨħéĥ¨": 3070,
      ")ãĢĤ": 3071,
      "çº¬": 3072,
      "åĶ±çīĩ": 3073,
      "è®¾æĸ½": 3074,
      "åıĪç§°": 3075,
      "éĶ¦æłĩ": 3076,
      "çļĦä¸Ģéĥ¨åĪĨ": 3077,
      "èĻļ": 3078,
      "oc": 3079,
      "è¿Ĳè¾ĵ": 3080,
      "äºĶå¹´": 3081,
      "åİļ": 3082,
      "è¿ĩåİ»": 3083,
      "æ¹ĸåįĹ": 3084,
      "æĸ¯ç§ĳ": 3085,
      "ç¤¾åĮº": 3086,
      "ç£ģ": 3087,
      "åħĦå¼Ł": 3088,
      "68": 3089,
      "188": 3090,
      "æ£Ĵ": 3091,
      "æ±Łèĭı": 3092,
      "èİ²": 3093,
      "åĽ¾ä¹¦": 3094,
      "ï¼Ł": 3095,
      "æĬĺ": 3096,
      "çģ°": 3097,
      "å¹»": 3098,
      "å®ĺåĳĺ": 3099,
      "çĥŁ": 3100,
      "èĳ¬": 3101,
      "è·ĳ": 3102,
      "æĸ°åĬłåĿ¡": 3103,
      "å¡ĺ": 3104,
      "å¹¿æ³Ľ": 3105,
      "åŃ¦ä½į": 3106,
      "æ©": 3107,
      "44": 3108,
      "åĿĽ": 3109,
      "åħ´å»º": 3110,
      "æ¢°": 3111,
      "æµģè¡Į": 3112,
      "ä½ľæĪĺ": 3113,
      "ä¹ĲåĽ¢": 3114,
      "åľ¨è¿Ļ": 3115,
      "èµ´": 3116,
      "åŃĿ": 3117,
      "ç»§æī¿": 3118,
      "èīĺ": 3119,
      "æĿ¡çº¦": 3120,
      "ä¸ĩäºº": 3121,
      "åľ°åĮºçļĦ": 3122,
      "åıĻ": 3123,
      "ç»Łä¸Ģ": 3124,
      "éĤĵ": 3125,
      "ä»»åĳ½": 3126,
      "æķ¬": 3127,
      "1996": 3128,
      "\"ï¼ī": 3129,
      "æľīäºĽ": 3130,
      "å¥¥è¿Ĳ": 3131,
      "æ²Ł": 3132,
      "éĶĭ": 3133,
      "ç¬¬åįģ": 3134,
      "ç¢ĳ": 3135,
      "å·´è¥¿": 3136,
      "åįģåĪĨ": 3137,
      "æĺŁæľŁ": 3138,
      "ä¸ŃåĽ½äººæ°ĳ": 3139,
      "è´¤": 3140,
      "åıĳå°Ħ": 3141,
      "åĽ½åĨħ": 3142,
      "äºĮå¹´": 3143,
      "çĶµèĦĳ": 3144,
      "ers": 3145,
      "é¬": 3146,
      "çĶµè§Ĩåī§": 3147,
      "é¤Ĳ": 3148,
      "æī¹è¯Ħ": 3149,
      "çĶ¨æĿ¥": 3150,
      "åľ°éĵģ": 3151,
      "ç¯®": 3152,
      "éĻķ": 3153,
      "åĩ½æķ°": 3154,
      "åĤ¨": 3155,
      "ç¥¥": 3156,
      "ä¼ļåľ¨": 3157,
      "ä½ĽæķĻ": 3158,
      "ä¸»è§Ĵ": 3159,
      "æħĪ": 3160,
      "å¤ļä¸ª": 3161,
      "æĻ¶": 3162,
      "ä¸įæĸŃ": 3163,
      "ce": 3164,
      "å¥½çļĦ": 3165,
      "ãĢĤãĢĬ": 3166,
      "è¿ĽæĶ»": 3167,
      "ä¿ĿæĮģ": 3168,
      "èŃ¦å¯Ł": 3169,
      "æ¦Ĥå¿µ": 3170,
      "é£İæļ´": 3171,
      "æĺ¯ä½įäºİ": 3172,
      "æķ°éĩı": 3173,
      "è¾ī": 3174,
      "78": 3175,
      "ä¼Ĭæĸ¯": 3176,
      "æ¯«ç±³": 3177,
      "è¿Ĳè¡Į": 3178,
      "å±ķå¼Ģ": 3179,
      "æīĢåľ¨": 3180,
      "éģ£": 3181,
      "èĲ§": 3182,
      "çŃ¹": 3183,
      "æŁ´": 3184,
      "åĭĭ": 3185,
      "æĭĴç»Ŀ": 3186,
      "æ£ĭ": 3187,
      "çºµ": 3188,
      "58": 3189,
      "ç®Ń": 3190,
      "èĪ°éĺŁ": 3191,
      "æİĴåĲį": 3192,
      "æĮĳ": 3193,
      "äºĳåįĹ": 3194,
      "åĩĨå¤ĩ": 3195,
      "åĢį": 3196,
      "éŀ": 3197,
      "åĨľä¸ļ": 3198,
      "è°±": 3199,
      "åĮºè´Łè´£ç®¡è¾ĸ": 3200,
      "åįłé¢Ĩ": 3201,
      "èĳĽ": 3202,
      "å§Ĳ": 3203,
      "è¢«è®¤ä¸º": 3204,
      "1995": 3205,
      "Ġp": 3206,
      "ap": 3207,
      "èŀº": 3208,
      "æĴŀ": 3209,
      "ri": 3210,
      "ä¸Ģä½į": 3211,
      "76": 3212,
      "é¢ĳéģĵ": 3213,
      "åıĽ": 3214,
      "é¦ĸéĥ½": 3215,
      "åŃĲçļĦ": 3216,
      "æ³¢åħ°": 3217,
      "å³¡": 3218,
      "æģĴæĺŁ": 3219,
      "èĻĳ": 3220,
      "å®£ä¼ł": 3221,
      "å¹¶æ²¡æľī": 3222,
      "æ¯ıä¸ª": 3223,
      "åĨ¯": 3224,
      "çļĦåīį": 3225,
      "åŁºåľ°": 3226,
      "å½±çīĩ": 3227,
      "1994": 3228,
      "æħ¢": 3229,
      "çº¿è·¯": 3230,
      "æĸĩçī©ä¿ĿæĬ¤": 3231,
      "è¦": 3232,
      "ç»ĦåĲĪ": 3233,
      "çĨŁ": 3234,
      "åĽ½æ°ĳåħļ": 3235,
      "è§£åĨ³": 3236,
      "å¢ĥåĨħ": 3237,
      "åľ¨ç¾İåĽ½": 3238,
      "è´¾": 3239,
      "è½¦è¾Ĩ": 3240,
      "av": 3241,
      "æŁ³": 3242,
      "åĩıå°ĳ": 3243,
      "ç²¾ç¥ŀ": 3244,
      "çº¿çļĦ": 3245,
      "è®°å½ķ": 3246,
      "å°ĸ": 3247,
      "æĥħåĨµä¸ĭ": 3248,
      "éĽķ": 3249,
      "åĽ½ç«ĭ": 3250,
      "èĭ¦": 3251,
      "æĹ¥åĨĽ": 3252,
      "ãĢı": 3253,
      "ãĢİ": 3254,
      "è¯Ħè®º": 3255,
      "æĺ¯ç¾İåĽ½": 3256,
      "èµĦæºĲ": 3257,
      "åĴĮå¹³": 3258,
      "æľºä¼ļ": 3259,
      "ä¸ĢæŃ¥": 3260,
      "å¨±ä¹Ĳ": 3261,
      "æĻ®éĢļ": 3262,
      "å·ŀå¸Ĥ": 3263,
      "éģĤ": 3264,
      "äºĨä¸Ģä¸ª": 3265,
      "èīĩ": 3266,
      "åıªæĺ¯": 3267,
      "ä¼ı": 3268,
      "åĪĢ": 3269,
      "åĪĿæľŁ": 3270,
      "éĻĲåĪ¶": 3271,
      "éĥ½æľī": 3272,
      "åĬĽéĩı": 3273,
      "ä»ĵ": 3274,
      "å¦®": 3275,
      "å±±èĦī": 3276,
      "ç¨ĭåºı": 3277,
      "å®ŀçİ°": 3278,
      "ind": 3279,
      "èĳ£äºĭ": 3280,
      "å¥¥æĸ¯": 3281,
      "âĢĵ": 3282,
      "ä»°": 3283,
      "ç©ºåĨĽ": 3284,
      "çŀ": 3285,
      "æĢĿæĥ³": 3286,
      "éķ¿æľŁ": 3287,
      "æĸĩçī©ä¿ĿæĬ¤åįķä½į": 3288,
      "æ§": 3289,
      "è·³": 3290,
      "çĩķ": 3291,
      "äº¤æĺĵ": 3292,
      "åĮĪ": 3293,
      "åħĥç´ł": 3294,
      "åĦ¿ç«¥": 3295,
      "ĠV": 3296,
      "ãĢī": 3297,
      "é©¾": 3298,
      "ard": 3299,
      "çº¹": 3300,
      "æĪĸæĺ¯": 3301,
      "ãĢĪ": 3302,
      "ç¾½æ¯Ľ": 3303,
      "åıĪåĲį": 3304,
      "æĺ¯ä¹Įåħĭåħ°": 3305,
      "åĩ¡": 3306,
      "å¨ģå»ī": 3307,
      "å·´é»İ": 3308,
      "çĶ¨çļĦ": 3309,
      "AT": 3310,
      "æ¡Ĥ": 3311,
      "300": 3312,
      "çł´åĿı": 3313,
      "åĬĽçļĦ": 3314,
      "å§Ķä¼ļ": 3315,
      "è¿Ŀ": 3316,
      "åıĮæĸ¹": 3317,
      "å¤§å¤ļæķ°": 3318,
      "å¥³åĦ¿": 3319,
      "çĸ¾": 3320,
      "æľĭ": 3321,
      "1993": 3322,
      "ç»Łè®¡": 3323,
      "ĊĊĊĊĊ": 3324,
      "åħ¬åħĥ": 3325,
      "è¥¿çľģ": 3326,
      "éĿŀæ´²": 3327,
      "ï½": 3328,
      "1992": 3329,
      "èĳĹåĲįçļĦ": 3330,
      "77": 3331,
      "æĴĴ": 3332,
      "é©¬æĿ¥è¥¿äºļ": 3333,
      "ä¼¸": 3334,
      "çĵľ": 3335,
      "99": 3336,
      "ç¬¬ä¸Ģä¸ª": 3337,
      "åŁºäºİ": 3338,
      "li": 3339,
      "åįĬå²Ľ": 3340,
      "æŀļ": 3341,
      "æĹłçº¿": 3342,
      "å¹³åı°": 3343,
      "ov": 3344,
      "ä¸Ģå¹´": 3345,
      "è®°èĢħ": 3346,
      "ä¸ªæľĪ": 3347,
      "çĮİ": 3348,
      "é¥°æ¼Ķ": 3349,
      "åŁºéĩĳ": 3350,
      "è´º": 3351,
      "æĹ¥èĩ³": 3352,
      "è¡Ķ": 3353,
      "å¡ŀå°Ķ": 3354,
      "çļĦå°ı": 3355,
      "äº¤æµģ": 3356,
      "æķĻä¼ļ": 3357,
      "ä¸įæĺİ": 3358,
      "è§Ĩä¸º": 3359,
      "é«ĺçº§": 3360,
      "è¦Ĩ": 3361,
      "åĲĥ": 3362,
      "56": 3363,
      "è´¯": 3364,
      "ç»¼åĲĪ": 3365,
      "åĮĸçļĦ": 3366,
      "è¿ħ": 3367,
      "éĶ¦æłĩèµĽ": 3368,
      "ç¼ĵ": 3369,
      "42": 3370,
      "æİ¥è¿ĳ": 3371,
      "âĢĿãĢģ": 3372,
      "çļĦæĹ¶åĢĻ": 3373,
      "å½Ń": 3374,
      "åĪĨç±»": 3375,
      "åıĬåħ¶": 3376,
      "è°ĵ": 3377,
      "åĽ½ä¼ļ": 3378,
      "å¤§æ¥¼": 3379,
      "æ½ĺ": 3380,
      "èĩªæ²»åĮº": 3381,
      "æĹ¥èµ·": 3382,
      "éĩĳå±ŀ": 3383,
      "å¤§åŀĭ": 3384,
      "èµĦæł¼": 3385,
      "è¯¦": 3386,
      "æħķ": 3387,
      "ut": 3388,
      "åħ½": 3389,
      "æĽ¾åľ¨": 3390,
      "ä½ĵéķ¿": 3391,
      "ç¨ĭåº¦": 3392,
      "æĪĲçļĦ": 3393,
      "æĸ¯åŁº": 3394,
      "åįıè®®": 3395,
      "æĺ¯ä¹Įåħĭåħ°çļĦ": 3396,
      "å¹´å¼Ģå§ĭ": 3397,
      "ï¼ĮãĢĮ": 3398,
      "çĶ¨æĪ·": 3399,
      "çļĦå½±åĵį": 3400,
      "åºĶè¯¥": 3401,
      "IS": 3402,
      "æ®ĸæ°ĳ": 3403,
      "æĭīåħĭ": 3404,
      "è´¨éĩı": 3405,
      "çĲ³": 3406,
      "æľºåħ³": 3407,
      "åĽłèĢĮ": 3408,
      "åıĤèµĽ": 3409,
      "å¹´è½»": 3410,
      "å¹´è¢«": 3411,
      "1991": 3412,
      "ç»´å°Ķ": 3413,
      "Ġm": 3414,
      "å¸ĤçļĦ": 3415,
      "å¿Ĩ": 3416,
      "çŁ¥éģĵ": 3417,
      "Ġb": 3418,
      "é³įé±¼": 3419,
      "å°ĳå¹´": 3420,
      "æĢ»éĥ¨": 3421,
      "è¿ĲåĬ¨ä¼ļ": 3422,
      "éĥ½ä¼ļ": 3423,
      "æĿ¥è¯´": 3424,
      "ç§»åĬ¨": 3425,
      "ç²Ĵ": 3426,
      "ç§ĺä¹¦": 3427,
      "èī²çļĦ": 3428,
      "è§£éĩĬ": 3429,
      "åĭ¤": 3430,
      "The": 3431,
      "çĬ¹å¤ª": 3432,
      "åİ¿äºº": 3433,
      "é¬¼": 3434,
      "æ³Ĭ": 3435,
      "å¦Ĥä¸ĭ": 3436,
      "ç»´æĮģ": 3437,
      "å¸¸è§ģ": 3438,
      "åĲĮæĦı": 3439,
      "åħīç»ª": 3440,
      "åıĺæĪĲ": 3441,
      "è§Ĥä¼Ĺ": 3442,
      "èµ·æĿ¥": 3443,
      "éĩĮçļĦ": 3444,
      "æĺ¯åĲ¦": 3445,
      "äºĮä¸ĸ": 3446,
      "èĦĤ": 3447,
      "çīł": 3448,
      "çī©è´¨": 3449,
      "ï¼ļï¼īï¼Į": 3450,
      "å±ŀä¸ĭçļĦä¸Ģä¸ªç§į": 3451,
      "éĿĸ": 3452,
      "è¶£": 3453,
      "çİĭæľĿ": 3454,
      "äº§ä¸ļ": 3455,
      "å°ļæľª": 3456,
      "1950": 3457,
      "åĽ½åĬ¡": 3458,
      "éļıèĳĹ": 3459,
      "ä½¿çĶ¨çļĦ": 3460,
      "ä¸Ģå¸¦": 3461,
      "çķª": 3462,
      "åįģåħŃ": 3463,
      "çĮª": 3464,
      "ä¸ŃåĽ½åħ±äº§åħļ": 3465,
      "ä»·åĢ¼": 3466,
      "ä¸įåı¯": 3467,
      "è¥¿èĹı": 3468,
      "èİ·å¾ĹäºĨ": 3469,
      "çĽ®çļĦ": 3470,
      "ub": 3471,
      "æµ·åŁŁ": 3472,
      "66": 3473,
      "æĸĩä»¶": 3474,
      "ç±³çļĦ": 3475,
      "è¾Ĳé³įé±¼": 3476,
      "çĨĬ": 3477,
      "æ¾³å¤§": 3478,
      "è¾Ĳé³įé±¼çº²": 3479,
      "æĶ¯æı´": 3480,
      "ab": 3481,
      "åĴ¸": 3482,
      "=\"": 3483,
      "å°ıåŃ¦": 3484,
      "æµ·å²¸": 3485,
      "æĸ¹æ¡Ī": 3486,
      "æĬķåħ¥": 3487,
      "æľīæĹ¶": 3488,
      "ç½ķ": 3489,
      "ä»İäºĭ": 3490,
      "ç´¯": 3491,
      "ak": 3492,
      "å¥¥æŀĹ": 3493,
      "é¹¿": 3494,
      "æ¶¯": 3495,
      "åĪ°è¾¾": 3496,
      "æĿĳèĲ½": 3497,
      "æĶ¹ç¼ĸ": 3498,
      "æĹħæ¸¸": 3499,
      "æ°§åĮĸ": 3500,
      "è¯ģæĺİ": 3501,
      "59": 3502,
      "è¯ļ": 3503,
      "èĳ¡èĲĦçīĻ": 3504,
      "éĶĢåĶ®": 3505,
      "æŃ¤æĹ¶": 3506,
      "æİī": 3507,
      "æĢ»çĲĨ": 3508,
      "æ²»çĸĹ": 3509,
      "è¥¿æĸ¹": 3510,
      "å¿«éĢŁ": 3511,
      "çİ°è±¡": 3512,
      "ç»ĵåĲĪ": 3513,
      "æľīæķĪ": 3514,
      "èĬ³": 3515,
      "å®ŀæĸ½": 3516,
      "èĽĩ": 3517,
      "è©": 3518,
      "éĽĨä¸Ń": 3519,
      "å±¿": 3520,
      "ä½ĵç³»": 3521,
      "èĤĥ": 3522,
      "è¿ĶåĽŀ": 3523,
      "ä¸Ńå±±": 3524,
      "æĴŃæĶ¾": 3525,
      "1970": 3526,
      "ç¡®å®ļ": 3527,
      "å±¯": 3528,
      "å¦»åŃĲ": 3529,
      "ç»´äºļ": 3530,
      "æĹº": 3531,
      "ie": 3532,
      "1949": 3533,
      "ĠU": 3534,
      "è¯¥å¸ĤéķĩæĢ»éĿ¢ç§¯": 3535,
      "æ¯ķä¸ļäºİ": 3536,
      "å¤ıåŃ£": 3537,
      "åĲĦåľ°": 3538,
      "æĺ¯ä»¥": 3539,
      "å·ŀçļĦ": 3540,
      "çļĦä¸Ģåº§": 3541,
      "ç§Ĵ": 3542,
      "ä¸ºè¾Ĳé³įé±¼çº²": 3543,
      "nd": 3544,
      "è¿Ľä¸ĢæŃ¥": 3545,
      "æĵİ": 3546,
      "Ġand": 3547,
      "è©¹": 3548,
      "é¥®": 3549,
      "çº·": 3550,
      "èĥ¶": 3551,
      "æĻ®æŁ¥": 3552,
      "èµł": 3553,
      "é«ĺçŃī": 3554,
      "çļĩå®¶": 3555,
      "æĥĬ": 3556,
      "æ²³åĮĹ": 3557,
      "éģĹåĿĢ": 3558,
      "æĸ¯çļĦ": 3559,
      "æĲľ": 3560,
      "æĢª": 3561,
      "57": 3562,
      "åĢ¾": 3563,
      "æ¢¯": 3564,
      "åħ¬ä¸»": 3565,
      "æ¾³å¤§åĪ©äºļ": 3566,
      "äººåľ¨": 3567,
      "69": 3568,
      "éĤĢè¯·": 3569,
      "ç¨ĭå¼ı": 3570,
      "åĹ": 3571,
      "ç¦Ħ": 3572,
      "å½ĵæĹ¶çļĦ": 3573,
      "ç¡ķ": 3574,
      "èĥľåĪ©": 3575,
      "çĶµåı°": 3576,
      "ä¸¤ç§į": 3577,
      "å£³": 3578,
      "åľ°ä½į": 3579,
      "çłĶç©¶æīĢ": 3580,
      "æĮĤ": 3581,
      "ä¸ºä¸Ģ": 3582,
      "ç¾Ĭ": 3583,
      "43": 3584,
      "çİĦ": 3585,
      "hans": 3586,
      "ä¿ĿçķĻ": 3587,
      "åĪĽç«ĭ": 3588,
      "çĺ": 3589,
      "å¾·éĩĮ": 3590,
      "ä¹Ķæ²»": 3591,
      "åĪĽåĬŀ": 3592,
      "ç±»åŀĭ": 3593,
      "é¡µ": 3594,
      "ä¸ľè¥¿": 3595,
      "åĽ¾ä¹¦é¦Ĩ": 3596,
      "æµ®": 3597,
      "ä¿Ĭ": 3598,
      "æĭĵ": 3599,
      "åıªèĥ½": 3600,
      "SA": 3601,
      "æĿī": 3602,
      "ä¸įåĨį": 3603,
      "æĿ¥æºĲ": 3604,
      "å°ıç»Ħ": 3605,
      "ä»²": 3606,
      "è®¨è®º": 3607,
      "æŃ£åľ¨": 3608,
      "å°ĳæķ°": 3609,
      "æĬļ": 3610,
      "åįģåħ«": 3611,
      "æĻ¨": 3612,
      "èĬĿ": 3613,
      "ä¸Ģä¸ĸ": 3614,
      "ä¹³": 3615,
      "æī¹åĩĨ": 3616,
      "åį¡å°Ķ": 3617,
      "é«ĺçļĦ": 3618,
      "å¤§èĩ£": 3619,
      "æĿĲæĸĻ": 3620,
      "ç¬¬åħŃ": 3621,
      "1988": 3622,
      "æĵįä½ľ": 3623,
      "åįĹåĮĹ": 3624,
      "1989": 3625,
      "éī": 3626,
      "å¨ģå°Ķ": 3627,
      "Ch": 3628,
      "å±ı": 3629,
      "é«ĺä¸Ń": 3630,
      "æĬ¥éģĵ": 3631,
      "è¯¾ç¨ĭ": 3632,
      "âĢĿãĢģâĢľ": 3633,
      "åīįçļĦ": 3634,
      "88": 3635,
      "ĠSt": 3636,
      "é©¬åħĭ": 3637,
      "ä¹¾": 3638,
      "å¼ķæĵİ": 3639,
      "æķĪåĬĽ": 3640,
      "éĩįåºĨ": 3641,
      "å¦ĤæŃ¤": 3642,
      "æł¸å¿ĥ": 3643,
      "æĺ¯æĹ¥æľ¬": 3644,
      "79": 3645,
      "å¹¿åĳĬ": 3646,
      "äººå·¥": 3647,
      "éĩįå»º": 3648,
      "ä½ĵéķ¿åı¯è¾¾": 3649,
      "éĵģéģĵ": 3650,
      "çİĭåĽ½": 3651,
      "çļĦæĦı": 3652,
      "è¹": 3653,
      "ist": 3654,
      "ĠãĢĤ": 3655,
      "åħ¬æ°ĳ": 3656,
      "ï½ŀ": 3657,
      "é¼ł": 3658,
      "çĽ´èĩ³": 3659,
      "é«ĺéĽĦ": 3660,
      "ä¸´æĹ¶": 3661,
      "å°¤åħ¶": 3662,
      "è¯ŀ": 3663,
      "éļıçĿĢ": 3664,
      "æī¿è®¤": 3665,
      "å²³": 3666,
      "41": 3667,
      "åĩŃ": 3668,
      "çĹĽ": 3669,
      "NA": 3670,
      "èħ¹": 3671,
      "æĪĲç«ĭäºİ": 3672,
      "æľªèĥ½": 3673,
      "è®®éĻ¢": 3674,
      "æķ°åŃ¦": 3675,
      "æĬķç¥¨": 3676,
      "æľºæ¢°": 3677,
      "ç¼ħ": 3678,
      "éĩįçĤ¹": 3679,
      "éĶģ": 3680,
      "å®¢è¿Ĳ": 3681,
      "åģľæŃ¢": 3682,
      "å®ªæ³ķ": 3683,
      "çĮ«": 3684,
      "æĺİæĺ¾": 3685,
      "åįĵ": 3686,
      "ç¼ĸåı·": 3687,
      "æ³¥": 3688,
      "æıĴ": 3689,
      "å¥¥æŀĹåĮ¹": 3690,
      "ç»ĵå©ļ": 3691,
      "éĺŁçļĦ": 3692,
      "æĶ¶å½ķ": 3693,
      "èĹ©": 3694,
      "çĶŁæ¶¯": 3695,
      "1945": 3696,
      "æĢ»çĿ£": 3697,
      "åĿİ": 3698,
      "æĺ¯ä¸Ģä½į": 3699,
      "æħ§": 3700,
      "éĴĪå¯¹": 3701,
      "åħ¶å®ĥ": 3702,
      "åĨįåº¦": 3703,
      "åĩĮ": 3704,
      "ç¾½æ¯ĽçĲĥ": 3705,
      "æ³¨æĦı": 3706,
      "Ġformula": 3707,
      "åŃĹæ¯į": 3708,
      "1960": 3709,
      "å¼ĺ": 3710,
      "äºĭä¸ļ": 3711,
      "æĻĵ": 3712,
      "éī´": 3713,
      "çķĶ": 3714,
      "éĺ¿æĭīä¼¯": 3715,
      "è¢ģ": 3716,
      "II": 3717,
      "åħ¶ä¸ŃçĶ·æĢ§": 3718,
      "åĳ½ä»¤": 3719,
      "BA": 3720,
      "çĶµåĬĽ": 3721,
      "Ġw": 3722,
      "è±Ĩ": 3723,
      "ne": 3724,
      "ä¸ĸçķĮå¤§æĪĺ": 3725,
      "ä¼¯çī¹": 3726,
      "åħģè®¸": 3727,
      "å¾·è¯Ń": 3728,
      "ä¸»é¢ĺ": 3729,
      "æıĲé«ĺ": 3730,
      "è¯´æ³ķ": 3731,
      "æµĭè¯ķ": 3732,
      "æľĭåıĭ": 3733,
      "åİĦ": 3734,
      "æłĸæģ¯åľ¨": 3735,
      "ä¸ĭåįĪ": 3736,
      "åį«æĺŁ": 3737,
      "çŃīçŃī": 3738,
      "è¿ĩç¨ĭä¸Ń": 3739,
      "è¿Ľè¡ĮäºĨ": 3740,
      ";}-": 3741,
      "æĹ¥çļĦ": 3742,
      "åľ°éľĩ": 3743,
      "51": 3744,
      "å¤ĸçļĦ": 3745,
      "å¤±åİ»": 3746,
      "è¯ķåĽ¾": 3747,
      "æľªæĿ¥": 3748,
      "éĢĿä¸ĸ": 3749,
      "è®¿éĹ®": 3750,
      "æĿŃ": 3751,
      "å´İ": 3752,
      "St": 3753,
      "éļ§": 3754,
      "çļĦé¦ĸ": 3755,
      "å¡ĳ": 3756,
      "æĶ¶åħ¥": 3757,
      "ä¸»æ¼Ķ": 3758,
      "çĶŁåĳ½": 3759,
      "çļĦçłĶç©¶": 3760,
      "æĺ¯ä¸Ģé¢Ĺ": 3761,
      "éĢīæīĭ": 3762,
      "äº¦æľī": 3763,
      "çĤİ": 3764,
      "æĹ¦": 3765,
      "ine": 3766,
      "ç¬ĳ": 3767,
      "åı°ä¸Ń": 3768,
      "èĤ¡ä»½": 3769,
      "åĬ±": 3770,
      "æ¬²": 3771,
      "ä¸Ĭæĺł": 3772,
      "æĸĳ": 3773,
      "ç§ĳçļĦåħ¶ä¸Ń": 3774,
      "çĶ¸": 3775,
      "è·¯æĺĵ": 3776,
      "æ¾³æ´²": 3777,
      "åľ¨ä¸ŃåĽ½": 3778,
      "åį¿": 3779,
      "ud": 3780,
      "åĸĢ": 3781,
      "é¸¡": 3782,
      "å¤±è´¥": 3783,
      "æ°ĳä¼Ĺ": 3784,
      "æĪĲä¸ºäºĨ": 3785,
      "æł¡éķ¿": 3786,
      "è°ĥæķ´": 3787,
      "æĪĴ": 3788,
      "çļĦæĸ¹å¼ı": 3789,
      "çľĭåĪ°": 3790,
      "å®ı": 3791,
      "èĢĥèĻĳ": 3792,
      "67": 3793,
      "æĸĩç«ł": 3794,
      "ä¸įå¾Ĺ": 3795,
      "ä¿¡åı·": 3796,
      "å»ºæĪĲ": 3797,
      "åİĨåı²ä¸Ĭ": 3798,
      "åĪĹä¸º": 3799,
      "ä»ĸæĺ¯": 3800,
      "è·ĥ": 3801,
      "è¡¨è¾¾": 3802,
      "ä¹ı": 3803,
      "æĴ°": 3804,
      "è½°": 3805,
      "åı°åĮĹå¸Ĥ": 3806,
      "æŃ¦è£ħ": 3807,
      "åľ°åĪ©": 3808,
      "52": 3809,
      "èĭĹ": 3810,
      "å¤«åį¡": 3811,
      "æŁĲäºĽ": 3812,
      "æķ°åŃĹ": 3813,
      "54": 3814,
      "åĲĪçī©": 3815,
      "tw": 3816,
      "åľ³": 3817,
      "åĨ²çªģ": 3818,
      "æ¹ĸåĮĹ": 3819,
      "èĳĹä½ľ": 3820,
      "ob": 3821,
      "å°Ĩä¼ļ": 3822,
      "1985": 3823,
      "æĶ¿æĿĥ": 3824,
      "æĸĩåŃĹ": 3825,
      "çĲĥåľº": 3826,
      "å¥¥æŀĹåĮ¹åħĭ": 3827,
      "çĳŀåħ¸": 3828,
      "çĭ®": 3829,
      "62": 3830,
      "å°±è¯»": 3831,
      "çīµ": 3832,
      "äºīè®®": 3833,
      "ç§»æ°ĳ": 3834,
      "åįģå¹´": 3835,
      "çļĦåİŁ": 3836,
      "ä¹Ŀé¾Ļ": 3837,
      "ç¿»è¯ĳ": 3838,
      "èģĶåĲĪåĽ½": 3839,
      "è§Ĥå¯Ł": 3840,
      "æº¶": 3841,
      "ä¸ľæĸ¹": 3842,
      "æī°": 3843,
      "ä¼Ĭæĸ¯åħ°": 3844,
      "çŃīä¸º": 3845,
      "äºŃ": 3846,
      "åŁºçĿ£æķĻ": 3847,
      "çİ»": 3848,
      "ä»¿": 3849,
      "äºĭå®ŀ": 3850,
      "ç½ļ": 3851,
      "Ġin": 3852,
      "æ´Ĺ": 3853,
      "èµĲ": 3854,
      "äººæķ°": 3855,
      "åĮ»åŃ¦": 3856,
      "å¯Ħ": 3857,
      "è¡ĮæĶ¿åĮº": 3858,
      "å¤§éģĵ": 3859,
      "éĺ®": 3860,
      "ang": 3861,
      "å¢¨è¥¿": 3862,
      "çĽĹ": 3863,
      "ä¹Łåľ¨": 3864,
      "åı¤ä»£": 3865,
      "å°¼æĸ¯": 3866,
      "è¥¿æ´ĭ": 3867,
      "åĽ½éĺ²": 3868,
      "å¾Ĺä»¥": 3869,
      "å®Ļ": 3870,
      "å°ī": 3871,
      "è´ŀ": 3872,
      "åıĸæ¶Ī": 3873,
      "å¯¹æīĭ": 3874,
      "ç¨³å®ļ": 3875,
      "1986": 3876,
      "åįĥç±³": 3877,
      "ä¸ŃåĽ½äººæ°ĳè§£æĶ¾åĨĽ": 3878,
      "å½»": 3879,
      "è¿Ļæ¬¡": 3880,
      "æĻ®éģį": 3881,
      "ç¥Ŀ": 3882,
      "53": 3883,
      "ä¸§": 3884,
      "åĽĽä¸ª": 3885,
      "åĲĮä¸Ģ": 3886,
      "åı¯èĥ½æĺ¯": 3887,
      "éĦ": 3888,
      "åĿĬ": 3889,
      "å¤ºå¾Ĺ": 3890,
      "åĬ¨åĬĽ": 3891,
      "éģ¿åħį": 3892,
      "èĪĴ": 3893,
      "å¥¥åľ°åĪ©": 3894,
      "æıĲåįĩ": 3895,
      "é²¤": 3896,
      "ç½ĳè·¯": 3897,
      "æ°´åŁŁ": 3898,
      "åıĶ": 3899,
      "å·§": 3900,
      "å¾ª": 3901,
      "éļ§éģĵ": 3902,
      "ess": 3903,
      "ä¹Łä¼ļ": 3904,
      "çĦ¦": 3905,
      "ä¸Ģåº¦": 3906,
      "ç±³å°Ķ": 3907,
      "åĵĪå°Ķ": 3908,
      "éļ¶å±ŀäºİ": 3909,
      "å¸ĤåĮº": 3910,
      "è¢ĸ": 3911,
      "æľ¬èº«": 3912,
      "éĻ¨": 3913,
      "åŃ¦æľ¯": 3914,
      "æ¬¢è¿İ": 3915,
      "çĽ¸ä¼¼": 3916,
      "æĪĺåĲİ": 3917,
      "è¿Ľå£«åĩºèº«": 3918,
      "åıĳåĶ®": 3919,
      "å®¹æĺĵ": 3920,
      "çŁ¥åĲį": 3921,
      "æ£®æŀĹ": 3922,
      "ä¸ĢåĲĮ": 3923,
      "åĪĽéĢł": 3924,
      "è½¯ä»¶": 3925,
      "åĩºæĿ¥": 3926,
      "åĲįåįķ": 3927,
      "æ³³": 3928,
      "å¸Ĥéķ¿": 3929,
      "çī¹æ®Ĭ": 3930,
      "1987": 3931,
      "..": 3932,
      "98": 3933,
      "ç®Ģåįķ": 3934,
      "çļĦç¬¬ä¸Ģ": 3935,
      "æĤ¬": 3936,
      "ä¹Łè¢«": 3937,
      "ãĢĭï¼Īï¼ī": 3938,
      "çļĦæµ·": 3939,
      "1984": 3940,
      "est": 3941,
      "åĥ§": 3942,
      "è¡¨éĿ¢": 3943,
      "ç®±": 3944,
      "èĥģ": 3945,
      "æī®": 3946,
      "å¢¨è¥¿åĵ¥": 3947,
      "ä»Ģä¹Ī": 3948,
      "ik": 3949,
      "èĽĭçĻ½": 3950,
      "ä»İèĢĮ": 3951,
      "å£«åħµ": 3952,
      "ç¼ĸè¾ĳ": 3953,
      "çĶ³è¯·": 3954,
      "ä¹¾éļĨ": 3955,
      "å¼ķåıĳ": 3956,
      "èı²å¾ĭ": 3957,
      "éħĴåºĹ": 3958,
      "åĽ½åĬ¡éĻ¢": 3959,
      "å·¥åİĤ": 3960,
      "çŁ¥è¯Ĩ": 3961,
      "èı²å¾ĭå®¾": 3962,
      "å¦ĥ": 3963,
      "400": 3964,
      "æĺ¯ä¹Įåħĭåħ°çļĦæĿĳèĲ½": 3965,
      "èĮĤ": 3966,
      "åĲ¨": 3967,
      "éĥĬ": 3968,
      "hk": 3969,
      "HD": 3970,
      "è´¢æĶ¿": 3971,
      "è¯¢": 3972,
      "å°Ķåħ°": 3973,
      "ä¹ĭä¸ĭ": 3974,
      "èĢĮæĺ¯": 3975,
      "å£®": 3976,
      "æĹ¢": 3977,
      "åĩºåı£": 3978,
      "ä¼łè¯´": 3979,
      "éĩĳèŀį": 3980,
      "å¼¥": 3981,
      "æ¹¿": 3982,
      "åĨĽçļĦ": 3983,
      "å§Ĩæĸ¯": 3984,
      "åįĹæĸ¹": 3985,
      "ct": 3986,
      "å¹¶éĿŀ": 3987,
      "èº«ä½ĵ": 3988,
      "æĶ¿åħļ": 3989,
      "72": 3990,
      "éĺħ": 3991,
      "èĢĢ": 3992,
      "ç²¤": 3993,
      "çļĩåĲİ": 3994,
      "çĸı": 3995,
      "æ°ĳéĹ´": 3996,
      "è¡°": 3997,
      "æĺ¯ä¸ĢåĲį": 3998,
      "ä¹ĭä¸Ń": 3999,
      "æ°Ķè±¡": 4000,
      "æ¶Īæģ¯": 4001,
      "éľ¸": 4002,
      "ä¹ĺå®¢": 4003,
      "ä¸ĥå¹´": 4004,
      "äººå¤§": 4005,
      "å°ıçļĦ": 4006,
      "æ±¡": 4007,
      "ç¢³": 4008,
      "å²Ĺ": 4009,
      "all": 4010,
      "æŀ¢": 4011,
      "å´Ķ": 4012,
      "åħ¨éķ¿": 4013,
      "ä¸įè¶³": 4014,
      "çĲĥä¼ļ": 4015,
      "ä»£çłģ": 4016,
      "æĸ¯åħĭ": 4017,
      "ä¾¦": 4018,
      "äººæ°ĳæĶ¿åºľ": 4019,
      "æľīäºº": 4020,
      "å®īè£ħ": 4021,
      "éĢīåĮº": 4022,
      "å®īå¾½": 4023,
      "ç¿ģ": 4024,
      "çĽ¾": 4025,
      "åĸľæ¬¢": 4026,
      "æĳĩ": 4027,
      "å¥ĳ": 4028,
      "åŃ©åŃĲ": 4029,
      "art": 4030,
      "ä¸²": 4031,
      "61": 4032,
      "èŁ": 4033,
      "å±Ĭåħ¨åĽ½": 4034,
      "å½°": 4035,
      "å¹¶æľª": 4036,
      "Ġï¼Į": 4037,
      "åı°åįĹ": 4038,
      "ä¸Ńåħ±ä¸Ńå¤®": 4039,
      "ows": 4040,
      "åıĳçİ°äºĨ": 4041,
      "æ°´å¹³": 4042,
      "è¿ħéĢŁ": 4043,
      "å®ŀéĻħä¸Ĭ": 4044,
      "åıĳçĶµ": 4045,
      "è£ħç½®": 4046,
      "ç»ĻäºĪ": 4047,
      "æŀĿ": 4048,
      "æĶ¾å¼ĥ": 4049,
      "èģĮåĬ¡": 4050,
      "1982": 4051,
      "ä¼Ļ": 4052,
      "ok": 4053,
      "åı°é£İ": 4054,
      "åħĪçĶŁ": 4055,
      "èµĦè®¯": 4056,
      "å¹´çĶ±": 4057,
      "éĢ¢": 4058,
      "çİ°åľº": 4059,
      "åİĺ": 4060,
      "åı¬å¼Ģ": 4061,
      "Ã©": 4062,
      "æ»ļ": 4063,
      "æıĲåĲį": 4064,
      "ĵé£İ": 4065,
      "æįĲ": 4066,
      "å¤įæĿĤ": 4067,
      "é©¬å°Ķ": 4068,
      "æĭīä¸ģ": 4069,
      "åŁĥåıĬ": 4070,
      "æµĵ": 4071,
      "éĴ¦": 4072,
      "åħ¬åı¸çļĦ": 4073,
      "ä¼°è®¡": 4074,
      "æķĻåŃ¦": 4075,
      "1983": 4076,
      "åºĬ": 4077,
      "ç»ıåİĨ": 4078,
      "é£ĵé£İ": 4079,
      "è¿ĲèĲ¥": 4080,
      "èĥĮæĻ¯": 4081,
      "æĹħå®¢": 4082,
      "æķĻç»ĥ": 4083,
      "æ°¢": 4084,
      "æ·¡æ°´": 4085,
      "å¹¿è¥¿": 4086,
      "å¼ºçĥĪ": 4087,
      "åħ³æ³¨": 4088,
      "é«ĺéĢŁåħ¬è·¯": 4089,
      "æľīä¸Ģä¸ª": 4090,
      "æ¨¡åŀĭ": 4091,
      "ä¸»å¼ł": 4092,
      "æĩ": 4093,
      "åĮĪçīĻ": 4094,
      "63": 4095,
      "åī©": 4096,
      "èĥ½éĩı": 4097,
      "ä¹Ŀå¹´": 4098,
      "ä¿¡ä»°": 4099,
      "è²": 4100,
      "up": 4101,
      "æŃ§": 4102,
      "ä»¥åīį": 4103,
      "ç«ŀäºī": 4104,
      "Ġf": 4105,
      "çł²": 4106,
      "å®ŀè¡Į": 4107,
      "ell": 4108,
      "äºļåİĨ": 4109,
      "åĮĪçīĻåĪ©": 4110,
      "åĸ·": 4111,
      "æĭ³": 4112,
      "æİª": 4113,
      "å®īæİĴ": 4114,
      "åĭĥ": 4115,
      "ä¸Ģå®ļ": 4116,
      "ä¹Łåı¯ä»¥": 4117,
      "æķĻå¸Ī": 4118,
      "çļĦé«ĺ": 4119,
      "çĳŀå£«": 4120,
      "ç§ĳçļĦåħ¶ä¸Ńä¸Ģç§į": 4121,
      "çļĦåľ°æĸ¹": 4122,
      "180": 4123,
      "Ġ2": 4124,
      "æµ©": 4125,
      "ç¬¼": 4126,
      "éĩĮäºļ": 4127,
      "èįĴ": 4128,
      "é¸¿": 4129,
      "çİ°ä»»": 4130,
      "çĪ±å°Ķåħ°": 4131,
      "åĪ¸": 4132,
      "å°ĶçļĦ": 4133,
      "ä¸ŃéĹ´": 4134,
      "âĢ¦âĢ¦": 4135,
      "æĮīçħ§": 4136,
      "æĿĥåĬĽ": 4137,
      "æĿ¥åĪ°": 4138,
      "ä¸ĵéĹ¨": 4139,
      "å·¥åħ·": 4140,
      "åıĳåĩº": 4141,
      "çīłä»¬": 4142,
      "éĥ½å¸Ĥ": 4143,
      "æµħ": 4144,
      "æľĪèĩ³": 4145,
      "æľĢåĲİä¸Ģ": 4146,
      "150": 4147,
      "ç¦ģæŃ¢": 4148,
      "ï¼Ī\"": 4149,
      "ice": 4150,
      "çº¦ä¸º": 4151,
      "å¹´åºķ": 4152,
      "åĿ¦åħĭ": 4153,
      "ĠçļĦ": 4154,
      "è§ĦåĪĻ": 4155,
      "åįģåŃĹ": 4156,
      "åĵ²åŃ¦": 4157,
      "å¤§ä½¿": 4158,
      "å¸ħ": 4159,
      "ç¬¬ä¸ĥ": 4160,
      "äº¿åħĥ": 4161,
      "åįľ": 4162,
      "èī²åĪĹ": 4163,
      "å¤ªåŃĲ": 4164,
      "åĤħ": 4165,
      "èĭ±éĽĦ": 4166,
      "æ»©": 4167,
      "åı¸é©¬": 4168,
      "åħŃå¹´": 4169,
      "å¡«": 4170,
      "éĢĴ": 4171,
      "æĮĳæĪĺ": 4172,
      "æ¯ĶåĪ©": 4173,
      "ä»ªå¼ı": 4174,
      "é¦ĸåºľ": 4175,
      "æ¸Ķ": 4176,
      "Ġzh": 4177,
      "çİĩé¢Ĩ": 4178,
      "è¯Ħä»·": 4179,
      "å¤·": 4180,
      "èĩ³å°ĳ": 4181,
      "å®Įæķ´": 4182,
      "é²į": 4183,
      "ä½ľæĽ²": 4184,
      "åĬŀåħ¬å®¤": 4185,
      "æľīæīĢ": 4186,
      "åı¦ä¸Ģä¸ª": 4187,
      "å°ļä¹¦": 4188,
      "æķĪæŀľ": 4189,
      "åŁºåĽł": 4190,
      "æĲ¬": 4191,
      "å¤ĸåĽ½": 4192,
      "Â°": 4193,
      "çļĦåİĨåı²": 4194,
      "è£ħçĶ²": 4195,
      "åħ¶ä½Ļ": 4196,
      "åĲ¸å¼ķ": 4197,
      "åĬ¿åĬĽ": 4198,
      "è£ķ": 4199,
      "ä½ľèĢħ": 4200,
      "ç§¯æŀģ": 4201,
      "æ²³çķĶ": 4202,
      "é¥Ń": 4203,
      "æīįèĥ½": 4204,
      "åĵģçīĮ": 4205,
      "71": 4206,
      "è§Ĥæµĭ": 4207,
      "ht": 4208,
      "æŀĦæĪĲ": 4209,
      "çº¢èī²": 4210,
      "èĢĮè¢«": 4211,
      "æĢ§è´¨": 4212,
      "èĿ¶": 4213,
      "æ¶¦": 4214,
      "çī¹çļĦ": 4215,
      "çģĮ": 4216,
      "éķ¿åº¦": 4217,
      "æ°ĳä¸»åħļ": 4218,
      "æŃ¦æ±ī": 4219,
      "åī²": 4220,
      "çªĹ": 4221,
      "èĲ¥è¿Ĳ": 4222,
      "ä¸īè§Ĵ": 4223,
      "è¢Ńåĩ»": 4224,
      "è¡į": 4225,
      "åŃ¦ä¼ļ": 4226,
      "ä¸ŃåĽ½å¤§éĻĨçļĦ": 4227,
      "æĢĴ": 4228,
      "ĠCh": 4229,
      "èĩªè¡Į": 4230,
      "è´¡çĮ®": 4231,
      "73": 4232,
      "æ³ķåħ°": 4233,
      "74": 4234,
      "åĳ½åĲįä¸º": 4235,
      "æĹ¶ä»»": 4236,
      "æ·®": 4237,
      "ä¸ĩåħĥ": 4238,
      "å½¼å¾Ĺ": 4239,
      "ä¸Ī": 4240,
      "æ·±åľ³": 4241,
      "ä¹ĭåŃĲ": 4242,
      "éĿ¢å¯¹": 4243,
      "åľ¨æĹ¥æľ¬": 4244,
      "åĮĹäº¬å¸Ĥ": 4245,
      "ph": 4246,
      "æĥ¯": 4247,
      "ç»ıéªĮ": 4248,
      "åĪ¶çļĦ": 4249,
      "å¿ĥçĲĨ": 4250,
      "æĪıåī§": 4251,
      "åıĳèµ·": 4252,
      "æĿĥåĪ©": 4253,
      "æ°´åºĵ": 4254,
      "çļĦéĩįè¦ģ": 4255,
      "ä¾ł": 4256,
      "éĵ¾": 4257,
      "ç²®": 4258,
      "å®ĩå®Ļ": 4259,
      "1979": 4260,
      "åºŀ": 4261,
      "åĦĴ": 4262,
      "ack": 4263,
      "TV": 4264,
      "åĩºçİ°åľ¨": 4265,
      "æ°ĶæĹĭ": 4266,
      "å¸Ĥæ°ĳ": 4267,
      "çī¹å¾ģ": 4268,
      "ä¸ĸçķĮæĿ¯": 4269,
      "å¸ĥé²ģ": 4270,
      "è´Ńä¹°": 4271,
      "indows": 4272,
      "åįģä¸ī": 4273,
      "æİĪäºĪ": 4274,
      "å½¢çĽ®": 4275,
      "å¨ģèĥģ": 4276,
      "æĦŁåĪ°": 4277,
      "æĬµè¾¾": 4278,
      "ä¸įæ»¡": 4279,
      "æĸ¯å¡Ķ": 4280,
      "ain": 4281,
      "åľŁèĢ³": 4282,
      "å¤ļå¹´": 4283,
      "èĤ¥": 4284,
      "å¤ļç§į": 4285,
      "å¸ĥæĭī": 4286,
      "å¸ĪèĮĥ": 4287,
      "ev": 4288,
      "æł½": 4289,
      "ãĢĬãĢĭ": 4290,
      "å¦Ĥä½ķ": 4291,
      "è´´": 4292,
      "95": 4293,
      "æĬ¥å¯¼": 4294,
      "ç»Ŀå¯¹": 4295,
      "é¹°": 4296,
      "åľŁèĢ³åħ¶": 4297,
      "ill": 4298,
      "åĲİæľŁ": 4299,
      "çĵ¦å°Ķ": 4300,
      "ä»¥èī²åĪĹ": 4301,
      "åĮĹæĸ¹": 4302,
      "äººåĴĮ": 4303,
      "éĤ¨": 4304,
      "æİ¥è§¦": 4305,
      "ï¼Īï¼Įï¼ī": 4306,
      "èģĶç³»": 4307,
      "æĽ´åĬł": 4308,
      "ä¹¡è¯ķ": 4309,
      "å°¸": 4310,
      "æĹ¨": 4311,
      "ï¼ļ\"": 4312,
      "ä¸ºæŃ¢": 4313,
      "ç¾İåĨĽ": 4314,
      "æ¯Ķå¦Ĥ": 4315,
      "è¸ª": 4316,
      "æ¬£": 4317,
      "æĬ½": 4318,
      "å°Ŀ": 4319,
      "çĭĤ": 4320,
      "äºļçĽ®": 4321,
      "å½ĵå¹´": 4322,
      "çıĬ": 4323,
      "åŀĤ": 4324,
      "æĸľ": 4325,
      "èµ¶": 4326,
      "æ¸©åº¦": 4327,
      "ä»ĭç»į": 4328,
      "æĺ¯é¦Ļæ¸¯": 4329,
      "å®īå¾·": 4330,
      "ç¢į": 4331,
      "ä¸ĢæĿ¡": 4332,
      "æ´ģ": 4333,
      "çĬ¶åĨµ": 4334,
      "ä»ĳ": 4335,
      "èĪŀåı°": 4336,
      "å¯¹è±¡": 4337,
      "åŀĴ": 4338,
      "åį«çĶŁ": 4339,
      "åľ°çĤ¹": 4340,
      "è¢«è®¤ä¸ºæĺ¯": 4341,
      "éĩĩåıĸ": 4342,
      "85": 4343,
      "å¹´æĹ¶": 4344,
      "è¿Ļæł·çļĦ": 4345,
      "é¢Ĩè¢ĸ": 4346,
      "éĻ¢éķ¿": 4347,
      "æĺŁçŃīä¸º": 4348,
      "å¢ŀéķ¿": 4349,
      "1978": 4350,
      "æĬĹæĹ¥": 4351,
      "Ġ3": 4352,
      "èĥİ": 4353,
      "åµ": 4354,
      "å¹³æĸ¹ç±³": 4355,
      "ç¾İæľ¯": 4356,
      "è¾ĥä¸º": 4357,
      "\"ï¼Į": 4358,
      "ä¸Ńæľī": 4359,
      "åĽ¢éĺŁ": 4360,
      "æŃ£å¸¸": 4361,
      "èĨľ": 4362,
      "éķĩä¸ĭè¾ĸä»¥ä¸ĭåľ°åĮº": 4363,
      "å¾Īå¿«": 4364,
      "æ³°åĽ½": 4365,
      "èĢĮè¨Ģ": 4366,
      "äºļåİĨå±±": 4367,
      "æĤī": 4368,
      "çĻ½èī²": 4369,
      "åħ¥ä¾µ": 4370,
      "||": 4371,
      "çĻ»è¿Ľå£«": 4372,
      "æłĩå¿Ĺ": 4373,
      "ä¼łæĴŃ": 4374,
      "èħ¾": 4375,
      "åĬłçĽŁ": 4376,
      "å¨ĺ": 4377,
      "åįİäºº": 4378,
      "åŃ¤": 4379,
      "åĩłä¸ª": 4380,
      "è¾©": 4381,
      "eb": 4382,
      "ä¸ĵå®¶": 4383,
      "åİŁåŃĲ": 4384,
      "æ¼ĶåĶ±ä¼ļ": 4385,
      "å¹¿ä¸ľçľģ": 4386,
      "å¤«äºº": 4387,
      "éĹ½": 4388,
      "ç»ĵæĿŁåĲİ": 4389,
      "è¾¹çķĮ": 4390,
      "éħįåĲĪ": 4391,
      "å®ļä¸º": 4392,
      "å²ģçļĦ": 4393,
      "åĨĴ": 4394,
      "ç¼ºä¹ı": 4395,
      "ant": 4396,
      "çħ¤": 4397,
      "æĽ´åĲįä¸º": 4398,
      "æ¹ĺ": 4399,
      "çļĦåıĳå±ķ": 4400,
      "èĲ¨åħĭ": 4401,
      "åŁĥå°Ķ": 4402,
      "æīĢæľīçļĦ": 4403,
      "åĴĮåħ¶ä»ĸ": 4404,
      "our": 4405,
      "æ²³æµģ": 4406,
      "çŁ¥åİ¿": 4407,
      "åĽłç´ł": 4408,
      "çĻ»éĻĨ": 4409,
      "è´«": 4410,
      "æŁĶ": 4411,
      "æİ¨åĬ¨": 4412,
      "çĸ«": 4413,
      "å¤§èĩ´": 4414,
      "ãĢģãĢģ": 4415,
      "ç²Ĺ": 4416,
      "æĦıä¹ī": 4417,
      "èģĺ": 4418,
      "åİĭåĬĽ": 4419,
      "å»Ĭ": 4420,
      "ç¡ķå£«": 4421,
      "åĢĻéĢī": 4422,
      "ç¨¿": 4423,
      "nt": 4424,
      "åĨħéĺģ": 4425,
      "æĺİæ²»": 4426,
      "åĲ¾": 4427,
      "æĽ´å¤ļ": 4428,
      "éľĢæ±Ĥ": 4429,
      "åĬ¨ä½ľ": 4430,
      "æı¡": 4431,
      "èĭıæł¼åħ°": 4432,
      "å²ģæĹ¶": 4433,
      "æĿĨ": 4434,
      "åįģäºĶ": 4435,
      "ç»´å¥ĩ": 4436,
      "çĶŁçļĦ": 4437,
      "åĳ¨è¾¹": 4438,
      "åģ¥åº·": 4439,
      "èĢĹ": 4440,
      "éĻĢ": 4441,
      "åľ¨å¤§": 4442,
      "æ°ĶåĢĻ": 4443,
      "åĿª": 4444,
      "æºĲäºİ": 4445,
      "ä½ıå®ħ": 4446,
      "éĤ£äºĽ": 4447,
      "æłĩä¸º": 4448,
      "è§ĤçĤ¹": 4449,
      "æĺİæľĿæĶ¿æ²»äººçī©": 4450,
      "æĶ¶è´Ń": 4451,
      "ity": 4452,
      "89": 4453,
      "è¿Ł": 4454,
      "ä¸ĭæĿ¥": 4455,
      "ge": 4456,
      "æµĭéĩı": 4457,
      "å¤ªç©º": 4458,
      "qu": 4459,
      "çħ§çīĩ": 4460,
      "å¾ĭå¸Ī": 4461,
      "çĭĦ": 4462,
      "çļĦä½ľåĵģ": 4463,
      "å½ĵå±Ģ": 4464,
      "1981": 4465,
      "çľŁæŃ£": 4466,
      "ä»£è¡¨å¤§ä¼ļ": 4467,
      "çĲī": 4468,
      "çĲĨäºĭ": 4469,
      "æĴ¤éĶĢ": 4470,
      "æľºçļĦ": 4471,
      "çĪ¶æ¯į": 4472,
      "å½¦": 4473,
      "æī¾åĪ°": 4474,
      "ä¸ĩç¾İåħĥ": 4475,
      "ï¼ħ": 4476,
      "çĲĥåŃ£": 4477,
      "å¯¨": 4478,
      "èĬ±åĽŃ": 4479,
      "ç»ıçĲĨ": 4480,
      "é¡¾éĹ®": 4481,
      "å£¤": 4482,
      "å¦Ī": 4483,
      "å¤§å¥ĸ": 4484,
      "è¯´æĺİ": 4485,
      "æŁıæŀĹ": 4486,
      "å§Ķä¹¦è®°": 4487,
      "éĢĨ": 4488,
      "åĲ¯çĶ¨": 4489,
      "è£ħå¤ĩ": 4490,
      "ç§ĺå¯Ĩ": 4491,
      "çĽ¸ä¿¡": 4492,
      "åį³ä½¿": 4493,
      "ip": 4494,
      "æŃ»åĲİ": 4495,
      "çļĦåĽ½å®¶": 4496,
      "è²Į": 4497,
      "å¼łä¸ĵè¾ĳ": 4498,
      "ç²¹": 4499,
      "åĩĢ": 4500,
      "éĻįä½İ": 4501,
      "å¹´åīį": 4502,
      "é¦ĸåħĪ": 4503,
      "åĮ»çĸĹ": 4504,
      "æľ´": 4505,
      "å©Ĩ": 4506,
      "å·¥äºº": 4507,
      "åłª": 4508,
      "åħ¬ä¼Ĺ": 4509,
      "æ±Łè¥¿": 4510,
      "åĩºæĪĺ": 4511,
      "æĬ¢": 4512,
      "æĦıè¯Ĩ": 4513,
      "ç»Īäºİ": 4514,
      "1900": 4515,
      "æľºåĻ¨": 4516,
      "æįŁå¤±": 4517,
      "çļĦå¤ĸ": 4518,
      "åľ°åĽ¾": 4519,
      "ä¹łæĢ§": 4520,
      "æĸ°çĸĨ": 4521,
      "ç¥ŀç»ı": 4522,
      "å¤§åĮº": 4523,
      "ç¦ħ": 4524,
      "æıŃ": 4525,
      "åħ¨éĿ¢": 4526,
      "ç¿ł": 4527,
      "çļĦéĹ®é¢ĺ": 4528,
      "èŃ¦æĸ¹": 4529,
      "å¹´é¾Ħ": 4530,
      "é£Łçī©": 4531,
      "ç»ıåħ¸": 4532,
      "åľ¨é¦Ļæ¸¯": 4533,
      "åĵ¥ä¼¦": 4534,
      "ive": 4535,
      "å¤§åİ¦": 4536,
      "çļĦå±±": 4537,
      "åİĨä»»": 4538,
      "é©¾é©¶": 4539,
      "å¯Ĵ": 4540,
      "é¾Ł": 4541,
      "æĶ¹åĸĦ": 4542,
      "éĺŁä¼į": 4543,
      "ä¹ĲéĺŁ": 4544,
      "ï¼ı": 4545,
      "çļĦä¸ī": 4546,
      "ä¿ĺ": 4547,
      "åĬŀçĲĨ": 4548,
      "é±¼ç±»": 4549,
      "åĨľæĿĳ": 4550,
      "è±¡å¾ģ": 4551,
      "ä¿Ŀç½Ĺ": 4552,
      "éĵº": 4553,
      "æ½Ń": 4554,
      "åıĤè°ĭ": 4555,
      "éĺĶ": 4556,
      "åıĤåĬłäºĨ": 4557,
      "åľ¨ä¸Ģ": 4558,
      "ç§įæĹı": 4559,
      "èĸĦ": 4560,
      "IC": 4561,
      "åĲİèĢħ": 4562,
      "æĺ¯å¾·åĽ½": 4563,
      "æģ°": 4564,
      "OS": 4565,
      "ç³»ç»ŁçļĦ": 4566,
      "çĸ¾çĹħ": 4567,
      "æĭīå¤«": 4568,
      "ä¸Ľ": 4569,
      "åıĺå¾Ĺ": 4570,
      "çĭĹ": 4571,
      "å¼ºè°ĥ": 4572,
      "çģ«ç®Ń": 4573,
      "è´µæĹı": 4574,
      "ä¿®æĶ¹": 4575,
      "æĹ¥æĬ¥": 4576,
      "æ¯Ķä¾ĭ": 4577,
      "æ··åĲĪ": 4578,
      "æµ·æ´ĭ": 4579,
      "å°Ķçī¹": 4580,
      "å±Ģéķ¿": 4581,
      "æĹĹä¸ĭ": 4582,
      "å»¶ä¼¸": 4583,
      "ä¸¾è¡ĮçļĦ": 4584,
      "åĬ³åĬ¨": 4585,
      "ç¤¾ä¼ļä¸»ä¹ī": 4586,
      "æĻļä¸Ĭ": 4587,
      "äºĨè§£": 4588,
      "çŁ©": 4589,
      "åįĹæŀģæ´²": 4590,
      "åħ¥åı£": 4591,
      "åħ¶å®ŀ": 4592,
      "ä»£çĲĨ": 4593,
      "å¼¦": 4594,
      "1946": 4595,
      "åĲĮçĽŁ": 4596,
      "çģ«å±±": 4597,
      "æī®æ¼Ķ": 4598,
      "éĥ¨çļĦ": 4599,
      "è¢«è¿«": 4600,
      "å·ŀçļĦä¸Ģä¸ªå¸Ĥéķĩ": 4601,
      "å¿į": 4602,
      "ran": 4603,
      "ç¨į": 4604,
      "ä½įäºİä¸ŃåĽ½": 4605,
      "600": 4606,
      "æľ¬ç«Ļ": 4607,
      "å¤§æ¡¥": 4608,
      "éĥ¨èĲ½": 4609,
      "å¹¶å°Ĩ": 4610,
      "eg": 4611,
      "éŃĤ": 4612,
      "æĳĦå½±": 4613,
      "1958": 4614,
      "å¤©ä½ĵ": 4615,
      "å¥ĸé¡¹": 4616,
      "å²Ľå±¿": 4617,
      "æģĲæĢ": 4618,
      "å¤§å¤ļ": 4619,
      "æľĢå¤ļ": 4620,
      "è¾¾æĪĲ": 4621,
      "ç¿Į": 4622,
      "è¦ĨçĽĸ": 4623,
      "åį°å°¼": 4624,
      "å°±ä¼ļ": 4625,
      "å®¶çļĦ": 4626,
      "ä¸įä»ħ": 4627,
      "è¯·æ±Ĥ": 4628,
      "æł½åŁ¹": 4629,
      "ian": 4630,
      "1920": 4631,
      "CD": 4632,
      "åĬłå·ŀ": 4633,
      "åĲĲ": 4634,
      "å¸ĥå°Ķ": 4635,
      "èµĭ": 4636,
      "çļĦæĹ¶éĹ´": 4637,
      "å¯¹æŃ¤": 4638,
      "èµ·ä¹ī": 4639,
      "ç©ºä¸Ń": 4640,
      "é©¬æĭī": 4641,
      "éĶĻè¯¯": 4642,
      "ich": 4643,
      "å½¢è±¡": 4644,
      "æµ·å³¡": 4645,
      "BS": 4646,
      "é¼»": 4647,
      "è¥¿åįĹéĥ¨": 4648,
      "åĩºéģĵ": 4649,
      "æĮª": 4650,
      "å¸¦æĿ¥": 4651,
      "ä¸»è¦ģæĺ¯": 4652,
      "æµ·å¤ĸ": 4653,
      "åĿĿ": 4654,
      "åľ¨è¯¥": 4655,
      "é»Ħéĩĳ": 4656,
      "è¡¨æĺİ": 4657,
      "åľ¨åħ¶": 4658,
      "ong": 4659,
      "å°ĳå¥³": 4660,
      "æ¯ĶèµĽä¸Ń": 4661,
      "çİĽä¸½": 4662,
      "åĩºå¸Ń": 4663,
      "çĶµè¯Ŀ": 4664,
      "ast": 4665,
      "åº·çĨĻ": 4666,
      "é¢ĨåľŁ": 4667,
      "é¢ĩ": 4668,
      "è¿Ĳä½ľ": 4669,
      "åĲĽä¸»": 4670,
      "çĴĥ": 4671,
      "æī¶": 4672,
      "é©±éĢĲ": 4673,
      "åľ°çĲĨ": 4674,
      "åłĨ": 4675,
      "åĬłåĪ©": 4676,
      "ç¢İ": 4677,
      "è¯ı": 4678,
      "åĬŀäºĭ": 4679,
      "çļĦåŁİéķĩ": 4680,
      "éģµ": 4681,
      "åĨĽåĮº": 4682,
      "åıĹä¼¤": 4683,
      "sp": 4684,
      "éĢ»": 4685,
      "æ³ķæ¡Ī": 4686,
      ")ãĢģ": 4687,
      "æī©å¤§": 4688,
      "äº¨åĪ©": 4689,
      "Ġï¼Ī": 4690,
      "å¸¦é¢Ĩ": 4691,
      "åħĭéĩĮ": 4692,
      "æĶ¿åºľçļĦ": 4693,
      "çĶŁæ´»ä¹łæĢ§": 4694,
      "æ¶īåıĬ": 4695,
      "çªģçĦ¶": 4696,
      "çĪĨçĤ¸": 4697,
      "å¹´ç¾İåĽ½": 4698,
      "ry": 4699,
      "ĊĊĊĊĊĊ": 4700,
      "Ġ1": 4701,
      "å¤©çļĩ": 4702,
      "åĪ·": 4703,
      "åįİçĽĽ": 4704,
      "å§¬": 4705,
      "å¹´åĪĿ": 4706,
      "çļĦæķħäºĭ": 4707,
      "ç©ºæ°Ķ": 4708,
      "æ·±åº¦": 4709,
      "çĻĮ": 4710,
      "ä¼ª": 4711,
      "èĦı": 4712,
      "éĢļè½¦": 4713,
      "åį¡æĸ¯": 4714,
      "è¯ķéªĮ": 4715,
      "ç§°ä½ľ": 4716,
      "ä»¥å¤ĸ": 4717,
      "åĽ½å®¶çļĦ": 4718,
      "æĪĺçķ¥": 4719,
      "æĪªèĩ³": 4720,
      "ä¸°å¯Į": 4721,
      "è´£ä»»": 4722,
      "æī§å¯¼": 4723,
      "é¢ľèī²": 4724,
      "åįİçĽĽé¡¿": 4725,
      "å§ļ": 4726,
      "æĬķéĻį": 4727,
      "çĽ¸æ¯Ķ": 4728,
      "AM": 4729,
      "è¥¿åĮĹéĥ¨": 4730,
      "éĵŃ": 4731,
      "çĶŁæ´»ä¹łæĢ§ä¸įæĺİ": 4732,
      "çļĦå·¥ä½ľ": 4733,
      "èĽĽ": 4734,
      "å¹¶ä»¥": 4735,
      "åĮĸçŁ³": 4736,
      "è®¡ç®Ĺæľº": 4737,
      "èĥ¸": 4738,
      "ä¸ľåĮĹéĥ¨": 4739,
      "éĤ£éĩĮ": 4740,
      "ç¬¦åĲĪ": 4741,
      "åī§æĥħ": 4742,
      "æ¶µ": 4743,
      "åİ¿çļĦ": 4744,
      "åľ¨äºİ": 4745,
      "é¸£": 4746,
      "1930": 4747,
      "se": 4748,
      "åįĴ": 4749,
      "if": 4750,
      "çŁ¶": 4751,
      "å¹¶åħ¥": 4752,
      "ä¼Ĺå¤ļ": 4753,
      "å±±è¥¿": 4754,
      "åı¸æ³ķ": 4755,
      "éĹ´çļĦ": 4756,
      "æĿĢæŃ»": 4757,
      "å¯¹å¤ĸ": 4758,
      "åĬłå¼º": 4759,
      "åıł": 4760,
      "èĭĳ": 4761,
      "è¿ĻéĩĮ": 4762,
      "æª": 4763,
      "éº¦åħĭ": 4764,
      "ç»ĦæĪĲçļĦ": 4765,
      "åĲįä¹ī": 4766,
      "ç½¢": 4767,
      "ä¹Łå°±æĺ¯": 4768,
      "æ±ª": 4769,
      "éĺª": 4770,
      "lay": 4771,
      "Windows": 4772,
      "æ·ĺ": 4773,
      "æĮĩå¯¼": 4774,
      "è½¬çļĦ": 4775,
      "äººåı£æĻ®æŁ¥": 4776,
      "ä¼ļåĳĺ": 4777,
      "åħ¼ä»»": 4778,
      "æºĲèĩª": 4779,
      "ä¸Ģåº§": 4780,
      "ä¾ĿçĦ¶": 4781,
      "ä¸İåħ¶ä»ĸ": 4782,
      "éĢīä¸º": 4783,
      "å¾ĹçŁ¥": 4784,
      "86": 4785,
      "åįģåĽĽ": 4786,
      "ä¸Ļ": 4787,
      "åģ·": 4788,
      "å·®å¼Ĥ": 4789,
      "ä»·æł¼": 4790,
      "åĲı": 4791,
      "ä¸¤æ¬¡": 4792,
      "1940": 4793,
      "å¯¹åºĶ": 4794,
      "èįĲ": 4795,
      "âĶ": 4796,
      "å£°æĺİ": 4797,
      "æĶ¿åįı": 4798,
      "ä¸»è¦ģçļĦ": 4799,
      "é£Łåĵģ": 4800,
      "ĠIn": 4801,
      "çĭ¼": 4802,
      "æ¬¡å¹´": 4803,
      "åİŁåĲį": 4804,
      "åħ´è¶£": 4805,
      "äº²çİĭ": 4806,
      "åħĨ": 4807,
      "æıĲåĪ°": 4808,
      "æ·»": 4809,
      "BC": 4810,
      "ä¸Ĭæľī": 4811,
      "å¤§åŃ¦çļĦ": 4812,
      "und": 4813,
      "Al": 4814,
      "åı¯èĥ½ä¼ļ": 4815,
      "æĹ¶æľŁçļĦ": 4816,
      "ä¸Ģå®¶": 4817,
      "æ³¡": 4818,
      "ä½ľåĩº": 4819,
      "èīºäºº": 4820,
      "åĪĽå»º": 4821,
      "æłı": 4822,
      "éĺ¶çº§": 4823,
      "åĬĿ": 4824,
      "å±±ä¸ľçľģ": 4825,
      "è¯ģæį®": 4826,
      "æīĵåĩ»": 4827,
      "çľŁå®ŀ": 4828,
      "AR": 4829,
      "å±ķç¤º": 4830,
      "120": 4831,
      "1975": 4832,
      "æŃĩ": 4833,
      "å¯¹æĬĹ": 4834,
      "æŃ¥åħµ": 4835,
      "èĢĮæĪĲ": 4836,
      "æ¶Į": 4837,
      "çĶŁéķ¿äºİ": 4838,
      "ä¸¹éº¦": 4839,
      "ort": 4840,
      "åĽ´ç»ķ": 4841,
      "Ġde": 4842,
      "å¯¸": 4843,
      "ä¹ĭæĪĺ": 4844,
      "æĥŁ": 4845,
      "å¤§è¥¿æ´ĭ": 4846,
      "éĻĨç»Ń": 4847,
      "å¥Ķ": 4848,
      "æī«": 4849,
      "ç¡®è®¤": 4850,
      "è¿ĳå¹´": 4851,
      "ç¥Ģ": 4852,
      "âĶĢ": 4853,
      "æĶ¹éĢł": 4854,
      "ä¸ºäºº": 4855,
      "æĬ¼": 4856,
      "ç¯®çĲĥ": 4857,
      "åľ°éĿ¢": 4858,
      "æ¯Ľæ³½": 4859,
      "1937": 4860,
      "èĦĬ": 4861,
      "ä¿ĿåŃĺ": 4862,
      "åĽºå®ļ": 4863,
      "ç¡«": 4864,
      "å£°éŁ³": 4865,
      "Ġa": 4866,
      "å§»": 4867,
      "èĲ¨æĸ¯": 4868,
      "æģĲæĢĸ": 4869,
      "]]": 4870,
      "èıĬ": 4871,
      "1000": 4872,
      "âĨ": 4873,
      "AC": 4874,
      "èµ°åĲĳ": 4875,
      "éĢ®": 4876,
      "å¾Ģå¾Ģ": 4877,
      "æĬĹè®®": 4878,
      "åĽ½æ°ĳæĶ¿åºľ": 4879,
      "io": 4880,
      "çİ°ä»Ĭ": 4881,
      "å¼ıçļĦ": 4882,
      "çŃ¾ç½²": 4883,
      "ä¹Łä¸į": 4884,
      "åıĤèĢĥ": 4885,
      "åı²ä¸Ĭ": 4886,
      "1948": 4887,
      "åħ«å¹´": 4888,
      "çļĦäºĭ": 4889,
      "ä¸ĸçķĮä¸Ĭ": 4890,
      "è¶ĭ": 4891,
      "çĶ¨ä½ľ": 4892,
      "éĽĩ": 4893,
      "ä¼ļè¯ķ": 4894,
      "ä¸Ĭå¸Ĥ": 4895,
      "éĢ¼": 4896,
      "è½°çĤ¸": 4897,
      "åŁİåĮº": 4898,
      "çĲ¼": 4899,
      "ä»Ĭå¤©": 4900,
      "çĶ±æŃ¤": 4901,
      "ä¸ºä¸ŃåĽ½": 4902,
      "ï¼Īï¼Ľ": 4903,
      "çĬ¯ç½ª": 4904,
      "èµĦéĩĳ": 4905,
      "[[": 4906,
      "åħĭèİ±": 4907,
      "ĠY": 4908,
      "å¹´åĪ°": 4909,
      "æ¯Ľæ³½ä¸ľ": 4910,
      "ä¸İåħ¶": 4911,
      "ç§ĳåŃ¦éĻ¢": 4912,
      "800": 4913,
      "èĴ¸": 4914,
      "ä½ĨçĶ±äºİ": 4915,
      "éħ¶": 4916,
      "ç¼ħçĶ¸": 4917,
      "åĪĹåħ¥": 4918,
      "ç¬¬åħ«": 4919,
      "å¼ºåº¦": 4920,
      "æĪĲäºĨ": 4921,
      "ç£¨": 4922,
      "ä¸Ĭè¿°": 4923,
      "ä¼ĬæľĹ": 4924,
      "æĲº": 4925,
      "åĳ¨åĽ´": 4926,
      "åĹ£": 4927,
      "ç§įåŃĲ": 4928,
      "äº¦æĺ¯": 4929,
      "éķ¿æ±Ł": 4930,
      "èº«ä¸º": 4931,
      "1956": 4932,
      "éĩıçļĦ": 4933,
      "éªĳå£«": 4934,
      "æ¯ķä¸ļåĲİ": 4935,
      "é»ĳèī²": 4936,
      "è¾°": 4937,
      "å±ł": 4938,
      "ç°": 4939,
      "ä¸Ģæ®µ": 4940,
      "åĽĽå·Ŀçľģ": 4941,
      "éļıåį³": 4942,
      "è®¾äºİ": 4943,
      "å±Ī": 4944,
      "è´µå·ŀ": 4945,
      "ä»ĩ": 4946,
      "å¤ķ": 4947,
      "åľ¨åı°æ¹¾": 4948,
      "æĸ¹çļĦ": 4949,
      "å±±åĮº": 4950,
      "éĨĴ": 4951,
      "è®¤è¯Ĩ": 4952,
      "NG": 4953,
      "éĤ£ä¹Ī": 4954,
      "èħĲ": 4955,
      "1947": 4956,
      "ä¸ĭéĻį": 4957,
      "éĽĢ": 4958,
      "æľĿå»·": 4959,
      "ç¬¦åı·": 4960,
      "ver": 4961,
      "ç¨£": 4962,
      "ä¾Ŀæį®": 4963,
      "ä¿ĥè¿Ľ": 4964,
      "æĸĩçĮ®": 4965,
      "åıī": 4966,
      "éĻķè¥¿": 4967,
      "äº¿ç¾İåħĥ": 4968,
      "æľĪåĪĿ": 4969,
      "éĢĢåĩº": 4970,
      "ä¸Ĭä¸ĭ": 4971,
      "ä¹¦éĻ¢": 4972,
      "æĪĲæľ¬": 4973,
      "è½¬åĲĳ": 4974,
      "å¥İ": 4975,
      "è½¬ç§»": 4976,
      "çĮĽ": 4977,
      "å«Į": 4978,
      "è½¬æį¢": 4979,
      "åħĭæĭī": 4980,
      "æīĢè°ĵ": 4981,
      "èĢ¶ç¨£": 4982,
      "çļĦä¸Ń": 4983,
      "éĢĢä¼ĳ": 4984,
      "èĬ¬åħ°": 4985,
      "çĽ¸äºĴ": 4986,
      "éĢļè®¯": 4987,
      "å¯»æī¾": 4988,
      "åįµ": 4989,
      "çī¹åĪ«æĺ¯": 4990,
      "92": 4991,
      "åıĳæĺİ": 4992,
      "å¹³åİŁ": 4993,
      "ä¸ºè¾Ĳé³įé±¼çº²é²": 4994,
      "åĮĹæµ·": 4995,
      "åĲĪæĪĲ": 4996,
      "å£°ç§°": 4997,
      "87": 4998,
      "çļĦåĲİ": 4999,
      "éŁµ": 5000,
      "åį¡æĭī": 5001,
      "ä¸Ĭæµ·å¸Ĥ": 5002,
      "å§ľ": 5003,
      "åĬłæĭī": 5004,
      "ber": 5005,
      "ä¼ļéķ¿": 5006,
      "åĪºåı²": 5007,
      "æĽ¾ç¥ĸçĪ¶": 5008,
      "åĨĽåĽ¢": 5009,
      "éĢļéģĵ": 5010,
      "åħįè´¹": 5011,
      "ä¸įåĪ°": 5012,
      "æ»¡è¶³": 5013,
      "éĩĬæĶ¾": 5014,
      "ä»»èģĮ": 5015,
      "çİĩä¸º": 5016,
      "1976": 5017,
      "å°¼äºļå·ŀ": 5018,
      "æľĪçĲĥ": 5019,
      "èį£èªī": 5020,
      "ä»¥åĮĹ": 5021,
      "ä¸ĬåįĪ": 5022,
      "çĹħæ¯Ĵ": 5023,
      "çļĦåħ³ç³»": 5024,
      "åĨľæ°ĳ": 5025,
      "æľĢè¿ĳ": 5026,
      "çļĦä¸¤": 5027,
      "'s": 5028,
      "ç§ģäºº": 5029,
      "1941": 5030,
      "åħ¥éĢī": 5031,
      "è®ºæĸĩ": 5032,
      "éļ¾ä»¥": 5033,
      "æ°Ķåİĭ": 5034,
      "ç¼ĸåī§": 5035,
      "çļĦè®¾è®¡": 5036,
      "åĶĲæľĿ": 5037,
      "åı¯ä»¥åľ¨": 5038,
      "éĿĴå²Ľ": 5039,
      "è¿ĲçĶ¨": 5040,
      "çĽĳçĿ£": 5041,
      "äºĭæķħ": 5042,
      "çłģå¤´": 5043,
      "1973": 5044,
      "äºļåİĨå±±å¤§": 5045,
      "èį¯çī©": 5046,
      "éĺŁéķ¿": 5047,
      "ä¾ĭåŃĲ": 5048,
      "èĩ³äºİ": 5049,
      "ä¸ľåįĹéĥ¨": 5050,
      "åĵ¥ä¼¦æ¯Ķäºļ": 5051,
      "æ£ĺ": 5052,
      "è¯Ĭ": 5053,
      "82": 5054,
      "ç¢Ł": 5055,
      "å·ŀåºľ": 5056,
      "åĬ«": 5057,
      "one": 5058,
      "éĻĦè¿ĳçļĦ": 5059,
      "èĲ¨å°Ķ": 5060,
      "æ¶Ĥ": 5061,
      "çŃ¾è®¢": 5062,
      "é¢Ħè®¡": 5063,
      "ä¼ĺç§Ģ": 5064,
      "æĭ¼": 5065,
      "è¥¿å®ī": 5066,
      "åģ¿": 5067,
      "å¼Ģè®¾": 5068,
      "æĸ¤": 5069,
      "éĩįå¤§": 5070,
      "å¥¹åľ¨": 5071,
      "äºĮäºº": 5072,
      "åĳ¨æľŁ": 5073,
      "åįģä¹Ŀ": 5074,
      "èĬĴ": 5075,
      "æķ´ä½ĵ": 5076,
      "åĺ´": 5077,
      "çļĦæĥħåĨµä¸ĭ": 5078,
      "éĢ®æįķ": 5079,
      "æĿ°åħĭ": 5080,
      "83": 5081,
      "å°Ŀè¯ķ": 5082,
      "å«ģ": 5083,
      "åĲĪçº¦": 5084,
      "é¹¤": 5085,
      "æĮªå¨ģ": 5086,
      "æīĢå±ŀ": 5087,
      "éļĭ": 5088,
      "æĽ´ä¸º": 5089,
      "èµĦäº§": 5090,
      "ä¼ĺåĬ¿": 5091,
      "å®ŀéªĮå®¤": 5092,
      "æĥħæĬ¥": 5093,
      "åĽ°éļ¾": 5094,
      "1966": 5095,
      "96": 5096,
      "ä»ĸä¸İ": 5097,
      "æĦıè§ģ": 5098,
      "1955": 5099,
      "åĬªåĬĽ": 5100,
      "çķĻä¸ĭ": 5101,
      "ï¼īï¼Ľ": 5102,
      "ç«ĭåį³": 5103,
      "æ¶Īè´¹": 5104,
      "åĳ¨å¹´": 5105,
      "æĺ¯åįĹæŀģæ´²": 5106,
      "å°Ĩé¢Ĩ": 5107,
      "è¯¥åľ°": 5108,
      "æŁ´æ²¹": 5109,
      "1972": 5110,
      "åĩī": 5111,
      "åİ¢": 5112,
      "åĲĮæĢ§": 5113,
      "æ³ķå®ĺ": 5114,
      "å°ıåŀĭ": 5115,
      "åĪĻä¸º": 5116,
      "æĦĪ": 5117,
      "èĸĽ": 5118,
      "å·´å°Ķ": 5119,
      "ss": 5120,
      "ä¸Ĭéĺµ": 5121,
      "éĺ²å¾¡": 5122,
      "æĽ°": 5123,
      "æ³¨åĨĮ": 5124,
      "æ±Łèĭıçľģ": 5125,
      "ï¼Įï¼īï¼Į": 5126,
      "å¹´å¤ıåŃ£": 5127,
      "å¥¥å°Ķ": 5128,
      "1952": 5129,
      "çĶĺèĤĥ": 5130,
      "å¾·å°Ķ": 5131,
      "åĩĿ": 5132,
      "æĹ¥æ²»": 5133,
      "æ£ĢæŁ¥": 5134,
      "ly": 5135,
      "æ´¾éģ£": 5136,
      "ç¤ģ": 5137,
      "æĤ²": 5138,
      "æµĻæ±Łçľģ": 5139,
      "çĬ¬": 5140,
      "äº§çĶŁçļĦ": 5141,
      "ç¬¬äºĮæ¬¡ä¸ĸçķĮå¤§æĪĺ": 5142,
      "ç§ĳåŃ¦å®¶": 5143,
      "å¦ĩå¥³": 5144,
      "ont": 5145,
      "åŃ¦å£«": 5146,
      "åĮ»çĶŁ": 5147,
      "åį±æľº": 5148,
      "åľºçļĦ": 5149,
      "ER": 5150,
      "æĸ¹è¨Ģ": 5151,
      "æĳĨ": 5152,
      "åĪĨå¸ĥåľ¨": 5153,
      "å¥¶": 5154,
      "æķ¢": 5155,
      "å±ŀçļĦæ¤įçī©": 5156,
      "è¡ĮçļĦ": 5157,
      "ä¸ĭä»¤": 5158,
      "ä¸īä¸ĸ": 5159,
      "Ġst": 5160,
      "èĢĮä¸į": 5161,
      "åŁİåł¡": 5162,
      "ä»¥åįĹ": 5163,
      "åĽ½éĻħæľºåľº": 5164,
      "å¨ĥ": 5165,
      "å¤įåħ´": 5166,
      "ä¼½": 5167,
      "ç¥¨æĪ¿": 5168,
      "åİŁå§ĭ": 5169,
      "å¼ķç§į": 5170,
      "æİĴè¡Į": 5171,
      "åħĭéĩĮæĸ¯": 5172,
      "çŁ³æ²¹": 5173,
      "èĩªæĿĢ": 5174,
      "é¢Ĩå¯¼äºº": 5175,
      "å¼ķåħ¥": 5176,
      "84": 5177,
      "æĶ¹åĲįä¸º": 5178,
      "åħ³éĹŃ": 5179,
      "åĨ¬åŃ£": 5180,
      "è¿ĽæŃ¥": 5181,
      "ä»¥ä¸º": 5182,
      "åĪĨåĪ«æĺ¯": 5183,
      "ah": 5184,
      "ä¹īå¤§åĪ©": 5185,
      "æİĺ": 5186,
      "èĢĥè¯ķ": 5187,
      "éĵ¸": 5188,
      "çŁĽ": 5189,
      "åĪĨåĪ«ä¸º": 5190,
      "åĢº": 5191,
      "81": 5192,
      "ä¸ŃåĽ½çļĦ": 5193,
      "éħįéŁ³": 5194,
      "1968": 5195,
      "éĢĢå½¹": 5196,
      "éĹª": 5197,
      "ä»ĸè¿ĺ": 5198,
      "åįĳ": 5199,
      "è¾½å®ģ": 5200,
      "å¿Ļ": 5201,
      "è¯ŃçļĦ": 5202,
      "äº¤æį¢": 5203,
      "å¦Ļ": 5204,
      "1974": 5205,
      "åĳĬè¯ī": 5206,
      "æ¡Īä»¶": 5207,
      "å¼ĢéĢļ": 5208,
      "æĪĲéĥ½": 5209,
      "èĩªèº«": 5210,
      "çĶ±äººå·¥": 5211,
      "èĤĸ": 5212,
      "ä¸Ģèĩ´": 5213,
      "1977": 5214,
      "å¤§è§Ħæ¨¡": 5215,
      "97": 5216,
      "è¥¿åħ°": 5217,
      "åħ¸ç¤¼": 5218,
      "æ°¯": 5219,
      "çļĦçĶµå½±": 5220,
      "å¾¡åı²": 5221,
      "å±ķè§Ī": 5222,
      "åħļçļĦ": 5223,
      "1954": 5224,
      "ãĥ»": 5225,
      "æķ°çļĦ": 5226,
      "åĿļæĮģ": 5227,
      "åĩºçīĪç¤¾": 5228,
      "ç¼ĸçłģ": 5229,
      "ä¾ĽåºĶ": 5230,
      "éĻ¨çŁ³": 5231,
      "æł¼ä¸º": 5232,
      "oh": 5233,
      "æīģ": 5234,
      "ä¿Ŀå®Ī": 5235,
      "ä»İæŃ¤": 5236,
      "man": 5237,
      "è¿¦": 5238,
      "åħĭç½Ĺ": 5239,
      "çº§èģĶèµĽ": 5240,
      "93": 5241,
      "å¸ĥèİ±": 5242,
      "å¼ķç§įæł½åŁ¹": 5243,
      "åĪĨéħį": 5244,
      "å§Ĭ": 5245,
      "åİĺç±³": 5246,
      "åĢĻéĢīäºº": 5247,
      "å¤§å¸Ī": 5248,
      "çī¹èī²": 5249,
      "ST": 5250,
      "çĶ±äººå·¥å¼ķç§įæł½åŁ¹": 5251,
      "åįĩçº§": 5252,
      "è®·": 5253,
      "èĤĮ": 5254,
      "åı·çļĦ": 5255,
      "1965": 5256,
      "ç»ĻäºĨ": 5257,
      "åĽ½åĨĽ": 5258,
      "åĨħæĪĺ": 5259,
      "Ġh": 5260,
      "å¤§ä¼Ĺ": 5261,
      "å®¶äºº": 5262,
      "å·¡åĽŀ": 5263,
      "å°¼è¥¿äºļ": 5264,
      "au": 5265,
      "éĨĩ": 5266,
      "ew": 5267,
      "end": 5268,
      "çļĦå¥³": 5269,
      "åĲĦä¸ª": 5270,
      "åľ°è´¨": 5271,
      "æĬĳ": 5272,
      "ç¥ł": 5273,
      "æĸ¯é¡¿": 5274,
      "ä»ĸè¢«": 5275,
      "åħ¬åħĥåīį": 5276,
      "ä»ĸä¹Ł": 5277,
      "å¸¦æľī": 5278,
      "å·²æľī": 5279,
      "èµĦæľ¬": 5280,
      "å¾·æĭī": 5281,
      "å¿½": 5282,
      "éĢĤåĲĪ": 5283,
      "æĺŁç³»": 5284,
      "çī¹æĭī": 5285,
      "éĽį": 5286,
      "è§£æķ£": 5287,
      "çĶŁæĢģ": 5288,
      "å¼Łå¼Ł": 5289,
      "1938": 5290,
      "ĊĊĊĊĊĊĊĊĊĊĊĊĊĊĊĊ": 5291,
      "ff": 5292,
      "åĲ¹": 5293,
      "åĪ©çĽĬ": 5294,
      "çĭŃ": 5295,
      "èİ«æĸ¯ç§ĳ": 5296,
      "æĦŁæŁĵ": 5297,
      "äº²èĩª": 5298,
      "1964": 5299,
      "å®ĥæĺ¯": 5300,
      "æĹ¬": 5301,
      "å¤§å°ı": 5302,
      "ç©·": 5303,
      "æĸ¹ä¾¿": 5304,
      "ä¿ĿéĻ©": 5305,
      "è¾¾å°Ķ": 5306,
      "è¥¿çıŃçīĻè¯Ń": 5307,
      "æ³¢æĸ¯": 5308,
      "ä¾¨": 5309,
      "å·²è¢«": 5310,
      "åįĩä¸º": 5311,
      "ign": 5312,
      "å°¼åħĭ": 5313,
      "æīĭæľº": 5314,
      "æ³ķçļĦ": 5315,
      "1971": 5316,
      "çİ°å®ŀ": 5317,
      "æĪ¿å±ĭ": 5318,
      "1939": 5319,
      "è¯ģå®ŀ": 5320,
      "æĦıä¸º": 5321,
      "äºĶæľĪ": 5322,
      "åİŁä½ı": 5323,
      "åĪĨè£Ĥ": 5324,
      "è´©": 5325,
      "è®°å¿Ĩ": 5326,
      "åī¯ä¸»ä»»": 5327,
      "ä¸ĳ": 5328,
      "æĺ¯ä¸Ģåº§": 5329,
      "åĬŀäºĭå¤Ħ": 5330,
      "å¹³éĿ¢": 5331,
      "å¥¥æŀĹåĮ¹åħĭè¿ĲåĬ¨ä¼ļ": 5332,
      "é©¬éĩĮ": 5333,
      "æİ¥æĽ¿": 5334,
      "é¼İ": 5335,
      "1944": 5336,
      "ç¢§": 5337,
      "æī©å±ķ": 5338,
      "çļĦè¯Ŀ": 5339,
      "çłĸ": 5340,
      "å®°": 5341,
      "éĤª": 5342,
      "å¤©æĸĩåı°": 5343,
      "è®¾å®ļ": 5344,
      "åıĤéĢī": 5345,
      "çĻ¾ä¸ĩ": 5346,
      "ä¿ĦåĽ½": 5347,
      "èĪ±": 5348,
      "è¢ĭ": 5349,
      "ç©Ĩæĸ¯": 5350,
      "åĩºæ¼Ķ": 5351,
      "æ´ĽæĿī": 5352,
      "1959": 5353,
      "ep": 5354,
      "çİ»çĴĥ": 5355,
      "å¹½": 5356,
      "åĲīæŀĹ": 5357,
      "åįłåľ°": 5358,
      "éķ¿å®ĺ": 5359,
      "åĳĪçİ°": 5360,
      "çłĤ": 5361,
      "éºŁ": 5362,
      "çĤī": 5363,
      "çĶ«": 5364,
      "160": 5365,
      "æ±°": 5366,
      "è®²è¿°": 5367,
      "éĵĥ": 5368,
      "ï¼Īï¼īãĢĤ": 5369,
      "çİ¯å½¢": 5370,
      "Ġ4": 5371,
      "åħ³éĶ®": 5372,
      "é³ŀ": 5373,
      "åŃ¦çļĦ": 5374,
      "æłª": 5375,
      "æĬ±": 5376,
      "ç¿Ķ": 5377,
      "åĽŀå½Ĵ": 5378,
      "æ´ĽæĿīçŁ¶": 5379,
      "æ¼Ķå¥ı": 5380,
      "æİ¨å¹¿": 5381,
      "éķĩåĮº": 5382,
      "å½ĵå¤©": 5383,
      "åŁºéĩĳä¼ļ": 5384,
      "æłĭ": 5385,
      "åĮĸåĲĪçī©": 5386,
      "éĽĨåĲĪ": 5387,
      "ä¸ĢåĪĩ": 5388,
      "ue": 5389,
      "ç±»çļĦ": 5390,
      "æľ¬åľŁ": 5391,
      "ç»¿èī²": 5392,
      "å©ļå§»": 5393,
      "åĸľåī§": 5394,
      "æĺ¯åĽłä¸º": 5395,
      "NBA": 5396,
      "AP": 5397,
      "1969": 5398,
      "åıªè¦ģ": 5399,
      "å°¹": 5400,
      "äºĴçĽ¸": 5401,
      "âĢĻ": 5402,
      "å¾·åįİ": 5403,
      "çİĭåŃĲ": 5404,
      "åī§æľ¬": 5405,
      "æŃ¥æŀª": 5406,
      "ä¸Īå¤«": 5407,
      "çĽ´å¾Ħ": 5408,
      "åĲĦèĩª": 5409,
      "æĺ¯åı°æ¹¾": 5410,
      "çĤ¹çļĦ": 5411,
      "åĳĺå·¥": 5412,
      "94": 5413,
      "åı¯è§ģ": 5414,
      "ç¨»": 5415,
      "å¤¹": 5416,
      "éĺ»æŃ¢": 5417,
      "èķ¨": 5418,
      "å¸¸è§ģçļĦ": 5419,
      "åı¤åħ¸": 5420,
      "æĸĩæĺİ": 5421,
      "æĶ¹åĪ¶": 5422,
      "åİŁåĪĻ": 5423,
      "ç»Ħå»º": 5424,
      "åħ¬çĪµ": 5425,
      "æŃ¦å¸Ŀ": 5426,
      "ç¦»åŃĲ": 5427,
      "å»ºçŃĳçī©": 5428,
      "1957": 5429,
      "è½¬çļĦå°ıè¡ĮæĺŁ": 5430,
      "Ġto": 5431,
      "è¾ĵåħ¥": 5432,
      "ä¼łåªĴ": 5433,
      "æľ¬åľ°": 5434,
      "æĽ¾äºİ": 5435,
      "ç»³": 5436,
      "çĶ¨éĢĶ": 5437,
      "åĽŀåºĶ": 5438,
      "çĽ®åīįå°ļæľª": 5439,
      "çŃīçº§": 5440,
      "çĤ¼": 5441,
      "ç«Ł": 5442,
      "ä»»åĳ½ä¸º": 5443,
      "çĪµå£«": 5444,
      "çļĦéŁ³ä¹Ĳ": 5445,
      "æģŃ": 5446,
      "éĤ»è¿ĳ": 5447,
      "ä¸Ńè¢«": 5448,
      "ä¿®æŃ£": 5449,
      "å¤§å¹ħ": 5450,
      "å¢ŀå¼º": 5451,
      "çĽĨ": 5452,
      "æĢ§èĥ½": 5453,
      "è½¯ä½ĵ": 5454,
      "1967": 5455,
      "æīĵç®Ĺ": 5456,
      "æ®ĸæ°ĳåľ°": 5457,
      "éģĹäº§": 5458,
      "æĴŀåĩ»": 5459,
      "åľ¨ä»ĸ": 5460,
      "æĽ´æĸ°": 5461,
      "ä¸ŃæľŁ": 5462,
      "åĮĹç¾İ": 5463,
      "çªģçł´": 5464,
      "91": 5465,
      "æĭĸ": 5466,
      "ä¸»åĬŀ": 5467,
      "éĿłè¿ĳ": 5468,
      "ä¿®å»º": 5469,
      "ä¸¤åĽ½": 5470,
      "ç½Ĺé©¬å°¼äºļ": 5471,
      "åĲĦåĽ½": 5472,
      "æĥ¨": 5473,
      "åį±éĻ©": 5474,
      "çī¹éĩĮ": 5475,
      "è¹Ī": 5476,
      "å·«": 5477,
      "æİªæĸ½": 5478,
      "èĢĮéĿŀ": 5479,
      "è°Ń": 5480,
      "çº¤": 5481,
      "æľĢä½İ": 5482,
      "çĶŁéķ¿äºİæµ·æĭĶ": 5483,
      "æľ¬ç§ĳ": 5484,
      "ç±³çļĦåľ°åĮº": 5485,
      "åĪĨç¦»": 5486,
      "å·¥ç¨ĭå¸Ī": 5487,
      "åĻ¨çļĦ": 5488,
      "æĸĲ": 5489,
      "åĨħèĴĻåı¤": 5490,
      "å¤©ä¸ĭ": 5491,
      "çķĻåľ¨": 5492,
      "çļĦæĪĲåĳĺ": 5493,
      "éķ¿æ²Ļ": 5494,
      "åĪ©æĸ¯": 5495,
      "åī§éĻ¢": 5496,
      "åīª": 5497,
      "åĬ©çĲĨ": 5498,
      "çī¹å®ļ": 5499,
      "éĤĳ": 5500,
      "æ³¢ç½Ĺ": 5501,
      "ä»¤äºº": 5502,
      "å½ķéŁ³": 5503,
      "æĺ¯ä¸º": 5504,
      "æĹħè¡Į": 5505,
      "å¤§èµĽ": 5506,
      "ä¸Ģçº§": 5507,
      "âĨĴ": 5508,
      "éļ¶å±ŀ": 5509,
      "åº¦çļĦ": 5510,
      "ç«ĭæĸ¹": 5511,
      "1953": 5512,
      "åľŃ": 5513,
      "ä¸¸": 5514,
      "æ±Ģ": 5515,
      "å¹³æĸ¹åįĥç±³": 5516,
      "åıĳåĬ¨æľº": 5517,
      "çĶŁåŃĺ": 5518,
      "å¾Īå¤§": 5519,
      "å»ºç«ĭäºĨ": 5520,
      "çłĶåıĳ": 5521,
      "å®¶ä¸Ń": 5522,
      "åĲ«æľī": 5523,
      "åĺīéĿĸ": 5524,
      "å´©": 5525,
      "ark": 5526,
      "å·ŀåĪºåı²": 5527,
      "å¯ĵ": 5528,
      "1942": 5529,
      "ey": 5530,
      "å¾ĹåĪ°äºĨ": 5531,
      "åĨĽå®ĺ": 5532,
      "Ġæĺ¯": 5533,
      "æĬĵ": 5534,
      "è¢«è§Ĩä¸º": 5535,
      "æ¡ĥåĽŃ": 5536,
      "èĳ£äºĭéķ¿": 5537,
      "å¤§åį«": 5538,
      "çĽ´éļ¶": 5539,
      "1961": 5540,
      "å¼¯": 5541,
      "km": 5542,
      "å¾ĹåĲį": 5543,
      "å¯¹æĸ¹": 5544,
      "åĪ¶å®ļ": 5545,
      "å¯®": 5546,
      "çĶŁæĪĲ": 5547,
      "è¶³çĲĥè¿ĲåĬ¨åĳĺ": 5548,
      "æ´¾åĩº": 5549,
      "ect": 5550,
      "åħĭå°Ķ": 5551,
      "é¾Ļæ±Ł": 5552,
      "æ¯ħ": 5553,
      "æľ¬çº¿": 5554,
      "å°Ħåĩ»": 5555,
      "æĹ¥æľŁ": 5556,
      "ä½įäºİè¯¥åĽ½è¥¿éĥ¨": 5557,
      "æľĢä¸º": 5558,
      "ä¹ĭä¸º": 5559,
      "åįģä¸ĥ": 5560,
      "æľįå½¹": 5561,
      "çļĦæ°´": 5562,
      "æİ¥æĶ¶": 5563,
      "åī¯ä¸»å¸Ń": 5564,
      "æİ¥ä»»": 5565,
      "æ²ª": 5566,
      "æĹ©å¹´": 5567,
      "èĮµ": 5568,
      "æĺİç¡®": 5569,
      "ä½įäºİè¯¥çľģ": 5570,
      "1935": 5571,
      "èĴĻçī¹": 5572,
      "è¾Ł": 5573,
      "ä¼ļæľī": 5574,
      "æĸĩèīº": 5575,
      "ç®¡çĲĨå±Ģ": 5576,
      "çĽ®åīįå°ļæľªçĶ±äººå·¥å¼ķç§įæł½åŁ¹": 5577,
      "éĴ»": 5578,
      "æ±Ŀ": 5579,
      "æ´Ľåħĭ": 5580,
      "ç¥ŀè¯Ŀ": 5581,
      "éĺ¿æł¹": 5582,
      "èĻ¹": 5583,
      "æ·ĺæ±°": 5584,
      "å»¶éķ¿": 5585,
      "åıĻåĪ©äºļ": 5586,
      "çļĦåĦ¿åŃĲ": 5587,
      "ä¹¡ä¸ĭè¾ĸä»¥ä¸ĭåľ°åĮº": 5588,
      "è±«": 5589,
      "æĺ¯ä¿Ħç½Ĺæĸ¯": 5590,
      "èĥĨ": 5591,
      "éĹ¸": 5592,
      "ON": 5593,
      "Ġn": 5594,
      "éĦĤ": 5595,
      "ex": 5596,
      "åľ°å¸¦": 5597,
      "å¾·åĨĽ": 5598,
      "éŃģ": 5599,
      "1962": 5600,
      "å¤©çĦ¶": 5601,
      "å¥¥è¿Ĳä¼ļ": 5602,
      "èŁ¹": 5603,
      "æĪĲéķ¿": 5604,
      "åħ¶ä¸Ńä¸Ģ": 5605,
      "ä½Ľç½Ĺ": 5606,
      "In": 5607,
      "æ¸Ĭ": 5608,
      "éĺ¿æł¹å»·": 5609,
      "å¹´åĴĮ": 5610,
      "ate": 5611,
      "æľīèĳĹ": 5612,
      "èĮħ": 5613,
      "JR": 5614,
      "èįĨ": 5615,
      "æł¡åĽŃ": 5616,
      "ä¸¤èĢħ": 5617,
      "ric": 5618,
      "ä¸Ĭåįĩ": 5619,
      "åķĨåĵģ": 5620,
      "å°¤åħ¶æĺ¯": 5621,
      "1963": 5622,
      "æĸĭ": 5623,
      "å¾ªçİ¯": 5624,
      "è¾¨": 5625,
      "è¥Ħ": 5626,
      "çĽ¸åħ³çļĦ": 5627,
      "æĪĲç«ĭçļĦ": 5628,
      "èĢģå¸Ī": 5629,
      "Go": 5630,
      "åĽ½å®¶éĺŁ": 5631,
      "åŁĭ": 5632,
      "æĪĳçļĦ": 5633,
      "çĲĨæĥ³": 5634,
      "æĺ¯ä¸Ģéĥ¨": 5635,
      "ç§ĺä¹¦éķ¿": 5636,
      "æĶ¯æµģ": 5637,
      "åĨ°å·Ŀ": 5638,
      "åħ¬å®ī": 5639,
      "çİ°åľ¨çļĦ": 5640,
      "åĴ¨": 5641,
      "å½¢æĢģ": 5642,
      "åı¦ä¸Ģæĸ¹éĿ¢": 5643,
      "1936": 5644,
      "åĢ¡": 5645,
      "è¿Ļéĥ¨": 5646,
      "å±Ĥæ°´åŁŁ": 5647,
      "æ°¨": 5648,
      "æĸ©": 5649,
      "æ±īæĹı": 5650,
      "èĭ¹": 5651,
      "æĦıå¿Ĺ": 5652,
      "æ´»è·ĥ": 5653,
      "æł¡åĮº": 5654,
      "çĻ»ä¸Ĭ": 5655,
      "1943": 5656,
      "éķ¿è¾¾": 5657,
      "æ¶Īå¤±": 5658,
      "åıįæĺł": 5659,
      "åįĹéĿŀ": 5660,
      "å¾·çļĦ": 5661,
      "æıĲä¾ĽäºĨ": 5662,
      "æł¼æĭī": 5663,
      "å¸Ĥä¸Ńå¿ĥ": 5664,
      "åĿĩä¸º": 5665,
      "åħ·ä½ĵ": 5666,
      "ä¸Ģè¯į": 5667,
      "åĮħåĽ´": 5668,
      "è¾Ĳå°Ħ": 5669,
      "æĹłè®º": 5670,
      "è´§å¸ģ": 5671,
      "é£ŁçĶ¨": 5672,
      "åŃ¦ç§ĳ": 5673,
      "å»ĸ": 5674,
      "æĮĩç¤º": 5675,
      "åįģäºĮå¹´": 5676,
      "åģ¶åĥı": 5677,
      "éĶĢéĩı": 5678,
      "æĿŃå·ŀ": 5679,
      "æ¸¯åı£": 5680,
      "ond": 5681,
      "éķ¿åŃĲ": 5682,
      "1951": 5683,
      "ord": 5684,
      "åĽĬ": 5685,
      "éĥģ": 5686,
      "ç§°åĳ¼": 5687,
      "ä»ĬæĹ¥": 5688,
      "å·¢": 5689,
      "æĸ¹ç¨ĭ": 5690,
      "æĢģåº¦": 5691,
      "ç»´å¤ļ": 5692,
      "ç©Ĩæĸ¯æŀĹ": 5693,
      "éĽ¾": 5694,
      "çļĦæĸ¹æ³ķ": 5695,
      "ç»´æĬ¤": 5696,
      "åħ¶ä¸ŃåĮħæĭ¬": 5697,
      "çļĦä¸ĢäºĽ": 5698,
      "åıĹæ¬¢è¿İ": 5699,
      "èħĶ": 5700,
      "AN": 5701,
      "èĪŀè¹Ī": 5702,
      "éĽĮ": 5703,
      "ai": 5704,
      "è·¯åı£": 5705,
      "ä¸ºæŃ¤": 5706,
      "éĺ³å¸Ĥ": 5707,
      "åŁ¹åħ»": 5708,
      "æ´¾çļĦ": 5709,
      "éªĳåħµ": 5710,
      "äºīåıĸ": 5711,
      "æĪĺå£«": 5712,
      "æĦıæĢĿ": 5713,
      "sh": 5714,
      "çº³ç²¹": 5715,
      "èľĤ": 5716,
      "æĮĩå®ļ": 5717,
      "å°¼å°Ķ": 5718,
      "è©¹å§Ĩæĸ¯": 5719,
      "æī£": 5720,
      "æĸ°ç«¹": 5721,
      "åİŁæĿ¥": 5722,
      "æİĪæĿĥ": 5723,
      "ä¸¤å¹´": 5724,
      "å¹´æĹ¶çļĦäººåı£ä¸ºäºº": 5725,
      "é©³": 5726,
      "æ¯ıå¤©": 5727,
      "èĵ¬": 5728,
      "ä¸ŀ": 5729,
      "åĩºçİ°äºĨ": 5730,
      "PS": 5731,
      "æĿĢå®³": 5732,
      "æĹ¥äºİ": 5733,
      "ä¸¤ä½į": 5734,
      "å®ģæ³¢": 5735,
      "ç§ĳå¤«": 5736,
      "è¾ĸåĮº": 5737,
      "éĵģè·¯è½¦ç«Ļ": 5738,
      "é«ĺè¾¾": 5739,
      "çĶµæ°Ķ": 5740,
      "æŃ£ç¡®": 5741,
      "äºļåĨĽ": 5742,
      "æĢķ": 5743,
      "èħº": 5744,
      "è¤": 5745,
      "çıĢ": 5746,
      "çĪ±æĥħ": 5747,
      "åĪĨæĶ¯": 5748,
      "çĢ": 5749,
      "æİ¢éĻ©": 5750,
      "ä¸įæķĮ": 5751,
      "è´¨çĸĳ": 5752,
      "ä»¥ä¸ĬçļĦ": 5753,
      "å¤©åłĤ": 5754,
      "ç¼©åĨĻ": 5755,
      "é¢ĳçİĩ": 5756,
      "åĲ¸æĶ¶": 5757,
      "æľĪçļĦ": 5758,
      "åī¯ä¹¦è®°": 5759,
      "åĴĸ": 5760,
      "åľ£ç»ı": 5761,
      "åĬłåĪ©ç¦ı": 5762,
      "éĹ²": 5763,
      "åĪĻåľ¨": 5764,
      "æķĪåºĶ": 5765,
      "ä¸ĢèģĮ": 5766,
      "æľ¬äºº": 5767,
      "è°ĪåĪ¤": 5768,
      "éĩĳå±±": 5769,
      "å¸ĤæĶ¿åºľ": 5770,
      "è¾¹å¢ĥ": 5771,
      "å®īä¸ľ": 5772,
      "åī§åľº": 5773,
      "å¥ĭ": 5774,
      "é¦ĸä¸ª": 5775,
      "ith": 5776,
      "çļĦåĲĮ": 5777,
      "åºŁéĻ¤": 5778,
      "ÃĹ": 5779,
      "ãĢĤãĢĤ": 5780,
      "é¸Ń": 5781,
      "oy": 5782,
      "æļĸ": 5783,
      "äººæ°ĳä»£è¡¨å¤§ä¼ļ": 5784,
      "åĭĭç«ł": 5785,
      "åŃķ": 5786,
      "èĢĮä¸įæĺ¯": 5787,
      "åĲŀ": 5788,
      "å¯¼å¼¹": 5789,
      "éĵİ": 5790,
      "æľīè®¸å¤ļ": 5791,
      "Ġg": 5792,
      "çĽ¸åĲĮçļĦ": 5793,
      "æ¯ĶåĪ©æĹ¶": 5794,
      "Ġv": 5795,
      "çĲĨè§£": 5796,
      "æĺŃåĴĮ": 5797,
      "\"ãĢĤ": 5798,
      "ç¬¬ä¹Ŀ": 5799,
      "ç¾İåĽ½çļĦ": 5800,
      "å½¢çĬ¶": 5801,
      "æķĻå®Ĺ": 5802,
      "æĮĸ": 5803,
      "æĿ¥è¶Ĭ": 5804,
      "æĵħ": 5805,
      "æŃ¤æ¬¡": 5806,
      "åį³ä½į": 5807,
      "å´ĸ": 5808,
      "ä¸ĩåİĨ": 5809,
      "æĬ«": 5810,
      "æī§æĶ¿": 5811,
      "ä¿Ŀéļľ": 5812,
      "æĺ¯è¥¿çıŃçīĻ": 5813,
      "æĺ¯æĦıå¤§åĪ©": 5814,
      "è°¦": 5815,
      "åĲ¯åĬ¨": 5816,
      "è¶³çĲĥä¿±ä¹Ĳéĥ¨": 5817,
      "åĪĹåĩº": 5818,
      "åĬ²": 5819,
      "æĸ¹éĿ¢çļĦ": 5820,
      "700": 5821,
      "èĭ¯": 5822,
      "æĭ¨": 5823,
      "åĲ§": 5824,
      "èĤł": 5825,
      "åĲ»": 5826,
      "åĲīå°Ķ": 5827,
      "é©¬æĸ¯": 5828,
      "ĠåĴĮ": 5829,
      "é¢ģå¥ĸ": 5830,
      "ore": 5831,
      "æº¯": 5832,
      "å¹²éĥ¨": 5833,
      "éĻª": 5834,
      "è¥¿æĸ¯": 5835,
      "èĢķ": 5836,
      "å¹¶ä¸İ": 5837,
      "Ġåľ¨": 5838,
      "æ»ķ": 5839,
      "èĭ±å°º": 5840,
      "hant": 5841,
      "æĳĩæ»ļ": 5842,
      "è¿Ļé¡¹": 5843,
      "åĭŁ": 5844,
      "uc": 5845,
      "çļĦç¬¬äºĮ": 5846,
      "ä¸»åľº": 5847,
      "å¼Ģå±ķ": 5848,
      "son": 5849,
      "æĺİæĺŁ": 5850,
      "çĵ¶": 5851,
      "éħ·": 5852,
      "åģľè½¦": 5853,
      "äºĶä¸ª": 5854,
      "æ¸¸æ³³": 5855,
      "ng": 5856,
      "å¤§éĺª": 5857,
      "çĽĳå¯Ł": 5858,
      "è´§è¿Ĳ": 5859,
      "æļ´åĬĽ": 5860,
      "å¤§å¤«": 5861,
      "è¶ĬæĿ¥è¶Ĭ": 5862,
      "èĪŁ": 5863,
      "èĦ¸": 5864,
      "æĦıå¤ĸ": 5865,
      "è¶³çĲĥéĺŁ": 5866,
      "éĺ²æŃ¢": 5867,
      "åĩºåĶ®": 5868,
      "æ²³åįĹçľģ": 5869,
      "çļĦæĥħåĨµ": 5870,
      "éĩĳçīĮ": 5871,
      "ight": 5872,
      "æĹ¥åĲİ": 5873,
      "åĿĲæłĩä¸º": 5874,
      "çļĦæĶ¯æĮģ": 5875,
      "éĥ½åľ¨": 5876,
      "åĨĻä½ľ": 5877,
      "æ¼ł": 5878,
      "èĭıä¸¹": 5879,
      "å¤ļäºº": 5880,
      "åľ¨ä¸Ģèµ·": 5881,
      "åįĹç¾İæ´²": 5882,
      "Ar": 5883,
      "å®ļå±ħ": 5884,
      "æİ¨è¿Ľ": 5885,
      "çīµå¼ķ": 5886,
      "èĢĲ": 5887,
      "ä¸¤åĲį": 5888,
      "æĴ°åĨĻ": 5889,
      "è¿Ļåľº": 5890,
      "1927": 5891,
      "æĺ¯ä¸ª": 5892,
      "èĦĤé²¤": 5893,
      "èį¡": 5894,
      "æĭĨéĻ¤": 5895,
      "ä¸ºåħ¶": 5896,
      "åīĬ": 5897,
      "æ¡£æ¡Ī": 5898,
      "ä½Ĩä»ĸ": 5899,
      "åİ¿çļĦä¸Ģä¸ª": 5900,
      "é»ĳé¾Ļæ±Ł": 5901,
      "her": 5902,
      "é»Ħèī²": 5903,
      "åĲĮæĹ¶ä¹Ł": 5904,
      "ĊĊĊĊĊĊĊ": 5905,
      "èĤ¡ä»½æľīéĻĲåħ¬åı¸": 5906,
      "å¿ĺ": 5907,
      "ä¸īåĽ½": 5908,
      "æĬµæĬĹ": 5909,
      "èĪĮ": 5910,
      "éĥ¨éĥ¨éķ¿": 5911,
      "æ²¿æµ·": 5912,
      "1933": 5913,
      "äºĭå®ŀä¸Ĭ": 5914,
      "çĲĨå·¥": 5915,
      "å®Įå·¥": 5916,
      "çŁ®": 5917,
      "è´§çī©": 5918,
      "æ¯Ĺ": 5919,
      "æ³¢å°Ķ": 5920,
      "è£ħé¥°": 5921,
      "èģª": 5922,
      "çİ¯å½¢å±±": 5923,
      "äººæ°ĳå¸ģ": 5924,
      "å¤§éĩıçļĦ": 5925,
      "æĢ§åĪ«": 5926,
      "è°¥": 5927,
      "åĿĤ": 5928,
      "å®£ç§°": 5929,
      "å¿ħè¦ģ": 5930,
      "åĸĩ": 5931,
      "æīĭæ®µ": 5932,
      "æłĹ": 5933,
      "ç»ıçĶ±": 5934,
      "æĢ»è£ģ": 5935,
      "åįĩä»»": 5936,
      "åĩºåıĳ": 5937,
      "æľºåĪ¶": 5938,
      "èĴ²": 5939,
      "èĬĤåº¦": 5940,
      "èķ¾": 5941,
      "çļĦæĥħ": 5942,
      "ä¹¦ç±į": 5943,
      "05": 5944,
      "ä¸¤ä¾§": 5945,
      "é£İéĻ©": 5946,
      "å¹³è¡¡": 5947,
      "æĶ¶èĹı": 5948,
      "åĽ½éģĵ": 5949,
      "èģĮä½į": 5950,
      "ç´§æĢ¥": 5951,
      "äº¥": 5952,
      "VD": 5953,
      "ä»ķ": 5954,
      "åİŁä½ıæ°ĳ": 5955,
      "è·Łéļı": 5956,
      "éĩįè§Ĩ": 5957,
      "éĩıåŃĲ": 5958,
      "æľīæľº": 5959,
      "èģĶåĲĪä¼ļ": 5960,
      "ä¿Ŀè¯ģ": 5961,
      "èľľ": 5962,
      "æļ¨": 5963,
      "èľĢ": 5964,
      "ox": 5965,
      "æĹ¥æŃ£å¼ı": 5966,
      "å¯¹åħ¶": 5967,
      "è§ĦèĮĥ": 5968,
      "é¢Ī": 5969,
      "æ¨¡æĭŁ": 5970,
      "è®¾è®¡çļĦ": 5971,
      "ç¤ºå¨ģ": 5972,
      "ç¾İåĽ½äºº": 5973,
      "èĭ¹æŀľ": 5974,
      "æĭ±": 5975,
      "ä¸ĭäºĨ": 5976,
      "éĤ±": 5977,
      "çĽ¸å½ĵäºİ": 5978,
      "é¢ģåıĳ": 5979,
      "è¶³å¤Ł": 5980,
      "åľĨå½¢": 5981,
      "æ¸¯åħĥ": 5982,
      "è¾¹ç¼ĺ": 5983,
      "äºĮæĪĺ": 5984,
      "ä¼ļä¸Ĭ": 5985,
      "åĪ°çļĦ": 5986,
      "æĶ¶è§Ĩ": 5987,
      "æĤ£èĢħ": 5988,
      "çŃ¾çº¦": 5989,
      "ä»£çļĦ": 5990,
      "1928": 5991,
      "åĻ¶": 5992,
      "é¦ĸæĴŃ": 5993,
      "èĸĩ": 5994,
      "åĬłå°Ķ": 5995,
      "åıĳè¡ĮçļĦ": 5996,
      "åı¤èĢģ": 5997,
      "æĹłäºº": 5998,
      "å¥¹ä»¬": 5999,
      "åĤ¬": 6000,
      "æķĮäºº": 6001,
      "æ³ķè¯Ń": 6002,
      "åĨ³è®®": 6003,
      "å··": 6004,
      "ãĥ¼": 6005,
      "å¸¸å¸¸": 6006,
      "æĢĢçĸĳ": 6007,
      "åľ¨ä¸Ń": 6008,
      "AS": 6009,
      "çĥŃå¸¦é£İæļ´": 6010,
      "IN": 6011,
      "èĥ½æºĲ": 6012,
      "é¼ĵåĬ±": 6013,
      "æľŃ": 6014,
      "éĩĩè®¿": 6015,
      "æ¸ł": 6016,
      "ä¼łæķĻ": 6017,
      "ä¼ļè¢«": 6018,
      "å§ĳ": 6019,
      "ens": 6020,
      "ç¢±": 6021,
      "ä»¥ä¸ľ": 6022,
      "åĩºåľº": 6023,
      "æİł": 6024,
      "æ£Ģå¯Ł": 6025,
      "ç»´å¤ļåĪ©äºļ": 6026,
      "å±±åİ¿": 6027,
      "çļĦåİŁåĽł": 6028,
      "ç½Ĺå¾·": 6029,
      "å¸½": 6030,
      "éĺ¿éĩĮ": 6031,
      "çĽĳçĭ±": 6032,
      "æŃ£éĿ¢": 6033,
      "éģ¥": 6034,
      "åı¦æľī": 6035,
      "å½±åĥı": 6036,
      "è¯Ĺäºº": 6037,
      "åħĭçļĦ": 6038,
      "are": 6039,
      "åįķåħĥ": 6040,
      "ä¸»ä¹īèĢħ": 6041,
      "èĭ±éĩĮ": 6042,
      "é²¸": 6043,
      "æĶ¶éĽĨ": 6044,
      "1931": 6045,
      "æ³ķåºŃ": 6046,
      "èģĶç»ľ": 6047,
      "åıĺä¸º": 6048,
      "ä¸¥æł¼": 6049,
      "å®¡æŁ¥": 6050,
      "å¤©åĲİ": 6051,
      "ä¸Ĭå¸Ŀ": 6052,
      "æĪĲå°±": 6053,
      "æ¬§çĽŁ": 6054,
      "åģļä¸º": 6055,
      "è¿Ļé¢Ĺ": 6056,
      "éĻ·åħ¥": 6057,
      "åħ¬æĸ¤": 6058,
      "åį¸": 6059,
      "ç»´æĸ¯": 6060,
      "åįļå£«åŃ¦ä½į": 6061,
      "åĬłåħ¥äºĨ": 6062,
      "èĸª": 6063,
      "éĽ·æĸ¯": 6064,
      "å¸¸åĬ¡": 6065,
      "æĬ¥çº¸": 6066,
      "è§īå¾Ĺ": 6067,
      "å¸Ĳ": 6068,
      "ç¬¬åįģä¸Ģ": 6069,
      "æĮģæľī": 6070,
      "æ±īåŃĹ": 6071,
      "ä½¿çĶ¨èĢħ": 6072,
      "ç¨Ģ": 6073,
      "äººä¸º": 6074,
      "æĳ§": 6075,
      "ire": 6076,
      "ç«ŀéĢī": 6077,
      "ä»£è¡¨åĽ¢": 6078,
      "ä¸»åĬĽ": 6079,
      "ust": 6080,
      "æĦıåĳ³": 6081,
      "é¡·": 6082,
      "æ±īè¯Ń": 6083,
      "å·´æĭī": 6084,
      "æľŁçļĦ": 6085,
      "ä¸ŃåĽ½åĽ½æ°ĳåħļ": 6086,
      "çĲª": 6087,
      "æºĥ": 6088,
      "åĢ¾åĲĳ": 6089,
      "ä¸Ģåľº": 6090,
      "å¸¸å§Ķ": 6091,
      "éļľç¢į": 6092,
      "å¹¶çĶ±": 6093,
      "è·¯æ®µ": 6094,
      "éĶĲ": 6095,
      "èĥº": 6096,
      "è¯±": 6097,
      "åİŁåħĪ": 6098,
      "é¦ĸçĽ¸": 6099,
      "ç§¯åĪĨ": 6100,
      "éĢļçĶ¨": 6101,
      "å·¨å¤§": 6102,
      "è°Ĭ": 6103,
      "æĸ¥": 6104,
      "ä¼łç»ŁçļĦ": 6105,
      "\"ï¼īï¼Į": 6106,
      "âĢĺ": 6107,
      "èĵĿèī²": 6108,
      "åħļåĳĺ": 6109,
      "1932": 6110,
      "åĪ¶ä½ľçļĦ": 6111,
      "é¡ºåĪ©": 6112,
      "çļĦåĲįåŃĹ": 6113,
      "110": 6114,
      "çĭ¬ç«ĭçļĦ": 6115,
      "æĹ¥æľ¬çļĦ": 6116,
      "å®ł": 6117,
      "ock": 6118,
      "å»ºåĪ¶": 6119,
      "ä¹¦ä¸Ń": 6120,
      "Ġl": 6121,
      "æ°ĳè¿Ľ": 6122,
      "æľ¬å±Ĭ": 6123,
      "åı¸ä»¤éĥ¨": 6124,
      "åį¡ç½Ĺ": 6125,
      "äººæĿĥ": 6126,
      "èĢĥåı¤": 6127,
      "æĶ¹è¿Ľ": 6128,
      "å©´": 6129,
      "éĢ»è¾ĳ": 6130,
      "æĹłçº¿çĶµè§Ĩ": 6131,
      "ç¦ıå»ºçľģ": 6132,
      "å¿§": 6133,
      "å¤ļå°Ķ": 6134,
      "å¼Ģå¹ķ": 6135,
      "ä»ĸäºİ": 6136,
      "è¾ĵåĩº": 6137,
      "è±¹": 6138,
      "æĪĺéĺŁ": 6139,
      "åŁİçļĦ": 6140,
      "å®¡åĪ¤": 6141,
      "æ¡ĵ": 6142,
      "èĹ»": 6143,
      "å¸ĥæľĹ": 6144,
      "ä¸ľäºļ": 6145,
      "ä»ħæľī": 6146,
      "per": 6147,
      "çļĦéĥ¨åĪĨ": 6148,
      "çŃĴ": 6149,
      "æµ·åįĹ": 6150,
      "ä¸īäºº": 6151,
      "è¸ı": 6152,
      "Ġfor": 6153,
      "cn": 6154,
      "ä¸¤å²¸": 6155,
      "ä»¥æŃ¤": 6156,
      "æ·ĳ": 6157,
      "å²Ľä¸Ĭ": 6158,
      "TC": 6159,
      "åıĳçĶŁåľ¨": 6160,
      "è¿ĩçļĦ": 6161,
      "å®¢æĪ·": 6162,
      "åĮĹæµ·éģĵ": 6163,
      "èº«åĪĨ": 6164,
      "æİ¨èįĲ": 6165,
      "åķĨäºº": 6166,
      "è¡ĮæĶ¿éĻ¢": 6167,
      "ãĢĤâĢľ": 6168,
      "æīĳ": 6169,
      "çľģéģĵ": 6170,
      "çļĦä¸ĢæĿ¡": 6171,
      "çĥŃå¸¦æ°ĶæĹĭ": 6172,
      "ä»¥è¥¿": 6173,
      "01": 6174,
      "éĢļä¿¡": 6175,
      "å½¢å®¹": 6176,
      "ç§°åı·": 6177,
      "ï¼Įï¼ī": 6178,
      "æ£ī": 6179,
      "å°ģä¸º": 6180,
      "æĽ´å¤ļçļĦ": 6181,
      "çĶľ": 6182,
      "ç§ĳå°Ķ": 6183,
      "åī§éĽĨ": 6184,
      "ame": 6185,
      "éĻĦå±ŀ": 6186,
      "åķ¡": 6187,
      "1934": 6188,
      "å½ĵåľ°çļĦ": 6189,
      "å¤§éĢī": 6190,
      "å°Ĩåľ¨": 6191,
      "æķĪåĬĽäºİ": 6192,
      "åĨħåľ°": 6193,
      "é¾ĻçļĦ": 6194,
      "åįĹæµ·": 6195,
      "ä¸ľäº¬éĥ½": 6196,
      "åģĩè®¾": 6197,
      "æ¤İ": 6198,
      "æĦŁè§ī": 6199,
      "å·²äºİ": 6200,
      "èĲ½æĪĲ": 6201,
      "è´¼": 6202,
      "æĦ¤": 6203,
      "éĩįéĩı": 6204,
      "è¿Ļé¦ĸ": 6205,
      "è§Ĩé¢ĳ": 6206,
      "æľ¬ä½ľ": 6207,
      "ç±³èĩ³": 6208,
      "Ġ/": 6209,
      "åīįåĲİ": 6210,
      "æ²¿å²¸": 6211,
      "éĤµ": 6212,
      "è¯¥æł¡": 6213,
      "çļĦä½įç½®": 6214,
      "åľ°åľ¨": 6215,
      "ä¸»ä¹īçļĦ": 6216,
      "è¥¿ä¾§": 6217,
      "ä¸ĬäºĨ": 6218,
      "åįıè°ĥ": 6219,
      "äºĶåįģ": 6220,
      "ç»ıæµİåŃ¦": 6221,
      "çķħ": 6222,
      "çĶ»å®¶": 6223,
      "ç¾¤ä¼Ĺ": 6224,
      "pe": 6225,
      "æĶ¹ç§°": 6226,
      "æĹ¥å¼Ģå§ĭ": 6227,
      "èģĶç½ĳ": 6228,
      "åº¶": 6229,
      "ä½įçļĦ": 6230,
      "èŃ¦åĳĬ": 6231,
      "æ²³åĮĹçľģ": 6232,
      "æĭĺ": 6233,
      "éŃĶæ³ķ": 6234,
      "ä¹ĭå¤Ħ": 6235,
      "ç«Ļåı°": 6236,
      "ä¸ŃæľĢ": 6237,
      "æĸ¯æĭīå¤«": 6238,
      "çī¹åħ°": 6239,
      "å¤©æ°Ķ": 6240,
      "çº¦æľī": 6241,
      "æĿ¡ä¾ĭ": 6242,
      "åĮºåĨħ": 6243,
      "çĿ¡": 6244,
      "æ¹ĸæ³Ĭ": 6245,
      "åħħæ»¡": 6246,
      "ç§įæ¤į": 6247,
      "è¾ŀèģĮ": 6248,
      "å¤§è¡Ĺ": 6249,
      "åľ¨èĭ±åĽ½": 6250,
      "è¯¥åĽ½": 6251,
      "çļĦè§Ĵèī²": 6252,
      "åıĳæĮ¥": 6253,
      "ook": 6254,
      "å¹¶æĹł": 6255,
      "æĸĹäºī": 6256,
      "ä»ĸä¸º": 6257,
      "ç½Ĺä¼¯çī¹": 6258,
      "å®Ľ": 6259,
      "çĪ±å¾·åįİ": 6260,
      "æİ§èĤ¡": 6261,
      "åħĭæŀĹ": 6262,
      "è¯ģåĪ¸": 6263,
      "æ¢¨": 6264,
      "è°ģ": 6265,
      "æĥľ": 6266,
      "çĥ¯": 6267,
      "ç§ĺé²ģ": 6268,
      "HR": 6269,
      "ment": 6270,
      "æıĲåıĬ": 6271,
      "ç£·": 6272,
      "...": 6273,
      "è´¢äº§": 6274,
      "è·¯æĺĵæĸ¯": 6275,
      "çļĦæĢ»": 6276,
      "çĪ·": 6277,
      "ç©´": 6278,
      "ç²ĴåŃĲ": 6279,
      "åĶĩ": 6280,
      "ä¸ĭä¸Ģ": 6281,
      "éĻ¨çŁ³åĿĳ": 6282,
      "éĺ³åİ¿": 6283,
      "æł¼å°Ķ": 6284,
      "ä¾įéĥİ": 6285,
      "åį«è§Ĩ": 6286,
      "06": 6287,
      "åĵª": 6288,
      "åįģä¸Ģå¹´": 6289,
      "èīºæľ¯å®¶": 6290,
      "çłĶç©¶éĻ¢": 6291,
      "å§Ķåĳĺä¼ļå§Ķåĳĺ": 6292,
      "çī©ç§įçļĦ": 6293,
      "éĵģè·¯å±Ģ": 6294,
      "ary": 6295,
      "æŀ¶æŀĦ": 6296,
      "é¤Ĳåİħ": 6297,
      "éĥ½è¢«": 6298,
      "ä¸ľæµ·": 6299,
      "æ¾Ħ": 6300,
      "ä¸ĭåĪĹ": 6301,
      "çº¢åĨĽ": 6302,
      "éĤ®æĶ¿": 6303,
      "æĶ¾åľ¨": 6304,
      "åĨķ": 6305,
      "æīĵçł´": 6306,
      "çĬ¹å¤ªäºº": 6307,
      "çĩĥæĸĻ": 6308,
      "ä½ľä¸ļ": 6309,
      "åĽ¾åĥı": 6310,
      "1929": 6311,
      "æ¢µ": 6312,
      "æĹ¶æĬ¥": 6313,
      "æ°Ķä½ĵ": 6314,
      "å¸Ĩ": 6315,
      "æ²ĥå°Ķ": 6316,
      "å°¿": 6317,
      "å®´": 6318,
      "ä¿®å¤į": 6319,
      "ãĢĤï¼Ī": 6320,
      "ug": 6321,
      "çļĦå½¢å¼ı": 6322,
      "åķĨåºĹ": 6323,
      "èĳµ": 6324,
      "æ¯ıæĹ¥": 6325,
      "com": 6326,
      "ç¦¾": 6327,
      "çļĦåŁºç¡Ģ": 6328,
      "åĪĻæľī": 6329,
      "æ¸¸å®¢": 6330,
      "ä½Ļäºº": 6331,
      "ĠX": 6332,
      "ä½İæ°Ķåİĭ": 6333,
      "å·¡æ´ĭ": 6334,
      "æİ©": 6335,
      "å¼ĹéĩĮ": 6336,
      "äº©": 6337,
      "èĭ±åĨĽ": 6338,
      "å¤ªåĲİ": 6339,
      "è§Ĵåº¦": 6340,
      "è¤Ĳ": 6341,
      "åķĨåľº": 6342,
      "ä»ĸä»¬åľ¨": 6343,
      "å¾Īå°ĳ": 6344,
      "ib": 6345,
      "æĹ¶ä»£çļĦ": 6346,
      "æīĢåľ¨åľ°": 6347,
      "å¸ĥéĩĮ": 6348,
      "åł¤": 6349,
      "èŃ¦æĬ¥": 6350,
      "çĲĨçĶ±": 6351,
      "å¼ķè¿Ľ": 6352,
      "æĺ¾èĳĹ": 6353,
      "ä¸¾åĬŀçļĦ": 6354,
      "æ±¡æŁĵ": 6355,
      "åįĩæł¼ä¸º": 6356,
      "æ¦Ħ": 6357,
      "ä¸įè¦ģ": 6358,
      "åħ¬äº¤": 6359,
      "ä¸ŃæŃ£": 6360,
      "éģĵåħī": 6361,
      "æ¼ı": 6362,
      "äº«å¹´": 6363,
      "250": 6364,
      "è½©": 6365,
      "æĺŁçļĦ": 6366,
      "è¾ħåĬ©": 6367,
      "äºĨè®¸å¤ļ": 6368,
      "æİ¥èĳĹ": 6369,
      "åĩ¶": 6370,
      "çİ°æĹ¶çĶ±": 6371,
      "è¿ĳä»£": 6372,
      "ç¬¬ä¸īçĶ²": 6373,
      "èµ·åĪĿ": 6374,
      "ç¢°": 6375,
      "åį§": 6376,
      "æī©å¼ł": 6377,
      "ç¡®ä¿Ŀ": 6378,
      "ç»µ": 6379,
      "åĬłä»¥": 6380,
      "aw": 6381,
      "ç§°ä¹ĭä¸º": 6382,
      "ç¬¬ä¸Ģä½į": 6383,
      "è¿ŀè½½": 6384,
      "çĻ»åľº": 6385,
      "åĪĨæĪĲ": 6386,
      "å¤ĦçļĦ": 6387,
      "è¡Įä¸ļ": 6388,
      "çİ°ä¸º": 6389,
      "èı©": 6390,
      "çľģçļĦ": 6391,
      "æŃĮè¯į": 6392,
      "æķĻèĤ²éĥ¨": 6393,
      "åľ¨åĮĹäº¬": 6394,
      "èĦ±ç¦»": 6395,
      "æ±ŁæĪ·": 6396,
      "æ¸ħæľĿæĶ¿æ²»äººçī©": 6397,
      "æ»¡æ´²": 6398,
      "ä½¿åħ¶": 6399,
      "åĮºéĹ´": 6400,
      "èĤº": 6401,
      "PC": 6402,
      "ãĥ³": 6403,
      "æ¼ĶåĮĸ": 6404,
      "ð«": 6405,
      "ä»ĸæĽ¾": 6406,
      "æķ°ä½į": 6407,
      "æĶ¯ä»ĺ": 6408,
      "æļĤæĹ¶": 6409,
      "åĮºåĪ«": 6410,
      "çĵ·": 6411,
      "çĶµè½¦": 6412,
      "å·¨å¤§çļĦ": 6413,
      "æ¸¸è¡Į": 6414,
      "ãĢĭãĢģ": 6415,
      "å¼ıæľĪåı°": 6416,
      "ç±³äºļ": 6417,
      "09": 6418,
      "ies": 6419,
      "1912": 6420,
      "æĪĲç«ĭäºĨ": 6421,
      "é¹ħ": 6422,
      "ure": 6423,
      "æĸ¯æ´Ľ": 6424,
      "å±ĤçļĦ": 6425,
      "å¤§å®¶": 6426,
      "ä¹Łæ²¡æľī": 6427,
      "å¡Ķå°Ķ": 6428,
      "æľĢæĹ©çļĦ": 6429,
      "å¤ļé¡¹": 6430,
      "è¯¥çīĩ": 6431,
      "é©¬ä¸ģ": 6432,
      "å¹´èİ·": 6433,
      "æŃ»äºİ": 6434,
      "å¼ĵ": 6435,
      "æĶ¶è´¹": 6436,
      "æĸ°çķĮ": 6437,
      "èªĵ": 6438,
      "æł¼åĭĴ": 6439,
      "çİ²": 6440,
      "å±±è¥¿çľģ": 6441,
      "enter": 6442,
      "çĽ¸åıį": 6443,
      "éĢ¸": 6444,
      "ä¸İæŃ¤": 6445,
      "è¯¥åħ¬åı¸": 6446,
      "ux": 6447,
      "æĮ¡": 6448,
      "èħ¿": 6449,
      "ä½¿çĶ¨äºĨ": 6450,
      "åĺīä¹ī": 6451,
      "mm": 6452,
      "åĲİè¢«": 6453,
      "é²¶": 6454,
      "åĬłåĵ¥": 6455,
      "é¢Ĩåľ°": 6456,
      "é¦ĸå¸Ń": 6457,
      "çŃĸçķ¥": 6458,
      "ä¸Ńå°Ĩ": 6459,
      "EC": 6460,
      "è¿ŀä»»": 6461,
      "çļĦåŁİå¸Ĥ": 6462,
      "ä¸»æĮģäºº": 6463,
      "æ¹ĸåįĹçľģ": 6464,
      "èĬĿåĬłåĵ¥": 6465,
      "çĲīçĲĥ": 6466,
      "æĢ¡": 6467,
      "æµģä¼ł": 6468,
      "é¥¼": 6469,
      "åįķçĭ¬": 6470,
      "äº¬éĥ½": 6471,
      "éĿ¢ç§¯ä¸º": 6472,
      "çłĶç©¶çĶŁ": 6473,
      "åģļåĩº": 6474,
      "æĳ§æ¯ģ": 6475,
      "ä¼Ĭæĭīåħĭ": 6476,
      "åĪĩå°Ķ": 6477,
      "åĴĸåķ¡": 6478,
      "åľºæīĢ": 6479,
      "Sh": 6480,
      "08": 6481,
      "é¦ĸä½į": 6482,
      "æĪĺè½¦": 6483,
      "æ±ŁåįĹ": 6484,
      "æĪĲç«ĭåĲİ": 6485,
      "åºĨç¥Ŀ": 6486,
      "è½¬ä¼ļ": 6487,
      "ç»ĪçĤ¹": 6488,
      "æ¨±": 6489,
      "è¶³åįı": 6490,
      "SS": 6491,
      "Ġ6": 6492,
      "éĻ¢å£«": 6493,
      "æ°ĳè¿Ľåħļ": 6494,
      "æ£ķ": 6495,
      "è§ĨæĺŁçŃīä¸º": 6496,
      "æ²³çļĦ": 6497,
      "åĪĽå§ĭ": 6498,
      "é¹ı": 6499,
      "åĽŀåĽ½": 6500,
      "æĪĺåľº": 6501,
      "äº¤çķĮ": 6502,
      "èĬĤåº¦ä½¿": 6503,
      "æĹ©ä¸Ĭ": 6504,
      "az": 6505,
      "æ²³éģĵ": 6506,
      "å·¡æ´ĭèĪ°": 6507,
      "çİ°åŃĺ": 6508,
      "åıĳè¨Ģ": 6509,
      "åĽŀå¿Ĩ": 6510,
      "å¤¸": 6511,
      "ä¸ľä¾§": 6512,
      "æĺ¯ä»İ": 6513,
      "æĹ¶æ®µ": 6514,
      "æµ·ä¸Ĭ": 6515,
      "åįĹæŀģæĿ¡çº¦": 6516,
      "è¿Ŀåıį": 6517,
      "è¯Ħä¼°": 6518,
      "ä¹łæĥ¯": 6519,
      "è´ª": 6520,
      "ç§ŁçķĮ": 6521,
      "çĺ¤": 6522,
      "å¥³çİĭ": 6523,
      "å·²çŁ¥": 6524,
      "èĤ¤": 6525,
      "æīĭæľ¯": 6526,
      "ä»Ĩ": 6527,
      "æĥ³è¦ģ": 6528,
      "å¹´ç¾İåĽ½äººåı£æĻ®æŁ¥": 6529,
      "ä¸Ģç³»åĪĹ": 6530,
      "ä¼¼ä¹İ": 6531,
      "æ¡Į": 6532,
      "ä¼ŀ": 6533,
      "å§¿": 6534,
      "åĲĬ": 6535,
      "çī¹åĭĴ": 6536,
      "æ¸ħä»£": 6537,
      "æĤł": 6538,
      "ĠThe": 6539,
      "çĹĩçĬ¶": 6540,
      "åĲĪæ³ķ": 6541,
      "åįģæľĪ": 6542,
      "ç¿ħ": 6543,
      "éĢļçŁ¥": 6544,
      "æ¸ħåįİ": 6545,
      "éĢĶä¸Ń": 6546,
      "çĶµåĬ¨": 6547,
      "IP": 6548,
      "âĢ§": 6549,
      "å®ĺèĩ³": 6550,
      "éľŀ": 6551,
      "çļĦæĶ¿æ²»": 6552,
      "æĺ¯ä¸į": 6553,
      "130": 6554,
      "Ġ10": 6555,
      "æħİ": 6556,
      "ç»¥": 6557,
      "æĸ°åĮĹ": 6558,
      "å¨¶": 6559,
      "æĻĭçº§": 6560,
      "ç±³åħ°": 6561,
      "æŁ¥çĲĨ": 6562,
      "07": 6563,
      "ç«ĭåľº": 6564,
      "ee": 6565,
      "æĴ¤éĢĢ": 6566,
      "åĩĮæĻ¨": 6567,
      "é¢ł": 6568,
      "éĹ»åĲį": 6569,
      "çĽ¸åºĶ": 6570,
      "åį°åĪ·": 6571,
      "åįĹæŀģæĿ¡çº¦ä½ĵç³»": 6572,
      "éķľå¤´": 6573,
      "æĸ¯åį¡": 6574,
      "çº¿ä¸Ĭ": 6575,
      "çļĦæĹ¥": 6576,
      "ç¬¬ä¸ĢçĻ¾": 6577,
      "èĩĤ": 6578,
      "æĨ": 6579,
      "æ¡Ĩ": 6580,
      "æ¡Ĳ": 6581,
      "æľ«æľŁ": 6582,
      "Ġ5": 6583,
      "çļĦä¸į": 6584,
      "èĬ¦": 6585,
      "çļĦæľĢ": 6586,
      "æĢ»ä¼ļ": 6587,
      "çĪª": 6588,
      "ä½ĵèĤ²åľº": 6589,
      "å¥ł": 6590,
      "ä¾£": 6591,
      "ç»ĳ": 6592,
      "æĶ¹å»º": 6593,
      "--": 6594,
      "åºıåĪĹ": 6595,
      "åħĪè¿Ľ": 6596,
      "ä¸ºåı°æ¹¾": 6597,
      "ä½ĨåĽł": 6598,
      "èµ¤çº¬": 6599,
      "éģŃéģĩ": 6600,
      "é©±åĬ¨": 6601,
      "åį³å°Ĩ": 6602,
      "èİ±èĮµ": 6603,
      "å¼ĹæľĹ": 6604,
      "åįĹæŀģæĿ¡çº¦ä½ĵç³»ç®¡çĲĨ": 6605,
      "çĻ»è®°": 6606,
      "åı¯åīįå¾Ģ": 6607,
      "è¿ĻæĹ¶": 6608,
      "è¯¥å¸Ĥ": 6609,
      "è§Ĥåħī": 6610,
      "æĪĲçĨŁ": 6611,
      "èº«ä¸Ĭ": 6612,
      "åĨĢ": 6613,
      "æŀĦéĢł": 6614,
      "æĺ¯åį°åº¦": 6615,
      "æł¹æľ¬": 6616,
      "ä»£æĽ¿": 6617,
      "çļĦç»ĵæŀľ": 6618,
      "å¼Ħ": 6619,
      "æĪĺæĸĹæľº": 6620,
      "éĩĮè¾¾": 6621,
      "èµŀåĬ©": 6622,
      "åľ¨åĨħçļĦ": 6623,
      "çº§åĪ«": 6624,
      "IST": 6625,
      "AK": 6626,
      "éĿ¢ä¸´": 6627,
      "åı²å¯Ĩ": 6628,
      "éĢļå¾Ģ": 6629,
      "åĽĽåįģ": 6630,
      "å¦Ĥä»Ĭ": 6631,
      "ä¿¡å¾Ĵ": 6632,
      "èµ¤ç»ı": 6633,
      "çº¦çĳŁ": 6634,
      "åľ¨ä¸Ģä¸ª": 6635,
      "åĨħæľī": 6636,
      "éĻ¤æŃ¤": 6637,
      "äº¤æ±ĩ": 6638,
      "ä¸Ńåįİäººæ°ĳåħ±åĴĮåĽ½æĶ¿æ²»äººçī©": 6639,
      "çļĦç¥ŀ": 6640,
      "æīĭæŀª": 6641,
      "æŁĦ": 6642,
      "Un": 6643,
      "å¤§éĿ©åĳ½": 6644,
      "ç«ĻçļĦ": 6645,
      "å¹¶è¢«": 6646,
      "æ¬¡äºİ": 6647,
      "æĻ®é²ģ": 6648,
      "è¯¦ç»Ĩ": 6649,
      "é¢Ħæµĭ": 6650,
      "åŃĲå¥³": 6651,
      "åħ¬éĩĮçļĦ": 6652,
      "æł¼éĽ·": 6653,
      "é¢Ħç®Ĺ": 6654,
      "åĢ¼å¾Ĺ": 6655,
      "è½¦éĺŁ": 6656,
      "æĶ¹åĲį": 6657,
      "æĹ¥ä¸ĭåįĪ": 6658,
      "ory": 6659,
      "åįķä¸Ģ": 6660,
      "åİĿ": 6661,
      "âĦ": 6662,
      "åĶ¯ä¸ĢçļĦ": 6663,
      "æľªæľī": 6664,
      "éķ¿å®ī": 6665,
      "ä¾Ŀçħ§": 6666,
      "åľ°ä¸Ĭ": 6667,
      "ç½ĳçĲĥ": 6668,
      "æķ´åĲĪ": 6669,
      "éĴ¢çĲ´": 6670,
      "å±ħæ°ĳçĤ¹": 6671,
      "åĨĴéĻ©": 6672,
      "èĤ¢": 6673,
      "åĪ¶ä½ľäºº": 6674,
      "å·´åŁº": 6675,
      "ç»Ħç»ĩçļĦ": 6676,
      "æģ¨": 6677,
      "å°±åľ¨": 6678,
      "ert": 6679,
      "yle": 6680,
      "1925": 6681,
      "æĦ¿æĦı": 6682,
      "ç¿Įå¹´": 6683,
      "æĸ¯æīĺ": 6684,
      "è¯ºå¤«": 6685,
      "åħ¶ä»ĸçļĦ": 6686,
      "èĩªæĪĳ": 6687,
      "éĥ¨å°ļä¹¦": 6688,
      "DVD": 6689,
      "å²©çŁ³": 6690,
      "çİ°æĹ¶çĶ±åįĹæŀģæĿ¡çº¦ä½ĵç³»ç®¡çĲĨ": 6691,
      "è´¹çĶ¨": 6692,
      "éħįç½®": 6693,
      "éģĵå¾·": 6694,
      "æĪĺæľ¯": 6695,
      "çĽ®çļĦæĺ¯": 6696,
      "çŁŃæļĤ": 6697,
      "æİ¢æµĭ": 6698,
      "èŀįåĲĪ": 6699,
      "ID": 6700,
      "å¸ĥéĽ·": 6701,
      "çī¹å°Ķ": 6702,
      "ost": 6703,
      "ä¸»æĿĥ": 6704,
      "ial": 6705,
      "çļĦåıį": 6706,
      "èµĦåĬ©": 6707,
      "æ¸¸åĩ»": 6708,
      "èĩªç§°": 6709,
      "çĹħéĢĿ": 6710,
      "ä¼ļè®®åĳĺ": 6711,
      "åĩºæĿ¥çļĦ": 6712,
      "å·¥ä¼ļ": 6713,
      "å·ŀè´Łè´£ç®¡è¾ĸ": 6714,
      "2019": 6715,
      "å¥´éļ¶": 6716,
      "æĬĦ": 6717,
      "æľ¬çīĩ": 6718,
      "å²ĽçļĦ": 6719,
      "æľĢé«ĺçļĦ": 6720,
      "çļĦçī¹æľī": 6721,
      "äº¤ç»Ļ": 6722,
      "åĢŁçĶ±": 6723,
      "æĥ§": 6724,
      "éĥ½çĿ£": 6725,
      "è¨Ģè®º": 6726,
      "æĪĲå¹´": 6727,
      "æ¶Ľ": 6728,
      "æĿ¥èĩªäºİ": 6729,
      "ld": 6730,
      "åĴ¨è¯¢": 6731,
      "1924": 6732,
      "ä¸īç§į": 6733,
      "æł¼éĩĮ": 6734,
      "åĽĽå¤§": 6735,
      "æİĴåĪĹ": 6736,
      "ä¸ºå¤§": 6737,
      "å¥¸": 6738,
      "è¿Ļåº§": 6739,
      "è½¦åİ¢": 6740,
      "èĿł": 6741,
      "æĹ©åľ¨": 6742,
      "æı´åĬ©": 6743,
      "æ£ĴçĲĥ": 6744,
      "åĳİ": 6745,
      "å¸ĤæĶ¿": 6746,
      "çĶ¨ä»¥": 6747,
      "æĬĽ": 6748,
      "æħ°": 6749,
      "ä¼Ĭæĸ¯åħ°æķĻ": 6750,
      "åħ¨ä¸ĸçķĮ": 6751,
      "è´·": 6752,
      "åĪĽæĸ°": 6753,
      "è®¤è¯ģ": 6754,
      "OM": 6755,
      "å¼ĹéĽ·": 6756,
      "æľĪèµ·": 6757,
      "ä¿Ĺç§°": 6758,
      "çªĦ": 6759,
      "æ¸¸æĪıçļĦ": 6760,
      "æĬĹæĹ¥æĪĺäºī": 6761,
      "å®¤åĨħ": 6762,
      "åĪ¶çīĩ": 6763,
      "çĶ»éĿ¢": 6764,
      "1918": 6765,
      "çİ°æľī": 6766,
      "å¼ĢåĬŀ": 6767,
      "col": 6768,
      "åĬłåĪ©äºļ": 6769,
      "åı¯æĺ¯": 6770,
      "ogle": 6771,
      "ina": 6772,
      "æ¸¯éĵģ": 6773,
      "çī²": 6774,
      "äºĮçº§": 6775,
      "è°Ĳ": 6776,
      "æĮĩæİ§": 6777,
      "èħ°": 6778,
      "è¥¿éĩĮ": 6779,
      "å¯¹ç§°": 6780,
      "ç«ŀèµĽ": 6781,
      "è¡Įé©¶": 6782,
      "å¥¥æĸ¯åį¡": 6783,
      "ä¸»åĬ¨": 6784,
      "éªĹ": 6785,
      "é¸¦": 6786,
      "æİĮæı¡": 6787,
      "å¹´ä¸İ": 6788,
      "èĤ¿": 6789,
      "åĪł": 6790,
      "åĩĨåĨ³èµĽ": 6791,
      "èµĮ": 6792,
      "ä»ĸåĴĮ": 6793,
      "åįłæį®": 6794,
      "èħĵ": 6795,
      "æĽ¿ä»£": 6796,
      "èĤĿ": 6797,
      "äºĴèģĶç½ĳ": 6798,
      "1919": 6799,
      "éªļ": 6800,
      "åŁİåİ¿": 6801,
      "æĶ»æīĵ": 6802,
      "åĪ©çļĦ": 6803,
      "æĺ¯ä¸ºäºĨ": 6804,
      "ä¸ľåįĹäºļ": 6805,
      "å¾ģæľį": 6806,
      "iz": 6807,
      "è¾Ī": 6808,
      "èĪ¹åıª": 6809,
      "ohn": 6810,
      "éķĩåİĭ": 6811,
      "å¹²çº¿": 6812,
      "éģŃåıĹ": 6813,
      "04": 6814,
      "æĿ¥å¾Ģ": 6815,
      "ä»»æľŁ": 6816,
      "çī¹åĮº": 6817,
      "æ®·": 6818,
      "é£ŁæĢ§": 6819,
      "ED": 6820,
      "ĠCom": 6821,
      "èĩ´åĬĽ": 6822,
      "æĽ´æĺ¯": 6823,
      "æīŃ": 6824,
      "ä½įäºİéĵ¶": 6825,
      "ç¾İä¸½": 6826,
      "ç®Ĺæ³ķ": 6827,
      "åľ°äº§": 6828,
      "ï¼īãĢģãĢĬ": 6829,
      "éĿĴæµ·": 6830,
      "æ²Īéĺ³": 6831,
      "SAO": 6832,
      "çľģè´Łè´£ç®¡è¾ĸ": 6833,
      "åľ¨æĸ°": 6834,
      "åħ¬ä¼ļ": 6835,
      "ä½ĵåĪ¶": 6836,
      "åħ¬é¡·": 6837,
      "æ²³æµģåŁŁ": 6838,
      "å»ºçŃĳå¸Ī": 6839,
      "åħ¶ä¸Ńä¸Ģä¸ª": 6840,
      "ĠPro": 6841,
      "çĶ·å¥³": 6842,
      "ä¸īå¤§": 6843,
      "æĹ¥çĶ±": 6844,
      "æĺ¥ç§ĭ": 6845,
      "ä»£çłģä¸º": 6846,
      "åľºæĻ¯": 6847,
      "è¿ģèĩ³": 6848,
      "æ½ľèīĩ": 6849,
      "æ²¼": 6850,
      "èĮİ": 6851,
      "ä»»æķĻ": 6852,
      "çĽĪ": 6853,
      "åıĳçİ°çļĦ": 6854,
      "åħ¥çĲĥ": 6855,
      "ä¹ĭåĲİçļĦ": 6856,
      "æį·è¿Ĳ": 6857,
      "MS": 6858,
      "åĲģ": 6859,
      "çļĦåľ°åĮº": 6860,
      "è¶ħè¶Ĭ": 6861,
      "èĤ©": 6862,
      "èī²å½©": 6863,
      "æī©å»º": 6864,
      "åĪĨä¹ĭä¸Ģ": 6865,
      "åıĽä¹±": 6866,
      "çŁĽçĽ¾": 6867,
      "å½»åºķ": 6868,
      "span": 6869,
      "åŃ¦ç³»": 6870,
      "æľ¬åľ°åĮº": 6871,
      "æĮĩæķ°": 6872,
      "1926": 6873,
      "çļĦç»Ŀå¯¹": 6874,
      "ä¹Łåı¯": 6875,
      "éģĵçļĦ": 6876,
      "åīįèº«": 6877,
      "ala": 6878,
      "åħ¶B": 6879,
      "å¦ĤåĲĮ": 6880,
      "é¢Ĥ": 6881,
      "é¢ĸ": 6882,
      "åĬ£": 6883,
      "è®¾è®¡å¸Ī": 6884,
      "éĢĤåºĶ": 6885,
      "ä»¥ä¾¿": 6886,
      "æľĽè¿ľ": 6887,
      "çĶµåĬĽæľºè½¦": 6888,
      "èģļéĽĨ": 6889,
      "èĩªæŃ¤": 6890,
      "å¤Ħéķ¿": 6891,
      "éĵ¶çº¬": 6892,
      "èļĢ": 6893,
      "æĪĺåĽ½": 6894,
      "ä¼ģåĽ¾": 6895,
      "åĥıæĺ¯": 6896,
      "åı«åģļ": 6897,
      "è·µ": 6898,
      "åĵĢ": 6899,
      "è¿ĺåľ¨": 6900,
      "éħįå¤ĩ": 6901,
      "å½ĵä»£": 6902,
      "çºł": 6903,
      "iss": 6904,
      "ä½įäºİéĵ¶ç»ı": 6905,
      "åĿĲæłĩä¸ºèµ¤ç»ı": 6906,
      "åŁ¹è®Ń": 6907,
      "èĪªçıŃ": 6908,
      "åĪ¤åĨ³": 6909,
      "æľĪåºķ": 6910,
      "æ¶¡": 6911,
      "Sp": 6912,
      "æĹ¥è¯Ń": 6913,
      "å±łæĿĢ": 6914,
      "åİŁä¸º": 6915,
      "å¯»æ±Ĥ": 6916,
      "è¿½æº¯": 6917,
      "å§Ķåī¯ä¹¦è®°": 6918,
      "åı·ä¸º": 6919,
      "åĳ¨åĪĬ": 6920,
      "èĢĮæĿ¥": 6921,
      "å¦ĸ": 6922,
      "å¾®è½¯": 6923,
      "ç§įç±»": 6924,
      "çº¿æĢ§": 6925,
      "è§Ĩè§ī": 6926,
      "ãĢĭï¼Ī\"": 6927,
      "ä¼Ļä¼´": 6928,
      "å®ŀåĬĽ": 6929,
      "ä¿ĿåĬłåĪ©äºļ": 6930,
      "åľ°å½¢": 6931,
      "èĲ¨æĭī": 6932,
      "ç¦ıå¾·": 6933,
      "1922": 6934,
      "æģĲé¾Ļ": 6935,
      "çĥ·": 6936,
      "æĶ»åįł": 6937,
      "æĭħå¿ĥ": 6938,
      "æ¡¥æ¢ģ": 6939,
      "æĢ»ç«Ļ": 6940,
      "æĪĲäºº": 6941,
      "åĲĮæĢ§æģĭ": 6942,
      "æĶ¹åĪ¶ä¸º": 6943,
      "åĩºçİ°çļĦ": 6944,
      "åĨĻçļĦ": 6945,
      "éĢīåĩº": 6946,
      "ç¥Ī": 6947,
      "ç²¤è¯Ń": 6948,
      "æıĲè®®": 6949,
      "åºĩ": 6950,
      "HK": 6951,
      "åħ¨åĽ½äººå¤§": 6952,
      "çŃīçļĦ": 6953,
      "æ±¶": 6954,
      "ä¸ĢçĻ¾": 6955,
      "èµ«å°Ķ": 6956,
      "åĲįè¯į": 6957,
      "éģĩåĪ°": 6958,
      "å¿Į": 6959,
      "å®ļçĲĨ": 6960,
      "åľ¨åĮĹ": 6961,
      "æ»¤": 6962,
      "ç¼´": 6963,
      "è®¸åı¯": 6964,
      "æľīçĿĢ": 6965,
      "1914": 6966,
      "çĮľ": 6967,
      "åĲīä»ĸ": 6968,
      "åīįè¿Ľ": 6969,
      "åĽĽæľĪ": 6970,
      "è¶³çĲĥèģĶèµĽ": 6971,
      "åº§åłĤ": 6972,
      "ET": 6973,
      "ä¸įè¯¦": 6974,
      "ä¿®éģĵ": 6975,
      "çĽ´æĴŃ": 6976,
      "æĹ¥åıĳè¡Į": 6977,
      "ç»ĺçĶ»": 6978,
      "åĬŀæ³ķ": 6979,
      "è¾¹çļĦ": 6980,
      "æł¼å¼ı": 6981,
      "æıĲåĩºäºĨ": 6982,
      "åĩłä½ķ": 6983,
      "å·´æĸ¯": 6984,
      "æķĳæı´": 6985,
      "çŃīäºİ": 6986,
      "è¿Ľè¡ĮçļĦ": 6987,
      "æ°¸ä¹ħ": 6988,
      "çĮªç¬¼": 6989,
      "å·¥èīº": 6990,
      "å¸Įå°Ķ": 6991,
      "å·´é©¬": 6992,
      "åľ£æ¯į": 6993,
      "ç¿°æŀĹ": 6994,
      "åĿŁ": 6995,
      "è¯´æĺ¯": 6996,
      "åĽļ": 6997,
      "åķĨåĬ¡": 6998,
      "æľĽè¿ľéķľ": 6999,
      "åĽ½å®¶åħ¬åĽŃ": 7000,
      "åį«éĺŁ": 7001,
      "å°ĺ": 7002,
      "ç¦ıå·ŀ": 7003,
      "è¯ĳä¸º": 7004,
      "å½°åĮĸ": 7005,
      "çĮªç¬¼èįī": 7006,
      "å§Ķä»»": 7007,
      "è¿Ļä¹Łæĺ¯": 7008,
      "æĸ°å»º": 7009,
      "çĽ¸ç»§": 7010,
      "åĵĪå°Ķæ»¨": 7011,
      "è®¼": 7012,
      "æ§½": 7013,
      "è¯¥åľ°çļĦ": 7014,
      "1913": 7015,
      "å¹´ä»»": 7016,
      "éĢ¾": 7017,
      "äººç§°": 7018,
      "å·´åŁºæĸ¯åĿ¦": 7019,
      "éĿĴå°ĳå¹´": 7020,
      "åĬ³å·¥": 7021,
      "ä¸»ç®¡": 7022,
      "è£¸": 7023,
      "ern": 7024,
      "ä¸ºåŁºç¡Ģ": 7025,
      "åľºæ¯ĶèµĽ": 7026,
      "å®īå¨ľ": 7027,
      "ä»įæľī": 7028,
      "æĭīå°Ķ": 7029,
      "å®ļæľŁ": 7030,
      "æĶ¶åĪ°": 7031,
      "äºİæŃ¤": 7032,
      "ational": 7033,
      "æĹ©æľŁçļĦ": 7034,
      "å¤©çļĦ": 7035,
      "âĦĥ": 7036,
      "Ph": 7037,
      "æµ¸": 7038,
      "éĢıéľ²": 7039,
      "åĿĲèĲ½": 7040,
      "ãĢĤãĢĮ": 7041,
      "æĹıç¾¤": 7042,
      "åĲĪåĶ±": 7043,
      "ä¸Ģéĥ¨": 7044,
      "ä¸ĭå±ŀ": 7045,
      "éĻķè¥¿çľģ": 7046,
      "èµĶ": 7047,
      "æŃ¤äºĭ": 7048,
      "çī©ä½ĵ": 7049,
      "ear": 7050,
      "äºĮæ¬¡": 7051,
      "éĢĲæŃ¥": 7052,
      "å¤§éĥ¨ä»½": 7053,
      "å£«å°¼": 7054,
      "ä¸Ģäºº": 7055,
      "çļĦåľ°ä½į": 7056,
      "æľµ": 7057,
      "éķĳ": 7058,
      "ãģ®": 7059,
      "çļĦåŃ¦çĶŁ": 7060,
      "MV": 7061,
      "çĪ¬": 7062,
      "éĿŀæ³ķ": 7063,
      "Ð°": 7064,
      "åĨĽäºº": 7065,
      "å»ºåĽ½": 7066,
      "åĬĽåŃ¦": 7067,
      "æĹĭè½¬": 7068,
      "çļĦåĪĨ": 7069,
      "å¤©æĸĩåŃ¦å®¶": 7070,
      "éĢ¢æĺŁæľŁ": 7071,
      "åľºåľ°": 7072,
      "èģĶåĨĽ": 7073,
      "å¤§æ°Ķ": 7074,
      "æ¸ħæ¥ļ": 7075,
      "å¤§è¿ŀ": 7076,
      "å¡ŀå°Ķç»´äºļ": 7077,
      "çļĦçĶµ": 7078,
      "çĲĨæŁ¥": 7079,
      "å¢ŀåĬłäºĨ": 7080,
      "æ»ĭ": 7081,
      "03": 7082,
      "åĬłéĢŁ": 7083,
      "å»¶ç»Ń": 7084,
      "çĤŃ": 7085,
      "çŁ©éĺµ": 7086,
      "mer": 7087,
      "å±¡": 7088,
      "1911": 7089,
      "çļĦåĽ½éĻħ": 7090,
      "æľ¬ä¹¦": 7091,
      "è¿ªå£«å°¼": 7092,
      "æķĪçİĩ": 7093,
      "æłĩæľ¬": 7094,
      "ä¹Įæĸ¯": 7095,
      "æĽ´æį¢": 7096,
      "åħ±è®¡": 7097,
      "æĢİ": 7098,
      "æĢ»ç»ıçĲĨ": 7099,
      "èĪªå¤©": 7100,
      "åģľéĿł": 7101,
      "é¢Ĩäºĭ": 7102,
      "ier": 7103,
      "1917": 7104,
      "åĿŀ": 7105,
      "çĽ´åįĩ": 7106,
      "å¼łåįķæĽ²": 7107,
      "çĻ¾å§ĵ": 7108,
      "ick": 7109,
      "å°±æľī": 7110,
      "å°ĳå°Ĩ": 7111,
      "åŁł": 7112,
      "é³Ħ": 7113,
      "æĻºæħ§": 7114,
      "ç§©": 7115,
      "é«ĺåİŁ": 7116,
      "ä½ıåľ¨": 7117,
      "02": 7118,
      "æľĪåľ¨": 7119,
      "åŁİå¢Ļ": 7120,
      "æ°´æ·±": 7121,
      "æł¼é²ģ": 7122,
      "åİ¥": 7123,
      "åĲįäºº": 7124,
      "è£ģåĪ¤": 7125,
      "åħ¶ä¸º": 7126,
      "round": 7127,
      "é¥¶": 7128,
      "æĤ¦": 7129,
      "å¹´ä»¥": 7130,
      "æ´Ľéĺ³": 7131,
      "æł¼æŀĹ": 7132,
      "åĮħæĭ¬äºĨ": 7133,
      "ide": 7134,
      "ç¥¯": 7135,
      "èĭıå·ŀ": 7136,
      "æĳ©å°Ķ": 7137,
      "åıĤè°ĭéķ¿": 7138,
      "çļĦåĨħå®¹": 7139,
      "ä¸ĸçºªåĪĿ": 7140,
      "è®¤åĲĮ": 7141,
      "æİ¨åĩºçļĦ": 7142,
      "ç¾İåĽ½æµ·åĨĽ": 7143,
      "ix": 7144,
      "åĲİåıĤåĬł": 7145,
      "è¾ĥå¤§": 7146,
      "åĽ½è¯Ń": 7147,
      "åĬłåħ¥ä¸ŃåĽ½åħ±äº§åħļ": 7148,
      "ç¥¸": 7149,
      "çģ«è½¦ç«Ļ": 7150,
      "åħĶ": 7151,
      "åı°æ¹¾çļĦ": 7152,
      "æľįè£ħ": 7153,
      "ä½įäºİè¯¥åĽ½åĮĹéĥ¨": 7154,
      "tern": 7155,
      "ä»»ä¸Ńåħ±": 7156,
      "æĪĲæŀľ": 7157,
      "åįıå®ļ": 7158,
      "çļĦæĦıæĢĿ": 7159,
      "å®īå¾½çľģ": 7160,
      "åĲĮæĹ¶ä¹Łæĺ¯": 7161,
      "æīĩ": 7162,
      "å°±åı¯ä»¥": 7163,
      "æĲŀ": 7164,
      "IT": 7165,
      "æ¿ĢçĥĪ": 7166,
      "è¡Įèµ°": 7167,
      "ĠAr": 7168,
      "åĮºåĪĨ": 7169,
      "AL": 7170,
      "çľī": 7171,
      "å¥³æ¼Ķåĳĺ": 7172,
      "ä¸¤æĿ¡": 7173,
      "è°£": 7174,
      "çļĦçĶŁæ´»": 7175,
      "åĮºè®®ä¼ļ": 7176,
      "èĻ¾": 7177,
      "å¯ĩ": 7178,
      "èĬŃ": 7179,
      "ä¸ĸçºªçļĦ": 7180,
      "çĻ»è¿Ľå£«ç¬¬ä¸īçĶ²": 7181,
      "ç½Ĺé©¬å¸ĿåĽ½": 7182,
      "çļĦæ¦Ĥå¿µ": 7183,
      "çĽ¸è¿ŀ": 7184,
      "å½±è§Ĩ": 7185,
      "Google": 7186,
      "è·ĭ": 7187,
      "æ¯ıåĳ¨": 7188,
      "å¦¹å¦¹": 7189,
      "Mar": 7190,
      "äº¤æµģéģĵ": 7191,
      "ç¼Ŀ": 7192,
      "æ¼Ķèīº": 7193,
      "æĮĩä»¤": 7194,
      "èĪªçº¿": 7195,
      "åµĮ": 7196,
      "å¥³ä¸»è§Ĵ": 7197,
      "ach": 7198,
      "éĢłæĪĲçļĦ": 7199,
      "çĭ®åŃĲ": 7200,
      "å¹´ä¸ĸçķĮ": 7201,
      "ä¸įå¾Ĺä¸į": 7202,
      "BD": 7203,
      "åºļ": 7204,
      "åħ·å¤ĩ": 7205,
      "å°¼å¥¥": 7206,
      "å¤«å¦ĩ": 7207,
      "äºĨä»ĸçļĦ": 7208,
      "åĩ°": 7209,
      "3000": 7210,
      "å½ķå½±": 7211,
      "åı£å¾Ħ": 7212,
      "å¥½è¯Ħ": 7213,
      "çĳļ": 7214,
      "èĪªç©ºåħ¬åı¸": 7215,
      "éĺħè¯»": 7216,
      "Ġ7": 7217,
      "åĸľçĪ±": 7218,
      "èĽĭçĻ½è´¨": 7219,
      "ä¸ŃåİŁ": 7220,
      "å«©": 7221,
      "æĪĲåĪĨ": 7222,
      "èĵĦ": 7223,
      "æīĢè¾ĸ": 7224,
      "å¤©ä½¿": 7225,
      "1923": 7226,
      "èĤĩ": 7227,
      "éĺŁåĳĺ": 7228,
      "101": 7229,
      "æĽ¾è¢«": 7230,
      "åĽ¾æ¡Ī": 7231,
      "åĳ¼åĲģ": 7232,
      "éģ®": 7233,
      "å¹³æ°ĳ": 7234,
      "çļĦçĪ¶äº²": 7235,
      "çļĦè¡Įä¸º": 7236,
      "çĲĨå¿µ": 7237,
      "æİ¨è¡Į": 7238,
      "å§Ķæīĺ": 7239,
      "ç¬¬ä¸Ģå±Ĭ": 7240,
      "èĥľåĩº": 7241,
      "ä¼¯çĪµ": 7242,
      "åĵ¥åĵ¥": 7243,
      "Ġ|": 7244,
      "åĲİäºİ": 7245,
      "é¦ĸåº¦": 7246,
      "</": 7247,
      "åıĤä¸İäºĨ": 7248,
      "åĲİæĿ¥çļĦ": 7249,
      "åıĤè®®éĻ¢": 7250,
      "å±ĢçļĦ": 7251,
      "ä¸»æµģ": 7252,
      "èĲ¥ä¸ļ": 7253,
      "åĪºæ¿Ģ": 7254,
      "è¯¥å¸Ĥéķĩå¹´æĹ¶çļĦäººåı£ä¸ºäºº": 7255,
      "ISTAT": 7256,
      "çªĿ": 7257,
      "å¯ĨåĪĩ": 7258,
      "äºĨä»ĸ": 7259,
      "å¥¥æĸ¯æĽ¼": 7260,
      "å¿ĥèĦı": 7261,
      "ä¿Ŀå®ī": 7262,
      "çīĪçļĦ": 7263,
      "è¶ģ": 7264,
      "ä¹ŁåĽłæŃ¤": 7265,
      "æĹ¥ä¸ĬåįĪ": 7266,
      "æ³Ħ": 7267,
      "å£«é¡¿": 7268,
      "æĲľç´¢": 7269,
      "ç¥Ĳ": 7270,
      "æ¶ĪçģŃ": 7271,
      "äº¤æĺĵæīĢ": 7272,
      "1921": 7273,
      "çº·çº·": 7274,
      "çļĦä¸Ĭ": 7275,
      "æµİåįĹ": 7276,
      "åĿł": 7277,
      "è®®é¢ĺ": 7278,
      "èĬĻ": 7279,
      "å°Ĩäºİ": 7280,
      "åħ¨çº¿": 7281,
      "åŀĭåı·": 7282,
      "æĹłéĻĲ": 7283,
      "ç²¾çģµ": 7284,
      "è·Į": 7285,
      "ç¦ıéŁ³": 7286,
      "æ¯Ķå°Ķ": 7287,
      "ç¦§": 7288,
      "åĲĳéĩı": 7289,
      "çº³å¾·": 7290,
      "åº¸": 7291,
      "èģļèĲ½": 7292,
      "ä¾Ŀèµĸ": 7293,
      "å½ķåĪ¶": 7294,
      "çĮ´": 7295,
      "æ¹ĸåĮĹçľģ": 7296,
      "ä¼Ĺè®®éĻ¢": 7297,
      "ç§ģç«ĭ": 7298,
      "å¹´ä»ĸ": 7299,
      "åĬ¨è½¦": 7300,
      "å±±å¸Ĥ": 7301,
      "ï¼īï¼ļ": 7302,
      "åĪĨæł¡": 7303,
      "å¥½åıĭ": 7304,
      "éĽĨä½ĵ": 7305,
      "äº§çĶŁäºĨ": 7306,
      "An": 7307,
      "åĮĸä¸º": 7308,
      "æ¤ħ": 7309,
      "éĩįå¤į": 7310,
      "ï¼İ": 7311,
      "ä½ľæĽ²å®¶": 7312,
      "æĸ¹ç¨ĭå¼ı": 7313,
      "é¸Łç±»": 7314,
      "åıĳéŁ³": 7315,
      "å¥³åŃ©": 7316,
      "IM": 7317,
      "å¤ĦçĲĨåĻ¨": 7318,
      "æľ¬æĿ¥": 7319,
      "ä¸ºé¦ĸ": 7320,
      "ork": 7321,
      "è¾ĥä½İ": 7322,
      "æŃ»åĪĳ": 7323,
      "odice": 7324,
      "ç»´åŁĥ": 7325,
      "æŃĮåĶ±": 7326,
      "æĥ³æ³ķ": 7327,
      "å¤ªå®Ī": 7328,
      "ton": 7329,
      "ä¸ĭè½½": 7330,
      "è¿Ļé¢Ĺå°ıè¡ĮæĺŁ": 7331,
      "çºº": 7332,
      "å®¶ä¹¡": 7333,
      "çĦļ": 7334,
      "åİ¦éĹ¨": 7335,
      "æĮĩæĮ¥å®ĺ": 7336,
      "æĤŁ": 7337,
      "ä¸»æīĵ": 7338,
      "æĢ»çĽĳ": 7339,
      "çľĭè§ģ": 7340,
      "å¤ªéĺ³åħ¬": 7341,
      "æıĲåĩºçļĦ": 7342,
      "åħµåĽ¢": 7343,
      "UN": 7344,
      "ä½İäºİ": 7345,
      "æĪĺäºīä¸Ń": 7346,
      "å¤©åºľ": 7347,
      "æ·±åħ¥": 7348,
      "Ð¾": 7349,
      "æĺ¯ä¸Ńåįİäººæ°ĳåħ±åĴĮåĽ½": 7350,
      "è®¤åı¯": 7351,
      "é¢ĺæĿĲ": 7352,
      "æ¶Īéĺ²": 7353,
      "åĲİåıĤåĬłä¼ļè¯ķ": 7354,
      "(\"": 7355,
      "æĺĶ": 7356,
      "åľ¨è¥¿": 7357,
      "åıĳè¾¾": 7358,
      "éĩĳåĪļ": 7359,
      "åĮ»åŃ¦éĻ¢": 7360,
      "æ¼Ķè®²": 7361,
      "èľ¥": 7362,
      "åĲĮåŃ¦": 7363,
      "åĲĪåĲĮ": 7364,
      "å¾·æĦıå¿Ĺ": 7365,
      "CP": 7366,
      "éªı": 7367,
      "è®©ä»ĸ": 7368,
      "çĶµè§ĨèĬĤçĽ®": 7369,
      "åĪĨåĮº": 7370,
      "çľģçº§": 7371,
      "Ġ=": 7372,
      "å¹´ä¸Ń": 7373,
      "æµı": 7374,
      "æĹ§åĿĢ": 7375,
      "æĮº": 7376,
      "åĬłæĸ¯": 7377,
      "ä»İæľª": 7378,
      "é£ŀå¼¹": 7379,
      "é¡ºåºı": 7380,
      "ç¦ıåĪ©": 7381,
      "çļĦå¯¹": 7382,
      "ä¹ĭéĻħ": 7383,
      "æ´Ľæĸ¯": 7384,
      "é»ĳæļĹ": 7385,
      "æ¨¡çī¹": 7386,
      "èĻı": 7387,
      "å¹»æĥ³": 7388,
      "ç½Ĺå¤«": 7389,
      "å¸Ńä½į": 7390,
      "age": 7391,
      "èµĽä¸Ń": 7392,
      "ĠAl": 7393,
      "ç±»ä¼¼çļĦ": 7394,
      "ç»¼èīº": 7395,
      "å°§": 7396,
      "ç»´ä¿®": 7397,
      "éĶħ": 7398,
      "æķ°ä¸º": 7399,
      "æ©¡": 7400,
      "DNA": 7401,
      "åĽ¢ç»ĵ": 7402,
      "æ°Ł": 7403,
      "éŁ¦å°Ķ": 7404,
      "åįģå¤§": 7405,
      "åĮĹä¾§": 7406,
      "ä¸īæľĪ": 7407,
      "çº³åħ¥": 7408,
      "è´¬": 7409,
      "åħ«æľĪ": 7410,
      "çģŃç»Ŀ": 7411,
      "èĪĨ": 7412,
      "æħķå°¼": 7413,
      "æĹ¥å¸¸": 7414,
      "è¿Ľåı£": 7415,
      "èįĥ": 7416,
      "Ġ&": 7417,
      "çī©åĵģ": 7418,
      "ass": 7419,
      "è®½": 7420,
      "ç¥ŀç§ĺ": 7421,
      "ä¹ĲåĻ¨": 7422,
      "æ¯ıä¸Ģ": 7423,
      "è¯¥åħļ": 7424,
      "æħĪåĸĦ": 7425,
      "ä»ħæ¬¡äºİ": 7426,
      "å¹¶ä¸įæĺ¯": 7427,
      "èĤ¾": 7428,
      "Ġ8": 7429,
      "åı¸èģĮ": 7430,
      "çĤ¸å¼¹": 7431,
      "IG": 7432,
      "Î±": 7433,
      "ä¼łå¥ĩ": 7434,
      "çļĦéķ¿": 7435,
      "æ³¨åħ¥": 7436,
      "å¼ºçļĦ": 7437,
      "æİ¨ç¿»": 7438,
      "æ··ä¹±": 7439,
      "è®ºåĿĽ": 7440,
      "ount": 7441,
      "èĮĥåĽ´åĨħ": 7442,
      "è¯¥çī©ç§įçļĦ": 7443,
      "ä¸ĥæľĪ": 7444,
      "å·¥ä½ľå®¤": 7445,
      "åĩ¤åĩ°": 7446,
      "åı°å¸ģ": 7447,
      "éĢĶç»ı": 7448,
      "å±±çļĦ": 7449,
      "å±Ĭåħ¨åĽ½äººæ°ĳä»£è¡¨å¤§ä¼ļ": 7450,
      "å¤§åĲĮ": 7451,
      "æŀģä¸º": 7452,
      "å¤ĸè§Ĥ": 7453,
      "æ²ĻçĶ°": 7454,
      "å½¢æĪĲçļĦ": 7455,
      "ä»įåľ¨": 7456,
      "çĶŁäº§çļĦ": 7457,
      "à¸": 7458,
      "ä»»åĨħ": 7459,
      "ä»ĸè®¤ä¸º": 7460,
      "åįĹæĺĮ": 7461,
      "æ°Ķæ¸©": 7462,
      "åĽ´ç»ķå¤ªéĺ³åħ¬": 7463,
      "AD": 7464,
      "æ´Ľå¤«": 7465,
      "ä¼¤å®³": 7466,
      "èķĥ": 7467,
      "åıĬåħ¶ä»ĸ": 7468,
      "åĲĮåĲį": 7469,
      "ç»´åħĭ": 7470,
      "åıĳçĶŁäºĨ": 7471,
      "ä¼ĬåĪ©": 7472,
      "å¤ļåĲį": 7473,
      "éģĹä¼ł": 7474,
      "çļĦç¾İåĽ½": 7475,
      "èĲ¨æĸ¯å·ŀ": 7476,
      "å®ĥä»¬çļĦ": 7477,
      "å°¼åı¤": 7478,
      "çļĦç»Ŀå¯¹æĺŁçŃīä¸º": 7479,
      "æĺ¯èĭ±åĽ½": 7480,
      "æ¬ł": 7481,
      "æĻ´": 7482,
      "åı¤å·´": 7483,
      "éĢģåĪ°": 7484,
      "æŁľ": 7485,
      "åŁºéļĨ": 7486,
      "è§Ĥèµı": 7487,
      "ç¼ĸç»Ħ": 7488,
      "ä»»å¤©åłĤ": 7489,
      "æĺ¯ä¸Ģé¢ĹåĽ´ç»ķå¤ªéĺ³åħ¬": 7490,
      "åİī": 7491,
      "å®ĮæĪĲäºĨ": 7492,
      "900": 7493,
      "Play": 7494,
      "è¿Ĳç®Ĺ": 7495,
      "è¿Ļé¢Ĺå°ıè¡ĮæĺŁçļĦç»Ŀå¯¹æĺŁçŃīä¸º": 7496,
      "æĵ¦": 7497,
      "æĺ¯ä¸Ģé¢ĹåĽ´ç»ķå¤ªéĺ³åħ¬è½¬çļĦå°ıè¡ĮæĺŁ": 7498,
      "çī¹æĢ§": 7499,
      "æİĴè¡Įæ¦ľ": 7500,
      "æĹ¶éĹ´ä¸º": 7501,
      "çľł": 7502,
      "è¡¥åħħ": 7503,
      "åħĥå¸ħ": 7504,
      "çģ«æĺŁ": 7505,
      "Ġre": 7506,
      "æĥ©": 7507,
      "çļĦä¸ŃåĽ½": 7508,
      "ä»¥å¾Ģ": 7509,
      "è¯Ħä¸º": 7510,
      "ç¬¬åįģäºĮ": 7511,
      "åľ°ä¸Ń": 7512,
      "åĨĽå§Ķ": 7513,
      "åŃĲå¼¹": 7514,
      "çİĭä½į": 7515,
      "å¼Ģå§ĭåľ¨": 7516,
      "æĸ½å·¥": 7517,
      "åİ¿åŁİ": 7518,
      "çī©çĲĨåŃ¦": 7519,
      "è¿Ļä¸¤ä¸ª": 7520,
      "é©¬åħĭæĢĿ": 7521,
      "çº¤ç»´": 7522,
      "åĲĳåįĹ": 7523,
      "é²·": 7524,
      "å¤ªåİŁ": 7525,
      "xt": 7526,
      "éĢīç§Ģ": 7527,
      "ä¸ĵçĶ¨": 7528,
      "æį·åħĭ": 7529,
      "amp": 7530,
      "å±ķçİ°": 7531,
      "EN": 7532,
      "åĬłå·¥": 7533,
      "çģ«è½¦": 7534,
      "ä½ĳ": 7535,
      "You": 7536,
      "æııç»ĺ": 7537,
      "æĲºå¸¦": 7538,
      "èµĽçļĦ": 7539,
      "å¿ĹæĦ¿": 7540,
      "å¤§åŃĹ": 7541,
      "åŀĤçĽ´": 7542,
      "åĲİåľ¨": 7543,
      "æķ°åįģ": 7544,
      "äºīå¤º": 7545,
      "åĬłåĭĴ": 7546,
      "rom": 7547,
      "æľ¬åĲį": 7548,
      "åĸ»": 7549,
      "èĳĹæľī": 7550,
      "ä¸Ģéĥ¨åĪĨ": 7551,
      "åħµåĬĽ": 7552,
      "ool": 7553,
      "çļĦæīĢæľī": 7554,
      "å°Ķé¡¿": 7555,
      "é«ĺéĽĦå¸Ĥ": 7556,
      "å¸ĥæĸ¯": 7557,
      "æ¯ıæ¬¡": 7558,
      "ä½Ľç½ĹéĩĮè¾¾": 7559,
      "åŃŁåĬłæĭī": 7560,
      "é©±éĢĲèĪ°": 7561,
      "åľ¨ä»ĸçļĦ": 7562,
      "éĩĮåħĭ": 7563,
      "éĥ½ä¸į": 7564,
      "åĩĨç¡®": 7565,
      "æŁ¬": 7566,
      "åħĥæľĿ": 7567,
      "è§Ĥçľĭ": 7568,
      "åħ±äº§ä¸»ä¹ī": 7569,
      "ãĢĤ<": 7570,
      "åįĹä¾§": 7571,
      "å½ĵæĹ¥": 7572,
      "çĽ¸éĤ»": 7573,
      "Th": 7574,
      "ä¸»å¯¼": 7575,
      "å¾·æĸ¯": 7576,
      "åĶ¤": 7577,
      "åį³åı¯": 7578,
      "ung": 7579,
      "æŃ¤å¤©ä½ĵ": 7580,
      "çī©çļĦ": 7581,
      "è¡įçĶŁ": 7582,
      "æīĵè´¥": 7583,
      "\")": 7584,
      "ä¸Ĭæ¸¸": 7585,
      "å¤ĸåĽ´": 7586,
      "çķĻåŃ¦": 7587,
      "èĮĦ": 7588,
      "æĺİä»£": 7589,
      "åĽĽä¸ĸ": 7590,
      "è®¾åľ¨": 7591,
      "éĽ·è¾¾": 7592,
      "ish": 7593,
      "çĳľ": 7594,
      "now": 7595,
      "å¾·å·Ŀ": 7596,
      "å·¥åķĨ": 7597,
      "æµĨ": 7598,
      "äºĭåĬ¡æīĢ": 7599,
      "çº§çļĦ": 7600,
      "åıĸå¾ĹäºĨ": 7601,
      "éŀĭ": 7602,
      "äºļç¾İ": 7603,
      "å¸ĥåħ°": 7604,
      "è¯ŀçĶŁ": 7605,
      "è§ĤéŁ³": 7606,
      "æĹ±": 7607,
      "å¼ķçĶ¨": 7608,
      "ube": 7609,
      "åħ¨ä½ĵ": 7610,
      "æ³ķåħ°åħĭ": 7611,
      "ä¸įåıĺ": 7612,
      "å¾Īå¤§çļĦ": 7613,
      "ç«ĭæ³ķä¼ļ": 7614,
      "æħķå°¼é»ĳ": 7615,
      "æ£Ģæµĭ": 7616,
      "æįī": 7617,
      "ä¹ĭåľ°": 7618,
      "æµģéĩı": 7619,
      "åĩºåħ¥åı£": 7620,
      "åľ¨è¿Ļä¸ª": 7621,
      "è¿ŀç»ĵ": 7622,
      "pp": 7623,
      "åıĳå±ķçļĦ": 7624,
      "ä½Ĩåį´": 7625,
      "å¹ķåºľ": 7626,
      "æµģåĬ¨": 7627,
      "æľīåı¯èĥ½": 7628,
      "åİŁçĲĨ": 7629,
      "æŃ¢äºİ": 7630,
      "çļĦæŃĮæĽ²": 7631,
      "è¿½æ±Ĥ": 7632,
      "åıĳçĶŁçļĦ": 7633,
      "èµĽè½¦": 7634,
      "åĨ²åĩ»": 7635,
      "äººæīį": 7636,
      "åĪĨä¹ĭ": 7637,
      "æī¹åĪ¤": 7638,
      "æľīäºĨ": 7639,
      "ĠSh": 7640,
      "çĶµè·¯": 7641,
      "å½¢çļĦ": 7642,
      "æī¿è¯º": 7643,
      "å¹´é¦Ļæ¸¯": 7644,
      "è¿Ļç±»": 7645,
      "è½¦éģĵ": 7646,
      "è¿Ļæ®µ": 7647,
      "åĮħåĲ«äºĨ": 7648,
      "çıĬçĳļ": 7649,
      "åĪĿå¹´": 7650,
      "ä¹ŁæĽ¾": 7651,
      "å§ĭç»Ī": 7652,
      "èĳ¡èĲĦçīĻè¯Ń": 7653,
      "è¢«æįķ": 7654,
      "æłĸæģ¯åľ¨åºķ": 7655,
      "çļĦè½¨éģĵ": 7656,
      "çº³æĸ¯": 7657,
      "æľīçº¿": 7658,
      "åĿ¤": 7659,
      "åĲĳåĮĹ": 7660,
      "1909": 7661,
      "æııåĨĻ": 7662,
      "éĻ¤æŃ¤ä¹ĭå¤ĸ": 7663,
      "ç²®é£Ł": 7664,
      "éĩĩçĶ¨äºĨ": 7665,
      "å·´åĭĴ": 7666,
      "å½¢æĪĲäºĨ": 7667,
      "èĭį": 7668,
      "ä¼łè¾ĵ": 7669,
      "åı°ä¸Ńå¸Ĥ": 7670,
      "åĲĮæĹ¥": 7671,
      "åľ¨è¿ĻéĩĮ": 7672,
      "ç»ıçºª": 7673,
      "éĴĵ": 7674,
      "çĪ¸": 7675,
      "è½¬ä¸º": 7676,
      "å½ĵéĢīä¸º": 7677,
      "æīĢéľĢ": 7678,
      "åįıåķĨ": 7679,
      "ĠUn": 7680,
      "åĬłåĪ©ç¦ıå°¼äºļå·ŀ": 7681,
      "å¤§åħ¬": 7682,
      "çĭĲ": 7683,
      "åī¥": 7684,
      "ç¥ĸåħĪ": 7685,
      "é¢ģå¸ĥ": 7686,
      "ä¹ĭä¸Ĭ": 7687,
      "åĬŁçİĩ": 7688,
      "å®£åĳĬ": 7689,
      "âĢĿï¼ī": 7690,
      "åıįèĢĮ": 7691,
      "åĪĨè§£": 7692,
      "ä¸ľæ±ī": 7693,
      "æĺı": 7694,
      "éĩĮéĿ¢": 7695,
      "éĩįè¿Ķ": 7696,
      "èĤ¡ä¸ľ": 7697,
      "éĵĿ": 7698,
      "åºĵå°Ķ": 7699,
      "US": 7700,
      "ä¸ľåĮº": 7701,
      "æĭīå¾·": 7702,
      "å®¢è½¦": 7703,
      "æ°¸è¿ľ": 7704,
      "æĶ¿åıĺ": 7705,
      "å¤©æ´¥å¸Ĥ": 7706,
      "ä¸¥éĩįçļĦ": 7707,
      "ä¸Ńä¹¦": 7708,
      "èİ·èĥľ": 7709,
      "è®¨ä¼Ĳ": 7710,
      "åĽ½æĹĹ": 7711,
      "å½¼æŃ¤": 7712,
      "çĶµæ±ł": 7713,
      "éĻĦåĬł": 7714,
      "æĮ¤": 7715,
      "åıĺç§į": 7716,
      "é¦ĸå°Ķ": 7717,
      "ç»´ä¹Ł": 7718,
      "åıĺæį¢": 7719,
      "æ¸Ĳæ¸Ĳ": 7720,
      "ä¸Ģå¤©": 7721,
      "åıĳçİ°äºĨæŃ¤å¤©ä½ĵ": 7722,
      "ä¸īæ¬¡": 7723,
      "æħķå®¹": 7724,
      "æľīä¸¤ä¸ª": 7725,
      "åĴı": 7726,
      "èĤ¯å®ļ": 7727,
      "åı²å¯Ĩæĸ¯": 7728,
      "çİ¯çĲĥ": 7729,
      "ä»ħä»ħ": 7730,
      "åİĭç¼©": 7731,
      "åı¯åľ¨": 7732,
      "å§ĭäºİ": 7733,
      "å¥ĸæľĢä½³": 7734,
      "çģŃäº¡": 7735,
      "-{}-": 7736,
      "ä¸įçŁ¥": 7737,
      "åĽłåħ¶": 7738,
      "æĶĢ": 7739,
      "æŃī": 7740,
      "ç»ĥä¹ł": 7741,
      "åĭĺ": 7742,
      "å¤ºåıĸ": 7743,
      "åİĮ": 7744,
      "äºĴåĬ¨": 7745,
      "åĩºçīĪçļĦ": 7746,
      "æĶ¿åĬ¡": 7747,
      "çªģåĩº": 7748,
      "èĲĿ": 7749,
      "å¥ĸéĩĳ": 7750,
      "çļĦä¸»é¢ĺ": 7751,
      "éĺ¿å¯Į": 7752,
      "è¯ºè´Ŀå°Ķ": 7753,
      "ä¸įä½Ĩ": 7754,
      "lat": 7755,
      "ç½ĳä¸Ĭ": 7756,
      "èĥĢ": 7757,
      "é«ĺæŀ¶": 7758,
      "å·¦ç¿¼": 7759,
      "çĶŁæ´»åľ¨": 7760,
      "åĪĳäºĭ": 7761,
      "æİ¢ç´¢": 7762,
      "é¢Ħå¤ĩ": 7763,
      "åĨ»": 7764,
      "æĪĲåĬŁçļĦ": 7765,
      "çĤ¹æĺ¯": 7766,
      "åĨĽåľ¨": 7767,
      "æĢ¨": 7768,
      "éĺ²å®Ī": 7769,
      "ä¸İæŃ¤åĲĮæĹ¶": 7770,
      "çļĦä¸ĸçķĮ": 7771,
      "çŃīèģĮ": 7772,
      "æľºæŀª": 7773,
      "æķ°çĻ¾": 7774,
      "ä»ĸå¯¹": 7775,
      "ç«ŀæĬĢ": 7776,
      "å·´èµ«": 7777,
      "éĽħåħ¸": 7778,
      "é¢ĨåħĪ": 7779,
      "åĽŃåĮº": 7780,
      "è§ģäºİ": 7781,
      "åĮĹå¹³": 7782,
      "æĢ»æķĻåĮº": 7783,
      "æ¼Ĥ": 7784,
      "åħ¬åĳĬ": 7785,
      "å®īåİ¿": 7786,
      "éħ®": 7787,
      "å¹¶ä¸Ķåľ¨": 7788,
      "å½ĵä½ľ": 7789,
      "åħ¬å¼ı": 7790,
      "å®¹çº³": 7791,
      "å¼ŁåŃĲ": 7792,
      "å¼ºåĪ¶": 7793,
      "æ³°åĭĴ": 7794,
      "è¿Ĳæ²³": 7795,
      "ç»§ä»»": 7796,
      "è¸¢": 7797,
      "OR": 7798,
      "land": 7799,
      "çļĦèĥ½åĬĽ": 7800,
      "åĲĮæŃ¥": 7801,
      "åį°è±¡": 7802,
      "çļĦåĲįç§°": 7803,
      "æ¶µçĽĸ": 7804,
      "align": 7805,
      "èĭ±éķĳ": 7806,
      "å®ļä½į": 7807,
      "æľĢå¤ļçļĦ": 7808,
      "åĽŀåĲĪ": 7809,
      "éĴ©": 7810,
      "æ©Ħ": 7811,
      "å¸ĪèĮĥå¤§åŃ¦": 7812,
      "çĴĭ": 7813,
      "çļĦä»£è¡¨": 7814,
      "éķ¿æĺ¥": 7815,
      "æĬĢå·§": 7816,
      "éĺ¿å¯Įæ±Ĺ": 7817,
      "äºĮæľĪ": 7818,
      "è¯īè®¼": 7819,
      "èģĮæ£Ĵ": 7820,
      "pt": 7821,
      "æĢ§æł¼": 7822,
      "æĶ¿æ²»å®¶": 7823,
      "æľªçŁ¥": 7824,
      "ä¸ºçĥŃå¸¦": 7825,
      "éĨī": 7826,
      "ä¸Ńå¿ĥçļĦ": 7827,
      "åĪĻçĶ±": 7828,
      "çļĦæľºä¼ļ": 7829,
      "åĸĿ": 7830,
      "æľīä¸¤": 7831,
      "åģļæ³ķ": 7832,
      "ç¾İåĽ½åĽ½å®¶": 7833,
      "çļĦå±±å³°": 7834,
      "æĽ¹æĵį": 7835,
      "åĲİåıĪ": 7836,
      "æ¨¡å¼ıäº§": 7837,
      "æ£±": 7838,
      "ä¿®è®¢": 7839,
      "æ¸ħçľŁ": 7840,
      "å±¥": 7841,
      "å¤ļä¸º": 7842,
      "æ®¿è¯ķ": 7843,
      "å¼Ģå·¥": 7844,
      "çļĦå¤´": 7845,
      "ä¸Ģå¼Ģå§ĭ": 7846,
      "å®ŀè·µ": 7847,
      "æĶ¿æ²»éĥ¨": 7848,
      "èı©èĲ¨": 7849,
      "å¤§æī¹": 7850,
      "æľĢéĩįè¦ģçļĦ": 7851,
      "æŁ¥å°Ķæĸ¯": 7852,
      "è¯»èĢħ": 7853,
      "è¡Įäºº": 7854,
      "è¯ĨåŃĹ": 7855,
      "ä¸ĭåįĬ": 7856,
      "å¼ĢåĲ¯": 7857,
      "åŃĺåľ¨çļĦ": 7858,
      "å¡Į": 7859,
      "act": 7860,
      "And": 7861,
      "æ¬§åħĥ": 7862,
      "ä¹ĭåĲį": 7863,
      "é«ĺä¸½": 7864,
      "äºĭæĥħ": 7865,
      "å¤ļæł·": 7866,
      "æ»¨æµ·": 7867,
      "æĦŁæĥħ": 7868,
      "çĸ¯": 7869,
      "ç¼¸": 7870,
      "æĪĸç§°": 7871,
      "åľ¨ä½į": 7872,
      "åĩºèĩª": 7873,
      "çĪ±åĽ½": 7874,
      "éĺŁåıĭ": 7875,
      "èį«": 7876,
      "åħ¬å¼ĢèµĽ": 7877,
      "çľ¼çĿ": 7878,
      "res": 7879,
      "è¯»ä¹¦": 7880,
      "åī§åĽ¢": 7881,
      "éĻįéĽ¨": 7882,
      "éĥ½åı¯ä»¥": 7883,
      "çļ®èĤ¤": 7884,
      "ä¼¤äº¡": 7885,
      "ä¿®éģĵéĻ¢": 7886,
      "çĤ³": 7887,
      "ES": 7888,
      "åıĻè¿°": 7889,
      "æĸ°åĮĹå¸Ĥ": 7890,
      "ç»´ä¹Łçº³": 7891,
      "çĽ´åįĩæľº": 7892,
      "æµ·æ°´": 7893,
      "che": 7894,
      "å¹´æĪĲç«ĭ": 7895,
      "å¥³ç¥ŀ": 7896,
      "è´¢åĬ¡": 7897,
      "çŃ¹å¤ĩ": 7898,
      "åĽ¢éķ¿": 7899,
      "è®®å¸Ń": 7900,
      "æłĩé¢ĺ": 7901,
      "çļĦå¥³åĦ¿": 7902,
      "è®¤ä¸ºæĺ¯": 7903,
      "èµ£": 7904,
      "ç¥Ńç¥Ģ": 7905,
      "åİ¿æ²»": 7906,
      "å°ıå§Ĳ": 7907,
      "æĪĺèĥľ": 7908,
      "åħŃæľĪ": 7909,
      "æīĭä¸Ń": 7910,
      "å·¡æĬļ": 7911,
      "éĿ¢åĲĳ": 7912,
      "ley": 7913,
      "æī¿æĭħ": 7914,
      "åĪ¤æĸŃ": 7915,
      "çªģåİ¥": 7916,
      "èĩĢ": 7917,
      "ç§»å±ħ": 7918,
      "æ¯ıå°ıæĹ¶": 7919,
      "IV": 7920,
      "éĻ¢æł¡": 7921,
      "äº§çī©": 7922,
      "æľ¬é±¼": 7923,
      "åį°ç¬¬": 7924,
      "ĠSch": 7925,
      "åĺīåºĨ": 7926,
      "æ°®": 7927,
      "åľ¨åĨħ": 7928,
      "FC": 7929,
      "ä¹ĭæĹ¶": 7930,
      "æĿĥçļĦ": 7931,
      "ä¸ºæĸ°": 7932,
      "ä¸ĬéĿ¢": 7933,
      "å¹³çŃī": 7934,
      "çĥĤ": 7935,
      "ä¸ºä¸Ģä¸ª": 7936,
      "MP": 7937,
      "é«ĺäºİ": 7938,
      "èı²åĪ©": 7939,
      "äºĭåĲİ": 7940,
      "åĨĻéģĵ": 7941,
      "Ġth": 7942,
      "åľ£è¯ŀ": 7943,
      "112": 7944,
      "åĵģç§į": 7945,
      "æ·³": 7946,
      "ä»»æĦı": 7947,
      "NGC": 7948,
      "æ©Ħæ¦Ħ": 7949,
      "ground": 7950,
      "æĺ¯æľī": 7951,
      "arl": 7952,
      "old": 7953,
      "è£Ķç¾İåĽ½äºº": 7954,
      "ace": 7955,
      "è¾ĥé«ĺ": 7956,
      "è¿ĲåĬ¨çļĦ": 7957,
      "çĨĶ": 7958,
      "æľĢæľī": 7959,
      "æķ°çĽ®": 7960,
      "åıįæĬĹ": 7961,
      "è¯ĨåĪ«": 7962,
      "éĥ¨ç½²": 7963,
      "éĻĨåľ°": 7964,
      "DS": 7965,
      "æŃ£æĺ¯": 7966,
      "ä¼łéĢĴ": 7967,
      "é¦Ļæ¸¯çļĦ": 7968,
      "åĨħäºļ": 7969,
      "ç©Ĺ": 7970,
      "æĻºèĥ½": 7971,
      "Ġstyle": 7972,
      "ä»¥åıĬä¸ŃåĽ½å¤§éĻĨçļĦ": 7973,
      "å±¯éĹ¨": 7974,
      "çļĦæľī": 7975,
      "åĮĹå®ĭ": 7976,
      "back": 7977,
      "è¿«ä½¿": 7978,
      "ä¸¢": 7979,
      "Lin": 7980,
      "ç¬¬äºĮä¸ª": 7981,
      "ç©¿è¿ĩ": 7982,
      "æŀ¢çº½": 7983,
      "åħ±åĴĮåħļ": 7984,
      "rit": 7985,
      "åĵº": 7986,
      "åľ¨ä¸Ĭæµ·": 7987,
      "åĵģè´¨": 7988,
      "ä¹¡æĿĳ": 7989,
      "åİŁæľī": 7990,
      "åī§ä¸Ń": 7991,
      "åį³æĺ¯": 7992,
      "å°¸ä½ĵ": 7993,
      "æ·»åĬł": 7994,
      "è£´": 7995,
      "æłĩè®°": 7996,
      "ä¹ĿæľĪ": 7997,
      "åľ¨å½ĵæĹ¶": 7998,
      "æŃ£ä¹ī": 7999,
      "å±±åľ°": 8000,
      "å§ĵæ°ı": 8001,
      "ĠÐ": 8002,
      "èº²": 8003,
      "å¼¹èį¯": 8004,
      "1910": 8005,
      "CH": 8006,
      "åĩŃåĢŁ": 8007,
      "é¥®é£Ł": 8008,
      "åĮĹéŃı": 8009,
      "åĪ¶æĪĲ": 8010,
      "åı²èĴĤ": 8011,
      "æ¯ıä¸Ģä¸ª": 8012,
      "åŁºæľ¬ä¸Ĭ": 8013,
      "ä¸ĢæĶ¯": 8014,
      "æľŁåĪĬ": 8015,
      "çķĮçļĦ": 8016,
      "æ²¡æľīä»»ä½ķ": 8017,
      "æł¼æĭīæĸ¯": 8018,
      "æ²ŁéĢļ": 8019,
      "ram": 8020,
      "åĽŀçŃĶ": 8021,
      "é«ĺæł¡": 8022,
      "å®ĪæĬ¤": 8023,
      "çļĦä¸Ģä½į": 8024,
      "å¹¿å·ŀå¸Ĥ": 8025,
      "æĺ¯å¤§": 8026,
      "åĲĳä¸ľ": 8027,
      "çªĳ": 8028,
      "åĥļ": 8029,
      "ç«ĭæĸ¹ç±³": 8030,
      "åĨľåľº": 8031,
      "ç©¿è¶Ĭ": 8032,
      "çļĦè¯´æ³ķ": 8033,
      "æĹŃ": 8034,
      "åħ¶åŃĲ": 8035,
      "åį°ç¬¬å®ī": 8036,
      "å¹´æĺ¥": 8037,
      "ãĢįï¼Ľ": 8038,
      "åīįæĿ¥": 8039,
      "éĶ¥": 8040,
      "é¢Ĩå¯¼çļĦ": 8041,
      "ood": 8042,
      "æµģç»ı": 8043,
      "ç½ķé»ĺ": 8044,
      "å¹³å®ī": 8045,
      "ç½Ĺé©¬å¤©ä¸»æķĻ": 8046,
      "è¯¥çī©ç§įçļĦæ¨¡å¼ıäº§": 8047,
      "è´Ńçī©": 8048,
      "æĴĳ": 8049,
      "ç®¡åĪ¶": 8050,
      "æĻ®æĭī": 8051,
      "å®£è¨Ģ": 8052,
      "è¿·ä½ł": 8053,
      "é©¬åħ¶": 8054,
      "çļĦæĪĲç»©": 8055,
      "åľ¨åīį": 8056,
      "çº³å°Ķ": 8057,
      "ä¸ĢæĹ¦": 8058,
      "å¹´æľŁéĹ´": 8059,
      "ç¦ıå°Ķ": 8060,
      "è¿Ļä¸¤": 8061,
      "å¨ħ": 8062,
      "iel": 8063,
      "é£ŀè¡Įåĳĺ": 8064,
      "éĩįçļĦ": 8065,
      "çŁ¥åºľ": 8066,
      "æĬĹæĪĺ": 8067,
      "æĢ§åĴĮ": 8068,
      "è¿ģç§»": 8069,
      "éĢīä¸¾ä¸Ń": 8070,
      "åľ°äºļ": 8071,
      "ann": 8072,
      "åľ°åŁŁ": 8073,
      "éķ¶": 8074,
      "ros": 8075,
      "ä½ĵèĤ²é¦Ĩ": 8076,
      "è¯ĹæŃĮ": 8077,
      "çļĦæĹ¥æľ¬": 8078,
      "ä¸ºçĶ±": 8079,
      "è¡ĮæĶ¿åĮºåĪĴ": 8080,
      "åİ¨": 8081,
      "æĪ¿éĹ´": 8082,
      "åıĤæķ°": 8083,
      "æ»¥": 8084,
      "åı¸æľº": 8085,
      "å±Ģå±Ģéķ¿": 8086,
      "å¾·åħĭ": 8087,
      "æĺĨæĺİ": 8088,
      "å¼ºå¤§çļĦ": 8089,
      "çŁ¢": 8090,
      "åŃĻä¸Ńå±±": 8091,
      "è¢«æĿĢ": 8092,
      "ç»ıè´¹": 8093,
      "åĤ¨åŃĺ": 8094,
      "å±ħå§Ķä¼ļ": 8095,
      "çļĦçī¹æľīæ¤įçī©": 8096,
      "äºļç¾İå°¼äºļ": 8097,
      "Cl": 8098,
      "å¹³å®ļ": 8099,
      "æĶ¹èī¯": 8100,
      "æĽ¾æĺ¯": 8101,
      "çİ¯ä¿Ŀ": 8102,
      "æŃ¼": 8103,
      "ç»ĪæŃ¢": 8104,
      "è¿ĩäºİ": 8105,
      "çłĶåĪ¶": 8106,
      "æ¯ĹéĤ»": 8107,
      "çº¦çĳŁå¤«": 8108,
      "åĭĴæĸ¯": 8109,
      "æ¬¡æĹ¥": 8110,
      "å·Ŀåİ¿": 8111,
      "éĹ®é¢ĺçļĦ": 8112,
      "ä¸īä½į": 8113,
      "äºĨä¸ĢäºĽ": 8114,
      "å¤©æĸĩåŃ¦": 8115,
      "æ²³åı£": 8116,
      "ç¬¬ä¸Ģæ¬¡ä¸ĸçķĮå¤§æĪĺ": 8117,
      "codice": 8118,
      "åľ¨ä¸ŃåĽ½å¤§éĻĨ": 8119,
      "ç³ķ": 8120,
      "ä»ĭçŁ³": 8121,
      "çĽŁåĨĽ": 8122,
      "ãģĦ": 8123,
      "è´Łè´£äºº": 8124,
      "åį°åº¦å°¼è¥¿äºļ": 8125,
      "çĶµå½±çļĦ": 8126,
      "åĿĩæľī": 8127,
      "å±ħä½ıåľ¨": 8128,
      "ax": 8129,
      "çºªå½ķçīĩ": 8130,
      "ç®ĢåįķçļĦ": 8131,
      "æĿ¡çĽ®": 8132,
      "ç¦ıçī¹": 8133,
      "è°¨": 8134,
      "è¾ĥå°ĳ": 8135,
      "ä¸Ģåħ±": 8136,
      "èĻļæĭŁ": 8137,
      "æį®è¯´": 8138,
      "çĽ²": 8139,
      "å¹´äºİ": 8140,
      "åĴĴ": 8141,
      "åĮĹäº¬å¤§åŃ¦": 8142,
      "ç¾¤ä½ĵ": 8143,
      "åĳ¨æģ©": 8144,
      "éĤ£å·ŀ": 8145,
      "é£İæĻ¯": 8146,
      "åħŃä¸ª": 8147,
      "åī¯éĥ¨éķ¿": 8148,
      "èĢĥå¯Ł": 8149,
      "ä¾¿æĺ¯": 8150,
      "éĻ¨åĿĳ": 8151,
      "çĽĴ": 8152,
      "ä¹ĭåĨħ": 8153,
      "æķ°çłģ": 8154,
      "åĮł": 8155,
      "äººæ¬¡": 8156,
      "å®¹éĩı": 8157,
      "é©¬åħ¶é¡¿": 8158,
      "å¦¥": 8159,
      "ä¸»ä½ĵ": 8160,
      "åİŁæĿ¥çļĦ": 8161,
      "å¼Ģå§ĭäºĨ": 8162,
      "åĽłæŃ¤åľ¨": 8163,
      "EM": 8164,
      "å±±åĿ¡": 8165,
      "æĸĩåĮĸå¤§éĿ©åĳ½": 8166,
      "ä½Ĩæĺ¯åľ¨": 8167,
      "æīĺå°Ķ": 8168,
      "ction": 8169,
      "å¼Ĺæĭī": 8170,
      "æľºåĬ¨": 8171,
      "å¾ĹåĪĨ": 8172,
      "æķĻå¾Ĵ": 8173,
      "åĩ¸": 8174,
      "æĭ¿ä¸ĭ": 8175,
      "ç¹ģæ®ĸ": 8176,
      "æīĵå¼Ģ": 8177,
      "çĽ´è¾ĸ": 8178,
      "é»ĳäºº": 8179,
      "140": 8180,
      "åıĮæīĵ": 8181,
      "æĭ¿çł´": 8182,
      "æĹ¶åĪ»": 8183,
      "åħ¥å¢ĥ": 8184,
      "æ¦´": 8185,
      "ç«ĭæ³ķå§Ķåĳĺ": 8186,
      "æ¶¨": 8187,
      "ä¸ģçĽ®": 8188,
      "æ¶īå«Į": 8189,
      "æĬĳåĪ¶": 8190,
      "èī³": 8191,
      "è®¤å®ļ": 8192,
      "æĹ¥è¢«": 8193,
      "ãĢĭ(": 8194,
      "å¼Ĥå¸¸": 8195,
      "èµ¢å¾ĹäºĨ": 8196,
      "æĸĮ": 8197,
      "åİŁåĪĽ": 8198,
      "å¹´èİ·å¾Ĺ": 8199,
      "ç±»åŀĭçļĦ": 8200,
      "çī§å¸Ī": 8201,
      "å¤§å¥ĸèµĽ": 8202,
      "åĮª": 8203,
      "ç³»åĪĹçļĦ": 8204,
      "çĩĥçĥ§": 8205,
      "åĲįèªī": 8206,
      "çŃīå¾ħ": 8207,
      "å¤ĸäº¤éĥ¨": 8208,
      "ç«£": 8209,
      "éķ¿å¤§": 8210,
      "ç¤¾åĽ¢": 8211,
      "çīº": 8212,
      "å¼ºåĮĸ": 8213,
      "ç§ī": 8214,
      "å¤ıå¨ģ": 8215,
      "ç©Ĩç½ķé»ĺ": 8216,
      "æĪļ": 8217,
      "äº¤åĵį": 8218,
      "å·¥ä½ľçļĦ": 8219,
      "åĨ¢": 8220,
      "è½°çĤ¸æľº": 8221,
      "ä»ĸè¯´": 8222,
      "æıĲä¾ĽçļĦ": 8223,
      "éħ¿": 8224,
      "å²Ĳ": 8225,
      "å°¼æ³Ĭ": 8226,
      "æ´ªæŃ¦": 8227,
      "ath": 8228,
      "é¦ĸé¢Ĩ": 8229,
      "èĴĭä»ĭçŁ³": 8230,
      "æĶ¿åįıå§Ķåĳĺ": 8231,
      "åĵĪåĪ©": 8232,
      "é±¼éĽ·": 8233,
      "å·©": 8234,
      "éĺĢ": 8235,
      "ä¸ĵåĪ©": 8236,
      "çĹķ": 8237,
      "æ£ļ": 8238,
      "çĻ¾ç§ĳ": 8239,
      "åŁĶå¯¨": 8240,
      "çķľ": 8241,
      "æ¸ħæ°´": 8242,
      "ence": 8243,
      "å¸Įçī¹åĭĴ": 8244,
      "æĭ¿çł´ä»ĳ": 8245,
      "åĮ£": 8246,
      "äººçĶŁ": 8247,
      "å¹´å¤ıåŃ£å¥¥æŀĹåĮ¹åħĭè¿ĲåĬ¨ä¼ļ": 8248,
      "ç¦»å©ļ": 8249,
      "æĭħå½ĵ": 8250,
      "çħĮ": 8251,
      "åĩºåľŁ": 8252,
      "ãĢĮãĢį": 8253,
      "æĽ¾ä¸º": 8254,
      "é²ģæĸ¯": 8255,
      "èĭ¥å¹²": 8256,
      "æ³ķåħ°è¥¿": 8257,
      "å¾Ļ": 8258,
      "ç¼Ķ": 8259,
      "çĶ·åŃ©": 8260,
      "å¤ļåħĥ": 8261,
      "è¾±": 8262,
      "è´Ŀåħĭ": 8263,
      "èį£èİ·": 8264,
      "ivers": 8265,
      "æŁ¬åŁĶå¯¨": 8266,
      "çļĦå¤§åŀĭ": 8267,
      "æłĸæģ¯æ·±åº¦": 8268,
      "åŀ¦": 8269,
      "çľ¼çĿĽ": 8270,
      "åīįéĶĭ": 8271,
      "éĺ¿å°Ķå·´": 8272,
      "æ°ĳç±į": 8273,
      "éĩĳæĽ²": 8274,
      "çļĦåħī": 8275,
      "å¸ĸ": 8276,
      "åĸī": 8277,
      "æĳĶ": 8278,
      "ç¦»å¿ĥ": 8279,
      "éļıæľº": 8280,
      "è½¨éģĵäº¤éĢļ": 8281,
      "ä¸Ĭè¯ī": 8282,
      "æİ¥ç®¡": 8283,
      "åłĤåĮº": 8284,
      "åįĹå®ĭ": 8285,
      "é¡ºæ²»": 8286,
      "éĩįç»Ħ": 8287,
      "å¾·ç½Ĺ": 8288,
      "éĴł": 8289,
      "çİĩåĨĽ": 8290,
      "çŁŃæľŁ": 8291,
      "BM": 8292,
      "å¼Ĺåħ°": 8293,
      "å¼ĢåıĳçļĦ": 8294,
      "ç²¾ç¡®": 8295,
      "è§Ĥå¿µ": 8296,
      "åħħåĪĨ": 8297,
      "æĮĩè´£": 8298,
      "åıĹåĪ°äºĨ": 8299,
      "èī¯å¥½": 8300,
      "éĽįæŃ£": 8301,
      "åĮ»å¸Ī": 8302,
      "æ³ķä»¤": 8303,
      "ä¸»æķĻåº§åłĤ": 8304,
      "æľĪå¼Ģå§ĭ": 8305,
      "èŀºæĹĭ": 8306,
      "èĩ´åĬĽäºİ": 8307,
      "çħ§é¡¾": 8308,
      "è¯¥åºĦ": 8309,
      "èı²å°Ķå¾·": 8310,
      "èĩªä»İ": 8311,
      "1916": 8312,
      "éľĸ": 8313,
      "å¤§å¸Ŀ": 8314,
      "Īå½¢çĽ®": 8315,
      "çļĦéģĵè·¯": 8316,
      "éŀį": 8317,
      "ä¸ªåĽ½å®¶": 8318,
      "åĲĳè¥¿": 8319,
      "1901": 8320,
      "æ¢Ń": 8321,
      "ç¬¬ä¸īæ¬¡": 8322,
      "åıĹæįŁ": 8323,
      "å¤ıå¨ģå¤·": 8324,
      "è½¦æīĭ": 8325,
      "èµ·æºĲ": 8326,
      "éķ¿çº¦": 8327,
      "åºĦæĿĳ": 8328,
      "æľ¬åī§": 8329,
      "æķ°åĢ¼": 8330,
      "ä¹¦åĨĻ": 8331,
      "åºµ": 8332,
      "åŁºçĿ£å¾Ĵ": 8333,
      "IA": 8334,
      "ä¸ĭæĸ¹": 8335,
      "æ³ª": 8336,
      "éħ¯": 8337,
      "çıŃæ¬¡": 8338,
      "å®ľåħ°": 8339,
      "éºĵ": 8340,
      "ĠZ": 8341,
      "æµģåŁŁéĿ¢ç§¯": 8342,
      "é«ĺå±±": 8343,
      "æ¼Ĩ": 8344,
      "äººæ°ĳæ³ķéĻ¢": 8345,
      "ä¼ĲåĪ©äºļ": 8346,
      "æĸ°åŁİ": 8347,
      "ä¾Ľå¥ī": 8348,
      "æĪĬ": 8349,
      "å¤ļä¼¦": 8350,
      "æ²¿çĶ¨": 8351,
      "å®¿èĪį": 8352,
      "æĺĨèĻ«": 8353,
      "çļĦå¼Ģ": 8354,
      "èģĤ": 8355,
      "åĭ¾": 8356,
      "çłĶç©¶ä¸Ńå¿ĥ": 8357,
      "èĥĮé³į": 8358,
      "ove": 8359,
      "é»Ľ": 8360,
      "å®ĥåľ¨": 8361,
      "ç¡¬å¸ģ": 8362,
      "åĪĴå½Ĵ": 8363,
      "æĻ®é²ģå£«": 8364,
      "1905": 8365,
      "åľ°åĲį": 8366,
      "int": 8367,
      "åįİåĮĹ": 8368,
      "æµģæµª": 8369,
      "åıĪåľ¨": 8370,
      "ç¡ķå£«åŃ¦ä½į": 8371,
      "æĹıçļĦ": 8372,
      "ä¸ĵç§ĳ": 8373,
      "åĨľåİĨ": 8374,
      "èĽĻ": 8375,
      "çĲĥè¿·": 8376,
      "æĢ»åħ±": 8377,
      "è¿ĽèĢĮ": 8378,
      "é¦ĸä»»": 8379,
      "é¥±": 8380,
      "ä¸½èİİ": 8381,
      "ä¸¾äºº": 8382,
      "æĥħç»ª": 8383,
      "åŃ£åĲİ": 8384,
      "åĲİæĸ¹": 8385,
      "äºĳåįĹçľģ": 8386,
      "éĺľ": 8387,
      "1915": 8388,
      "ä½įäºİè¯¥åĽ½ä¸Ńéĥ¨": 8389,
      "ä½ĵç§¯": 8390,
      "çļĦä¸Ģä¸ªåİ¿": 8391,
      "èİ·å¥ĸ": 8392,
      "ä¸Ģèĩ³": 8393,
      "æĺ¯å¯¹": 8394,
      "èģĮåĳĺ": 8395,
      "å¹´æĿ¥": 8396,
      "åĺĽ": 8397,
      "æ²Ļæ¼ł": 8398,
      "æķ°ä¸ª": 8399,
      "æĹ¥ä¸¾è¡Į": 8400,
      "åıĳæİĺ": 8401,
      "åıĤè§ģ": 8402,
      "å¤§å°ĨåĨĽ": 8403,
      "åı¯ä»¥éĢļè¿ĩ": 8404,
      "æ¸¸æĪıä¸Ń": 8405,
      "èµ·çĤ¹": 8406,
      "æĺ¯å·´è¥¿": 8407,
      "å§Ĭå¦¹": 8408,
      "èĭ±åĽ½çļĦ": 8409,
      "æĹ§éĩĳå±±": 8410,
      "çīĪæľ¬çļĦ": 8411,
      "Ġcol": 8412,
      "æŃ§ä¹ī": 8413,
      "éĢłåŀĭ": 8414,
      "éĽĨçļĦ": 8415,
      "åį³ä¸º": 8416,
      "æľĢé«ĺæ³ķéĻ¢": 8417,
      "éĵħ": 8418,
      "éĢīä¸Ń": 8419,
      "éļ¾æ°ĳ": 8420,
      "æķ´çĲĨ": 8421,
      "å¤§æŃ£": 8422,
      "è¢«åıĳçİ°": 8423,
      "è¿ĳå¹´æĿ¥": 8424,
      "ile": 8425,
      "æĶ¹è£ħ": 8426,
      "ç«¯çļĦ": 8427,
      "åı°æ¹¾çľģ": 8428,
      "ç»ĨèıĮ": 8429,
      "åıĤè§Ĥ": 8430,
      "att": 8431,
      "Ġ9": 8432,
      "åı¦ä¸Ģç§į": 8433,
      "åľ°å¤Ħ": 8434,
      "å¹¶æľī": 8435,
      "èĻŀ": 8436,
      "æķĻç§ĳ": 8437,
      "é¥ŃåºĹ": 8438,
      "çķ´": 8439,
      "å¹´ä»£åĪĿ": 8440,
      "ç»´åŁº": 8441,
      "åľ¨æ¬§æ´²": 8442,
      "æ°ĳæĶ¿": 8443,
      "æĿ°åĩº": 8444,
      "åħ°å·ŀ": 8445,
      "ä¹ĭæĦı": 8446,
      "åĽ½æľī": 8447,
      "ä¸Ĭæĸ¹": 8448,
      "ç«ĭæ³ķéĻ¢": 8449,
      "æĪĺèĪ°": 8450,
      "è§£éĻ¤": 8451,
      "æµıè§Ī": 8452,
      "æĪĺè´¥": 8453,
      "å°±ä»»": 8454,
      "ç«ĭéĻ¶": 8455,
      "ä½Ĩä¸į": 8456,
      "çīºçī²": 8457,
      "ä¸ĵåĮº": 8458,
      "çĳ¶": 8459,
      "èĤ¡æĿĥ": 8460,
      "åħļç»Ħ": 8461,
      "è´¿": 8462,
      "è°¢å°Ķ": 8463,
      "ä»ĸäºº": 8464,
      "å°ºå¯¸": 8465,
      "åı°åįĹå¸Ĥ": 8466,
      "åĳ½åĲįçļĦ": 8467,
      "çĶµå½±èĬĤ": 8468,
      "SM": 8469,
      "çķı": 8470,
      "æĹĹä¸ĭçļĦ": 8471,
      "ä¸ĭæĿ¥çļĦ": 8472,
      "åĴĮå¤§": 8473,
      "æĻºåĪ©": 8474,
      "ç³Ĭ": 8475,
      "ä¸ªä½ĵ": 8476,
      "æ°´éĩı": 8477,
      "çľŁæŃ£çļĦ": 8478,
      "èĭĶ": 8479,
      "1500": 8480,
      "å¾ĢæĿ¥": 8481,
      "åİ¿éķ¿": 8482,
      "èĽ®": 8483,
      "ä¸»æķĻç»ĥ": 8484,
      "äºĭåıĺ": 8485,
      "äº¤æĪĺ": 8486,
      "æİ¨æµĭ": 8487,
      "å¹´æīį": 8488,
      "èı±": 8489,
      "æ¨¡ä»¿": 8490,
      "ä¸ĭæ¸¸": 8491,
      "çĶµæµģ": 8492,
      "çģµéŃĤ": 8493,
      "ç¬ĥ": 8494,
      "ç½ĳåıĭ": 8495,
      "å¸ķå°Ķ": 8496,
      "åħ¬ç¤¾": 8497,
      "çĭ¬çī¹çļĦ": 8498,
      "å¤ļå¤«": 8499,
      "ç¼ĸåĨĻ": 8500,
      "å·´ä¼ĲåĪ©äºļ": 8501,
      "ames": 8502,
      "å®Įæķ´çļĦ": 8503,
      "ä»¥å¤ĸçļĦ": 8504,
      "Com": 8505,
      "æ¬º": 8506,
      "åĽłåºĶ": 8507,
      "åį¡çī¹": 8508,
      "ç½ĳé¡µ": 8509,
      "éĴ¢éĵģ": 8510,
      "é©¬è¾¾": 8511,
      "åĪĴåĪĨ": 8512,
      "Sc": 8513,
      "å®ļå¾ĭ": 8514,
      "æĿĳæ°ĳ": 8515,
      "è¶ħçº§èģĶèµĽ": 8516,
      "æł¼æĸ¯": 8517,
      "å±ŀçļĦåĬ¨çī©": 8518,
      "æŀ«": 8519,
      "æĻ®åıĬ": 8520,
      "èĥ½åľ¨": 8521,
      "æĮĩçļĦæĺ¯": 8522,
      "éĢĤçĶ¨äºİ": 8523,
      "æĸ°å¢ŀ": 8524,
      "åħ¥åĽ´": 8525,
      "åĲ¦è®¤": 8526,
      "åıĹå®³": 8527,
      "ä¸ļä½Ļ": 8528,
      "çĻ½äºº": 8529,
      "æĹ¨åľ¨": 8530,
      "ons": 8531,
      "éģĵæķĻ": 8532,
      "åľ°ä¸Ńæµ·": 8533,
      "ä¸Ĭå°Ĩ": 8534,
      "èĩ³æŃ¤": 8535,
      "è¿ªäºļ": 8536,
      "æĻ¶ä½ĵ": 8537,
      "åĽ½å®¶è¶³çĲĥéĺŁ": 8538,
      "åħ¬åĬ¡": 8539,
      "åıĳè¡¨äºĨ": 8540,
      "æ¸ħçľŁå¯º": 8541,
      "å¹´ä»¥æĿ¥": 8542,
      "éĢļå¸¸æĺ¯": 8543,
      "å¹´äººåı£æĻ®æŁ¥": 8544,
      "éĹ¹": 8545,
      "è·ĳéģĵ": 8546,
      "è¥¿åħĥ": 8547,
      "ä¿¡ä»»": 8548,
      "ç»ĵè®º": 8549,
      "ris": 8550,
      "å¤ªå®Ĺ": 8551,
      "éĵ¶æ²³": 8552,
      "éĿ©åĳ½åĨĽ": 8553,
      "èµ·äºĨ": 8554,
      "æµ·åºķ": 8555,
      "ä¹¦æ³ķ": 8556,
      "æ³¢å£«é¡¿": 8557,
      "ime": 8558,
      "æŃ£æľĪ": 8559,
      "åľ¨éĤ£éĩĮ": 8560,
      "åĲĮå¿Ĺ": 8561,
      "åĵºä¹³": 8562,
      "æĺ¯ä¸Ģä¸ªä½įäºİ": 8563,
      "ä¸īåĲį": 8564,
      "CC": 8565,
      "ä¸»äºĭ": 8566,
      "åįģä¸īå¹´": 8567,
      "å°±è¯»äºİ": 8568,
      "ium": 8569,
      "è¯įæ±ĩ": 8570,
      "çļĦè®¡åĪĴ": 8571,
      "åºĲ": 8572,
      "èº«äº¡": 8573,
      "çŀĦ": 8574,
      "Pro": 8575,
      "å¤įæ´»": 8576,
      "ç«ĭéĻ¶å®Ľ": 8577,
      "çĲĨåŃ¦": 8578,
      "éĥ½æ²¡æľī": 8579,
      "æĻ¯çĤ¹": 8580,
      "åĽ½åħ±": 8581,
      "ä»£æķ°": 8582,
      "å¹¿æĴŃçĶµåı°": 8583,
      "ä¼ĳæģ¯": 8584,
      "ç»ĩçĶ°": 8585,
      "Ġon": 8586,
      "é¥¥": 8587,
      "ä»¥åħ¶": 8588,
      "åħĭåĪ©": 8589,
      "æĲŃè½½": 8590,
      "å¹´æĪĲä¸º": 8591,
      "æĶ¯çº¿": 8592,
      "æ¾İ": 8593,
      "éĿ¢ä¸Ĭ": 8594,
      "æĸ°è¥¿åħ°": 8595,
      "åı¤å¸ĮèħĬ": 8596,
      "ite": 8597,
      "çİĭå®¤": 8598,
      "çĽ¸æľº": 8599,
      "å¯¼å¸Ī": 8600,
      "äºĪä»¥": 8601,
      "æ¤Ĵ": 8602,
      "åĨħæĶ¿": 8603,
      "Ad": 8604,
      "å½ĵçĦ¶": 8605,
      "ĠSp": 8606,
      "åħ¬å¯ĵ": 8607,
      "å¤ıå¤©": 8608,
      "çļĦç»ıæµİ": 8609,
      "çī©èµĦ": 8610,
      "çİ¯ç»ķ": 8611,
      "åĵŃ": 8612,
      "æĸĩå¸Ŀ": 8613,
      "ical": 8614,
      "éĩįåºĨå¸Ĥ": 8615,
      "æ³¢éŁ³": 8616,
      "æıĲåīį": 8617,
      "çĶ²çº§èģĶèµĽ": 8618,
      "ä¾ĿéĿł": 8619,
      "æĻļæľŁ": 8620,
      "ode": 8621,
      "5000": 8622,
      "Ð¸": 8623,
      "èİ·åıĸ": 8624,
      "æ±Łè¥¿çľģ": 8625,
      "æīĺé©¬æĸ¯": 8626,
      "æ°¸ä¹Ĳ": 8627,
      "ä¸ºè¾Ĳé³įé±¼çº²é²Īå½¢çĽ®": 8628,
      "åģľè½¦åľº": 8629,
      "ç´¯ç§¯": 8630,
      "æ°´åĪ©": 8631,
      "åİ¿çŁ¥åİ¿": 8632,
      "è§ģåĪ°": 8633,
      "å·ŀéķ¿": 8634,
      "çļĦåĽĽ": 8635,
      "åĲİåį«": 8636,
      "çļĦä¸Ģæ¬¡": 8637,
      "æ¯įèĪ°": 8638,
      "Station": 8639,
      "%ï¼Ľ": 8640,
      "John": 8641,
      "åıĳçĶŁäºİ": 8642,
      "æµ´": 8643,
      "æĺ¯æľĢ": 8644,
      "ä¾¦å¯Ł": 8645,
      "é©¬åĬĽ": 8646,
      "åĳ½è¿Ĳ": 8647,
      "çļĦæīĭ": 8648,
      "åİŁåŀĭ": 8649,
      "äººä½ĵ": 8650,
      "æ¼³": 8651,
      "åĪĹå®ģ": 8652,
      "yst": 8653,
      "æľ¯è¯Ń": 8654,
      "åĵĪæĭī": 8655,
      "éĺ²ç©º": 8656,
      "è¤Ĳèī²": 8657,
      "ä¹ĭå¥³": 8658,
      "å¯¹éĺµ": 8659,
      "å½Ĵç±»": 8660,
      "éĤ£ä¸ª": 8661,
      "å°¼æ³Ĭå°Ķ": 8662,
      "éĤ£æł·": 8663,
      "æ¢ħå°Ķ": 8664,
      "åĲĪçĲĨ": 8665,
      "å°±è¢«": 8666,
      "å¢ŀè®¾": 8667,
      "åı·ç§įåŃĲ": 8668,
      "ä½£": 8669,
      "å¸ĥç½Ĺ": 8670,
      "éĽķå¡ĳ": 8671,
      "çĶ°å¾Ħ": 8672,
      "æŁĲç§į": 8673,
      "å¯ºéĻ¢": 8674,
      "äº§éĩı": 8675,
      "æĵħéķ¿": 8676,
      "å¯Įå£«": 8677,
      "çļĦä¸Ģä¸ªåĮº": 8678,
      "åĳ¨æģ©æĿ¥": 8679,
      "åĩıå¼±": 8680,
      "æ¸©å¸¦": 8681,
      "åĲįåı«": 8682,
      "é¢ģå¥ĸåħ¸ç¤¼": 8683,
      "åĲ¾å°Ķ": 8684,
      "åı¤è¿¹": 8685,
      "å»¿": 8686,
      "åĲĦå¤§": 8687,
      "1903": 8688,
      "éĢĶå¾Ħ": 8689,
      "çĪ±å¥½": 8690,
      "å¹´ä¸ĸçķĮæĿ¯": 8691,
      "åīįèĢħ": 8692,
      "åĮºåĴĮ": 8693,
      "åı¬éĽĨ": 8694,
      "å¸¸å§Ķä¼ļ": 8695,
      "å¹´æ¯ķä¸ļäºİ": 8696,
      "å¤§åŁĶ": 8697,
      "çīŁ": 8698,
      "åı¯ä»¥çĶ¨": 8699,
      "\"ï¼Ī": 8700,
      "å¤ĸçķĮ": 8701,
      "æ·Ģ": 8702,
      "å¤ľéĹ´": 8703,
      "åĳ¼åĲ¸": 8704,
      "æĿ¥çľĭ": 8705,
      "åĲĦé¡¹": 8706,
      "åĴĮä»ĸçļĦ": 8707,
      "ç½©": 8708,
      "å¤įåĪ¶": 8709,
      "ç´§å¼ł": 8710,
      "å¯¹è¯Ŀ": 8711,
      "åĮĹæ´ĭ": 8712,
      "ä¸Ģåı·": 8713,
      "ä¹īåĬ¡": 8714,
      "çªģåĩ»": 8715,
      "èĭ±è¶ħ": 8716,
      "éĻĲäºİ": 8717,
      "ä¸ľè·¯": 8718,
      "é»Ħæ²³": 8719,
      "background": 8720,
      "åĩºäºİ": 8721,
      "æ¸©æ³ī": 8722,
      "ç©Ĩç½ķé»ĺå¾·": 8723,
      "éĺİ": 8724,
      "è¿ĺè¦ģ": 8725,
      "åĽ¾å½¢": 8726,
      "ä¼¯æł¼": 8727,
      "æº¶æ¶²": 8728,
      "ï¼Īï¼Ľï¼ī": 8729,
      "åĶĲä»£": 8730,
      "æŁ´æ²¹æľºè½¦": 8731,
      "ç¼ĵæħ¢": 8732,
      "åĲİåĽł": 8733,
      "æ³¢çī¹": 8734,
      "èĭıç»´åŁĥ": 8735,
      "ç¥ŀåľ£": 8736,
      "æĸ°åı°å¸ģ": 8737,
      "èĻĲ": 8738,
      "åı¸ä»¤åĳĺ": 8739,
      "ä¸ºæľŁ": 8740,
      "åĲĦç±»": 8741,
      "çİ°å·²": 8742,
      "è¯ŃéŁ³": 8743,
      "ï¹": 8744,
      "éĺµäº¡": 8745,
      "çĳĻ": 8746,
      "çļĦä¸Ńå¿ĥ": 8747,
      "æĪĮ": 8748,
      "åŀ£": 8749,
      "æĹıèĩªæ²»": 8750,
      "ara": 8751,
      "çľģéģĵåı°": 8752,
      "ma": 8753,
      "åįķæīĵ": 8754,
      "åıĸèĩª": 8755,
      "éĴ§": 8756,
      "è¡Ĺéģĵä¸ĭè¾ĸä»¥ä¸ĭåľ°åĮº": 8757,
      "åĲİç»Ń": 8758,
      "æıĲäº¤": 8759,
      "åľ°åĿĢ": 8760,
      ";\"": 8761,
      "ç¬Ľ": 8762,
      "æĸ°äºº": 8763,
      "ç¥·": 8764,
      "å¹¢": 8765,
      "ä¸Ģé¡¹": 8766,
      "iki": 8767,
      "åİĨåı²åŃ¦å®¶": 8768,
      "è¿ŀç»Ńåī§": 8769,
      "ä½Ĩåħ¶": 8770,
      "æĭ¦": 8771,
      "èģĮä¸ļçĶŁæ¶¯": 8772,
      "ç«£å·¥": 8773,
      "æľīä¸ĢäºĽ": 8774,
      "æŃ¤åľ°": 8775,
      "å¸ľ": 8776,
      "ä¹ĲåĽŃ": 8777,
      "æĭ¯": 8778,
      "æµģäº¡": 8779,
      "åľŁå£¤": 8780,
      "ä½Ĩä»į": 8781,
      "å°ģéĹŃ": 8782,
      "ç§ĳå¹»": 8783,
      "å°±åĥı": 8784,
      "ç¡®å®ŀ": 8785,
      "æĿĳåºĦ": 8786,
      "çĽ¸è¾ĥ": 8787,
      "è¿ĩæ¸¡": 8788,
      "ä¸ŃæĸŃ": 8789,
      "\",": 8790,
      "æ³ķå°Ķ": 8791,
      "ä¾µçķ¥": 8792,
      "æĪĺä¸Ń": 8793,
      "äººä¸İ": 8794,
      "å½Ĺ": 8795,
      "ç»§ä½į": 8796,
      "ä¸»é¢ĺæĽ²": 8797,
      "åŃĲåħ¬åı¸": 8798,
      "ä¹ĭä¹±": 8799,
      "ä¿Ŀåį«": 8800,
      "ç±»ä¼¼äºİ": 8801,
      "ä¼ĺåħĪ": 8802,
      "ke": 8803,
      "ç§©åºı": 8804,
      "éĽĨåĽ¢åĨĽ": 8805,
      "ç¤¾ç¾¤": 8806,
      "åįĥäºº": 8807,
      "ä¸Ģä»½": 8808,
      "å¤§éĺŁ": 8809,
      "æľĪä¸Ń": 8810,
      "é©°": 8811,
      "è¯Ħå®¡": 8812,
      "æľĶ": 8813,
      "æĹ¶å¸¸": 8814,
      "é«ĺå±Ĥ": 8815,
      "æŁĲä¸ª": 8816,
      "çļĦæ¸¸æĪı": 8817,
      "æĻļéĹ´": 8818,
      "å¤´éĥ¨": 8819,
      "ä¸ºæĹ¥æľ¬": 8820,
      "è¢«ä»»åĳ½ä¸º": 8821,
      "éŁ¶": 8822,
      "çļĦéĺ¿": 8823,
      "éĢīæ°ĳ": 8824,
      "ISTATä»£çłģä¸º": 8825,
      "è½¬ä¹ĺ": 8826,
      "è¾£": 8827,
      "åħīåŃ¦": 8828,
      "åĪ¤å¤Ħ": 8829,
      "çļĦåľ£": 8830,
      "åįģåħŃå¹´": 8831,
      "åĽ½éĺ²éĥ¨": 8832,
      "ç»´åĲ¾å°Ķ": 8833,
      "æĽ²çº¿": 8834,
      "èĴ¸æ±½": 8835,
      "æĹıäºº": 8836,
      "ä½įäºİè¯¥åĽ½è¥¿åįĹéĥ¨": 8837,
      "ç¼ĸåĪ¶": 8838,
      "ä¸ĢçĶŁ": 8839,
      "å¹³è¡Į": 8840,
      "åĩ¹": 8841,
      "äºļç§ĳ": 8842,
      "çĽĳåĪ¶": 8843,
      "åĪĻä»¥": 8844,
      "å¤ªéĥİ": 8845,
      "éĿĴæĺ¥": 8846,
      "center": 8847,
      "è¾ĥå¤§çļĦ": 8848,
      "è°į": 8849,
      "åħįçĸ«": 8850,
      "âĢĿï¼ĮâĢľ": 8851,
      "ĠTh": 8852,
      "ä½įäºİè¯¥åĽ½åįĹéĥ¨": 8853,
      "èĽ¤": 8854,
      "çļĦæľĢé«ĺ": 8855,
      "çĶµä¿¡": 8856,
      "çļĦå»ºçŃĳ": 8857,
      "ä¿¡å¥ī": 8858,
      "æĹ¶éĢŁ": 8859,
      "åĽ½å¤ĸ": 8860,
      "æĺİçļĦ": 8861,
      "éĹ½åįĹ": 8862,
      "åħ¶çĪ¶": 8863,
      "åŃĺåľ¨äºİ": 8864,
      "éĢļè¡Į": 8865,
      "èĻļæŀĦ": 8866,
      "åħ¬çº¦": 8867,
      "è·¯å¾Ħ": 8868,
      "æ¤Ń": 8869,
      "çºªå¿µç¢ĳ": 8870,
      "åį³æĹ¶": 8871,
      "æĶ»åĬ¿": 8872,
      "æ¬¡æķ°": 8873,
      "å£°ä¼ĺ": 8874,
      "ç»ĨèĬĤ": 8875,
      "å·´å¡ŀ": 8876,
      "ç«ĭåĪ»": 8877,
      "åĳ¨æľ«": 8878,
      "105": 8879,
      "éħĭ": 8880,
      "ä¼ļè®¡": 8881,
      "å¯Ĩçłģ": 8882,
      "åįļè§Ī": 8883,
      "æ¶ĪæŃ§ä¹ī": 8884,
      "åįģåħ«å¹´": 8885,
      "è®¯æģ¯": 8886,
      "Te": 8887,
      "å¤±è¸ª": 8888,
      "çļĦåĨħ": 8889,
      "yn": 8890,
      "çĶ·ä¸»è§Ĵ": 8891,
      "çĥŃå¸¦ä½İæ°Ķåİĭ": 8892,
      "æĥħèĬĤ": 8893,
      "éĥ¨çĶµå½±": 8894,
      "åįģåĽĽå¹´": 8895,
      "å¯ĦçĶŁ": 8896,
      "åĨĽèĪ°": 8897,
      "æĭīå¤ļ": 8898,
      "åĻª": 8899,
      "ä¸įå¤ļ": 8900,
      "æį¢ä¹ĺ": 8901,
      "å¼§": 8902,
      "å°Ħåħ¥": 8903,
      "çŃĸåĪĴ": 8904,
      "åĪĽå§ĭäºº": 8905,
      "éĹ¯": 8906,
      "æ¯«æĹł": 8907,
      "åħ¸åŀĭçļĦ": 8908,
      "åĲ¦åĪĻ": 8909,
      "å¹¸ç¦ı": 8910,
      "è¯ĬæĸŃ": 8911,
      "ç¾İçļĦ": 8912,
      "åħ¨ä¹¦": 8913,
      "åįģäºĮæľĪ": 8914,
      "æ£ł": 8915,
      "ç¿°æŀĹéĻ¢": 8916,
      "çļĦæ´»åĬ¨": 8917,
      "æĲŃéħį": 8918,
      "éĩĮå¥¥": 8919,
      "å¤ªç¥ĸ": 8920,
      "èªīä¸º": 8921,
      "æĴŀåĩ»åĿĳ": 8922,
      "ae": 8923,
      "åľ¨åįĹ": 8924,
      "æĹ¥æĸĩ": 8925,
      "çļĦåīįèº«": 8926,
      "å¾Ĺä¸»": 8927,
      "ä½ľè¯į": 8928,
      "æĻ®ç½Ĺ": 8929,
      "æĤ¼": 8930,
      "çļĦçī¹å¾ģ": 8931,
      "è¿ĽåĨĽ": 8932,
      "åıĤè®®åĳĺ": 8933,
      "æŃ§è§Ĩ": 8934,
      "è¾½å®ģçľģ": 8935,
      "çľŁçļĦ": 8936,
      "åıĭè°Ĭ": 8937,
      "æĹłçº¿çĶµ": 8938,
      "åħ¬ç½²": 8939,
      "è½¦åŀĭ": 8940,
      "ä¸ºé£Ł": 8941,
      "å®ŀä½ĵ": 8942,
      "æİ¥å£¤": 8943,
      "åıĪæľī": 8944,
      "èİ±æĸ¯": 8945,
      "ä¸Ģè·¯": 8946,
      "ä¹ĭåīįçļĦ": 8947,
      "åħ´èµ·": 8948,
      "é²¨": 8949,
      "æŃĩå°Ķ": 8950,
      "èµ·è¯ī": 8951,
      "çĥ¦": 8952,
      "åĸĩåĺĽ": 8953,
      "äº¤åıī": 8954,
      "è¡ĮæĶ¿éķ¿å®ĺ": 8955,
      "text": 8956,
      "å¹´æ¬§æ´²": 8957,
      "å½¬": 8958,
      "çĶµè§ĨåĬ¨çĶ»": 8959,
      "æľĢåĲİçļĦ": 8960,
      "èĤ¡ç¥¨": 8961,
      "è°ĭæĿĢ": 8962,
      "åĬ¨å·¥": 8963,
      "ML": 8964,
      "äºİåĲĮå¹´": 8965,
      "æĿ¡æ¬¾": 8966,
      "éĺ²åį«": 8967,
      "ç»Łæ²»èĢħ": 8968,
      "ä¸ĸçºªæľ«": 8969,
      "åİĤåķĨ": 8970,
      "æĸ¯å¤§": 8971,
      "äºĶä¸ĸ": 8972,
      "çļĦç¤¾ä¼ļ": 8973,
      "éģĹè¿¹": 8974,
      "é«ĺå³°": 8975,
      "æ¨¡çī¹åĦ¿": 8976,
      "å·¥åħļ": 8977,
      "å½±åĵįåĬĽ": 8978,
      "æ¬¡åĪĹè½¦": 8979,
      "çļĦéĩĳ": 8980,
      "ç»ħ": 8981,
      "ç¿¡": 8982,
      "æĺ¯ä¸Ģå®¶": 8983,
      "de": 8984,
      "åĶ±çīĩåħ¬åı¸": 8985,
      "æĺ¯åįĹæŀģæ´²çļĦ": 8986,
      "å¤įåĲĪ": 8987,
      "é¢Į": 8988,
      "æľºç»Ħ": 8989,
      "æŃ£ç»Ł": 8990,
      "æĤ¬æĮĤ": 8991,
      "èĢĮåĲİ": 8992,
      "çļĦä¸Ģåº§åŁİå¸Ĥ": 8993,
      "åħĭéĽ·": 8994,
      "GA": 8995,
      "ä¸įåıĹ": 8996,
      "ä¸ľåİ¿": 8997,
      "å¸¦æĿ¥çļĦ": 8998,
      "ç¯ĩå°ıè¯´": 8999,
      "æĽ²çĽ®": 9000,
      "ä¹¡éģĵ": 9001,
      "çĶµåİĭ": 9002,
      "æĿĢäºº": 9003,
      "PlayStation": 9004,
      "ç©ºè°ĥ": 9005,
      "å¼Ģä¸ļ": 9006,
      "æ¥ł": 9007,
      "è½¬åıĺ": 9008,
      "å¹´æľī": 9009,
      "æĢ»å±Ģ": 9010,
      "åĲĦåľ°çļĦ": 9011,
      "ä¼¦æĸ¯": 9012,
      "ç³»çļĦ": 9013,
      "è´¢ç»ı": 9014,
      "æĢ»åı¸ä»¤": 9015,
      "çļĦç¬¬ä¸Ģä¸ª": 9016,
      "è¯¥çī©ç§įçļĦæ¨¡å¼ıäº§åľ°åľ¨": 9017,
      "æĶ»åħ¥": 9018,
      "æĻ¯è§Ĥ": 9019,
      "illi": 9020,
      "è¿ģå¾Ģ": 9021,
      "æĶ¾å°Ħ": 9022,
      "ç¥ŀç¤¾": 9023,
      "è½¦çļĦ": 9024,
      "èĬĤå¥ı": 9025,
      "æ¸ħåįİå¤§åŃ¦": 9026,
      "äºļåĪ©": 9027,
      "çīĻé½¿": 9028,
      "åĲ¬åĪ°": 9029,
      "çĽĨåľ°": 9030,
      "åıĬåĲİ": 9031,
      "åĬ¨æĢģ": 9032,
      "è°´": 9033,
      "é¢ĨéĺŁ": 9034,
      "åħ¶ä¸ŃçļĦ": 9035,
      "ç¥ŀçĪ¶": 9036,
      "çļĨä¸º": 9037,
      "ä¹Łèĥ½": 9038,
      "è¯¥ç«Ļ": 9039,
      "éļıä¹ĭ": 9040,
      "å¤§åĨĽ": 9041,
      "ãĢĭï¼Īï¼īï¼Į": 9042,
      "æĬķæīĭ": 9043,
      "åĲĮæ²»": 9044,
      "ç¡®ç«ĭ": 9045,
      "æĺ¯ä¸Ģé¢ĹæģĴæĺŁ": 9046,
      "æ¿Ĵ": 9047,
      "åĨ³çŃĸ": 9048,
      "æĶ¯æĮģèĢħ": 9049,
      "éĿ¢ä½ĵ": 9050,
      "ç²īä¸Ŀ": 9051,
      "çĪ±çļĦ": 9052,
      "èįīåİŁ": 9053,
      "ilver": 9054,
      "å¾®åįļ": 9055,
      "å®°çĽ¸": 9056,
      "ance": 9057,
      "enn": 9058,
      "éĩįçĤ¹æĸĩçī©ä¿ĿæĬ¤åįķä½į": 9059,
      "å®¢å®¶": 9060,
      "1906": 9061,
      "å¾Īéļ¾": 9062,
      "æĺŁéĻħ": 9063,
      "ç»įåħ´": 9064,
      "Ã¡": 9065,
      "çļĦçĥŃ": 9066,
      "çľĭæ³ķ": 9067,
      "æ¢¦æĥ³": 9068,
      "æ³ķåŃ¦": 9069,
      "åĩºçĶŁåľ¨": 9070,
      "æµĳ": 9071,
      "ä¸Ĭä¸Ģ": 9072,
      "èĤīé£ŁæĢ§": 9073,
      "å¹¿ä¹ī": 9074,
      "ä¼Ĭå°Ķ": 9075,
      "èĢĥåħ¥": 9076,
      "è¯¥åī§": 9077,
      "åħ¬ç«ĭ": 9078,
      "èĥĥ": 9079,
      "éģĵå¤«": 9080,
      "çłĶç©¶åĳĺ": 9081,
      "Qu": 9082,
      "ï¼Īï¼īãĢģ": 9083,
      "æĹ¥æ²»æĹ¶æľŁ": 9084,
      "æīĢè°ĵçļĦ": 9085,
      "å¤§å¤§": 9086,
      "å¹¶ä¸º": 9087,
      "è¾ŀåİ»": 9088,
      "æĺİæĺ¾çļĦ": 9089,
      "å¤§ä½¿é¦Ĩ": 9090,
      "åŃĺåĤ¨": 9091,
      "åī©ä½Ļ": 9092,
      "åĲĹ": 9093,
      "èĨ¨": 9094,
      "ç§°èµŀ": 9095,
      "è´¹å°Ķ": 9096,
      "ç²ĺ": 9097,
      "çļĦåħ¨": 9098,
      "åı°é£İèŃ¦æĬ¥": 9099,
      "ck": 9100,
      "ç¡Ŀ": 9101,
      "ru": 9102,
      "åħĭåĬ³": 9103,
      "åĵĪä½Ľ": 9104,
      "åįģäºĶå¹´": 9105,
      "æīĵéĢł": 9106,
      "å·®è·Ŀ": 9107,
      "èĿĻ": 9108,
      "çĵ£": 9109,
      "çļĦè¥¿": 9110,
      "ä¸»åĶ±": 9111,
      "ä¼Ĳåħĭ": 9112,
      "çĶŁéķ¿åľ¨": 9113,
      "æ»´": 9114,
      "åįĬå¾Ħ": 9115,
      "çº¦åħĭ": 9116,
      "èĿĻèĿł": 9117,
      "IR": 9118,
      "èĴĤåĪ©äºļ": 9119,
      "åĴĢ": 9120,
      "çĲĨäºĭä¼ļ": 9121,
      "Ġid": 9122,
      "å¤§èģĶçĽŁ": 9123,
      "ç§ĳç½Ĺ": 9124,
      "è°ĥèĬĤ": 9125,
      "ll": 9126,
      "æĿı": 9127,
      "å¯ħ": 9128,
      "è¿ĻæĿ¡": 9129,
      "ç½ķè§ģ": 9130,
      "ä¹ĺåĿĲ": 9131,
      "ä¹ŀ": 9132,
      "ç±»åĪ«": 9133,
      "1907": 9134,
      "EP": 9135,
      "å¹´ä¸º": 9136,
      "æ°Ľ": 9137,
      "CO": 9138,
      "çļĦèº«ä»½": 9139,
      "èµ¦": 9140,
      "çļĦæ¯ĶèµĽ": 9141,
      "å©ļç¤¼": 9142,
      "af": 9143,
      "è´¨çļĦ": 9144,
      "åĪĨäº«": 9145,
      "æĬ¤çħ§": 9146,
      "æĴŃåĩºçļĦ": 9147,
      "ä¹Įæĭī": 9148,
      "æľºåĻ¨äºº": 9149,
      "çĩ¥": 9150,
      "åľºåĲĪ": 9151,
      "äº¦ä¸º": 9152,
      "ç¾İæľ¯é¦Ĩ": 9153,
      "ä¸ģåł¡": 9154,
      "å¨ģå°¼æĸ¯": 9155,
      "æľīä¸ī": 9156,
      "åŃĹç¬¦": 9157,
      "æŃ»åİ»": 9158,
      "æĪĪå°Ķ": 9159,
      "çŁ¥åĲįçļĦ": 9160,
      "æĹ¶éĹ´çļĦ": 9161,
      "âĪ": 9162,
      "ä¸´åºĬ": 9163,
      "å±ĭé¡¶": 9164,
      "ä»ªåĻ¨": 9165,
      "color": 9166,
      "èĢ¶å¤«": 9167,
      "æĸĩçļĦ": 9168,
      "oft": 9169,
      "æ´ªæ°´": 9170,
      "æĭīèĲ¨": 9171,
      "å¤§äºİ": 9172,
      "è¿Ļä¹Ł": 9173,
      "åŀĭæľºè½¦": 9174,
      "å°ģéĶģ": 9175,
      "åħīç»ªäºĮåįģ": 9176,
      "1908": 9177,
      "éħ±": 9178,
      "éĽĨä¼ļ": 9179,
      "ica": 9180,
      "éª¤": 9181,
      "åı¤èĢģçļĦ": 9182,
      "å°Ĭéĩį": 9183,
      "æ¹Ľ": 9184,
      "åĵĪéĩĮ": 9185,
      "å´ĩæĭľ": 9186,
      "æĢ»æĺ¯": 9187,
      "çĦ°": 9188,
      "ps": 9189,
      "çļĦç¬¬ä¸ī": 9190,
      "çĽ¸å¯¹äºİ": 9191,
      "äº¦åı¯": 9192,
      "æĶ¹ç»Ħ": 9193,
      "å¤§çĲĨ": 9194,
      "å¾Ĺç¥¨": 9195,
      "ä¿±": 9196,
      "åıĪè¢«": 9197,
      "å®ĭæľĿ": 9198,
      "å±±é¡¶": 9199,
      "ä¹ĭç§°": 9200,
      "æĶ¾ç½®": 9201,
      "æĥĳ": 9202,
      "å°ģéĿ¢": 9203,
      "è¿ĺåĮħæĭ¬": 9204,
      "å¥³æĢ§ä¸º": 9205,
      "æĸ¯åĽ¾": 9206,
      "å¢ĥåĨħçļĦ": 9207,
      "è¡Ģæ¶²": 9208,
      "åĺīå®¾": 9209,
      "åĲĵ": 9210,
      "èĪªç©ºæ¯įèĪ°": 9211,
      "çī©çĲĨåŃ¦å®¶": 9212,
      "éĺ¿å°Ķå·´å°¼äºļ": 9213,
      "åĨ²ç»³": 9214,
      "è¡¥ç»Ļ": 9215,
      "æ³½å°Ķ": 9216,
      "çĳ°": 9217,
      "æ´»åĬ¨çļĦ": 9218,
      "åĨľæĿĳå±ħæ°ĳçĤ¹": 9219,
      "çī¢": 9220,
      "èĲ¥åħ»": 9221,
      "ve": 9222,
      "çļĦé©¬": 9223,
      "ä¸Ńåľº": 9224,
      "æĻ®æŀĹ": 9225,
      "åĵįåºĶ": 9226,
      "Le": 9227,
      "è·¯åĨĽ": 9228,
      "Ġ0": 9229,
      "ç¦¹": 9230,
      "é¹ĥ": 9231,
      "æľĪä»½": 9232,
      "æŁĵèī²": 9233,
      "ç¿¡ç¿ł": 9234,
      "äºļå½ĵ": 9235,
      "çļĦä½ľçĶ¨": 9236,
      "è¿Ļé¦ĸæŃĮ": 9237,
      "æŀģå¤§": 9238,
      "äº«æľī": 9239,
      "çĶ²ç»Ħ": 9240,
      "ç£ħ": 9241,
      "Ðµ": 9242,
      "å½ķå½±å¸¦": 9243,
      "å°Ĩä»ĸ": 9244,
      "åłµ": 9245,
      "ï¼Į\"": 9246,
      "è¯¸å¤ļ": 9247,
      "Ġcolspan": 9248,
      "æŃ£è§Ħ": 9249,
      "å¤±åİ»äºĨ": 9250,
      "æĸĩéĿ©": 9251,
      "æĽ´æĶ¹": 9252,
      "ky": 9253,
      "çī¹å®ļçļĦ": 9254,
      "åı¯åĪĨä¸º": 9255,
      "äºīè®º": 9256,
      "å±±èĦīçļĦä¸Ģéĥ¨åĪĨ": 9257,
      "co": 9258,
      "æĸ¯èĴĤ": 9259,
      "æł¡èĪį": 9260,
      "æĶ¿ä½¿": 9261,
      "éĽ¶åĶ®": 9262,
      "åħīè°±": 9263,
      "æĴŃæĺł": 9264,
      "ä¼įå¾·": 9265,
      "æĶ¹ç¼ĸèĩª": 9266,
      "å¹´çĲĥåŃ£": 9267,
      "äºļçĥŃå¸¦": 9268,
      "æľīå¾Īå¤ļ": 9269,
      "é»ı": 9270,
      "è´Ŀæł¼": 9271,
      "å´ĩç¥¯": 9272,
      "ä¼łæķĻå£«": 9273,
      "å¤ļä¼¦å¤ļ": 9274,
      "ä¼ļç¤¾": 9275,
      "åįĹä¸ĭ": 9276,
      "å§Ķåĳĺä¼ļçļĦ": 9277,
      "cl": 9278,
      "ä¸īçº§": 9279,
      "èĩªä¸»": 9280,
      "ress": 9281,
      "ä¸Ģåıª": 9282,
      "è¾©è®º": 9283,
      "åı¯éĿł": 9284,
      "é«ĺåľ°": 9285,
      "åŃ¦åłĤ": 9286,
      "å¤§åŃ¦çĶŁ": 9287,
      "æĶ¿æ²»å±Ģ": 9288,
      "ä¸ĢåįĬ": 9289,
      "çĻ¾å¹´": 9290,
      "AV": 9291,
      "äººæĸĩ": 9292,
      "ä¸ĸçķĮçļĦ": 9293,
      "é¥²": 9294,
      "åĨ¶": 9295,
      "æľ¬æ¬¡": 9296,
      "è¿ĩåº¦": 9297,
      "å¹²æī°": 9298,
      "åŃ¦æł¡çļĦ": 9299,
      "æĳĺ": 9300,
      "orld": 9301,
      "350": 9302,
      "åĬ¨è¯į": 9303,
      "åħ¶éĹ´": 9304,
      "æ²§": 9305,
      "æ©Ļ": 9306,
      "ãĢįï¼ī": 9307,
      "æķĻå¯¼": 9308,
      "çİ«": 9309,
      "æĥħå½¢": 9310,
      "åįİä¸ľ": 9311,
      "ä¼ļè®®ä¸Ĭ": 9312,
      "çļĦåĲĮæĹ¶": 9313,
      "ãĤĵ": 9314,
      "æļĤåģľ": 9315,
      "çļĦè¿ĩç¨ĭ": 9316,
      "æ§Ł": 9317,
      "äººæīĢ": 9318,
      "ä¸įè®º": 9319,
      "è¯¸ä¾¯": 9320,
      "å¼ºå¤§": 9321,
      "åĩłåĨħäºļ": 9322,
      "æĸ¹å½¢": 9323,
      "ç§ĳçłĶ": 9324,
      "åĴĮç¾İåĽ½": 9325,
      "éĺ¿å§Ĩ": 9326,
      "åıĪè¯ĳ": 9327,
      "åĨĽæĸ¹": 9328,
      "è¿Ļä½į": 9329,
      "é¢Ħå®ļ": 9330,
      "å»ºç«ĭçļĦ": 9331,
      "æĹ¥åĩĮæĻ¨": 9332,
      "ä½ĵéªĮ": 9333,
      "æł¡åıĭ": 9334,
      "æ·¹": 9335,
      "æĽ¾æľī": 9336,
      "è§Ħæł¼": 9337,
      "éĺŁåľ¨": 9338,
      "æĿĥå¨ģ": 9339,
      "å½ĵæĻļ": 9340,
      "åı¯èĥ½æĢ§": 9341,
      "å·´å¸ĥ": 9342,
      "èĮ¨åŁº": 9343,
      "å®ļä¹īä¸º": 9344,
      "ree": 9345,
      "SP": 9346,
      "ç¼Ĩ": 9347,
      "æľīäººåı£": 9348,
      "åĮĹç¾İæ´²": 9349,
      "åĪĨå¸ĥäºİåįĹç¾İæ´²": 9350,
      "åĨ¥": 9351,
      "ä¸Ģåįĥ": 9352,
      "éĢīæĭĶ": 9353,
      "ç¬¬ä¸Ģéĥ¨": 9354,
      "own": 9355,
      "éĢĥäº¡": 9356,
      "åįİè¯Ń": 9357,
      "æ£į": 9358,
      "éĩİçĶŁ": 9359,
      "ä½¿ä»ĸ": 9360,
      "çĻ¾è´§": 9361,
      "çªŁ": 9362,
      "æ±ģ": 9363,
      "row": 9364,
      "ä¸įåı¯èĥ½": 9365,
      "é²Ī": 9366,
      "åĻ¨å®ĺ": 9367,
      "æĢ»éĥ¨ä½įäºİ": 9368,
      "çººç»ĩ": 9369,
      "æĮĩæłĩ": 9370,
      "çģ«åĬĽ": 9371,
      "åĮĹä¼Ĳ": 9372,
      "1904": 9373,
      "ç¼Ģ": 9374,
      "ä¸Ĭä»»": 9375,
      "åĩºåħµ": 9376,
      "æĸ¯éĩĮ": 9377,
      "å¸¸è§Ħ": 9378,
      "è®¯åı·": 9379,
      "åıĪåĲįBD": 9380,
      "çļĦåŃĺåľ¨": 9381,
      "åŃľ": 9382,
      "è¿ŀåĲĮ": 9383,
      "å°ĳæķ°æ°ĳæĹı": 9384,
      "ä»ĸå°Ĩ": 9385,
      "é¦Ļæ¸¯æĶ¿åºľ": 9386,
      "æİ¨åĩºäºĨ": 9387,
      "çĶµç£ģ": 9388,
      "äº®çĽ¸": 9389,
      "çīĽæ´¥": 9390,
      "èĲ¨åħĭæ£®": 9391,
      "æĪĲåĮĸ": 9392,
      "è½¦ä½ĵ": 9393,
      "CN": 9394,
      "ç»Īèº«": 9395,
      "ä¸Ńä¸ľ": 9396,
      "ç¤¾äº¤": 9397,
      "ä¸Ńä»¥": 9398,
      "åħ¬è½¦": 9399,
      "æ¬¡åŃĲ": 9400,
      "æ³ķå¸Ī": 9401,
      "è°ķ": 9402,
      "æĹıèĩªæ²»åĮº": 9403,
      "çªĥ": 9404,
      "çľŁäºº": 9405,
      "èī¯å¥½çļĦ": 9406,
      "çļĦè¡¨çİ°": 9407,
      "çīĩæ®µ": 9408,
      "çīĪæĿĥ": 9409,
      "æĩĤ": 9410,
      "å¹¶æĪĲä¸º": 9411,
      "æ¸ħåĨĽ": 9412,
      "èįĥæ¹¾": 9413,
      "äººè®¤ä¸º": 9414,
      "çķ¿": 9415,
      "èĤĨ": 9416,
      "Ġå¹´": 9417,
      "ä¸ŃæīĢ": 9418,
      "çºĤ": 9419,
      "åīįçº¿": 9420,
      "è¯ºæĸ¯": 9421,
      "ãĢĭãĢĬ": 9422,
      "ãĢĢãĢĢ": 9423,
      "çĽ´å±ŀ": 9424,
      "ä¸¹å°¼": 9425,
      "æŃ¤åīį": 9426,
      "ä½ĵçİ°": 9427,
      "éĽĨç»ĵ": 9428,
      "åıĳçĶµåİĤ": 9429,
      "Ġ12": 9430,
      "ä¸ºåĲį": 9431,
      "ä¹Ŀå·ŀ": 9432,
      "å¸Īéķ¿": 9433,
      "æľĢç»Īåľ¨": 9434,
      "æ¡Ĩæŀ¶": 9435,
      "çļĦåĬŁèĥ½": 9436,
      "èĢĮå¾ĹåĲį": 9437,
      "åħĪåīį": 9438,
      "åįĹæĸ¯æĭīå¤«": 9439,
      "éĺĲ": 9440,
      "å·²åľ¨": 9441,
      "ç´¢å°¼": 9442,
      "èĬ½": 9443,
      "åħ¶ä¸Ńæľī": 9444,
      "è¥¿åĮº": 9445,
      "äºİé¦Ļæ¸¯": 9446,
      "éĤ¸": 9447,
      "å°ıè¡ĮæĺŁåĪĹè¡¨": 9448,
      "åįģä¸ĢæľĪ": 9449,
      "æ¼«çĶ»å®¶": 9450,
      "æĬĢèĥ½": 9451,
      "åħĭæĸ¯åĿ¦": 9452,
      "åĬłåĭĴæ¯Ķ": 9453,
      "çİĭåĲİ": 9454,
      "ä¸ĵçº¿": 9455,
      "é£İéĢŁ": 9456,
      "å¸ĥå±Ģ": 9457,
      "å¤´è¡Ķ": 9458,
      "ç»Ļä»ĸ": 9459,
      "å¥¹æĺ¯": 9460,
      "éĩįä¿®": 9461,
      "çº½è¥¿åħ°": 9462,
      "æĶ¿å§Ķ": 9463,
      "GB": 9464,
      "åī¿": 9465,
      "åºĶå½ĵ": 9466,
      "org": 9467,
      "å¸¦å°ıè¡ĮæĺŁ": 9468,
      "è¿ĽçĲĥ": 9469,
      "çĶ·äºº": 9470,
      "åĪĬçĻ»": 9471,
      "å¹´åĬłåħ¥": 9472,
      "åīįèº«ä¸º": 9473,
      "åľ¨ç¬¬": 9474,
      "æĪİ": 9475,
      "ä¸»äºº": 9476,
      "çº³å·ŀ": 9477,
[...]
